000000AD
FFFFFF17
00000020
FFFFFE58
000000C4
0000001D
FFFFFF1A
FFFFFF11
000000EC
FFFFFEE7
FFFFFFA3
FFFFFED3
00000083
000000B2
FFFFFFC9
00000089
00000107
000000F5
FFFFFF32
FFFFFEC4
FFFFFF86
FFFFFFDD
FFFFFFB5
00000095
00000092
FFFFFF1B
0000009B
000000CD
FFFFFEF1
0000005C
FFFFFFC8
FFFFFFA4
FFFFFFF2
FFFFFEB8
FFFFFFF8
FFFFFF64
000000E5
00000001
FFFFFFFF
FFFFFEA4
FFFFFF96
0000002D
00000066
FFFFFF01
FFFFFF6C
FFFFFECA
FFFFFFD9
FFFFFFDA
00000101
FFFFFEAC
000000E8
FFFFFF9E
FFFFFF0C
FFFFFE8F
0000009A
FFFFFEDC
FFFFFDCF
FFFFFF65
FFFFFFCC
FFFFFE94
0000028E
FFFFFFAF
FFFFFF86
FFFFFFC9
00000000
000000CC
FFFFFECA
FFFFFFD0
00000039
FFFFFFA0
FFFFFF72
00000058
00000000
FFFFFF83
0000019E
00000066
0000000A
FFFFFEE8
FFFFFF64
FFFFFF98
FFFFFE80
FFFFFE96
FFFFFF57
00000021
00000138
FFFFFF35
FFFFFFBD
FFFFFFD8
0000002F
000000D0
FFFFFF5D
FFFFFFAC
000000EF
00000105
00000050
FFFFFFBD
