0BE32
2BE00
2BE30
0A0CC
263C0
0AFCC
3C32A
2A30F
2A32F
2002A
00FE0
22FC2
03FC6
223F8
28338
0233B
30AC7
338EB
0B0CC
082CC
0A202
23332
20302
2030E
0EB8C
0E38C
2CBAC
0AC0C
28AAA
33EC0
33E22
0BE28
00E00
300C0
30FF0
00808
0E33C
228AA
0FB0C
0EB2F
0EB8E
0EB8C
2E383
0EF72
3EF72
0088A
3FFFF
08AA8
0328C
0FAA2
3F20E
2F36F
0EF7E
0CF4E
3F288
0CE8C
20A83
28A20
00080
3CFCC
0A00F
0A0FF
2220C
0F30A
20308
00038
00EB2
03EB2
23CB2
08E00
08ECC
0B22C
03A8C
008BF
0208C
0CAAC
2CA8C
3F88C
2C88C
0E8AE
3FB8C
0AFC8
2AF38
2AF0B
00000
03200
00000
08CC8
0B2C8
08EFB
3A0FB
0A0F8
3A008
3B188
33EF3
03130
3EACB
3280B
328CB
2230C
2AB0F
2A30C
25F3F
3F0E8
3F026
2933F
03008
3F3E6
22F33
00088
0F88B
2A888
3CFFF
00888
08EC0
0B2E3
03AE0
2AA28
00300
0CF02
1A3FF
283CA
3FFE9
2EBAC
2E38E
2CBAC
0FBB4
2CBB7
2C3BB
0800C
3A00E
3002C
22B3E
2F7E0
2F7E3
28A00
08000
00FCC
2308C
0028C
0008E
3FE2A
0FE2A
03EE2
0FB88
0EBB8
2CBBB
00203
20208
03CC3
0C7FE
2C7EC
0C7CE
3F02A
0F00A
0C00A
0A82A
003E2
0CFCC
08C0C
0AC0F
2800C
0AEC0
08E00
330EA
0C080
22382
20080
0B23F
28A3C
00C3F
0F4EC
234EF
008EE
3FE8B
0CC88
2C28B
088AC
0AF8F
0A00C
3B1CC
3B1CC
3BD0C
3F22A
03200
02230
3FE2A
0312A
03EC0
3EBAB
3EBAB
3E82B
02888
3C3FF
00A8A
02FBF
00888
0FA2B
2B202
0880C
0833C
2C3A8
2EF00
2E300
0C00A
0CFF3
2AAA8
0000B
0C308
3C008
3F3AA
0CBA2
2C300
323C0
2AA2A
38FF3
0EBEE
207EF
0C7EC
00CBE
03E8A
03E82
20FF4
023F7
00FC4
38C2E
0AC2F
2A00F
38AC3
30AEB
00AE3
03BE2
203CE
2A03C
2AAAA
303F3
0CFC0
32FA0
32F4E
3EF4E
03A8C
03A0C
00A8E
083E2
2A822
0A3CC
2820B
0A2F3
38CC0
082AA
3FCCF
0828B
3AFE8
06FCB
0AFC8
008F8
238EB
237E3
00EBE
03EB8
30EB2
02F3F
00A22
03A2C
0BFE4
2AFFB
2AFF8
2AFFB
28F3A
33F26
00ACC
03AE3
008E0
3FEE2
30EE2
002EC
38F2A
0AF08
28FE0
0AEFC
38120
3B20C
02F3F
0328A
03A08
03280
0320C
0020C
