000000D9
00000034
FFFFFFF1
000000AB
FFFFFFFA
00000007
00000056
00000027
0000007C
0000005B
00000089
00000071
0000004D
0000007F
00000056
FFFFFFD7
00000032
FFFFFFCE
00000003
0000007A
0000001E
00000076
00000010
00000038
00000017
FFFFFFF2
0000009D
00000074
00000034
FFFFFFFB
00000010
0000002E
00000043
00000084
0000003D
0000004F
0000003A
000000E8
00000007
00000064
00000028
0000006B
00000045
0000006C
00000022
00000050
0000004F
00000079
000000A9
00000083
00000063
000000C3
00000021
FFFFFFDB
00000071
000000B0
000000B5
FFFFFFEE
00000074
00000083
00000033
00000092
000000B4
00000022
00000090
00000056
000000C3
FFFFFFF7
00000035
0000002C
000000D4
00000057
000000A5
000000A7
0000000D
000000F2
00000010
0000005D
000000CD
00000047
00000079
00000029
00000046
0000002E
0000003D
00000085
0000009E
FFFFFFDF
00000040
0000001B
0000000A
FFFFFFF3
000000A4
0000008F
00000005
00000079
00000076
00000092
0000003B
000000C3
00000071
0000006D
00000039
00000048
00000081
FFFFFFD5
00000003
0000002A
00000055
0000001F
FFFFFFF8
00000086
00000074
FFFFFFE6
0000004A
0000001B
00000034
00000077
000000B7
0000003B
000000E2
0000005A
0000000D
00000054
0000009D
00000025
0000008F
000000CD
00000069
00000069
FFFFFFEF
0000002D
00000103
0000005E
00000140
00000023
00000047
00000054
0000007D
0000009D
0000000F
00000095
00000089
00000148
000000EB
0000002F
00000063
00000069
0000007E
00000008
00000093
000000CB
00000082
00000023
00000063
00000055
FFFFFFC4
00000000
0000005F
00000082
00000022
00000096
00000021
FFFFFFF6
00000039
0000007F
000000A7
0000012A
0000004B
0000000F
00000017
00000038
00000019
00000058
00000019
0000006A
00000048
0000000F
00000022
000000AA
000000FA
FFFFFFE4
00000068
0000000C
00000090
00000065
00000089
000000AF
0000003C
0000004D
00000083
0000003C
