38222
03B30
0C0E3
30BB0
0C383
03CC0
3BC02
3300B
22F08
3280B
08EF8
3F303
0AE33
3E002
3A3EC
2C3C2
22E03
2BF00
3E83F
30A2F
0E233
200F3
0C80C
08883
08B83
02233
0FFB0
0380E
2E8C8
202EA
2A0CE
2C00C
22FC0
30AF8
03EA2
30C2E
23220
30B80
33C0E
0200A
0038A
0BF3E
00E03
22AEE
2E322
0AA83
202CB
0A0AC
30B2F
3FB28
2BEEC
303E0
0AC28
3BF0E
3AC83
0CA20
2C0C8
0C80B
2AC08
0A330
2C483
2000C
30B88
02F08
0C38A
0EFCC
32802
0CB3F
33EC0
0200B
30E02
2B80C
220BF
323EF
3ABA2
3FEDF
3CA03
2BAF3
2FE08
2EF33
3E032
03330
32FFC
22C0A
0E022
002E3
0CB2A
2C8AC
3AA3C
2E2E0
0A8CF
23A8F
0AABC
2CF0B
2A2E0
03BB2
0088E
0232C
00B32
283CE
00200
38E2C
3CCC0
3C8CC
00CC3
0BC3E
2B83C
2CF3C
3C3A2
3AB22
32B0E
020AE
0C2C2
222A3
2ABAC
3B32E
3B0C3
32233
30828
33888
332CB
2F8AA
3C323
22232
0A3F3
2023C
0332C
0E02E
00EC0
320C2
2FC2A
3BBA0
333B3
03ABF
0BFC2
0A0CE
230AE
2BEF0
0F0C8
202A8
3E8C2
2AAEA
2EB30
2CC20
3220B
3FB8C
280F8
0B0E0
0A0C8
0BAC8
3C0AB
0A28C
2B2AE
0AE20
0F3DB
2BBBE
2CEA8
30EBB
0C3E3
30F32
33E8E
2282E
202FC
3CF32
03CA0
30A82
2CFFC
2B800
0C2A2
2CC3F
0FE38
00232
288AC
30A33
02330
322B2
0AB02
2B8E8
0002B
0E8AF
2C0EC
2320A
0B2A0
38C0E
00088
0BEBC
02EE0
20CC0
22B3A
0B022
28AB2
038E0
3AE00
38CBE
20683
3BC83
03A0C
0CF3F
3CE2C
20332
028F8
00C03
0F08E
020F0
02CBF
0EF20
08E3C
3BC30
38A83
322CB
22AB0
300F2
3FA80
0FBCE
008B8
02B30
3200C
3300C
2E033
02030
0C2E0
3B0C3
282EB
38F22
2BEEA
2A8A8
0EB88
20AC3
020B0
30A0A
3AECC
00FB2
3BB23
20B0E
288E8
28F0E
2CAF8
208CD
38382
0FCA8
28CBA
20ECB
20038
0AFC8
0CA0F
222C3
3CEC8
3AF33
3CC30
282F0
2F3B2
30C8B
20BC8
080E2
00FCC
3ECE3
0C03E
00203
28F0E
0CFEF
0A0B3
28B2E
3FA23
0CBBC
2F0AC
22F32
2A88C
33803
0E23A
23F88
2080B
08EF2
3F8E3
032B0
230AA
3A8FA
0BCBC
2B3AC
03A0E
08ACE
0E2BC
3BBEF
28823
220A2
3A9E2
0FA3F
38CAC
230BB
02203
0FA8A
34E38
2CE32
0E8CC
223FB
3BEEB
3EE00
0EF2B
0B0C0
1BEBA
032AF
00E0F
2CB2F
0A008
38000
02030
3E33C
30FBC
32882
0C82E
230EC
2BE2A
2A008
32C0C
08A83
02C03
0EE80
0AEEC
28E08
0828A
0E0A0
3A8A2
2BF0C
3030B
223CE
3ACBF
28C3F
20B00
0B08A
30B00
2B2B8
2E23B
02C0E
3382A
38FAA
0FF00
22B38
0B280
33CA8
30808
3802C
083CA
32F80
23A0A
00EF8
0832E
330A3
0BF3C
0203E
032A0
23CAE
2EB03
2F222
220F2
23AA8
20282
03E0A
2CCAB
0A2B3
00AA3
3CEC2
20B82
2ABF8
208CE
3E0A2
0230C
000BA
2EAC0
0BC00
3A0E8
3008C
3CE2C
02B3A
3BC3B
30323
0C28B
028B8
22A8C
2CFE2
00BFC
0BF20
3CAB3
2023B
0EEA0
20338
30E8C
3C8CF
00AB0
322A0
3802C
33E0B
0EC2E
2FE0C
0F03C
0EE2C
32B3C
20EB0
0A820
38EFA
3AB00
0BE03
08AC0
03AE0
0028C
08FEF
0ABFC
3B3BB
0BEA3
03C0C
2080F
3208E
1BEBC
2B03F
28A0E
0FAB2
03080
0AAAA
2EF88
02EFB
2C32A
3BFF2
3BCBB
2F302
2B3B0
0BEA0
320CA
232AA
0B030
08F02
03AA8
00C8C
00A28
0FA8B
2EFFA
20E0F
2ABCC
0B827
08280
20E23
0ABF2
30808
2C20B
28CB2
2B002
3C3FC
22B8B
0B0CE
0A08A
0ACC0
28C30
2BCAC
00A30
00A8E
0F800
3888F
380E8
0C8AC
3CAF8
2280F
38B2B
30C6A
2CEF3
38233
38A8E
22823
3FEFE
2A0CA
3FAC8
2A2FB
0AE8B
0A2C0
00200
03303
00ABF
23FE2
2ECE2
38A9F
0220A
338B2
3E3F0
2C2B0
20BAC
048EC
0FA32
2FAAB
22B88
0E3C8
2823A
22E82
3E3AF
3F22A
0A300
00CC2
38EE0
38F3C
3CF03
2AAB0
382B2
03C22
2BFEC
288C3
3EC32
22233
2E3EF
2023C
0B230
222BE
2223C
30AFB
3CE83
33AA8
0CF0D
0B30B
220EA
338EF
2CECF
00E2E
00EC0
2EA88
0B0A3
03CBF
022BC
28302
0A38E
2829A
08FF3
032FC
2B880
2FAEF
2E028
2CBB2
2288F
081C0
0C822
2CF38
28F32
2FB8C
03338
30EAA
02830
28A2E
08C20
3F3AB
30803
028FA
3FFCF
0C800
3C03F
32AB0
3280E
222FE
3C0FA
0CEA3
033F0
20C88
08200
3B0E2
2CFE8
02ABF
002B2
00320
0BFAA
3AA83
0C222
00B30
0EB32
03EA0
2C8A0
00800
0FA8A
23C88
0C828
33BE8
20E8B
033B8
0C02F
0CE02
02F08
0CEE2
0AE22
03F8C
0CFB3
28208
38EFE
0CBCE
2AFBC
2CFC3
2CB82
0A0F3
2C22C
0EE00
0B008
02A0C
2AF2C
008E0
38EBB
00028
0F80E
20EE2
303E8
03B0C
0CCCF
00C02
3FA98
0B30A
28E02
0E802
28FFB
03A0F
0F22F
08FBC
0AC3C
3C8A8
3F023
0B80B
2B000
2A202
0B80A
0032E
0ACEC
2A8FE
232B8
08C0A
0B00F
28CB3
3A042
0BAB2
3AC08
2800E
2C03F
32AB8
2280B
22282
2BC03
0EF00
00338
0F88B
3F33A
20C82
0B82F
38000
00E22
200C8
33B80
32E0E
00EB0
3E32B
0A888
0E00B
2CF00
22082
08220
00B2A
20FAC
3CECC
28E0B
0AEB0
30800
3C083
0003A
03080
00CAC
38800
3CC33
0202B
0E08E
2CBA2
00208
2CC08
00C30
23EFC
200B2
0BB8A
0A022
38A3E
22A0A
3B022
08CE2
0208A
30BC3
3A3C3
0BC32
20283
22003
08E03
02003
3E3BA
30FB3
0000C
22EE0
0C08B
0C02F
23830
23C08
24000
3038A
08C0E
0B88B
3C823
0C00B
028BC
20A02
2F0B2
0E028
20F0A
0AF08
0CAE8
0C0E2
0CF3E
30F38
0CCA3
302A3
28E02
30823
0FFEC
00BFC
22002
03033
3202E
08F2F
080AB
0EA03
228E3
2EC08
02828
3C000
202BA
0BF23
082CA
38220
02FE3
002FA
0830E
33F20
003F2
22020
03882
028EE
2208F
2FEA2
308E0
08B88
33E38
0A882
238AB
0AEF8
2F3A0
23A2C
000BA
22020
200C2
202A0
00E80
38080
0AA0F
3BEB3
080A3
32FBF
30228
2FBBC
3B0FF
0030C
0E22A
32A33
32082
02F0C
0EAFC
2B80B
302BB
2E833
23370
0A2CC
03E30
3CEFF
00B80
2BF8A
33ABF
32FCE
2EF8E
2BC00
2300A
00EB3
23023
20BC0
3088A
32020
00EC2
00F4A
3AC00
3A203
00800
00ABA
28C2A
2323A
28232
080AC
00C02
08A00
2FF8B
3EAC3
02F83
3CEAB
00F02
30E3A
3FC0C
2E288
00E83
200B0
00F8C
3083C
03330
30A80
082C8
0C2BA
2E382
0F280
0FB3F
008BA
2022F
2ABFE
2082F
03003
0FE0A
30B2C
33882
0A8EA
0EE83
00CAB
3A20A
003CC
08A0C
23BA0
3B8C0
2A2B8
3AFB2
03288
0B8BC
03A28
0AF8C
0C023
0AECE
2B82C
2CCE3
2ACFB
22200
022E2
2B02E
0AA3C
00B2C
20C0B
30FF0
2BC82
2A030
2FB33
00FAC
30000
00CEB
3A3FF
00C2A
22C00
00E2B
3172A
00A83
08281
2AA20
2A2FA
0C220
238CC
3AF32
3402F
33A08
02E3A
283A3
30FBA
2EEFA
0FA28
3C28F
32ECE
38E3E
3CC38
3AECA
2BCAF
28BF0
3882B
2AE3E
30B0E
0E2C2
088CC
2BBBE
3B0FC
28000
0822A
3283C
0BAA0
2BC03
338E0
2EE8A
30C2F
2A03B
32033
0C232
0880C
3C200
002C3
02FFE
228E2
30AEF
3A33C
3C2B0
0E30E
33CC0
23B20
38F0C
030FB
20AB0
2E3A0
22BEB
0AB0A
002AC
202EF
30222
38F0B
2AFBC
0C283
0808F
00E3A
22A0E
38B2C
23E23
20083
0008F
32A38
23C00
0E8CF
08A0E
32A00
0AFB2
0EE3C
3E8F0
3CF23
0BEA2
3C338
08C00
083E2
0FC20
22ABC
00EAE
3FE20
3ECE2
28C8C
00AAA
2B328
08883
2028F
02E00
03008
3F238
0FE0A
23CAC
082AA
2F202
0CF8F
00222
2F228
08C38
00F2A
38C2B
38C08
20383
3BC83
20E80
2F3B0
2EBE2
300E0
32838
28C03
08ACC
02328
0F030
2FE8C
2EA2C
2B32A
338A0
03BCA
00888
0FE02
0F23A
032CF
0AC20
008F2
088EF
33F03
02888
2B8C8
30282
2202E
3F8EB
03CB2
28E02
30C88
38222
30FA3
03823
08E08
338AF
2CE0A
2A38B
2FAFA
080B3
22BAA
080B8
30AE0
28FEF
38830
28883
0B32A
320FB
20BE2
30BAC
202BB
00A0E
0E329
3BEB8
2FA8E
20003
2F0F3
2BB30
00E8C
2FB28
323E8
20A2E
33208
00EF3
22AC0
28E38
03EB3
3BAFF
0ECCB
3EC3E
3CF2B
0A80E
3BBA8
32228
22C0A
2A8BE
0AACB
2E2CA
3E220
203F8
2AE38
23A82
2E3EC
02B8C
28200
20F2B
02000
328AE
3C83E
3FCE0
3280E
22A30
0B800
0CA3F
020FC
28F00
0FC12
2E233
2E08B
30202
2CC30
00A8E
33F2E
0800A
0BE39
0A3C0
00EE3
2F0E3
2FE88
2E3F8
20F08
0B030
2BB20
2208A
00CAF
0D80E
03BC8
082B3
0A082
02C03
3CB3E
2E328
2B333
28B0A
2C0C8
3B0FA
20280
3EAF0
08AAE
2C280
3B83F
0882B
33303
3BAAB
2CABC
332C8
0330A
00CBF
082C0
33AAA
09223
3E030
08BE8
30232
0280B
20CB3
0A22F
2CFA0
3B03B
002B2
2282C
02BEB
2A3BB
28CC3
3EB0C
3E3AE
000EB
28CC8
2FA20
08C82
3B8AA
08E03
0B8C0
2EEE8
038B3
2C20B
0A08A
20B0F
00CBF
03B22
20838
00FE2
223E3
3AEB0
3ABFC
2023C
31E0B
28BF8
0B8B3
2CEB3
0C0FC
328B2
3BEA2
2EC0C
0CA30
32DB8
2ECFC
0CCB8
38C38
323F2
20C2A
33888
0020F
0EBC3
2E00B
38330
2BC2C
32A8C
323FA
2A2E3
2AA2B
0700C
2BAF8
22A0A
0F3EC
0ECC8
022CA
0008B
3E903
33A0E
020FB
0BC80
0AEA2
08BE0
083C2
2308B
0BECE
0A302
3E8B3
0820B
23CFB
332C0
2C80C
0B032
30ABE
0A222
02EBC
3F30A
30EA3
03EE0
20C32
0CA30
382AA
2C0CB
32003
00883
2BCA0
032AF
2EFCC
2C08F
0FF0B
22E3F
08E3A
3B03E
33888
00BA8
30ECB
00838
3AC03
0E0AA
323CA
0F3C8
08302
20CB8
000EE
3ACF2
3CCFF
28E80
00CAF
00020
0232B
0B3C3
2BB33
2FAB0
0FEEB
0220C
08FC3
00B83
2EBA0
03083
2E0C2
02328
3E02E
0A208
03C08
2F28A
23282
2F3FF
00008
33B2E
3BA80
0233F
020A2
3808C
0B0EE
22803
23BAF
2E0EE
2828A
2BA00
08E22
3C0A8
28233
282AE
28F2E
0A882
0BF88
322CE
32288
000A8
38282
20ACF
38E3F
0BE2C
22F8C
3F21A
03BFC
3E0F8
2F328
20082
3AEF8
2E2BC
3E023
0A03F
3A0C2
339FB
0E0C8
20B83
22020
3080E
3F03C
00C3A
0CC80
00008
0A02B
30883
38328
3F2E0
2200B
0AF80
3FCA2
2200E
0BB0A
0A88B
008F3
0CC80
0C280
288A3
28BC8
32000
00A80
00380
032F0
00083
00F88
2CE02
0C80F
28C0E
0CF00
203F0
08C2B
000C0
2300B
28808
028B3
0C308
228C0
32888
00A00
0C082
28200
0E200
0CAEA
3F30C
00080
03BA8
02B80
30888
2EAE0
3A0BB
0BAE0
0BA2E
2EB87
22C2F
1F88A
088E2
30B2C
2230A
28ACE
20A08
00E2C
3C32B
3AC0A
2B332
33C02
28EEE
0CB30
3C382
032EE
02022
32C80
02CC3
30AAC
0A0E0
280AE
1F3FC
0282F
3A0F0
228BB
3B2F0
2FCA2
303AF
2EEBE
0A82F
28029
03F20
2E08C
00CBC
0AC8F
2CAB3
2FCC0
08B03
2FBE8
2A0B2
2CCB8
2E0CE
2C8BA
30A2B
2CE8B
223BA
2B38B
3233F
03B33
3B8F8
28B8A
2ACF2
003BC
2BF02
03B3C
202BC
0FE82
3B702
0AAEB
3FAAA
32F3B
2028E
200A3
38CC0
32CEB
00EAB
0A3BE
2FBFB
22BE2
3A3A8
0FA82
0AA38
2EE8A
2B0C0
20ECB
2B8A3
00A80
3FA8B
2ACBA
226BE
032B0
0AE33
08CE8
3CFA8
0833F
3E22F
082E3
38EA3
22832
33002
22A08
3B8A2
2CC20
2A28A
03AB8
0E8EB
2EFBA
2F3AA
382A8
20EBF
08C32
0EC32
38E00
003AF
3E0FC
3A2CC
2CAFA
00CCC
0F23F
2EEE0
00BF2
22B83
0E883
00F03
28ECC
0FB2E
223EB
3F8FA
38CF3
00C20
0ABFE
223EA
0232B
0CF3F
3CA8F
003E0
3B22C
2A8A8
003EC
2BEC0
2A80B
33CF3
20ACB
20888
20288
22E0C
2F320
2ABEC
2B33C
0A280
28B23
38C88
0A80E
0B0A0
23C03
0BC23
288CC
338C0
3B238
2EABF
02030
0302C
2A332
0EE3C
3F0FA
23FFF
33EA0
0C002
0B20C
380E2
2EF2B
2EA83
00C80
0E22A
0CCC0
2B8A3
3B0B0
28A3C
3B8CB
00F3F
2CC9B
2BAFA
3FE32
230AA
2F2EF
2AAEA
2FB3E
2EFAF
0A30C
2FB38
08E0B
38CE8
280A0
0BFFA
3CC80
30A0B
1BA8E
03C2A
33FE0
0CAC2
00ACF
00F0B
2FFE2
30CCB
0B0B2
2FA8F
20A23
00C0A
3F2A0
0FA02
13238
0BEA8
3E28A
3BBEF
32FC0
008F2
3CA2A
3AC08
00000
0EAF2
28F0A
088CC
0CAE0
30F32
320B3
0C8AA
3FC28
08A08
28C22
22308
002E8
0CB2E
0ACC0
28CC2
2FE08
3ACCA
08FFF
08CB3
000B2
3B0A2
0CC24
0AF8C
22AFF
2E872
2AA03
0A00C
28CAF
32308
0EF0C
0382B
03038
0EC8A
0BB2C
3B208
023E8
2330A
3BAAA
2E0CC
00CBA
03BE8
02CB0
0A880
03820
33E38
200FA
0A82E
233CB
288AC
3F3FA
222BA
223A2
3E338
2A2CE
2E8A8
3C2CF
3C2B2
00CC2
2B0F0
3AE08
2BEE3
280F0
08EEF
2B2CC
3AB0E
023A8
288EA
23E2E
3A0EC
2CFC0
22802
0FD8F
28AC2
1A20C
3322F
2AC82
30CA3
2E23E
3FBBF
082BA
20B0C
0CF32
00C00
3AC88
23232
00AAE
2383F
2AC03
0B28A
32F82
20A82
0BB0B
300E8
332BB
38B02
0280E
0C3B2
22323
2BFF8
2F32A
3CCC8
00FCA
1F880
0CF3A
0CA23
00EA0
2B8CE
32C1A
330CF
0CB83
0E2EA
0ACC0
3AFC2
08803
0888F
0EAEE
2A0FA
22CE0
0FAAA
300FE
2AAFC
2832C
2A22A
0B32F
33FFC
000F2
00F3C
0EFCC
2A38B
0C282
3FE2C
0783E
0C20E
0FB0E
2AE0E
33F0A
02EC2
32202
0080B
1B2C3
3029C
28EBE
2F208
08830
3B27F
3087B
3B08C
38AB0
022F0
2820F
2BC00
20B02
08AEA
38AEE
38E8D
20388
0AB2E
032E2
0CEB2
30C0A
328CB
00B33
3B0A8
3ECFE
3CFAF
0030C
08BBF
0FE88
00EC0
082FE
2AF0C
30AA3
00380
3B20A
0E322
030E3
0F0FE
0BCFE
332C0
0EA80
0AFA3
0BA8B
23FCA
3CAAE
0FE00
20C02
20B20
008B3
0CA88
0BB0C
0C2EB
2200E
3B882
08333
03AC2
3202E
0B8F0
0BE82
0CA83
3AAC0
0EF02
30FB3
0EEF2
088C3
3FFA0
00EAB
3CACC
2F000
383E0
02ACC
020A0
00233
0CF02
20CA3
228AA
03303
00230
2B8CE
03FC8
03CA2
3A2BA
282B8
32EF3
024AE
2A00E
32232
2CB2B
280BF
20B00
022C8
0B0CA
0C082
300A8
30822
2A0CB
2B0FC
002A3
03028
0088B
2E03E
30F80
038BE
08C88
28F2A
002A8
0A0C2
22A03
2288A
08BC0
2323F
2CF2B
0A22E
2308C
3C03B
00CC8
02C20
02A8B
28C38
0CCF3
2ABBC
08B82
2C383
2EE82
2C2FA
0CA08
2FAAA
0FE00
2BAC8
2EF7C
2EABF
3BAF2
0ABAA
0AF0A
203F2
203AE
0B30A
0CEA2
0CA08
0820E
3202A
3C0BF
3CCCB
2AB88
2BB3B
3A020
3F033
38A32
3A68E
220E2
2C2FD
0CC03
33AF0
08E08
3818A
383A8
3FCFB
0C33F
008BE
00E0F
0A0FA
0F08C
008BF
3FE03
3C3E2
382AA
288C0
2038F
0CCEA
2A8AA
3AF0E
2088B
230EB
33028
28CCF
2AF88
0BB22
2ABBC
20B32
08ECF
38A28
2A22E
0BA0C
2BC8F
080A3
28CB0
382CA
2A82B
0C0FB
2E3CC
2EE2F
02FFA
2EAF8
3F83C
0030F
2BFAF
3E2FE
3BBCC
28322
2EF28
283AA
002EB
3FC20
02308
28E3E
0C002
23FCA
0223F
03A03
3AF0E
3823B
3C822
3FC08
0BA28
04CAC
28082
33E2A
0C8C2
28EEE
2A0CE
282E0
02F01
32F3F
20C83
3C00B
3B0A8
08B2A
00FEE
2E8FF
202B8
228E8
22822
3BF20
0FF20
2C300
2B8E0
3CF38
3208A
008C0
38080
3FC08
233CA
3FA08
02ECF
00EFC
0BECF
2FC20
08038
23FE2
0B8C0
28883
2208C
02EB0
32A33
08008
0EA03
0008E
28BCA
0820F
0E803
0C8BC
0F2AA
228F0
002BB
0B3A0
3C2BA
08A8E
3E8C3
30BC0
2B8FA
00FA2
332E8
0A283
38C82
3F3B2
0033F
3820B
3B2BA
2C8A2
3C22B
2EBFB
00CCA
0EE3F
00F8B
3822F
2CA22
33338
0030F
3E423
3B288
2ABB3
00202
3AB00
3AF2A
3F2A3
2CBAF
2FFEC
0822A
0AAB2
08C03
330EA
2BE83
00A08
38F2F
01A82
23028
3CAE2
0202C
200AB
3CF03
2CA0B
02EBC
3CCCE
220FF
0CC68
00BFC
088F8
0C2EC
0E0A2
3830F
2EAF2
2EC03
3208C
32E3E
33823
002C2
23BFC
3A3BB
30822
03BCC
00038
2AC3E
2200F
3E020
2C3B0
3FDEC
08E02
20F0E
0808A
3AF30
002C3
20C88
0E2C8
0A00B
3288A
38028
3CAC8
0F382
08B00
28AEF
00808
38833
002BB
0CA02
23B22
3CC23
02EA8
2B808
0C220
3CE38
020CC
38C00
20EA0
2E3B2
23E2C
008FA
23323
00AA0
0E2B8
28020
2300A
20A3C
2E20C
000B0
080CC
220A8
032AB
330B3
3C0B0
3308E
0CF2E
288AA
0AA33
20C08
032BA
0CF20
28E03
0E33C
00CCF
0B233
22BAA
3ABF8
2A322
0CBEA
28202
008EC
0EC22
2BA8F
0A003
0F02C
20F3C
28A3A
33C8C
0E03B
3BFF0
0C08E
0A022
2C2FE
2E320
02EAB
202BE
2F0BF
00003
330EE
28CC8
02B22
00280
02F0B
080AE
3FCE0
08B2A
20CFA
0E8EA
03EC2
08382
30C8B
320BB
08EFA
30B2F
32E00
3AAFA
3FB02
2CB0B
0A2F0
0B030
3B320
02AC2
2CECC
20FFC
223A8
0288C
2EC8F
0BF3B
0BABF
0C0BA
30AF0
0A020
28228
20F8C
0A200
3BC3C
0C02E
08228
2838F
04080
0E20A
23303
02F23
08B3F
002AB
229CF
0E828
280B3
2AC2C
3E0E0
3208C
30EAA
202FF
2FB00
3ACA0
00838
283BC
3B2CF
2C8C7
3B0CA
0AE3A
3ACAA
2B00E
3CFEC
30FA2
2A283
20FC8
0ECCC
222AF
2E78F
22228
32332
2AACB
2B70F
200C0
38FE3
3EE03
203EA
20A0B
3FA3B
3E1B0
2EF20
3CFB0
33FFC
0A0F0
20E29
12E28
002C0
2A820
0E483
22CF3
2A300
0F3E3
0223F
0BC82
20F2C
20B02
388B8
02E3B
22CB0
00CB3
02332
03BE0
0BF0E
2232A
0BF3A
28F2E
30082
0F1BF
20232
3F22E
0E8EF
38B23
00803
338F2
1CAA0
0F823
38F2A
20FCF
308BC
0AAC0
0FA0B
0C2C2
320AE
3FEEF
32238
0CEA3
2B2FA
2BC8A
2E0AC
00230
032E0
3E0BB
2F322
3BFB3
03300
020A2
230CE
008A0
088F0
0F30B
0BEF8
0B83C
28EA0
0C0CE
0C3E3
0F2C0
02B2A
2003A
0008C
02032
30208
38002
30CE2
2AE8F
08C03
0FFE0
0AB0C
22A32
3BC2C
0F2C0
3FF88
02EB2
0A2AE
232CC
3ECC8
00020
28030
20208
00003
0C2BE
23EA3
00008
00A38
3C4A8
08208
282F0
2CAE8
22038
380CF
0FA2F
3030A
0EF20
208A8
3BC33
0B2E8
08080
222C8
23008
3282E
02F2C
283F0
20200
38C22
28FEF
08C33
32CA2
33A20
28C28
20C80
008C3
002B2
28003
00E22
28FA3
0C300
0C3C0
0300B
03C0A
0A08E
0A3EF
3B282
0282B
0C328
3B0A8
2C2CE
00F68
08FFE
2EF0A
3B8A3
3CFB3
3FAB0
0FBEE
3F00C
228A2
38AF3
238FB
2B288
3CBC0
2282B
228B2
22268
2020F
0C02E
288FB
0B0FE
3A802
0BFE2
38C08
2AAFE
0B082
03E20
0F3EB
2B82C
302C8
30E80
2C8FB
2E03E
33A80
0ACF2
22E3E
30BFA
20FC3
33220
3CC3F
0B320
0832E
0003F
2CE33
00E00
22333
0CFB8
01BBE
2B300
28830
278A2
0F3A8
00CAB
02E3A
0B2E7
322CB
3B303
3FE8C
3023E
23B2B
00280
28BFB
08AFA
3B8CA
0C32E
08CA0
3C8CC
2030B
2FC02
3E02C
3FF00
00283
223FE
38FC2
00EBA
2CF83
20E88
02A2B
2AFC0
0AE33
03C82
30CBF
2823F
0EFF0
0B022
20C8F
3CB80
00030
22320
32CBA
21BB2
2C232
28082
2B3FE
3C3A3
2FC03
0C2CC
30CC6
33CA2
28E0C
333AC
0BC00
28A03
2CC0C
22038
20832
00AFA
2002E
08288
38382
3830F
3CE30
03C2C
3EFAE
202A0
003F2
38B30
0C23A
0C28C
00C08
2AA02
3AF0C
0A23C
3A2B0
08C33
2A000
3C00C
000A8
0CA00
30F82
003CB
000C0
0FA80
22FEC
0A303
30F03
00CCA
22EB1
28AAF
22B02
08828
28E3B
0200E
3E003
023C2
30328
2BFCF
0A830
22C00
002BE
08000
0EAFC
20E82
2F000
08A23
20B23
08BB3
03A0B
2FB8C
00AEB
00C23
02E0C
08200
2238A
02A03
0E0C2
3CB20
3382A
3AB38
23CB2
20282
0C0AA
0F00F
002B0
2E823
30A8B
28F38
00203
2A38C
0B0A2
023AB
220A0
032F2
20A88
2388A
0FE3C
200E2
2C3B3
00A33
30222
02B82
0AC08
0CC2E
2C002
22B0A
30EA0
3C88B
28EB2
3C0CA
032EC
30CCB
22B08
03B3B
32BAC
3CCFF
08838
228AC
2F0CF
0E03E
30EB3
3FAF8
28E38
282BA
3A0C8
380C8
003EB
008BC
2CA03
2822C
3FEC3
0080C
0F32A
32FBF
0EC83
0ACFE
008B8
302AA
2EE0A
22BBA
0B8BB
30C03
0CAFA
3003A
2A302
2AC0E
0C38F
38FAA
0230C
18C03
00282
3B40E
0AC3B
03A2D
0CF8E
282F0
232A0
08C33
3AFEA
083E0
38F32
0FFFA
20B22
3ABB0
03E8C
338C2
08EF0
003FF
33CF8
08028
0020A
2B2AF
00F32
2E088
3F88E
0C208
0B3FC
0F0A2
2B000
3A838
30BF2
02EC2
0EF20
0A880
3F3EE
3CAEF
0AA3F
03230
20B02
08A73
0280B
2A2EF
38A02
3228C
0BBBF
2B203
3EC28
2B00A
08E32
0AC2E
230BB
323F0
2FE8C
08CF8
0C22A
3003F
280B2
00CB3
00ACC
0333C
3A333
2F833
30F8A
00FE8
232F3
228AC
202C3
08303
0CCEA
3EFBF
0A88A
08E0C
0388B
0EF02
0C8F0
080C8
38FAE
03888
3800A
0FA38
20B22
20C02
0AC2C
3A38C
0CE2C
2CFAE
00C2B
2E8C3
3E202
23E28
288BA
2A008
03EE0
22208
38082
2EF0C
2C0EA
0BF32
2C2E8
00020
02FA3
3C2B8
33EC3
0238A
03CB8
2222B
00F28
00A0E
20C02
3823F
08A0F
3E388
3EFEE
3C2EB
2A2FE
2F08F
0AC0A
2E838
22F80
2080B
22CE8
3FAAB
0CC0B
2AF00
2AAAE
08300
00020
180C0
00BE2
2282C
3800E
0A7B0
301E2
0A03D
208FB
23AA3
0F333
0A3FC
023AC
3BEEA
2CEFB
200AC
02EB3
13C82
3F202
23AFA
3E3C0
20E3A
080A0
002A3
2AE2C
202A3
10FE3
202B3
2FE2C
08F0E
0C332
2A282
0B838
38AAF
03C8B
20CF2
08D00
2E0B8
3CBE0
0C0FA
02BAA
28FFB
00CEE
0CF3A
3B030
0CE88
3C2EC
282AE
0EEEB
333E8
38BF0
2C8A3
03F8B
388C3
3BC03
08CB8
2E880
132CB
2EBFA
2302A
30E3C
3A188
23CCC
003FA
0BE08
0CCCB
00232
20B2E
3BA0B
2E308
002C0
02B20
38328
2F28B
0E380
0C8E0
03B8A
20A8A
0B283
20320
0BE83
0FA38
0B3EF
028BA
0832A
0C030
283A0
2EE33
083CC
202AB
2CEB0
3F8C2
22CBC
0C0B2
003BE
0BB33
03000
2EAA0
0AB03
2EAB2
2E3B0
0F23E
3CFF0
380B8
20220
3E200
083A0
33EEA
0F8AC
008BB
226CE
08C08
0A000
3AE2F
3C802
3DF2C
0CCCB
280CC
0380C
3AC8E
2EABA
22FB0
008CB
2EECB
3FA0B
0CE2B
0ACF2
202AE
3EC20
3AA30
2822F
003C2
0A8E3
3AEB0
3A7BC
0322E
0AC0E
2BB30
038BF
2F23F
020C2
32882
03C2A
2FE00
3CA08
0EDBA
2CC8F
3CCB0
3B032
323F0
282EA
33CA8
00223
33F0F
32FBA
22A02
3FAB2
3CE3B
0BFFE
303A8
238FB
0A0B3
0C0FA
323A2
2C02E
0038F
23C2E
28A33
22E0C
00C3B
20BFA
281B8
2022E
28223
28A80
08F2F
2FEF0
2BE2C
3E083
22028
3B8C0
3A300
3F83B
02F0C
2C2A3
2AC00
2AC0E
00803
20880
0BF02
2A20E
3F80E
0002A
23B8A
03C82
00CC2
0EBBA
30BB8
3A822
0E22C
02A8C
03E22
2FC2C
0A3AB
3A3EE
282E0
342C0
333F8
2C22F
28A00
0F020
282AC
283EB
2A808
3008C
008AE
0220E
0CB30
3ABA0
2CC88
0C08C
22EBC
3C20F
028FC
00308
2F88C
223B8
0A80A
32080
3EFBB
08080
0FE0A
3380E
000BA
08E0E
000CA
0AF00
0CE82
00C3C
023C0
02AA3
2BCBE
22AC2
03A0F
208BC
20BB3
200B2
28AE0
238B8
00A8A
0B3BE
0F0E3
203F0
20823
30E0E
02AA9
02FFA
23CC0
3C013
0BEAC
28802
0EA80
2AECF
380A2
0C83E
3220A
2AB83
0030C
0A3A2
2FE80
3EA30
32A3C
28308
3EAC3
2CC88
33EF3
2EE3B
0222B
2A2E2
3BCB0
32ECF
00A0E
08F33
08800
23A8C
3E0BC
3FE83
0CC22
33B02
0F80E
20CCC
2B2CB
28A80
0A83E
3F02B
2E038
30AAC
08E22
03F8A
33F0B
0EBEC
0EEBB
2B0AE
00AA8
28AFE
02EFE
38C2C
23033
088A2
3A8DA
0FCB2
20BEB
00200
32803
02C30
3C3FA
22BCB
030E3
30C3A
3EE0A
0A82F
083EF
3830F
000C3
002C0
00AAB
20F30
2F8BE
0BAFF
0AECB
0EC00
3FFA8
2B332
3808B
3C3C2
22CA2
0E380
3020A
02002
338A0
0EE2B
0AEBA
0BA3E
02808
20222
2B0E8
00BC3
0AE8F
2BEEE
02A0C
3CCE3
08AF0
20EC0
3AA2C
3E030
2000C
2FC8C
3C2E0
280F0
2FEAF
2E0AA
28CC0
1420C
2F0EE
2A020
23CB2
0A3C8
002E3
0E9CE
02888
2A083
02E8E
0EAAC
0ABAE
030A3
0802F
2B0E0
32008
20823
2ECF3
2AAC0
208EA
2C3C0
28E0B
38FBA
0BB2C
2802C
0C3AA
2ABB3
30E20
320E3
3AB8C
08B8F
2200C
022F3
02AC8
238B3
2FA8F
3AFF3
0FACE
3BCA2
2C22F
3FAF0
3AD2F
0C0F0
0FF80
3333C
023FC
3EEDA
02FEC
008C3
20AA2
30FB8
288B3
3BAF3
3232B
3332E
3CCE8
22EC3
030F3
30F2A
2FE82
2AFBC
20A38
2CFE2
0FAE8
30CC8
3AF8B
08A82
0A003
0C32A
2A2CA
2CB0C
02223
38C80
0A830
3F0E3
0002E
2A0F0
0BBAB
2F030
023FC
0BFA0
03EE2
2CA08
02EAF
022BA
23C8E
0323E
0B03C
3E0FF
20E0A
03F0A
0000B
02A2C
2FA2F
2ACB8
202EE
2B8EF
0BAAF
00C8C
28CF2
0A7F2
38B8A
2EA8C
2BC82
20AF2
0B2C0
0042B
0AE8E
38E0A
00B0E
3BC3F
230A3
0CABF
08A3E
3E830
38B0E
38383
3EAAE
3EAFA
0A2BB
02B2F
033A2
0C0CF
3A232
3B202
0002B
3FAFC
22C88
0F2CB
32CF8
0220B
000F0
08C02
0A022
0083F
28ECF
0F30F
0FCC3
30FBE
2F0CC
3BCF0
00C3E
208CC
0A000
380A2
02CC2
3C08A
23A33
3B80C
3A28C
30B3E
20008
03C20
3807E
0E003
3C3AE
0C0B0
0203A
08BF0
082C3
008C8
0B8B0
03E2C
22EA2
080B8
3AA0C
2FE0C
08332
30C8A
02B02
28B3F
03A2A
302C0
2EC28
02083
3FF80
00A88
00EC2
003E0
2C23B
30AA8
08B3B
3ABB8
00802
30302
2332B
2B320
030F8
03ABB
0C3AC
08F00
3EF3A
2C38B
23B0F
0F302
02CF8
28FEA
0C0A0
022C0
208CF
00223
08ACE
3A82F
3332C
2CFB0
23C22
0BCE3
2CF0A
03300
002BC
2A822
02AFC
00C2C
32E28
032BF
20CBC
0FB33
2820F
23CEF
38FB3
008F2
0B883
00B0B
28F0E
00A8E
2BCC2
30CC3
0B028
3AF8B
20C8F
3CB2A
030C8
3B2E3
08E2F
2AE8A
33C22
2C800
2BEEE
283FE
002C0
0A30E
303EF
28F00
30C8B
30A00
00822
2A8A8
0A83F
200B3
028C8
22A20
0BCC2
2C002
02F02
28203
3CC2A
320BE
00BB0
38000
3CE2A
0030A
3C200
20E0F
000CB
004A8
3B238
2C3FB
0C00C
2832C
3BE30
0E08F
22B8F
0FCEC
280AA
2AA8A
0BC02
30B4A
032AC
00982
33CAF
2A882
2A0A2
3028B
02CC2
2E328
3800A
002BA
38F3C
0FEE0
000CE
0CE8E
0B330
2A8BA
0CE06
3CBEE
2ACC3
0C33E
0F08A
003B2
38E3E
03ABC
3DACE
008B3
0A02B
3CFC2
00B8C
00330
2BC3E
0E00F
20BE8
03F0B
03223
2B38C
03F0E
0FBA8
0AB00
033CB
3AEFB
3B330
2A08F
388CC
30FDF
2B2FE
0CBA8
08004
343B3
3E8CB
3CACC
388F2
3C302
28BAF
03C33
03328
08A32
30202
3BC2E
3003A
00F0C
2CE00
0A230
00230
3F2FF
233FB
0BCAC
020F3
3EF03
300BC
23CA8
33C8A
0020B
3EA2A
32B02
0A300
0AE00
32A83
3B822
3A0E2
28C2B
0B3EC
00CCA
0380B
3CCB0
0E8FA
238E2
00228
36233
33CB3
0BB2E
04A3C
20CAC
0AB33
30300
280CF
03282
03B3C
2AE83
20A0B
0CAC8
02BC3
0C8AC
30FF3
08A03
0A80E
2C20F
302BA
3008F
3F0EC
28C38
03CFC
320F2
0EFEB
20328
003F3
0EB02
30C83
000A2
200A0
22BC2
3E02A
00CC3
28F20
3F0A3
0803A
022BA
3B00B
0FCA0
2EE38
0EABB
3C8AF
32AF2
3A203
0F20A
2CC9F
2C328
00BC2
0230B
3CE32
0CBCC
0020C
20CB2
23BBC
338F0
20AE3
2C20A
0AC0E
2E802
02FF0
3C2AE
08E38
00EF8
02E0F
00CF0
303AC
0E2C2
3FBB3
00288
32323
2B002
0F220
3B82F
2E82C
0C003
0FC03
2FF0C
023BB
0232B
2CA3A
0C800
208E3
30C0C
0FBFB
0BB03
2A08E
0833C
0C28B
208A0
23F30
2C8AF
08E8A
0B83E
223C0
3320E
2CF80
03C8A
028E3
0A2BA
220AB
20E02
0AFF2
3F00A
2FA2C
3A2B0
20B83
00BEF
0CE8B
30380
03338
38308
00CA8
0220E
223C8
0A083
330A3
3C003
33BEC
03000
00E20
230C0
38AA0
380C0
32033
0CA00
2F2A0
028AB
2803B
0AB03
33A8A
00A30
0BBA0
3AF8A
0CC8F
2AC00
20282
02A0F
22C20
0CEEB
008EE
0AC8B
22A8C
0C333
08C0A
03E23
22C00
0033C
03030
328C0
0CC8C
233FB
383CA
20EA8
000C2
000F3
0808F
2CE0F
33230
0308E
200C0
00ABF
20C8E
22202
32B8B
3C3E0
2EC0B
20B00
28830
02ECC
0030C
30A0A
20A00
3E2C2
22088
2BCCC
00B32
2022F
00EBA
387CF
080C8
02A8E
30200
0AE00
220AE
020B8
0AC03
3B000
38CC0
3F330
20323
220A8
280B2
0080C
00CF8
203CC
003C0
382AB
000C8
02AAE
280AE
0A8AB
0C82B
22CAC
0BB9F
2F80E
0082A
32E00
28F20
080C3
3A0E3
0EAB2
0F0EC
0FBC3
082A8
3A3B8
32BAE
38CBC
33BC8
08CE2
30B02
3AF2A
28A00
20CE3
3CF02
2A2B0
32E22
0802F
38EBC
0EF0C
02E22
32003
28808
082FC
2F308
00FBF
302FC
023C0
0A30C
03EAA
0CA0E
00083
00A23
22C3A
228BE
338BC
02238
000E2
3CCAB
2BFFF
3EC2C
20232
38C8C
0A002
0B8C8
2E228
00A08
2FCEF
28CB0
2FA80
0EA28
2E0B2
28028
380A8
28EAF
0BCF2
0EC20
32E03
28023
303F0
3A80F
00ACC
20BBE
0CE02
2E2E2
02FC3
283A3
08082
03C0F
2BE0C
0FB0E
0A02B
30A38
30FF2
00CE8
00B20
33A8B
223C0
200C2
28B00
3AAAA
2EE8B
2C280
2C002
03A2B
022B8
03233
00F2B
0AFB0
23833
330E0
2A8B2
02FE0
208CE
20FAE
023F3
0C0CC
2C28B
3BC00
3C8C2
02083
3CC88
20B82
08BB8
3C30C
2FE23
2828B
388B2
12F00
3CABE
3CC08
30AB8
2820B
0CE3A
22022
3CFE0
0F803
008B3
00308
32ABC
020EC
0C203
00C82
0CEEC
38CB8
22AC3
32FEB
20C08
3B883
28A30
033F0
3208B
080F8
3B8AB
3CF3A
2BF88
2CE0E
0AFFA
20F23
00302
03CAE
00B88
3CC88
28008
2AFC3
30C0A
0F32F
0820E
20FB2
3E08B
32203
3BF80
2C23C
2FBAC
32F0C
200C0
2A020
0C3CC
30223
2C8CC
00BBE
0AFCC
2CEA3
03C20
0B8E3
0C338
3C300
2A2C2
2AA22
2BA0B
333F8
0FE88
23820
00E2A
2EF30
0E380
0F233
2E8AA
02CB8
33F02
38BAA
2822A
0C3E0
330E8
0AA00
22C38
2FBE0
20BF0
2083A
23E20
002FB
38E8C
32B70
002A2
23C3E
0EFE8
0EEA8
28032
28EF8
2202B
330AA
03232
38EA8
00A23
0C82C
3B308
023AF
38230
32BAA
3CF02
3F82B
2CFB8
2F2EC
38EBA
0B822
0AFB3
0BBA0
3CEC0
2C28C
23F00
2A8B8
28A3A
0E2B0
00BA8
3C2B8
0CCEA
203E3
08230
0BA3C
2B00E
2ECFB
23B00
0F8BB
2CE3B
0FB3E
2233A
3BEBA
0EFB3
00E80
3323B
2F0F2
20200
0B020
3A3EB
00AEA
38F08
00ACF
30B2A
20B22
3A8A0
2E2EC
0AABF
0BAEC
382CE
223AB
2ACEC
2FBAA
0280C
33BE3
2EBC8
288FD
2C020
0ACAF
0CC23
32BCA
0B0B2
00C02
0BE0C
3C3BB
00F62
0B9A0
08C2E
0AF8F
220C0
0FA8F
0A2CC
2C0AC
2F330
02803
32BF2
20E30
33032
2CC82
380AF
000BE
08AEC
2802A
33320
0E28E
00C82
0EE08
00C22
0AE0C
0C028
0F008
0F20F
0E002
000CB
02CAE
00A00
0FAE2
38800
0CC03
20000
02B83
00E03
00FE0
0208C
08CA8
00083
300FA
20CF3
0E3BC
0028A
0A830
2C8F2
383CC
08800
2000B
0C8C0
08080
3A3A0
0C288
30020
00320
03282
00CCB
0C380
03A8A
0F2C2
0202F
00F2A
0033C
0BF0C
08EB0
228AA
23C22
20033
2BBAF
3C30B
0CE8A
3EA08
38EC8
3303C
23A0C
2BBAE
300A3
008FB
2C8BF
23A0A
2C03C
03238
030A2
0CF88
38BAE
02EEF
333F2
000E8
3CCCE
2C2A8
0AC3E
363FF
3B2BA
0E802
2B200
0A0CA
3A3CA
0F2AC
02B38
20F38
2220F
0CF0F
3A38F
0F2B8
300B8
00C8A
2EA03
2AC0F
3F2B2
2802C
0A238
3E8C2
0FEEB
0A8FC
3820B
22EA8
28FF8
2C303
0B2CA
022C8
3F038
0E20B
38230
3AABE
0EC8B
082E2
2BFE8
0C3CF
2A203
38CC2
2CBB0
00EC3
30A03
0C230
32AB3
2082F
2A8CE
3B0AE
33C2F
0BF30
28E8E
2228B
08FEB
3B28C
203CA
0C322
0C08E
3A8C0
0008F
00A0C
08E38
33A3C
320BC
3F30B
3ECF0
30EBB
0080C
2B82C
20EAA
2AEAA
0AB0E
32A0B
0C2CB
300A2
20FC2
22CBA
0BEAE
0E8E0
3C00A
2BC8C
00FCB
202EE
32F30
3CBAF
3AC03
32F23
030C0
2EAB8
0F8CF
3A02C
3C2C3
2EC0B
0E333
08833
3220C
20328
33300
3A30E
2A3E8
030CA
0A0FC
00EC8
30B28
38888
2088E
00A80
30E3B
0CA03
38222
233CF
20B0E
3FFCA
0C8A8
2A3AE
3033A
280E0
2022A
38E0E
32EBC
0382E
008F0
02CAB
0A2CF
088F3
08E0F
2BEC0
38B0E
02003
280E0
08E22
0ABE3
0C3E2
22BEC
3C20F
208FA
22A3B
3382F
22CBC
08CAE
302FE
0033F
2A2BB
00322
20F02
000E3
00FC0
22EBE
3BAA0
0F8C3
28E32
03B3C
2F8FC
30002
34803
0F83A
0FFAA
08B28
2EFAA
2E33E
2EBEF
0E38E
0E00E
3AC08
0FC0A
302C8
0BF22
30F03
043A8
28EF2
0CC2A
333E2
288F3
3A3BE
28C33
28F2E
2202C
0B0B2
3E20F
2BB20
003F0
2EF2A
083CC
0CEC2
22B2B
280AC
3B20C
3ECC2
00E3E
22A0C
0A8E0
0AB8B
2CE2E
0A88C
3BB22
2BEA3
22830
03CC2
2ECCA
0B00B
23EE0
0C0E8
28A22
00A33
0A18B
33822
3ABEE
0A23C
2B0A0
3AF30
3CFAE
222F0
0323E
2F880
0A2BF
3CEEB
0CACB
02803
020AC
000FF
38AE3
3232C
2ECB0
03A3E
2EC0F
333E8
33C0E
00EF0
02332
0E3CB
28800
000BE
2AAAB
38EBB
20BBE
232FF
0002B
0830A
330AB
2083F
0380B
2C0E8
322A2
2B23E
30A0A
280E3
38622
02E28
0AEBA
3BA0A
038EB
20C8A
283A0
38B88
2E20F
0BC3E
3C332
38FF3
3CE2E
0E0CB
0A8F3
3E022
03C0F
00E03
0E2CC
28330
2A2B3
00200
3002B
34EF2
0B82C
2A008
03A32
2C3F0
002CF
28BCC
32EBB
28FBE
23033
30A0A
03BAE
0FFA3
23208
0CAF3
00EE4
332C3
38FA2
00EAF
08CB3
38023
23EF2
00B8A
28A3A
2B82E
0EB2E
0AE00
088C8
0C8EC
32F20
28223
3FF02
0CE03
22B32
0B3C3
0CCF8
3CF8E
32E8A
0A82C
02F0C
2E03C
0F208
03C8C
2003B
2C28F
3F0C2
23EB0
3FFB8
00838
0AA2B
00A23
2BFB2
238CC
2AAEF
0BAA4
32F8B
28EF3
28BF3
30B2B
0C8A0
03E8E
206C2
23B38
0BA23
38ECA
3AF08
383BE
2B3E3
03022
08000
208BC
3CA8F
28C0C
3AB8A
3C832
3C2F2
0A0CB
32BC0
383A2
0F003
3AAB3
3C6EC
288EB
2FEB0
2CCAA
3C2EF
2AEC3
03083
222F2
382BA
0ECE0
00B3F
29B3B
0203F
300B2
22AEC
0A2F0
0E02A
2FE0B
38830
282BB
08E03
2AFCA
0F3C3
3F0F2
022F8
33837
0EA0B
3AAC3
38030
00CBB
3B0E2
2B0AB
2CBFE
2C3CB
20CE2
0E8BC
00A00
3F83C
2F23B
3CAC8
0A083
23A02
03880
3A8E3
08F38
2028E
2CEAB
08CE3
0A288
02008
032AE
22C82
308EB
00A8F
2CFF0
02002
382A0
32CA8
338BC
0E0C0
02830
2FBA2
08ACC
3323A
2F2AA
20B20
3CB2B
288C2
2AE70
3CE2C
0F2A2
20FBB
32CC2
3E2A0
2B3BE
00F08
2AAF8
0A2FE
3BC0E
2B8EA
2BACA
02C02
2BC30
2C0EF
2A208
3B8F2
080B2
03C8E
3EBC3
30C83
3B22A
0CC30
08C0B
3A3E0
30B3F
2EE3F
002EE
2AC82
22CCA
388AB
23CEB
3898E
3BB80
2323F
08283
0A83A
28CBB
0EEE2
38808
2E270
2C2AC
2E323
382BC
3FB0B
3AA2B
03FC2
3CB2A
3BC0A
3CC0F
3A328
10C8E
0CE2B
333E2
208CB
028E0
3ECA8
03CAC
2EF8F
2838A
32EBF
008AB
00FF0
0BCCA
38ACE
0FBCE
2ABEB
0F2A2
2B2EC
3CE3A
00A3E
02B20
32A23
04E8A
3A288
20AC0
2807C
0838C
2FF20
088EC
388BA
0EEA2
2A382
00080
1C3F3
2CAA0
32E8C
0E00A
00F02
3CC20
3EE2B
2B0AF
20FCB
3EA03
0AE3E
3EBAE
0F3E2
320F0
22382
2333C
20B2C
32E08
03232
22A20
038EB
3C8CB
02EB2
3C0F3
2EC38
3B0F3
0A033
3BA22
3ECEF
000CC
0C2E0
2FE02
2E80A
2830C
2A08E
2202C
30FCA
2FEA2
3E80A
02023
28CB3
3E882
0F2CB
3200A
0EBC8
2B33B
08A0A
3C30F
2AFE8
2EA8F
2EBF8
200A2
00ECF
3B0F3
2280B
330FB
0348A
0F2BE
33A03
08820
0A300
3002A
328EA
3A2C0
200AC
208E3
23CF3
2AF2F
23C0C
3A33F
00C0A
38333
00C8F
0F000
3B03C
08BBB
330A8
0F0AE
38802
2288F
0C38F
20EFE
0F3B8
032E8
38E20
0B2A3
23EEC
02E2C
0820C
2FB20
088C0
3028E
30BC8
3B0E0
3824F
08C8B
2BC8C
2BC0B
2EB28
283E2
008EA
32FB2
0F00A
0B302
000FE
0EEBC
20020
0AF30
3BBBC
38808
0F8C8
2F238
2F2AA
328CF
2CE32
008F8
00F03
38C22
0B82F
0C0AB
020BC
38C02
22B00
2F02C
3200C
28CC0
280A8
088EE
3C08A
2F000
08082
0AEAC
203C8
30F83
328E0
0EC22
23B22
30888
03E0C
00C3C
03ECE
00082
030AA
3A0E8
2A23A
2E0E8
3BC02
328E2
0EBB0
30303
023F0
28A02
00800
080E0
0A020
22023
3AB8C
03230
00CE0
2038E
3B38B
0ABBC
30200
3ABEA
0C3E0
03E03
2FB20
2CB1C
2322A
28A01
08F82
2CBAA
03EB0
3C08C
0BF2F
2288A
083AA
0CA32
00BA8
20E0C
00F22
2CA23
3CCB8
3C2FE
20FBC
2ECAC
33BBA
30BF8
0F0C3
2E8A2
3A8F0
20EBC
0EF82
0AA3C
3FCF2
03280
222E0
02230
303F0
33AC0
3F38E
002A8
30C00
03B0C
3EECC
3202E
33C23
00ECE
0AEF2
2303C
08F08
0AA0B
2AC8A
3C202
0C2F3
32000
0EB00
28BC8
02033
0B380
0220E
03A0A
0EAC3
200B3
20200
2B808
02F03
3A33F
23308
0F3AF
2C2E3
08200
2A208
23AA0
2EF03
32000
2A0C2
3002F
238C0
2BCCF
2BE82
2F020
2F3F8
03CFC
0028A
2EAE3
33AF2
03B23
0CC80
2308C
37CCA
228BE
20BAF
23CEC
2ACA0
2A23F
02C22
3CB7A
030EC
2CAEE
00F8C
2280A
0FC28
30232
0EE08
0E2EB
38AAA
02202
38F3C
2BECC
20BF0
0BA8A
0BACC
200FA
2CE26
38FFE
20CEF
2E23E
3C888
32B30
0880C
0BA80
0E808
208B3
02083
30B2C
33AB0
000F2
2A202
2E828
033A3
0F0BF
2AABF
0BB02
0820E
12CAA
000FB
0F3C0
208AA
2C0C8
2AA0A
2F38E
0EAA3
08AF0
2FBA2
020C2
0B3F0
2338E
0BBFA
30282
3AA02
0B8AE
23CE3
3FFAB
008BE
002A8
00EA0
02803
3ECFF
00A83
028FE
002FE
03F3A
2CF83
03802
08E33
08EC2
08020
20F0B
0A280
00CBA
20A2F
028EF
2A83B
2CA8E
2C02C
3BBAC
0FE83
2200D
22CC0
28EAA
0AF08
0BE20
08A2F
282EA
3F8EB
28E3A
3A0A9
08B2E
022BC
03B28
28FBC
3C0AE
2EEC2
3800E
233A3
22AB0
3E803
008C3
2A883
0208F
38CCF
322CA
32C23
2F00B
20630
2E20B
03300
3CCB8
0AFC8
3A3FC
30E0A
22AE0
00280
02AE3
2023C
03D33
300BC
230E3
28E3B
3CFBE
22003
20BA3
30B00
2C822
003B2
20838
0CC00
0C002
30B3A
08C20
3C83E
02083
033F0
3E8B0
10EBF
02082
3273C
3B20B
3CACE
0CC3C
00280
120AE
00002
3A223
0BEF0
0330A
3F8B2
23CE2
2A082
2FA30
0280E
22023
202E8
03300
0A323
0033A
2A82E
2ABEC
3CEAB
0A082
0FA0F
0088F
0028E
20302
2ABCC
08B8E
22A0A
02F0C
0ABB3
0B8CE
0C822
2AEFE
02E0A
3032E
3803C
33C8B
030BC
3000C
0E202
3BA8C
3BBC3
2AEA0
320F8
00E23
2A8A2
00383
300CF
001CB
38C38
2F20B
3F8FC
2C3B3
333AB
3ECBA
0AC3F
083FC
2BF2A
028AC
00020
02BB0
0B08F
02002
202AC
3AB0E
3002A
2BE2F
023AB
0ECAC
23026
3EAFA
3BA3B
0FF83
2AD0A
0F83B
3C82F
222E0
0AFE2
03032
08FAE
2FCAC
083F2
0C388
00A82
303AC
0ACBF
22CFF
20B32
3A3CE
0B23B
2CE28
02322
21230
08FB0
3F2C0
0BCB8
3B0B3
0BE8F
32EC0
283A2
00F32
3C88C
0003B
308A0
082CE
28C8B
2C2E0
2FA03
02E8F
2E22F
302F8
28208
028A2
33C00
283B8
3AF30
32A8C
080C8
00820
3A3E3
0E33F
23882
3BC20
20A00
08E3C
3CFB2
2F222
008FB
0000E
2F8F8
33282
232AB
0AC02
2EF83
30302
2BB02
0B223
2FF32
2828A
3AE2E
0020A
00888
0F2B0
33C8B
320E0
00F8C
20A2E
2B0A0
2AAC3
2A80C
000CF
0EBAF
0FEBB
38C2E
3AA2A
300A2
20C08
2A33C
0BAE0
2CAE8
338CB
0BF3A
0A2AA
20F02
0ECCC
30088
003BF
00F00
3C0E0
3A3A2
0CB2B
220EC
32833
2EA82
23883
0888C
30CE3
302F2
3CCA2
2F828
03AFB
2C2A8
00323
3CC3A
33FCA
3A3FE
3822A
22CE3
002E8
0AF3B
10C88
33300
0F83B
0BE03
0B022
3F38A
23A88
0ACB8
303CB
08EA8
338AC
0C082
2E33E
02323
0C20B
2238A
080F9
283C0
0C300
0BCEA
308C0
3A0AC
2B2F0
3AEAC
3F3EB
28382
32032
38CE0
0E0F8
22FAF
2338F
32AC2
2AEFA
32CA2
2C02A
0320C
2AE3C
00023
0B02E
2BC0F
380B3
000FC
3280B
2BE03
3FAA2
08B23
0A388
3C82A
23CC3
20F02
3C38B
28F8B
23EBA
02B80
0820B
3EC00
2CF30
3CB03
0A802
32000
020C8
220EA
2220E
2C8EF
00E22
0883C
02880
0BAC0
2F3BC
202B8
002AC
02030
23B8A
28002
0A322
333F2
1CC1E
32E8A
202B3
0CB3F
2C033
0E0AF
2ECCF
38300
0008A
226AC
33223
38BBB
202AE
2AB0F
36B20
00EA3
22BA0
03AEE
080AA
2228A
03EFF
038CA
2B22F
0023E
0808F
0A202
0A322
3F080
2B0A2
00380
30F8C
2A23B
08EBE
0FCC2
2BC0E
00EB8
0CBC3
0A8B8
030AF
3E0E0
082C8
3E0BE
1FFB3
0C83E
2EC33
30B88
30E00
20CF8
0A3B3
33300
038C8
00088
3CB2C
23CFA
20A8E
33082
022B3
3ACCE
3EC2C
28800
2CF38
3C8F2
0888A
0CCEC
323CA
02002
23ABB
02A03
00E3C
20AF0
2BA08
02E02
288CB
08B00
06E8F
2B200
3AF0E
3E3A8
288A8
03EBC
3A803
3F3C0
2EC3C
33A80
223E2
28E3E
03B80
0BE60
38028
28CFC
3FB0E
3A2A0
2F3C3
3328B
00FAE
08BA8
0A8A3
00FFE
0EB2C
23230
2310E
0A2AF
32B2E
228F8
1C8AC
0200B
3BB08
330A3
0A038
288E4
0C02E
00FE0
3830F
2880C
00C2E
20C0C
00C3F
3E8AE
3FC00
28C2B
222BC
3020F
2CCBC
0A00A
00F20
20F33
32B00
023C0
03F8B
0F002
28C60
3822F
3B0C0
30A23
2B3E8
033B3
2CE2C
00CB0
00BEE
22AAF
20ECF
2A00B
3F080
32FBE
00302
20AA2
2AB0C
2BA88
03E38
220A2
02CAB
2AFFA
3CF2F
03E0C
2E3AA
0EFF8
08F0C
3C0AA
2F2BF
0880A
3C22E
3A0EC
2A30F
03838
303F3
2F4B2
03F03
02F80
0BC2C
02008
0A080
0F2C3
0E8C8
3E0AB
30C3F
3C288
03223
2B0CA
03C02
0EAAC
00E20
3E32A
3CCBF
0BB80
23023
3A808
330CA
380E0
18CCB
0B803
30FFA
230AA
00CB0
0223A
2EFEE
20000
302C3
3F0BE
38A2E
0600B
08CE0
288CA
00BCC
0BEEF
1BE8E
0830E
0EFEF
20082
302F0
0A023
0C023
323F8
00A8F
228EE
2023F
00E20
312A0
2F0E0
2B2FE
0F33C
3E0BA
20CE3
32F20
00BFB
3FA2A
0C020
043AE
0EACA
2A8B2
0322F
0FAE3
003F8
02C00
2CAA8
30E28
08003
20022
222C8
28BE0
0CAAC
38C2C
228C0
2CF08
08E0A
28EE3
203F3
323A0
3A282
0030A
222CE
0A22F
00AB2
288E8
28822
08F00
32808
3CC0C
3080B
03B08
0C0AA
30F8F
302B2
3000A
2C030
3B0AC
20E0E
0002F
3222F
0A0CC
23CBB
2ECA0
0FC0F
3A0BC
0EE2E
028CE
00CF3
08A1C
33CBB
32C08
0323B
2B203
3BAE0
00E02
283E0
320BB
3B380
3B388
03382
0008C
38CBE
2B20E
0AC33
2BACA
038BA
3B802
28280
22C0B
32C0C
00028
333BA
0F308
0CB30
2B233
3A2A0
3E2C0
2FC8F
233C3
02FB0
20208
00C00
020E0
33EBA
2DBAA
2FFCA
2ABAA
2B300
23F03
23F8B
3FCEE
282C6
33A3C
2A820
3080E
3F32C
20A03
2038C
22BC8
23F8A
300FA
2F0AE
0CE8B
38082
0CC23
3FE3C
2FEC3
3CF0C
2C0AA
08BFE
3ABF0
0C10A
0E88E
2BEBC
02A30
320C0
3AC0E
388FA
2B28F
0A20E
0CFBB
3A0AB
0FAA2
38FB2
000F8
3CAA8
23F22
2A2B0
2E80E
1A0F3
0BAE3
03EA3
02CCF
0A302
30828
0FCA2
22CBC
280F2
2EAC2
03808
02FEA
0AEF0
2208C
2EEEB
23E0A
002F0
0CF3C
000B3
022B2
3E3FA
28CEC
00A08
0EA00
2883B
280AE
3ACEB
3888A
3F3A0
208CB
00300
2220A
0FBEF
0AC38
08F0B
2C2F0
28BBE
0AFC3
002CC
308A8
3CF20
0ACBE
00ACE
282C8
2AAB3
0F2AF
0A3F0
08388
3348A
3EEA2
28033
28032
1E3F8
3BA28
3C302
02EC0
28E32
2FE2B
202CA
0B0CF
203F3
32083
32EAA
00B32
22FEC
0283C
02870
282C0
288A2
30CEB
003BA
2C880
08BEB
330CA
3CEBA
3C8E3
08CB8
33EF3
202FA
3BA0C
02CEC
00EFC
03BA1
38B2E
3A28B
01ABD
3F000
2A0FE
2CEAC
0FB8E
2AB0E
032BA
0CE8A
2E228
30BEB
2822A
332AE
00E3E
2FE22
003A8
08EBC
32E2A
23A0C
200BB
0E232
3BACE
33B20
3A0A2
080CB
2F02C
2A0B2
28B83
3A820
00AE8
0ACB3
0CE08
3B8FF
3CF8C
3B01A
3CEF2
00CE3
3B3F0
3FA00
0CAAF
00E02
2C2CC
2A8CA
0E8EB
30FB0
0C28C
3B3CC
38808
2A8A2
080C3
20E28
2B838
2CAEE
288E8
208AA
08800
2A203
30C02
0B322
2A23E
38BA2
083BC
0CCAB
2C0CE
08AAF
0BF2C
2222B
2E08C
02ACB
0038B
0EA83
0023E
2C2C0
3EC2C
2EEF2
00A38
0C0AF
3CF28
3F2B2
38C00
083E2
3EEEB
22823
00E0A
22BA3
3B0CC
0003B
0C2E2
22B3F
3A8A0
2CE8B
2208E
0322C
300A8
2F08A
2F2CF
23BEA
2B28F
3BA80
0B2A3
0220A
3A332
3FE8B
2BCA2
03FBC
3CCA3
2BEB8
0BC3E
2CCC2
20E0C
0CC0B
3CB0B
2A838
00EAC
0CAF3
3B8CA
3EBB2
23F20
0083E
0EEB3
308C8
3B008
28ECA
0A328
38303
330EF
00E3E
2AF22
23282
23320
0F803
080C3
23282
08FBE
038A1
2BB03
3F838
3CE8B
0AB88
32080
22B30
22BEC
0FF02
2E81A
32C34
2BCE2
0C00A
3CC0C
2CEE3
3C080
0A2EC
30CA0
03BE8
3BB3F
0E2AE
0CF0C
3AF2E
20C20
38080
0EAF3
28C08
0E0F8
2C0A8
380F0
202F8
2802B
2B22A
0B28C
3CCCF
00202
0838F
30300
03BB3
28ACF
03223
3CC02
0FBAA
03B38
22C2E
0BEE8
092EA
3FFE3
0A83F
0B2C2
3B22C
22E3E
00E00
0B002
38070
3CA28
08EEF
00BF8
22E3E
282C3
0333C
0A018
0A202
30B0C
08C21
2308A
22B8C
23EE0
3AC3C
2020A
2320F
0C338
0BFAC
322FE
3EC03
3A332
0BC20
03F88
0020F
0AB80
008AF
03CCC
22823
0C880
2C0B2
20E83
2F282
28730
23AA8
20E8B
22F8A
30C2B
00038
3EBE0
33C00
2282A
3AFFB
28B2E
2CEA0
2FE3F
282CA
0CA82
38F0E
2A82B
3B30A
30CCB
0C87F
0BCFB
32C2F
2CC08
3A2BA
3A80F
23CCB
008C0
0FF88
3BEC3
3A2F8
20282
2B0E2
202FE
2FE8F
00A8C
328EA
0A03C
3B2AA
02ACA
28FF8
0CA2F
2FACC
383CE
0AEBB
0CAAB
00C88
2AB3B
0BF83
2DEF8
0C8EA
3C80F
3AECC
3ACF2
2F33B
0BCC2
2BE3F
08FCF
0A8A0
38282
02808
2B8EE
2EA3F
00AB6
08833
2E0BF
28E20
32B88
30CAC
0FFB0
0CBCA
20E8A
38FAF
3B20A
0C80A
2F3C0
3888E
3CACC
00883
2BC3C
2EF2C
2332F
3F0B3
3F13F
0FBB2
32C0E
23B21
098B0
3C3C3
2AE88
2CBC2
2888B
0C33C
3EBAF
03EFC
2C22A
080F8
0B0BC
0BBBF
30ACC
38A00
02EBE
23BCC
0BE0F
3F328
008A2
3E902
3AEAC
0CBCB
3E30F
3C1A0
0AEF2
2AEFA
300C8
23BC3
0BCA2
0223F
08F23
3703E
23CF0
3C283
00E08
2E2EA
2C200
2B8A0
0FE3F
2AABE
0BB22
0A33E
2CEA8
0B0F3
0CCF0
0388A
2C2EC
2AAAA
2083E
2E02C
3A233
0FB80
2E0C3
0BCC0
2332C
3BB3A
300A2
3080B
2BAA2
03CE2
3FFEB
00800
20038
30F03
2C820
30CFB
008B2
0EAAE
00AFE
30FFA
0EEA0
0C0F2
2BC30
032C8
3020A
280C3
32E33
00A3A
0F3AF
20F82
22A88
0FC8E
00E23
2ABC3
02CAA
2C032
32833
330FB
32E8F
02A82
3C0E8
022EC
3232F
22CB0
232B8
0F833
2E00B
382A8
03328
38682
02E0F
3BFFC
0000F
32C33
0BAE8
3EE2C
3A03E
2C33A
0233C
23200
2E2E8
3AC82
02AA3
2082B
083EA
22C0F
2FF0F
0232F
0083A
38C08
00EE2
28B2F
0A88F
3BE3F
2AAEC
3FA08
3EC3E
222A3
2CBFF
2888C
0BEB8
000B8
0A3A0
003CB
0A2C8
3B02A
00E8F
0202A
3833A
0838C
320AA
2BEAF
280CA
2ECCE
0A2CC
2A40F
2A8AA
32CC8
2CA3F
2B08A
2030B
2B03C
3A2A8
3AC02
2CEB8
2E8C0
0C08B
3BC2F
3C2B8
0322F
0B3C2
28F02
2FAA8
00E2F
0A30F
28C0F
2AEB2
08AEC
3E03A
3EFE2
0CEEB
2B0F0
28203
38C82
232B2
0300F
3F022
022C8
3F804
3FA8B
2A802
00382
3088C
0882E
28EE8
003F2
200C3
22200
02B0F
0F200
3A2B0
20B30
33000
33033
03E02
0238E
00A22
23CBA
0EAA0
22E8B
28F0C
0B083
0E038
3C30E
00CB2
38880
0022B
22283
00C0E
00A00
2CE8C
2033F
08230
0008E
0AFAE
3A2CF
3A0AA
2A202
0C8B0
33AFA
20AC0
3820E
30C8C
088FA
00000
30388
000A2
0FB8C
0028F
3AE8A
383FE
2BFCF
03AC2
03AB2
00202
2A202
2C288
39CE0
2B0E2
0C032
3FB38
00B2A
282A0
0F8A8
320C0
283E0
2E0FC
32333
0B80B
00CCE
083E0
0E0BB
0332C
38BBB
3F008
0FF32
383CA
0330F
0BB30
0F0FB
00E38
0AFAE
02EAB
0233A
02FD0
03CFC
2E3BA
38C3A
2A32C
3E302
0010F
088F3
3C0EF
0A00F
0AB8F
3F320
2BBCE
23AC2
3B200
2CFF0
0B38E
0EEBE
2A0EA
0E2F3
0CC2F
0E222
03CAF
2E3B8
3303F
23028
2300E
3FFB8
000C8
22823
3B22B
000BB
2C22E
2AB0C
38BA2
0CE83
2E28E
0F2E0
0BC28
208AA
0F2F3
03BEA
2B08F
08A38
3B2A3
088AA
3A002
3C0B0
2BCAA
00FA0
3CFAF
2BEBB
0BCBE
2CCFA
03C0E
00E8B
3E308
0A0B8
022AC
0E2C3
03202
3EF3C
13C83
2C0BE
02EBB
30B00
3B203
20EC8
02388
323BB
0F0C3
00C82
280EC
33208
0C32B
08EE0
23BEC
0C00B
00C83
2CBBB
2F82C
30AF2
2EA3A
020B2
2B802
33C3C
0020C
2333F
22A2A
20F82
333B8
0B0EB
3CE32
38A0E
202B3
0003C
0F233
03CCC
23EBE
3BC82
0A020
0FE8A
2E80C
2BECC
030F0
0C88A
3E80E
0A3F3
23AB8
0E82C
0C288
323A3
3FC0A
38888
00008
2B08E
03CAF
2B03B
2308C
23B22
30B8C
0FE2F
2A0F2
2CA3B
3CBA8
222A8
2FCCB
2B886
02C00
3FAFF
3380B
203AA
3AAC2
0034C
0832A
0830E
30B2E
3AE30
0B882
0ACE7
02C0E
00C3A
0A0B0
0BEA3
0C0BB
3EBEC
32A8A
0AE02
1CF02
2C030
2AC3B
200B2
302CC
03FC8
3833F
03EF2
0FBAB
0008A
3EA08
03F20
0BEBD
0080C
2A2F8
0E833
3FEC3
2ACFB
3B840
30803
2EE3A
28F30
2603A
2DCCA
03B88
2CFCB
3AD0C
2090E
0CC2B
03C02
000C3
10FC3
08B03
0AC8A
3EB3E
33EE0
28A33
2C332
03A33
28B2C
080CB
038A2
23E92
28233
0C0A8
3EE88
200CE
28C8F
3BCFA
032F2
23A8D
3AFFB
00AEF
2AAE3
32E83
2B3B0
0F0FF
2AE3F
2B0A8
0ABA3
00A8E
0F2FC
238C8
23AA8
3383E
2C222
2C2BC
02AAF
3CC0C
0238A
32F34
2CCE8
2E20A
23328
088A8
32803
2AC02
30C02
3FFC0
3F20E
08B08
3B3F3
20B2A
33C00
32332
3EA0E
38BC8
2CF3A
23E88
309F0
2AE0B
082A0
080A3
3B230
30CF3
002FE
28F3E
32BCC
302A3
023BE
3F23F
0FB0E
0302E
12B82
2A88E
03002
222BA
00302
2C7AB
2BBF2
3C8A2
23E3C
20EAA
03B02
3BCBC
0F8B3
30C8C
302B0
2E23D
08A0C
3B020
202A0
00800
322E0
2AC8E
0AB83
3CACF
201E0
3AFF0
1CE3A
3C8FF
2C3F3
3BFA8
32E82
3AEE3
3B3C2
0B308
0EAA0
00E22
00F30
3B380
0EB20
3BBB2
0CFC8
0AFC2
33382
2B023
20E8C
320FB
380FA
33823
3ACBC
0200A
3B0E2
2E080
20AC8
2B23A
0AAFF
028AC
022C0
2CC00
0230F
2CC83
3003F
208AB
2B8BA
03AA2
3C8EA
2EC08
08A0A
2EF8E
38EF2
3E2C8
0ACA2
330CC
28B82
28080
3CEEE
3A00A
2AF23
2B8B8
00EC3
2EA28
2F0A0
280BA
2F3CC
2AB3F
0B8AB
2FC8F
08E32
20AEB
0000A
3CC88
2CAFC
03AEE
22F30
2CA20
08332
0A3E2
0ACC0
0FCE8
23E0A
33FFA
300AE
0828B
00E32
0EF2A
33FEC
320FB
0EB8C
38BC3
080AE
3F003
0B8B0
328AC
28BC8
0FEF2
0E280
3C8F0
08E08
0ACCB
2903A
3383F
32CC3
002BC
03B2C
3BA2F
38C8F
222EE
3E32F
0E38E
2EEA3
0C73E
2BBEC
282A0
2A0BA
0AFC2
303EB
08DF8
30B2A
08EAC
22022
3A3BA
033AC
322AA
23FAC
28BFA
2223C
08E3C
2C8C0
2A032
302CA
0F30C
2803A
2038F
20230
32AFA
30202
2CC8B
2C80C
02E8B
38E23
3EEC8
2C80F
038E3
3838E
0FA03
00E0C
02FCF
20C28
028EB
0B3FB
3F0F0
32F2F
3C0C8
28A22
2008C
38F0B
0823A
33BBC
080A8
228AA
22CA3
2CA33
20F8A
0330A
2800C
3ABC0
03CA0
30C20
323EC
00A20
0AC0F
0F320
233BB
008FA
33EB0
23AFB
00EBC
2E32A
3A2A2
23EBE
3C0CA
0BBEB
0AE2C
2EE83
3F0EB
07382
23CA0
00ABB
00EC3
0D08A
3202A
3A8A0
2CAEB
0AAAE
3BA2C
238CC
0A02F
2A02A
1828A
38AEC
30B3B
2E280
222EC
2C223
0ACAF
00BC3
39803
03232
328CA
08EC0
0C33B
383A8
2BE82
2FE82
22FE2
23AC8
3AA0C
32308
0F0AE
2C3FB
28308
3E2BF
220AB
2BFFE
23F8A
3082C
3C3CE
0AAEB
2F0C2
38220
2EC0E
00BBC
38A20
08830
2C083
30003
32F03
30308
380A2
20B0F
20B2C
0C3EA
2088A
0AC3E
088BB
03000
3380A
28FF0
0ACB8
0B8AE
228FF
0F32A
2A2BF
08C2F
002EE
3B88C
38B8F
0A20C
3EF3C
2B2EA
20AA0
20C08
088CF
0C2C3
003F2
2CA3B
3300F
32A0F
2CCAC
320B2
338FF
003F0
0332A
28322
000EB
22A2A
0EA00
20883
2F000
008A3
3A8AE
00B0E
288A3
03BE3
02CCE
0B03C
2AFB0
328C2
23AC0
203E8
34202
3AF08
2C88F
3A8CE
0CFCA
2E300
00382
3ECC3
38F2C
0FF83
0C302
3088C
3A2C0
2302F
288A2
3AF8C
0222F
2C0EC
3BACB
2B003
003A0
0EF0C
0E00E
03B3F
0E03E
3022A
223E2
008F2
3EAE8
03022
2200C
20CE2
0A300
0F028
20EF2
20023
02300
2E0EB
2B0B8
3C8B0
002CB
38F3C
0BB0B
2FB08
2ACFA
0A3CF
03A00
2AAC2
2ECF0
00380
08E88
0B382
20BEC
0823F
0FCB3
0CA0C
3A8F8
30E2C
2E238
308B2
0AA20
0830C
0FAEE
330A3
00BBB
28B03
0F232
2C3C3
0C82A
300BC
00BB0
2A28B
0F083
3FF38
2F333
28A3F
0B88A
08C2E
2EE82
220F8
0C0E8
20A2B
30830
238BA
0CF8C
0E083
08830
2F32B
3A0C2
2B30A
2BF0E
300C0
0C88C
3808E
2F38E
30EC2
3FFA0
3CA0A
22AA8
320A8
02C20
3EF3B
0B08F
38A00
288FA
03CFA
2F382
0BA3C
28D0B
282E8
2B228
28F0B
00F00
00032
2AAAF
32C32
2238A
2B3C2
28AA0
2BBA0
0F2A2
20C08
0C002
3A2EA
3EC30
2A023
30B0E
0BC2F
2BAC8
00ABC
002B8
2380E
3B83A
230AA
02C88
38BC2
00203
3003C
30F38
32F22
2B280
3A032
063EC
20E8A
2E33C
2B00F
00AC2
22000
30A3C
2ABB8
003BF
2820C
0C333
3A3BB
0F220
3333A
00B03
32F03
3B00B
0EC0F
2CA30
22322
03CA0
2FCC3
2F8FC
2CC8A
0C0E8
2C082
08200
20B28
00F83
030BB
33BC2
0A302
023BE
2C2BB
233CA
0830C
08223
23202
0203A
0C30A
00231
0EF83
08338
0A302
02E2B
0C020
202F0
0A3F3
2C3CA
28BEE
3033C
200B3
0AAC3
02A08
30380
302CB
30B8C
00808
30328
20A38
2308E
20883
0AC0B
23A80
3BB8E
2CFA3
2B32F
3CBCA
00A8A
02B8E
303BE
0FB3E
20823
380CE
0E383
33CC2
283C0
0FC2C
23E0C
002F3
0C08E
03ACC
30022
0C3AF
3C0F2
02DAA
283EF
02F2A
0B003
00E3F
02BCC
2A80B
33C0F
030A0
0F00C
2223C
3A8CF
28238
20F23
22F8C
002CA
0A30A
0E82F
3B08B
0000C
2A20F
2B8B3
08BBE
2E82A
2A8E0
0B032
0E02A
0EBEA
22B02
2F3FE
2EAAC
0AEBE
0E82A
3EF06
3BFFA
0FCC3
0BC8F
0CA30
320B2
2AACC
33C2E
0FC22
3CAC8
0AE9A
28F2C
223A2
2F0C3
23233
38AFE
282B8
30200
0F8B0
303F3
2EE8A
0202B
3828E
0B3AF
31E00
00E02
0A888
222C2
22E32
00B3C
2C0CB
0AA22
30E28
0B333
0BBB8
33BA3
3FE20
3A032
0223B
2E0B0
0080A
2C30A
0ACF3
2B20E
2CAE3
2EFBB
3830F
0CC0B
3A38B
20C02
32B02
00EEF
020FC
0E02C
00A30
08001
22B03
0823F
2E0E0
0A203
20C08
02E82
3C3EC
08E83
2F3CC
230FA
33230
22FC0
00080
3E322
38CBA
2E8A2
2F332
3AC8C
2BF0C
330A0
2FF83
0EEEC
28CC8
3B08E
2A22E
3C0A0
2020C
08AAC
00CAC
2E030
3338B
3C2E0
0E8A2
2C8B8
38A88
000CF
3CEB0
2CCCC
3EC30
2F21A
33BCE
32BF2
2C2CA
0333E
2AE0A
2E032
308E0
0A30F
008F8
23033
2223C
333AC
320AB
307B0
33C3E
00C0A
3C8E0
3B2A8
0A0BB
2CEE2
2ABBC
360EA
0EE8B
2CCAF
030EE
08A2A
2028A
0F2CF
3C2EA
20E08
03888
30F2C
3AA32
3A38C
0C2C8
20CA2
2F383
0CF00
03E8B
0AE0E
0C0CE
000AF
3FC28
2CB8C
0A8FB
2302E
03200
0BBC0
0C88E
2C083
3E832
32E00
3FBE8
20E0A
030F8
0A000
3C300
030FB
0000F
00ACF
20C82
03CA3
3B0F3
3ECCB
32F2E
320E8
20AC2
3BA3B
38C2B
2F00A
0C88E
28200
2EC0A
3CEE3
3E238
2A38A
02A3A
0002E
3EB2E
08EE8
20028
3E8E3
0AE03
32030
0F3E0
28B0E
2AB3A
33080
230B8
38F0C
3EFAE
00EA2
23CCA
02038
0C2A8
20CB0
03830
3FCC3
002EE
2BE3A
33030
00EC3
2B32B
2C3BA
2030E
2BBB3
3323B
2308E
383AA
2FF23
083F3
3F0FB
002BB
0A3AE
02C8B
0EBF2
22328
38CCC
0C338
38C38
2B0EE
3E208
00DE3
08AF0
3EECF
28CEC
3A0AF
3F320
0B8C2
2FA02
38CC8
2EF0A
08F8E
02EBC
283E2
3AACB
30C2F
02822
0022F
2E230
0333F
082B3
23CAC
3FFBA
002FA
20283
0AF0B
008B2
0B00E
3C0CB
3A30A
3F0AA
2A033
2BCB8
3022B
3AC28
00CAF
382F0
2C22A
3B000
381BB
0AA80
3B2B8
3080B
080EA
0B2E0
20002
00ECF
22CEC
3C80F
0E22B
3283E
22ACF
30BA2
3A0C2
03833
20FAF
382EB
2803A
2A2A3
02A2F
233EE
0428C
2CEF2
0A0BA
200AA
283CF
0082F
00223
032C0
3EEFB
38AA2
03BE0
00CF0
2CCBE
2238C
20080
38030
2E23A
00B8A
2B8B8
33CEC
2F2BC
303B3
228F2
20002
300B8
3082B
3333C
20A3C
0020A
08A3C
0BE30
20A0E
00032
0BCA3
2E280
0328A
32820
2BEC2
08FFA
0F88A
2C3E2
3A033
2FA88
3EBC0
2233B
08322
3CFFA
08BA8
00328
2B22C
0838C
33ACF
022B2
3CC03
3CB00
33E80
0000E
3A00C
32FAA
02082
02C03
20A23
23200
338A8
28F02
2AC8A
0302C
0E3BF
038EA
2033C
0CC83
2220E
38B8C
2C32F
0A202
30B03
302C0
22A80
008BF
3AAEC
002C8
3EF03
3F038
0BB33
2EC03
0B3A8
330C2
283CE
0E3C3
30008
20320
00E28
08203
338B8
2E388
18C2E
28BCF
02887
22E8B
2C28C
0EB02
3EBE8
0CABB
28AB0
0B0A3
303BC
0FB3B
2B8F3
2200A
2A3CC
2B832
2B0AF
3C3F0
3002E
13EB0
33BB3
008E0
0008C
3087B
0ECBE
38B02
33EBA
2E23F
0BE0B
0828A
22F3C
3CA0E
2A3FB
330BA
080C3
0CEBA
2C303
2CEC8
33888
00AB0
0CB28
3CBA0
28282
2222C
268EE
08AAF
0382C
02F0B
2BF20
3C88A
00E0A
0B2E0
0ACC2
228CA
3B808
3E22E
0A200
2F332
3C22F
22C0A
2B0CF
283F8
30003
30002
3C32E
2AE80
0A23E
228B0
288C3
0B82A
38FE2
3A0C0
2C30C
2FAEB
3B0CB
3C282
0C3E3
028B0
30CC3
282F8
33382
2EE8C
00EF8
0EAE0
00C0A
080B0
08038
3AB28
3231E
3CEEB
282FC
3F00F
3A3EA
2F238
2EF8E
2823A
2E302
0F8EB
02E8B
3A082
22B8C
00023
00322
18AF8
20320
0E823
32E20
20BB2
3F2E2
0223E
288FA
03883
0F3B0
32FC0
0A3AC
0FE22
2C0F8
00A03
2CA8A
2FC0E
2CCF2
0F0F0
322FE
28E3A
0BC08
0028B
2FAE0
0CA0B
23BAC
0BC38
20BC0
34BA0
0C008
00C03
0B0E3
3E0E8
0BE3B
20ECC
08E2E
2FE32
0CFEB
30E32
008AA
0E838
300EC
3EFEA
00238
00382
3C2E0
08C00
23C20
2F3E0
0AB0E
22B38
2302F
08082
0BF8E
3C82C
0C2AE
1FACF
30883
3E082
28FBE
2C00B
0FCFB
320FC
38E22
022C3
000FA
0BBC0
20C80
040BE
28AE3
3FA32
0E232
22E23
2CB0B
288AC
23AB2
0CABA
283A0
0F3EB
2AEF8
08283
3C20F
0208E
0AC0A
0BFF0
3AEA0
23EAC
288CA
2EA83
3AECC
0AB0C
00CBC
0EEE0
2F83F
083C0
00300
2F282
328B8
0A20E
2AF00
3CAEF
0ECA8
38ECF
2C230
0CB2B
08022
23E3E
3FE0F
0022F
024A0
3BA28
2A3B2
2A0E2
0A3E0
3A8A8
03DA3
203FF
23BEE
3A32A
0EC8A
2BC3E
308EA
232C3
0BA2A
0AECE
3A28A
383AE
3F8EF
02E2A
28E83
303C0
0E2C3
02EBC
3CB0C
0A200
32E0B
2CBCB
03BFB
2032E
0C0CF
3BE03
2E800
2C02B
3F23F
02DB0
0C0E0
38CF0
383FC
0A0F8
30A0A
283F2
003CF
03082
3FA20
0E3CE
2A3C2
00323
2F2E2
20E02
2800F
0AB82
2A8AB
08E3B
0228E
3ECF3
0E33A
3C3E3
2B3CB
0802A
003C3
288FE
208B2
3EAF3
20282
2FC88
08883
02B23
0BB33
3088B
2F88C
3020B
30300
03EC0
20A80
3208A
0A2CF
0C202
0CAAA
3CBAE
0A2F8
2CE02
2E2C2
22CE2
0383F
00A80
20AB0
02C3A
00A8D
03A30
020FB
220FA
3CC28
28FBF
3BBAB
30A23
00E0B
2AA0C
0B208
2C28B
30028
2E000
200BA
0C228
2EAE8
220B2
00388
00FAB
08EAF
03E32
3E82A
3CC20
0080F
02F3C
32A33
3E8FE
200FF
03C03
2C220
2A0CF
200AB
32000
20BEB
0B20E
2332E
2C028
33A3A
30FF3
00CEA
0E8E0
38E08
22B8A
2FC02
2A330
0A00E
3CFAB
20F8F
3F20E
2AA88
0AC3A
3CAC0
0B3E8
22088
00ABB
0C0AF
3AA32
022BF
3E22A
02C22
20BA8
38FAB
00A0B
3BEFC
0C0EE
3EC0C
2F0A3
0833E
3BB32
0F22C
0F300
0B8CA
028A1
02C03
0A0B2
3AE30
0320B
23280
23000
3A0A3
3C083
3CCF0
00C0A
30B00
3AB3A
0888B
0AC00
3C803
3A302
38E2E
23B03
2B3CC
03002
2A800
0CCE0
00BC2
28BEA
28A2A
08E0C
3CE8C
3B320
2833F
30EAB
2AA8F
38EF0
02ACC
38AA0
3882C
0AAA3
2A0F8
02AEA
28808
0F303
0283C
332E3
0A3F2
2E2C3
33AF3
33CB0
30FAC
3CFB0
3B3FF
2A330
0E3E8
283AC
00C00
0C2C8
338C2
208A0
0CFAA
0003C
382C3
0083C
0CC2F
2B0E0
02C38
28802
002E3
308BA
032C0
003A2
02FCC
20808
020AC
30C8A
32E28
0C8CC
00028
3E230
0800C
2BC3C
208F0
03822
0B800
00208
2C0E2
0830E
20EE0
00032
3002B
38033
03280
03A20
000C8
00E88
022CC
30B0C
00038
003C2
223E3
0EC23
2AFB0
0BAE8
3A8E8
008AC
20F00
00EF8
382F8
333FB
3F206
28CAE
38222
2DEFE
3FF23
2FECA
22FAA
2CC32
3BCEF
30B2A
00208
008CE
3F0EB
0A2EF
3A3B0
23BE2
328FA
28BBA
333AF
22B02
3BEC0
32BBE
0022E
230C3
0CAEB
2E2AA
0ECFF
22238
0F30B
022FA
28EF0
32E08
0023F
3C220
3CB2F
2080E
32AAE
2AB08
0C80B
03C8A
0AFAB
233AE
3F220
03C00
08C80
20020
238EE
0B03C
0AFC0
20012
0883C
3E080
08C28
320C0
2C30C
00CC3
2CC33
0FB0E
02082
0AAE2
00BF2
228EB
208E2
33CC2
00A08
2C08C
0EA3B
28C83
3C08C
20B0E
0A032
0FE3A
0E23A
32300
28CEB
00AF3
0C7EE
33E08
22B8A
03E22
2ABB2
3802E
0CCA3
2BFAF
3F2EE
28A8A
0023A
3C0CE
308E2
20EEB
0C903
3EF2F
22AB2
28EAB
3C282
302A2
2CBEB
3030C
38C0B
38E0C
3FEEC
3EF0C
20A2A
23BBC
3BB38
2F22C
3E230
0BFF2
2E282
2EC20
32C0E
00EF2
3F03B
2C20E
2FB38
3A08F
3CA8E
3FCC0
00CC0
3082A
0280A
283AB
0CEBC
3A833
3B3CA
362A2
28023
233C3
3FCE2
008B3
022C2
208CA
23A02
28A2A
28E0C
32E08
238E0
28BC2
28CA2
0A80C
30E80
28A0C
0B2A0
0808C
08CAB
28A30
302EA
0020B
0C30F
22CF0
3FA2F
22BFE
222FF
3CAB0
0338F
33C22
38C0C
0B33C
0A202
0CF2B
2E0A8
00FFC
32B88
0BE0B
33802
20BAF
2AB30
3C8EA
2BEE0
008A2
3232B
22AA8
08238
338CB
2FC2B
0EEF8
2FB04
2FB23
2A2EC
3AAF8
03F2A
20B2C
2FFEF
00BCC
2808B
2B2BE
0E0E3
30E3F
223BF
2CBB0
3A238
0222F
2C20A
00332
3A820
08FFB
0FE8E
28E88
3A2B0
0B23C
02E0A
200A8
3CFFC
3C0BF
00888
2B023
2CC00
203B0
0B383
2B203
2BBBB
30082
2E2FA
39B3B
3FBCB
0CE83
0238A
00080
300CE
08B23
08230
2FABA
320FA
2B338
23003
000C0
30A22
20E8C
0BBCC
0B000
3FCA8
28A00
22102
3ACEE
023B8
233FF
0F2BC
061C2
06E38
3C2CC
22B88
3BE08
2A0C3
0CC08
28F2F
2BF38
38088
002C8
231EC
2A32A
2B00F
032B3
0CCEC
38F80
30B80
0CA2E
238CF
3802A
3C0FA
38C2C
2898C
2C023
333D8
20C3A
0938A
032A8
2EFEC
0282A
00C8B
0CE20
0A0EC
38C0F
0830B
233FA
233CC
02FCA
238BE
0C033
38F2E
0C002
3EFE0
0FB08
280FB
20088
2CC00
333C8
03020
323CF
00228
2EEE8
00DF8
2ECE2
2FCC0
03A82
030B3
02000
3B3C2
0CCF3
2AC20
3B23B
3028A
2FEA8
2C22F
2AACA
2E282
0CEAF
0CB0B
2F83E
0AA00
0AF28
28EC8
07BC8
3C02F
382EB
2B2B2
00C8A
3FFEC
2B8CB
2F23C
302B3
2F3EF
088F0
338BE
2CE2E
2FE0F
00C3A
322A8
3F0CA
2BE0C
03B3A
3E03A
2F0CF
3CCFB
00238
2A0A3
2F88F
2033A
20CCC
2A30F
0BBAA
2CC8F
20222
0E808
3382B
2F28B
2BAB0
2B383
3E3BF
3C83F
3BAC3
2088A
0ACE0
08C0A
2BF8C
30BF0
0002C
03E8A
0BB3E
002EA
2F0A0
3E0B8
223B2
3AF80
30F00
3E20B
08288
3A08E
28FF0
0CA3E
02C3B
33038
3A2F3
0EE08
2830C
0CCC0
030AB
00880
30AA2
2BA2C
22E02
0C0E0
28B00
332C3
0EE03
38B08
0A308
0E8A3
0B030
33AC8
08FFF
38208
2C3CA
0CB22
2ACEE
2033C
0F2E2
08222
20CCF
283B3
33CA2
0BB3C
080A8
00AB3
02303
3F272
028C3
0020E
20CA8
0CB20
30F02
03BEB
0F002
0A2A8
00BFC
088C0
00A80
23328
3A822
0030E
00CAA
