0000006C
000001B5
0000001A
00000075
00000022
00000030
FFFFFFF7
000000AE
FFFFFFFE
00000000
00000048
FFFFFF99
0000000D
FFFFFF99
FFFFFFA3
FFFFFF47
0000007D
000000FD
00000235
00000008
0000007A
0000006D
0000003E
FFFFFFBE
FFFFFFFE
0000003B
00000097
FFFFFEC6
0000007D
00000157
FFFFFFD5
FFFFFFC9
FFFFFFB1
000000E6
00000036
00000073
FFFFFF11
000000CD
FFFFFFB8
000000FA
00000080
FFFFFFB3
FFFFFF6D
FFFFFF27
FFFFFE40
0000001E
00000136
FFFFFFD5
FFFFFF4E
000000B8
FFFFFFE2
000001CB
FFFFFFA6
00000014
000000F0
FFFFFF7C
0000007B
0000012C
0000000B
FFFFFFD2
00000081
0000010F
0000003B
000000C1
0000002B
00000040
FFFFFEAB
FFFFFFC1
0000006F
000000AA
FFFFFF8B
00000060
00000036
000000E8
FFFFFF57
FFFFFFD3
FFFFFF23
FFFFFF9B
0000005F
FFFFFFF6
00000026
FFFFFF37
FFFFFFFA
0000004D
000000A0
000000EB
FFFFFFF4
FFFFFF9E
000000D6
FFFFFF52
00000294
FFFFFF6E
000000BF
FFFFFF3E
FFFFFECA
00000059
