0FFFC
0C0CB
3BEC3
333E8
00C33
3820A
08E22
2AA2A
020AA
3FCFF
0FFE3
32C0B
23CFF
0ACFC
2AA00
0828A
2020C
2AAAA
03A88
203FC
38233
33303
3FC8A
3F8E8
00EEA
03CF3
3FBFF
02028
332B8
02BA0
0A283
08C0C
3FFCF
3ACB0
03F22
3023F
23208
000CC
2FBEA
2AAAA
30028
3CCE0
383CA
0AABA
2A282
2EA8A
3FF20
28AAA
3FACA
28ABB
0FBEA
3328A
2CB0C
28A80
2AA80
028E8
0FB03
0CAAA
223FF
0A88A
2AA88
28AAA
0AAAA
3CFFC
30800
022C3
20E3B
2F28A
00000
03A08
0FA0A
303EA
32A28
3FBC2
00000
2800F
02C0C
0B2C0
3CF03
3FFF2
00000
2E3E0
30EBF
3FF38
03038
28AAA
3303A
2AA08
3EF2A
2AAA8
223A2
33A8C
32E33
33038
0B2A2
33AC8
0AAAA
3CF33
0FBC3
2AA2A
2002A
20AB2
2A282
03EC0
2AAAA
38C80
0AA2A
3B2B0
3FC28
00000
23A28
0BFFB
002AA
33E3F
28A23
202FF
0CB0E
2822A
0B2F3
208C0
2233F
3E283
22A2A
232BC
08203
23A8A
0AC00
3FFFF
320B2
3BAA2
33230
28AAB
00000
28BEA
33C00
38F3C
3ECA0
082C0
28ABE
00B2C
00C30
00FFF
0283E
02288
2030A
0F3C3
2ABCC
3CFBE
0B2B0
332F3
00280
30C8A
3FFFF
033EA
0F3E0
2A203
23C38
333FC
3FF03
0088B
0FB28
03AA8
2A233
033CF
2AC08
022BA
2B288
2AAA8
2F8C2
3F3EF
08C33
202AA
23238
2ACFC
20C0A
30238
03CFF
0F238
08AB8
0C00C
0003F
03FFF
3FFFE
08C3C
33E08
0AE3A
0F3E3
33FF0
08C0F
0AA8A
3CFFB
0B2C3
30F30
30EB2
3C8A2
03F3E
0E322
0FF0C
2E38E
2AEA2
200A2
3EFEE
0C32E
3BEA0
0C3AA
20A8E
003B2
2F82E
2C32E
29AA2
0E8AA
0A382
0C8AA
0FF02
222A0
2A2AA
0C0BF
0C33C
03CE2
00382
3C3EE
388AA
00BA2
0C30E
20C0E
2A28E
000BF
0EB2A
228A2
3FFFF
20A00
2AA82
33C8C
08E0E
0F88E
202AA
3C38C
008AA
2CF22
28A2A
0F33F
3FCFC
03F02
2E3A2
33CAC
0A0A2
32F2A
20F0A
2B03E
0C800
3FFFC
3F3CC
2A8A2
0A2AA
228AE
030BE
3E0AA
0A00A
3C32E
2A288
00000
2CB3F
2A2AA
00B23
288AA
23020
00000
3F32C
03E0A
008AA
28EA2
0BF3E
00000
23A82
0E0A2
230BE
00C82
3C00C
20EB2
2A2AE
2288E
03882
2FA8C
2BA22
3C3AC
3CF0C
22BAE
20F8F
0A28E
03ECE
03C0C
20A20
0A888
00F3E
2A023
3C2A0
29AA2
0E88A
3C822
0C3E2
2F30A
00000
330CC
3FFBF
2E3A2
3C022
23A88
0C320
23EFA
0EFAC
3C32E
08FC2
0C322
0BECA
3FFCF
3CFC0
20B22
0EF8E
0FFFF
3F0E8
228BE
228A1
0E32A
000CE
00000
28000
23AAA
2E8A2
2F88C
2000C
3EF8A
0CB20
2CA8A
0EBAA
0FAEE
000A2
2A83F
23C3C
3F30C
3F03C
3CFEA
3030C
002BE
2CB22
03CC2
02882
233CE
0C0BC
3F20F
32820
23022
0EC3A
0BAAA
0A2AA
22B8E
22BA2
22AB0
3FABC
2E082
2AAAA
0332E
233A2
3C322
2AAAA
0833C
0CF20
20EA2
3C888
3C322
0B002
3EBAA
0CF22
0AAAA
3FF0C
0BC0E
308AA
2E0AA
223FC
0C0AE
3F0CE
3AC3E
020BE
02022
3E3E2
0E2B0
23F00
3FCE8
3F300
2CCC3
3C320
0AAB3
2CFBA
00228
08CFC
2AAAA
22000
2C0FF
20BF2
32AAA
03828
089A8
3FF38
3CF00
28BF3
2AAAA
3FAA8
020EA
082A8
0023F
0F002
0382A
00FC2
002BF
3F3F3
23333
223E8
0A008
0AAA2
03F00
2A0FC
30A8A
3F322
0A03F
3EE3A
02FB0
00F28
03030
00A2A
03333
30A8A
30A8B
33C3A
3FC2A
2AAAB
3FA2A
3333C
3F02A
3228A
30AA8
0033F
0CAEA
3CC88
00C0C
3CF0C
022AA
3CE23
30AAA
028C3
0CCF3
3FF00
08000
0FFC0
00000
0AAAA
3FC08
0F0C3
3FF30
3E8C8
00000
2A0FC
0AA88
00C00
3002A
0AAEB
00000
33288
3F223
0AAA8
00AAA
0CCCC
3A20A
02E3B
3C0EB
30288
0A3E0
3F228
00FFB
03CF3
3F2B0
002AA
3CE32
2AAC3
0FAAA
3FFFF
3CC03
38A8F
3EEB0
3CE0F
3FC22
3CC03
03C00
3F0C0
28AE3
00000
0028A
3CA30
32AAA
2AA0A
002A0
03EB0
3C28A
00E0F
2AF33
3C033
223F3
28A2B
2F3C8
3FE80
2AA8A
32A2A
2F022
2A088
3C2AA
32AAA
0AA0F
08C3A
00000
0CCC0
33F00
28003
3CFC3
2282A
022BF
3028A
3C9AA
2A3CF
0C3E0
28F3C
202EA
03002
2A222
3A0BF
0303F
3FEFF
0F28A
00CCC
0FAE8
08300
30AA8
2AC3F
3FCE2
2A280
320FB
00C3C
3FC03
3FC2A
0FFFF
2823C
0220C
3F020
3A98B
3FCBA
3CA2A
08A8B
280B0
00838
3FEAA
28CC0
00302
30008
2A080
3FE80
28CFF
0333F
0CFC0
2A200
30A23
02B03
02CBF
0330E
00A88
32F3F
2A03F
082BF
3FF03
2AA28
020BE
0F3FC
22A08
3C03C
083B0
22A8A
00A82
288BE
2AAA2
03FCC
0A02A
3CF2E
03A0B
3EF3C
3C3CB
22F22
02A8F
28A3E
0F0C0
2AAB2
202B0
0CFCF
28A00
02F32
383CE
0FFFF
3CFFF
0AC80
2230C
0AC8E
2A08E
2AA82
3CFFF
02082
0A3C2
20A32
002CC
0FFFF
3AFB2
2033E
2F33E
3F303
3AFA2
2A0A0
0AA02
28A8A
3FFFF
288FE
0203A
2E33E
303CF
23A00
3FFFB
20B8C
238A2
3A302
3CFCF
2AAAA
200C0
0F3C3
2A08E
0AE8A
080A2
3EFFF
2BC08
2AC02
28EBC
32CBA
00000
3233C
0AABA
0AA4A
00F8E
3CFF0
00000
0CA23
3F3FC
0BC00
3CF3F
32F0F
00000
02300
08233
3FF3F
20ABA
2AA8A
02F83
2A83C
2A28A
2AAB0
2AE82
3A0F3
022BC
3E3FB
30082
2002A
2A282
3AF0C
0CF0F
3A008
08EBA
28A28
2A24A
0AC82
282AA
0AB0C
2AA2A
0F03C
00320
00000
30A08
02E82
2F3C0
08E3F
2FB0E
2AA28
003BC
2A2A2
00A0A
03CC3
20AAA
2A28C
0C2FB
20A0A
030E8
2C03F
0A082
2A03F
02C8F
00C0E
0C8F0
23802
00000
26A6A
3EFBF
3ACB2
32F3C
2AABA
2A28A
0223C
2FB30
2C023
2A0AA
2AEBC
2AAB2
0E3B3
2AA8A
0EF80
02C3C
2AA8C
2880E
32F33
3FFCF
0AC32
02880
2A33F
02F8E
02E32
30F3F
2A08A
2203E
2C032
2A282
280A2
2AA8A
38FBA
280BE
18B0E
0FFFC
3AFC3
08A33
2AA8A
082B2
0F280
020BC
2A8BA
0C00A
2AA8A
008C0
000F8
08EA0
0323A
3EFCF
32C33
008EB
2AAAA
00283
32C02
3FCFC
282AA
33F0C
00888
08032
2C3EA
203E3
2A0AA
00CE0
283EA
3F3EA
08BCC
0A28A
03FE3
22AC3
20CEA
22FE3
2A0F3
0A382
03CC0
02F3E
2080C
38CC3
2BAE3
2BBFF
00E8A
003E0
3FE32
3F3E2
2A02A
3AE8A
02CE0
2AFCF
3003E
28CCC
282E0
28220
330EB
28CCA
22FC0
32302
2ACAA
2BAE3
0CA22
03222
00A20
3AFFE
3FAE2
03FCF
0AFBA
02CB2
30FA2
2BFCA
00FF0
02F0A
203C3
0AFB2
0E282
0AC82
2B8FF
32C0A
383C2
00CAA
0AC0A
3E800
2CF82
02FBA
00E02
3E3E2
20BAE
2ABEF
0F3B2
00000
3EF3E
003FE
28002
33820
30C8A
00000
22FE2
0ACBA
00C20
30C02
3C2AA
00000
2000A
0E300
322AA
30FB2
283CA
02FCA
088E2
20CCA
0CF3E
2BAE3
3EF0A
28CFF
2A3E8
30E38
32020
2AF3A
082C8
02CAA
3FE30
080B2
32FC2
2CF0A
08032
00F32
2AFCC
22F3C
2BBC3
0AE3A
00000
0EF8A
20FCA
0EF02
28808
0AFCA
2BFCE
0A0BA
208CA
20B00
32F3A
0FFFF
3A2AA
2AFEA
0A000
023AE
32E32
28FAA
280C0
20CC2
32C82
20FEF
2238E
00000
2B228
2A2AA
283CC
3ACC2
283EA
32FCC
0AF8A
0AF8A
2FFE3
2022A
28FFC
2B2C2
0AFCA
2B8C0
0F3CA
00CFC
2B3EA
0ACF2
0C302
38FCA
28AC0
0AF0E
20FF2
2FFEA
28BCF
200F3
2830E
3A0CA
3038E
28332
208C3
23FFE
2FFCA
3EF8A
00B3E
3A282
3ACB2
2BBE3
33FFE
2ABBA
2E3EA
283CA
2BF3A
2A3E0
0AFBC
208EF
00C00
00CE2
280EF
0C2AA
200F3
0CFE3
2AF2A
32C32
28FE8
2BFF3
3FFC2
22280
230E3
0A8EA
0022C
0C3CF
00FEA
00FA0
02F20
0C3CE
3A02A
2AE2A
3E322
2282E
30A02
0CB3C
20FEA
22C22
0C38C
3FC0E
002AA
333FF
2AFC0
228AA
3F330
22000
280AA
038BF
220AA
0AAAA
3CFC2
0C30C
0CFEA
3FFC0
2AFE2
22C2A
0033C
3CF3C
0CFC8
2F33C
3C002
2AFEA
03CEB
3CAAA
000EA
0F30C
3FF22
2CFE2
3C300
0A8A2
0FA28
08F0A
3F08F
08FCA
2CF00
0A22A
0E020
0FCFE
3FC2A
2828A
3FF3F
0AF02
0C33C
03BCF
2A82A
2EBAC
00F0A
0030A
0EFEA
2E382
2AAEA
00000
3330C
2AAAA
2AFEA
3FEAA
2A2AA
00000
0CFEC
0F020
233EA
22AAA
20AA2
00000
20C2A
3E828
228AE
3FB03
2AFEA
3CC0E
030A0
2AFFF
22AAF
2833E
03E02
0CFE2
3FFAE
3C3FC
20CCA
00CEA
3C232
220AA
0FFC2
0A22A
3F03F
02FE8
0C0E0
0A322
0CFE2
00FE2
0C3A2
0F028
00000
082E8
20FCC
0C30C
22AAA
00C3C
0FFF0
332AA
2233F
2E02A
08AA8
0CF3C
0F2AA
23303
33820
0A0EC
0C0AE
0FFE2
2ABAA
3F023
3F80E
02B22
20A2A
00000
28FE8
0CC22
0EFE2
0FFEA
2CFC0
3C2BC
00FEA
2C022
0C30C
3FF02
0CFCA
2A302
0AFCA
0AFCA
3F220
00BE0
3FFCC
30C2A
2F282
2A0BA
28F22
3228A
3FFC0
02FFF
02822
0EF02
3FFC2
003EA
00228
3CFCC
30FE2
3CFC0
2283F
0C03C
3CAAA
2A82A
3CA2A
2EB22
2AFEA
0AA2A
0CBEE
22FEA
22FF3
223A2
3C03F
3E33C
3C30F
20322
22FCA
380EA
0AFEA
2C30C
3CFCC
0E22A
0ACE0
0CFE0
233FF
0022A
020C2
3F330
233EF
3F8A8
2A0FF
08030
00A0A
2AABF
0A203
0230C
0FA80
0FB3F
2AF8F
03B20
280F3
2AA83
00800
2AABF
3C2CF
03F20
3F002
0C2AA
38ABF
3F32A
0020C
03FCF
0330A
00B3C
08FCF
3FAB0
3CBC0
200C0
0A202
0023C
2A283
3C3CF
0A3E3
2AA8E
3C3EB
000C8
2A2EF
30823
3FE80
08FF3
28280
32AB8
2AA8F
0AA3F
20AE3
0F000
2AAA3
238C3
3EE82
30300
0AABF
2AABF
00333
238FE
3808C
2C80A
28033
0AAAF
3CF8B
28ABF
0000E
0F288
30E3C
3F2A2
0E38B
00000
2AAAC
3FC08
3C003
08000
0C8FE
00000
30C00
2AABF
33302
0C2BF
0A00F
00000
2A0BF
3FA80
2A23C
2AA8F
0FC03
2AE8C
0A22F
00FC8
0AABC
0B3C3
0BA3C
23A2C
3FA3B
0A03F
303C2
3CFB0
2A2B2
288C0
38FCC
3FF83
26ABF
3FFB3
2CC3F
00CB3
00033
2AA00
3F222
023FF
00000
2AA8B
0FFCF
02A8F
3F038
0030F
2020C
2AABF
28C80
3C22B
2A23F
202B8
2AA88
28808
33AA8
0AA8F
2AAB3
33C28
3F8E2
28A03
0AABF
3F22A
08ACF
00000
00C3C
02AF3
2E00F
088BC
2BFC3
2A2BF
0AAB3
2AA8F
20B80
30C2A
223CF
20833
0F0CC
3F002
0AC20
3FA88
0F0FF
3828F
00E2E
030FF
03F28
08A33
2A08F
2030C
3F20A
20A00
30FCC
2A20F
38283
2233F
00008
03F2C
3C3F0
26ABF
08A2F
20800
2AAFF
3FA8A
2AC88
0C0AA
3F203
2830F
30F2B
3C0AA
0AAAC
3FC88
02A8C
3EEC0
3308A
0AF3C
2AFCF
3FB2A
08328
0AA3F
2833C
02230
28FFF
03FCF
3FFEB
28208
000B0
2FCC0
08E82
03038
2BAEA
3E38E
0EF02
0A230
33C08
2AA28
238A2
0AB03
2BA08
0E80A
23238
3E30E
3FC30
28EF0
3BAE3
23803
33C02
200C0
0EB02
28A3F
0B2E3
3A082
08AF8
0C388
00CC3
082F3
2AA00
238C8
32202
2BA2A
3BCF3
3AA8F
2AAAA
3323F
3E30E
0A2B2
00828
28A0A
30FCC
0B03F
08E3A
02AA2
3AEBA
26228
3FC30
2AE02
0FEFB
23EB8
0EB02
082BA
03C3F
3A2B2
28AAA
30828
08AAA
0EB3E
2AA8C
3AEB8
03808
33FF0
2BCC3
33CC3
3AA38
00000
3E0B0
2EA80
2BA8A
2B8BA
08A02
00000
22C08
30C30
0A033
0A882
2328E
00000
082FA
0C080
33CCC
02282
2882A
30E03
0CBCE
28AE8
3FFE2
0B23F
32F8E
2B2FB
28AAA
0FC3E
2A8EA
2B828
030F0
08A02
0FCCF
082B8
00CBF
2B0CB
380C0
02282
28AFB
03C0B
33AE8
2AAB2
00000
0FFCC
282CB
30E82
002C8
0AC8A
03FC3
0B0FC
2BA28
33333
2A22A
333C0
3FCF0
2BAAA
30FBC
2EBA8
0000A
03EFA
03EC3
2EF8E
32382
0CEC0
32F8E
00000
2BA88
3BEC0
2BA03
23CC3
3BCFB
0FFCC
00FE2
38EBA
000E3
0BAB2
28ACB
2B28A
38EF8
28808
2E0F3
3F3EB
0BCF3
0AA00
38F80
0AAAA
20AF3
2AA0A
0CC30
2A228
0B8EB
0BEF8
20EB0
2A20A
0C002
2BAC8
03CCB
0BFF3
28203
300BC
3FCBA
0AAA2
22ABA
0C20B
2A238
2AA0A
0CF02
28ABA
2B2EA
2BA2A
0BAAA
302EB
0383C
00C0C
2B2CB
2083E
0B2F3
2B220
08ECA
02322
3FCC3
2BEFB
0AE08
2B0CF
0C080
020A8
3AA8E
3302C
28220
3FF00
0FC00
3AEB8
00AB8
30CA0
3F800
2C8A0
30A8F
0FCC0
3F030
28AAA
2A282
2AA8A
03AAA
03CFF
3FF0A
2AAAB
3F3C3
222AA
3CE8E
322B2
20828
208BC
000C3
00820
0F3F3
03033
0C00A
333C8
30030
223CF
2AC0C
30802
0FFC0
30C8A
3AEAA
02280
3FCCB
0A3FC
3A2BA
0C823
32282
2AAA8
32A80
3CE02
3AA40
2C800
38C00
033C0
38A80
00AB3
2830B
0FBF0
002F3
2C3F2
0033F
32EB0
3EFB8
32E82
32FF3
3CCAE
30308
3F082
32EBB
00000
3A280
3CE8A
0023C
32C80
2E882
00000
2A800
28AB3
3A000
03C02
3CF3F
00000
2A28B
3F3E8
30EBC
3FA83
3CF3C
3AEB2
0A2A3
20008
0A2BE
3FF0A
3F088
3FCC3
0C0CB
3F002
0AC28
3CC88
2A2BA
2A8B2
000C0
30C8B
3B28F
3AC38
3008A
3CF3B
03FF0
0A80F
030C2
0A0C0
00000
28AAA
0BCB0
3320F
2AAAA
2AAB2
202E3
2AA2B
23E38
20A20
02820
23B08
3A803
23FF0
338C3
20AA8
3CC80
3FFC0
03020
3CA0B
3FA0A
2A0A0
00A28
00000
3FC3A
00CB0
238CF
0B332
0AC0A
3AA8F
2AA02
33AB8
2F00A
3E300
03200
3FF0A
0FC0F
0F0EA
38CBF
3F228
3FCF3
000C3
38032
22EBE
0FFCA
2C803
2A2A0
3C23C
20E2A
02F08
28280
2A0B3
3F8A8
0CC03
08A28
2AC30
2023A
08AB3
0BAA8
2083C
2AA80
03A2A
0ACB8
3FCEA
0EA82
02F33
3ACBE
28C8A
0030B
00A3F
0CA00
02FBF
3002A
3CFFC
30080
08800
0F000
28A88
33CFF
08E02
38CBC
3F333
02803
00000
00000
00000
00000
00000
00000
00000
00000
00000
00000
00000
00000
00000
00000
00000
00000
00000
00000
00000
00000
00000
00000
00000
00000
00000
00000
00000
00000
00000
00000
00000
00000
00000
00000
00000
00000
00000
00000
00000
00000
00000
00000
00000
00000
00000
00000
00000
00000
00000
00000
00000
00000
00000
00000
00000
00000
00000
00000
00000
00000
00000
00000
00000
00000
00000
00000
00000
00000
00000
00000
00000
00000
00000
00000
00000
00000
00000
00000
00000
00000
00000
00000
00000
00000
00000
00000
00000
00000
00000
00000
00000
00000
00000
00000
00000
00000
00000
00000
00000
00000
00000
00000
00000
00000
00000
00000
00000
00000
00000
00000
00000
00000
00000
00000
00000
00000
00000
00000
00000
00000
00000
00000
00000
00000
00000
00000
00000
00000
00000
00000
00000
00000
00000
00000
00000
00000
00000
00000
00000
00000
00000
00000
00000
00000
00000
00000
00000
00000
00000
00000
00000
00000
00000
00000
00000
00000
00000
00000
00000
00000
00000
00000
00000
00000
00000
00000
00000
00000
00000
00000
00000
00000
00000
00000
00000
00000
00000
00000
00000
00000
00000
00000
00000
00000
00000
00000
00000
00000
00000
00000
00000
00000
0803F
000BE
2B238
0038C
00C3A
30A8A
2A83F
02020
02F0F
0F3EA
28ECA
0F0FC
23ACB
3AEB0
30203
282AA
02328
0A82F
28A88
3AE3C
2BEBA
3CF3C
28E38
2288C
08200
0B3FF
020BC
3820C
20A08
38EBF
3AE88
0A28A
02CBF
0000E
30E0A
3AEB0
02F03
0C30F
33EC3
3E82B
2AEBF
32222
380B0
0A08F
38E3F
2E3A3
0C3E8
32A3F
38E80
30030
32C82
28ACB
0F000
3208A
003C0
082AA
3C08E
3B2AA
080A0
0FF2A
0208F
02B2F
0B00F
32CFF
00282
28AB0
2823B
320EC
00000
3FF02
0ABAC
2AAA2
2200F
32C8E
00000
2AAAA
0232F
3EE83
0CBAF
2CF3C
00000
0EF80
2CB3C
0F33E
02300
0A33C
2F880
3E00C
0BA8E
22828
38C3C
3F30F
38E33
0CE3B
0003F
00008
0202F
08EBE
0CF3C
08E83
0230C
230F0
28ABC
32282
20B20
3A200
08EAB
00EB8
32C82
00000
0A8BC
0A2B0
02B22
08230
3AA0B
082A0
0CBCF
333E2
3BC30
02082
2BAEB
300BF
03E0A
3A083
02AA2
3E388
33A8E
2AABE
2F3FC
0CBB0
28AF8
3E22B
00000
0A2AA
3833C
3AE30
38CB0
382B8
02030
02E08
00B0C
282CB
0ACBF
3A283
3ACFC
3B33F
2A283
000FC
08A0B
2A2B3
3E088
22220
00882
0AEC3
0ACB2
3A23C
3AEAA
28EBC
38CBC
30E23
0E30C
3EBA0
3AE38
28280
2AAB0
282AA
2C823
3AF83
3CF30
0E8B0
2823A
32AAA
32303
00828
3A3BC
02E38
082B8
22B88
232FB
200CF
0A203
0AEBC
0F30F
3AEF0
282C8
0A2B3
02B02
0B2BB
38E30
23C0C
22283
2B238
0003F
3FFCF
082C8
2AE38
3B233
22AAA
0233F
23BEF
22330
28AFF
0BFFF
3AA28
032F0
3AFF8
200C0
23208
2282B
2B3E3
2AAAA
2AC3F
2BA38
38C3F
33FE8
0A0A0
3FF2A
3CCE3
03AC2
28EAA
23A88
0AF80
38E82
30CBE
02F30
3CFCC
300E2
0A2B3
30CFE
0033A
3FFCA
0F3FF
00B3F
323A8
30F2A
3A23C
08CB0
22F0F
03F08
0CBE3
3FFEA
2C32C
038CA
0823A
23800
22FF0
22CB2
28F8A
20A3A
303F0
28A08
28AAA
302FF
3EC33
3AF8F
3CF8A
28880
2A320
28A2B
0FF00
00000
3C3E0
00080
38FA2
2A80A
0F0B2
00000
2AA80
0AF80
3B0A2
3F8CC
3CFAA
00000
2200C
2823F
3CFC2
20FFC
3EFAA
3C3FA
2FBE0
30F32
00B28
08E83
28A03
3BC30
0F208
0ACBF
082BA
3ECAE
32CAA
0F0EA
3ACAA
3CF0F
2A8A2
3C382
3ACAF
3E30F
30F02
3BE88
2BAAA
0FB0A
00000
38F38
0EF08
00F00
2A2AB
003EB
2BE33
2A0AA
3A02A
2AAB2
30F3F
2AA0F
0ACBA
2AAAA
2AA8F
2A3FF
33820
3FAAA
289AA
23AC3
03CFF
032E3
2FBE3
00000
0AF8C
3EC0A
3BF02
00F32
33E08
08822
0CF08
0A03F
0800C
0AAB0
08E82
3AC8F
3C22A
2A28C
22002
2AA0B
00A28
22000
02280
0FA0A
0AFB2
3302A
2F00F
0F3CA
0823B
0AE3A
20020
208E0
3F0E0
2A2A8
08CFC
32E30
0FF0A
2A3C8
20FEF
0F0E8
0A082
28ABB
03330
32EF3
08AB3
20028
3CFCB
2AABF
0CFFF
3FEF3
232FF
2A2B3
0AEBF
30F8A
3CF88
3BA00
3C20A
2808B
0C0FC
32F82
0ECAA
0AF2A
33EF3
0EFFE
0F0C3
02280
20333
0A0A0
2A8A2
008CC
00C30
020B3
3A282
2A280
0C333
28080
0C888
20B28
08A2A
000FB
2CCBF
0280C
2AAAA
223A2
0A2CC
33FCF
0F83C
3CC80
02F2C
03823
320C0
22B8A
3C22A
33CAA
2AAAA
20003
00CC0
0C0C2
2A28A
300CF
02A00
2AAAA
03A02
3FCFF
3288F
330CF
02CBE
0B822
3223E
000F0
0CFBF
0882A
0FF0F
20008
2A802
00228
23080
0B8B0
3F083
038E8
0AE38
2FACB
02C80
0C00C
30ACA
30F33
3F308
0AA8A
0C082
2CBA2
3EEF2
00000
0C200
00380
2AAAA
3C033
20A2A
00000
2696A
0F003
08202
0C0FF
3C3C3
00000
023FC
0C3C3
0CFCF
02B03
3A23A
030FF
3FFB2
308A0
0002E
2AAAA
0C83C
0230A
2202E
3CCCF
330F0
32C30
0CB23
2F3E3
0AAA8
3EC30
00822
08A00
0C000
3C23A
0C30A
000AA
0EF2E
00C0C
00000
0C0EB
03ECA
2A28A
3CFFE
03A2A
20002
3F3CF
3C3C2
02C8A
20200
3C3FF
0CB03
20C02
0A2AA
00200
20808
08208
0C30F
00803
02800
20B22
3ECB0
00000
2A9AA
2E8E3
0222A
3F00A
2AAAA
30300
000CE
33B0B
08CFC
2AAAA
0C30A
2AAAA
3F0EC
3A200
30CFB
20F0C
283A2
00C00
08288
238EB
0A2A2
22B0C
0B2CC
00A8A
3EF8C
3CFFF
0A380
0CF3F
20C00
0B302
0883E
2AAAB
00232
0EF00
0FF3F
2F00E
00330
22BA2
0AAAA
023B0
2AA8A
023B2
0A288
0A882
023E0
2AB2A
2F00C
00CB8
2AAAA
0C3FF
28AAA
2AA22
2803F
0C23F
2A000
20A32
3AAA2
0F03C
2A8AA
3CFF2
0FA00
3BCF3
28A8B
3CCC3
0B22A
0F03F
033FF
20330
0AE03
0AE3C
03AA8
300C0
38A2B
22B2C
0A228
0C33C
3FCCF
0AA3B
30E80
30E03
3C820
332F3
0C0A0
33EC8
3A22B
002B0
0A208
00ECB
3AE03
3B2AA
30E3B
3AA8C
3C08A
0AA0A
3BE0B
2F00F
2A000
32EC8
308A0
33283
30880
0A228
02EBC
38EE8
3FFBE
0E3BE
3CC8C
03E3A
0C80B
0F80B
3BEF3
2C03F
0F3C0
003B2
32000
3E282
332AA
08C80
282AA
3FFFF
2FF3F
3FFBE
0AE88
002C3
0888C
0B2CB
33FF0
00000
0C3B2
3F3B0
3FEB8
082A0
08A80
00000
28E08
220B2
3AE3B
00A80
3C28E
00000
23AE8
2380C
0E082
0CF0E
0FFF3
03CB2
0FFEB
0B3E8
0FFFF
3AE3B
0CB8E
3BECB
2AA28
0C3B0
32C02
0FFFC
3A0BF
000A8
30CC8
0FFFF
03F30
3FFF3
3FF30
0FFBC
08288
08228
30E28
30082
00000
3C3BC
332CA
3C302
30F02
322B8
08208
0030C
2FCC8
0BEF3
3CB0E
0C3CC
382CC
38AAA
38EC3
22FBC
3F30E
08228
38A88
2FBCC
0C3EE
08CFB
303FF
00000
08E88
03AE8
08EE8
302C3
3BECB
333FF
3F3CC
0E3B2
02EF8
3823B
08A28
20E38
30E3C
38200
23BCC
0032E
3BCF3
2A20B
30EB3
3228A
3A2B0
308E0
0A22A
00E38
3C23B
3AA28
0A2EF
0CCFC
0380F
08AA8
3AF3F
0FE08
3820A
0FF03
3FF3F
3CA28
20B2E
38EEB
0FE0B
30FB8
3BE03
2BE0A
33FC8
38E0B
0C32C
332CB
0F3CC
3823F
3B1FB
22A0A
382EB
302F3
0B238
0030F
22C33
3822B
00F02
2AA83
38CF3
220E8
0FFC0
00CE3
00303
0023C
0F0E2
0AC3F
03CB2
0C80A
22A83
28A20
2A0A8
0AAAA
0FFC0
0228A
008E8
2AA80
0FCB2
20BE3
2A023
200C0
3AA00
2B0C0
2002A
02823
30303
3F0EB
333C3
038C3
2F088
0F30C
2AA00
0A2A8
3ACBA
33FEB
03A00
33CCF
3EBE0
28883
3FF3A
38C82
30000
3BFC3
0AE82
28B02
28ABC
3A0FF
0C002
3C82A
2AA2F
3F3CB
088CA
3F3C8
23CC2
2AAB0
3F3F0
3FFE0
0CCBE
228E8
03823
00FF3
32E8A
0A282
00800
3B0B0
3FF30
28A8B
32C08
00000
08E80
3CC00
28020
20CBA
0CBE3
00000
002B3
28AA3
0800A
3FC08
3ABE3
00000
2A00B
3F030
33323
00ABC
0AEA8
322A0
20CB8
3238F
0A28F
2A8BF
33FCB
20003
3FC38
323FF
2828A
32E8A
33ABF
2FBC3
2282A
020B2
2AA80
32EA2
2A003
32E30
0FF0C
2A8A0
3F8CC
3B0CF
00000
0AC0A
00228
30C33
20CF3
03000
28A3C
2AA8B
0E0A2
38A82
280FF
2AA80
088C3
0F8E3
28A00
22EB3
08003
33BE0
288F0
0222B
3FFC0
2AA02
202BA
00000
2A80C
2B8A3
3F38F
0F3CC
2C80C
2AA0A
3AA03
0AA80
28A88
3AA0B
02802
2A3BE
0F0E0
2A028
02323
03233
0080C
2A0BE
3A8AB
3F3EF
28082
38A03
00B8F
0C82A
282FF
208F0
03C02
2A230
3FC0A
0E30C
00ACE
2AA02
30323
08203
23FB2
333C3
0A8CF
0BB0F
3ECAA
3E088
2A2B2
20333
238A2
2823F
2F803
223FF
3000C
3A838
2AABE
0002B
2AB20
20A0A
0EB0E
2A833
0AB0C
288AC
3828A
03330
2803C
03C3A
33F3C
30E03
20003
0F008
2AA88
08308
2F3FA
303C0
00C00
3FC00
223C3
03C03
0338C
022B2
2A383
02AAA
0FFF2
03002
3F0AA
33EC8
3C008
28288
0FFF3
0F3CA
3FE2A
3CE3B
02B80
3B203
3FF0E
2A88A
33EC8
3FF23
0332B
2200A
2A0FF
22A2A
2EEA2
3FF2A
3FFF0
3FFF0
3CFF3
0C8AA
33F03
233AA
08AAA
3FCC3
0F3F0
0C30F
0008A
2C03E
3FC0F
0C030
2FBFA
32AAA
28282
0A800
2A080
20C00
2A0CC
23F0A
00CF3
02028
3CF0B
28FC2
3C3C2
332F3
2030C
00000
0AAAA
2303F
003CC
0F330
30C3C
00000
2AAFC
023AE
30FC8
3CC33
3C3E3
00000
3000C
0B800
3C30F
0AA2A
0C08E
30383
3C8FE
3EF3F
0CC08
3F0AA
2AA88
023AE
32A2B
288AA
30FCA
0CEB3
300A0
0C028
32300
03C0C
03822
2B3B0
320F8
00B08
3CF0A
288AA
332CB
0C222
00000
0C332
003B8
22B00
33208
2EF3C
20020
02EAA
02E3E
0B20C
3FF00
20A2A
3FC20
2820B
32808
3FF88
03A2A
2AA00
3322A
08AA8
28A8A
3FCF0
0BC38
00000
3C028
38C3F
020AE
0FF03
0282B
0008A
00A02
33C08
0082A
00082
220FE
2C8EA
0000C
0F28A
2CAE8
2BA2B
0F200
2202C
30333
32033
3FF2A
00C2F
2333C
00FFF
332E8
30F00
2AA82
0F33C
08330
023E2
23AAA
02F20
083F3
22AAA
2FF3E
033F0
3F0C8
3BEFB
0FFFF
30038
2080C
303FC
0CFFC
08820
0CC2A
3BEF3
282BA
3E3CC
2CC28
3EC2B
3CF23
2300F
0AB0B
0F020
3FFFF
038AA
02F0F
3CCCF
33EC3
08882
3CE2B
20C28
2AA08
02000
23BEB
3ECBE
0BA23
2A2B8
00C0C
2AABA
03A20
3E0CE
33CEF
03B23
23BC8
0A2B2
22EAA
0A2E8
33EFC
2082B
02CBC
02F0E
3ACB2
0F2EB
2B8C3
02E0A
0B220
30330
003EF
33FE3
28223
238FF
32F8E
2BAEB
288E8
3EC8E
2B0CF
0A2B3
3CE82
0822B
0B8E0
28A2B
3EF32
330E3
0AFBE
0820C
3A2AA
238E3
022AA
0AC3A
30008
3AC08
02E8A
303BC
288CF
3AEBA
03AE3
232C3
2BAC3
3EF82
0C3CE
3C030
38300
30C00
088CF
0300B
3AEBA
00000
3ECBF
3CCBC
28AB0
03023
32A88
00000
23BC3
0A2BE
22080
00C3E
2033F
00000
28A82
0FF30
3CFFF
320BE
2F822
03CCF
2AA8A
2FAC3
03C30
2BA03
3CFBE
3B2EB
28800
32CB2
08828
2F8EE
28A0F
0228A
080A8
0C02A
20CBC
208C8
00CAE
3E3BE
33CEB
3B3E3
33EE3
2AA88
00000
2BB82
238EB
0EFBE
288A2
08A8A
33BE3
2AA3C
2FBE8
208E0
2AA00
0C0C0
20C38
03AE8
2A288
28B22
32EA2
230F3
0A2A0
32FBC
32FBE
008C8
0C32C
00000
2B2C0
08A80
3BBE3
0B00B
2BACB
222BA
0380C
02CB2
0C0C0
2BA2B
2BAE3
2B2BF
0AEC3
03ECF
0030F
30F02
2B20B
08A08
0EFB2
02EF8
2A23F
2A208
0F0E8
238EB
008E3
0B228
2B8E3
2AA8A
0CC8A
20AE8
208C3
238C8
2F8E3
3EFBE
302A8
32EAA
2AA88
33BC3
30303
208EC
30C30
28A0A
2F8C0
238C8
2BA00
32300
3EC32
02CB3
2B8EB
00CA0
03228
0A30A
23AE8
2AAB0
038CB
238E3
0C30C
2802F
02C00
28AE8
0C03C
00003
2A2B8
00320
2BEB8
2CB20
03BCF
2A228
3FF0C
22CF3
2BA2A
0E0C8
382BA
0FF3E
3AEBA
228A2
23ACF
2A2B3
2CA03
382B3
3FC0F
2A08F
3F2FC
300F0
0AEBF
3ACBE
2A2B3
03B00
00CF8
08CBA
28A82
0CCF0
208AA
0A2B2
30C32
2C802
0AE00
00EB0
3C000
30CB2
3BEF0
3AABA
00CFF
38E3A
2AA2F
32082
300FA
3AE32
033CA
3ACBC
0088C
02C3E
030E3
0082F
000F3
30CBC
08A80
02282
0AA8A
3FFCC
2F8EC
2AA28
03C3A
33F0C
003FE
302F3
22802
00000
2C08A
00BC3
2A2BE
0F38A
32382
00000
38C82
0008F
0AFB2
0003E
32EB2
00000
3AEAA
003C3
00C80
0F80C
2B2EB
2A2AA
0F0F3
33238
30C0B
08AB2
2CBC0
08E32
0AAAA
038E3
0003C
2BBE3
3228A
32CBE
0AE3C
2B8E3
28828
08EC8
288EA
22BE8
38C30
3FCF0
0BE33
2A2AA
00000
3C3C0
38EB8
0CB2F
28A80
00C3A
30CB2
0AAA0
2B8C8
3FC3C
02080
332CB
3C338
08EAA
30CFC
0C3C2
0FF30
38FB2
02288
20BA2
23B23
0880B
03330
00000
0A2B2
38EB0
33C38
08CC3
38EB0
00283
3CF32
08003
2F3F0
082B2
0AEBA
08F3C
0AEB2
2E20F
20ABA
3F82F
28EB0
3A280
2C380
3AC82
20E83
2A2BA
300F8
3AEB2
00230
0A20B
3FCB2
2AAAA
0F23B
2AA8B
33FFF
3BE38
32EF2
20820
3F3FC
3FFBC
2AA8A
00038
0A2BA
280EC
3C38C
0AAAA
3ACB3
30EBA
2AA82
0BA28
3F0E0
380F0
3CCBE
0AEB2
0A2BA
22B00
0AEB0
0A282
3ACFF
3A2BA
28808
30F30
03C0F
33E3F
230CF
3FFCB
08208
03F0F
22AEA
3A208
208E3
38CCB
3FFCC
2AAAA
0F3C0
3CFFC
2AAAA
0C30E
0B02A
0F3FF
2BAE8
0230A
3FCCE
22A80
00F30
00C0A
3FFC0
0BEF3
00000
3BFF0
2AAAA
02FCC
2AAAA
2A965
03800
33382
32022
2AAAA
00800
02EFF
28A08
2C2C0
2BAAA
0BBC3
2AC0A
2AEAA
20C00
2A2AA
0030C
00F02
333C0
0823A
20208
38C30
3FC20
38C38
0B23A
0E00F
2A2AA
0B028
2AA2A
0CCFC
0AC2A
08AEA
08EEB
3FC03
282AA
2E828
2AAAA
3F30C
33E08
00000
0C0EC
33FCB
08E08
2B8E8
338CF
00000
2880F
00000
3FAAA
33F00
33CF8
00000
2B2EA
00FC3
30F30
3EC0E
2AA2A
30E3B
2B208
0A2AA
00AEC
0330C
30F03
2A2AA
2A8A8
30BA0
2A088
28A8A
02FFE
03CB2
33233
38C00
02002
2A200
0CF32
30CCA
2AAA6
2AAAA
2E082
2A222
00000
22A22
30CFB
3F000
0C300
23820
2A880
33FFF
28A2A
00B0C
0E30C
223E0
2A030
0000A
0300C
22822
080F3
2A280
3CFFF
320B0
0BC8E
023CE
0F3CC
00000
3C0C8
33CCA
2AAAA
2AAAA
2A28A
08AF8
28020
3FF3C
3FF0E
08BCA
2AAAA
28C83
3AEF2
2C33F
30CCC
3CFFC
2AEBA
0E8CB
0CC0E
33C0A
0CC02
000EE
2AA38
0B2FA
033E0
0BA2A
2ACE8
30003
033FF
2AAA6
3E380
26288
08EF0
303F3
2BAE8
0BC00
3000A
0CB0C
0BA20
00CA8
0FFC3
0A2AA
2828A
0C8AA
28E0A
0FAAA
02F8C
00308
3F02E
3820A
2BAAA
0FF02
26A80
0CFC0
33CE8
3803B
2B808
0AC2A
2A020
3F2BA
3CF82
3F0EA
33A00
0C0F0
033EA
2CA82
22F8C
32A8A
2F0E0
00FFF
2BFF0
28AA2
03A82
2A2AA
3FFEB
3FAAA
2BC00
3FAAA
338AA
3F0F3
33AF3
3F8EA
3CF3C
3FC2A
0FAAA
3F8E8
3FA8A
23203
2FAAA
3CAAA
0002A
2AFFF
00800
0F3E8
3FBE8
2333C
3CAAA
0A332
2C020
3FC8A
08F3F
3F32A
0FBE8
3CAAA
2002A
330EA
2032B
3FFEA
20002
3F0C8
3FF2A
0A330
20C30
2C222
2AFF0
3C300
38328
3C028
03828
2FC80
30EAA
302AA
00A0A
2F8EB
28FA8
3F0CA
33288
00000
2C30C
30E08
00FFF
22F0A
3F8CB
00000
3F3CF
3B20A
0FAA8
000BF
3ABEA
00000
03AB8
30CBF
0AFFF
2802A
3FC2A
00C0E
20023
0CFFC
3FCEA
2F0EA
22883
03AAA
00A23
3AA82
3CA8A
3328A
3BFEA
3F020
3FAAA
3CEA8
0028A
3CEAA
3FC3A
302AA
00A82
03AAA
3FAEA
333E8
00000
2AAAA
3FE2A
28ACF
3F2AA
02F00
23AA2
3AA83
3FCCA
20828
0022A
20033
03ACA
203EA
23823
2AA88
0F000
22A2A
3F22A
0F8A2
288BC
3300C
2B3E0
00000
020C0
3C8C0
0AF30
03A88
0C820
3CC0A
3F0AA
08A28
002EA
20BEB
03AA8
2800A
3CBA8
00C28
0FFBE
33238
3FA2A
23A20
0F02C
3FFEB
0C82A
3FFE8
0FA82
3FF28
3FC28
3FAE8
0F022
3FAA3
23CFF
3CAA8
00F3C
3C8CE
3C328
03028
18C82
3FFC3
3F02A
3F828
3CFCF
0C208
2F3E3
33AB2
30FCA
033EA
3FFEB
3BA22
00833
0FA2A
3F02A
028AA
23A88
3F8E8
3CAAA
332EA
3FFCA
2E3AA
2F02A
2AFCC
3FC3F
2B0CF
3FC3C
383FC
0B00C
2023C
2EF02
3C2C8
2A2BC
08A33
220AC
3FF3C
228A2
30A20
2AABF
2AA80
20FE3
0AAB3
0AAB0
00B8E
2AABF
033CC
032B0
3033C
2AA82
33CE0
0CFE0
282B2
00C00
0003F
0A03F
0FF3C
0B83F
2FAFC
20A8C
333F0
2C3C2
3A2C0
3CFF3
33FFF
2A2BF
00A80
3F83F
2A2E0
20A30
0C3FF
03AF0
2AABB
2AAAC
3FF0C
3C23C
0AEBE
303C0
00280
08280
03A3F
3F0C2
0828A
3CFFF
332B2
0AFFF
0028F
28A0A
28A23
02838
28B3F
08A82
0A30E
2FACC
00000
08A3F
2A000
0C0BF
2AA8E
2AEB0
00000
0C300
03A88
2A8BF
28ABC
28A2C
00000
3023F
2AAA2
28ABF
00280
30322
2FA3F
0A2BF
00330
380C3
30C3F
2AAB2
22BCC
32FC0
03A28
33FFF
002E8
28ABC
0AEBC
3F80F
23AE3
22880
003E0
2880C
28A20
02A02
323FF
0CFC0
2AA83
00000
38A08
00F0E
0AABF
02CEC
2C000
0FF3C
3FA8B
2008E
08228
0A28A
3FAAA
280BF
3002A
0083C
33023
0A2BF
3FFE0
20082
3B2B3
2AA23
0EF2C
2AAAF
00000
28A3F
03CB3
33BF3
008CF
0FFCF
3E00C
2820B
20AB8
22A0E
0B3FC
00ABB
00A33
0CB82
3CA83
30E08
202A2
3CFE2
0CA80
2AABC
02CB2
2283F
0A28B
032B3
3FFE2
03002
00B00
32A80
0CC33
2AA80
2A300
3FFC3
0FFE0
3CFC3
28A3F
0AAB0
0AE8F
2AA88
00F8C
0020F
0C2CF
083F0
2AA80
3FFE2
3A3EA
3C0BF
0FF08
02002
20FBF
0A08F
2A28C
30AB3
08882
0C3E2
2AABB
00FE2
28A83
2AA80
30830
3FF02
08AA0
33CC3
3F300
2AAA8
0C20F
08080
2BAFF
3AEBC
2AAAF
3FFFF
2A023
0C30C
33F33
008F3
0A2BB
33008
08A83
0AC32
0CFFF
03C03
2AAA2
2BAAA
3C0E8
2A88C
302F3
00C30
2BA0F
3FB20
0C30C
00CF3
3F000
300FC
202FF
2BA3F
0CCCF
30AFE
0A98B
3F300
283F0
02A20
0C3F8
0C0CC
000FF
23A0A
0B083
2A568
2AA3F
02CC0
3FF3F
3AE33
2AAA8
3FF3F
30A80
2A980
0A988
30CF0
28AE3
30000
0000C
0FEFC
3AA8C
3208F
28980
28880
03FC0
030CC
00ABC
3A08C
00000
38EFF
3228E
28A28
30CCB
28A23
00000
220F3
2AAA0
33320
2AA8E
28A80
00000
28A83
20A80
28A0B
0A9AA
0E03C
28AB3
3AE3B
0003C
38AB0
23080
28A8C
00A0A
0FF08
2AABF
030FC
38282
2BACB
0AAAB
30CFF
0228C
3B2FF
3A03C
0BA83
3AA8C
20200
08A00
30C2A
0BA03
00000
08ABB
30FF3
2A98B
2AAA0
0CE23
3A08F
28AA8
028B0
0C0FF
3B233
3ECCC
28A23
0FC00
33280
2AABC
3AA8B
30FE8
00AAC
33E8F
269A2
080CC
300FF
00000
0C200
0FA8A
00BC0
08030
080E0
38E33
08A8B
2A5A8
30CFF
300CF
00A3F
02223
08003
00330
3FCFF
28A80
3023F
02AB3
33FCF
2800F
00000
0BA2A
0223B
3CFE2
2ACB3
23A33
38EF3
0C083
2AA8A
0C0BC
0FC3C
2A083
03E8F
069BB
32EF2
0AAA3
2A9B3
330A8
2AACF
3F888
3F0F0
2AA80
02032
0EC0C
38AB3
3F3CC
3003C
3FFFF
23F3F
2AA2C
000CF
3CFC0
002E0
08983
2A280
03E3F
038FF
0EF33
0A3E8
23800
03AC3
0CA83
3F3AA
003FF
03082
08E3B
33FF2
0F8E8
3CFFF
0F0A2
3CF2F
2033C
200E8
2AAAA
22302
0B92B
3FFCC
3F3C0
3FFE0
2AAAA
3C233
202AA
3FB0C
080B3
3008A
3F8EB
2F02A
3803F
3FFC8
00AA2
0FFE2
3C3FF
00CAA
0F0EA
22302
2A208
3CB02
03020
08A28
0C30F
3FCFC
0F2E0
3FA00
0C0AA
00AAA
332AB
30800
3F322
08A3B
00A2A
030F3
30820
08E08
2BAA8
3F028
208EB
03C2A
203CC
33003
0A208
23030
23A28
020EF
2F300
03220
332BB
0F3CF
00000
0B22B
08828
0F3CC
3FF0C
3FBEB
00000
023F0
23A0F
2C02E
3FFC3
338A0
00000
3F82B
3FF00
03220
08AAA
23CFE
0B80F
30CF3
3CF2A
00E33
0F3EA
0A228
0380A
0022A
28A88
30AAA
0C23C
22A2B
33AE8
33C02
033F0
33A3B
3FCBC
2323F
0F0C0
0C0AA
0A2AA
38AAA
0F82B
00000
08AAA
2FBC2
08A8A
28AA8
32BEF
228AA
0FA88
02082
2A203
33288
0FFCC
08AA3
20BAA
2022C
0AAAA
3820B
32828
33008
38EBA
0AAAA
2003C
03F00
00000
3FFE0
0FFFC
2082A
3F000
0C8AA
3AA0B
08AAA
33AAA
3F3EF
30320
20828
3F32A
3C8E0
3FFE0
00283
00E30
3F02A
3F000
0FF03
3C8EB
3FFEA
33AEB
2AA33
333FF
08A08
030E0
202B3
3F8CF
03C32
0C30A
030E8
0ECBC
3B0FC
081BB
03E02
3F82B
33A2B
02C00
00BCF
3F08A
0C3CF
3F002
00B3C
2282A
3F22A
0823F
0BFFC
2F02A
2FFEC
3CAAA
20B28
00FCC
0028A
3BA28
03CFF
22820
0B0F0
3FFCC
2A280
28AA8
0CA30
2033F
2AABF
030E0
0C3BF
00CA2
080B0
08ABC
0CC30
2AAA0
2A083
20B08
3EABF
0C082
3C08E
00FC8
0AAB0
00FFF
0FF22
2AAA2
3033A
2A300
0803F
08800
2A222
0AAB2
30ABF
33CC2
0C8BF
0FABF
2230F
20A8B
0A032
220BF
22BBC
23F22
202A0
008BC
30EFF
2A080
0AA8F
28EBF
33A2A
0FABF
0383F
08E2A
28203
282AF
000F2
00002
0CFCC
008BC
00200
0003A
002BF
0BCF0
0F3FF
02328
2AA0F
0CFC0
0E0C3
00238
20ABF
083BC
0A8BF
30F00
28A0B
00000
00FC0
3C228
3303C
2A03F
02230
00000
2A83F
208CA
2A88F
000C3
2A0FF
00000
20A3F
33CE8
08AAB
0C308
08A0F
002BF
0C2BE
208BF
0C300
0038A
3CFC0
20ABC
02300
3FEEA
22020
008CF
08220
22AB0
0CABF
20A23
00CF0
208BF
0B823
33C20
00ABF
3FABF
3380F
2AF3F
00000
0A08B
20ABC
33FCA
28A2A
0023C
33ABF
28A3C
308FF
0AA82
2A02A
02320
00CA0
0083F
203E2
2A2A8
230C2
03320
08222
3CFEB
03CE0
02CA8
0A280
00000
3F0BF
00A8C
2CABF
00ABF
0F88E
00FC2
03A8C
00C28
03380
2A3CF
22ABF
3F32A
0AABC
0C820
3CB28
303EA
0330C
0A032
0830C
022B0
2A82B
2A0F8
08ABF
3CA8E
0AA2A
22ABF
22FBF
0A233
3CEAA
0FABF
2CABF
0282F
33A83
30CCA
0AA30
30EB0
2A308
3F30A
0AABF
22A03
0300A
2A2BC
00A8F
2E8A2
0083E
0F828
33CC8
08B0F
0280C
2A8BF
0CABF
2000F
0083C
0ACEA
2CB08
2EABF
3E2BC
0A8BF
2E8A8
3F302
3C30E
22882
20323
3CFCC
2F3AA
28A0A
3FFFF
2808C
28BBA
220BC
2A02A
0A080
0CCF2
0CCFA
00FFF
2E3FC
3EFBC
22822
02282
3FC28
220C3
2A0A2
2AA2A
3C0CF
3F3C3
23A2A
2F020
228AA
2A0AA
2C0A8
2AA8A
0FFFF
0A202
003CF
2AAAA
2BCC0
00FC2
222AA
2A8AA
0FFFF
0A220
20FE3
2AAAA
200AA
0A02F
2E3C0
0C320
20FE0
03F2C
20B20
2AAA2
208C0
00F0F
2BF03
03380
2BA2A
203EF
2B8C8
2AB00
228A2
2AE8A
0AF32
2B02A
2AAAA
2A288
3E3AA
2A2A2
00000
3CFCC
320A2
02A8A
0CF0C
2B82A
00000
2AAAA
2B3EF
2AAAA
28202
2B82A
00000
23B20
3F3EC
2B8CA
2ABE3
32F02
0ACCF
3C380
383CA
0200C
02CC0
230E8
02028
3C028
2F3C0
0AA00
3CF32
03CCA
28BEA
22AAA
0EC82
2BCEA
003A2
00F3A
0AC8A
2A320
0C008
3CB28
2232A
00000
2ECFA
0CFE2
0A0A2
0FF0C
22A20
0C208
2300F
3C322
3C2AA
2CC32
00CFF
2BA2A
0C0A0
30C28
220BE
20FCA
0E3EA
3C3A8
3208E
2FFEE
2AA82
0CF33
00000
08ABA
23A22
33CC0
2A8A8
222EA
2B00A
20FCC
2BFCF
223C0
2AAA6
3C83C
08AB2
2382A
08CCE
023A2
0C3A0
0F0EF
083C3
2AAAA
28A2A
2AA8A
223FC
3CC3F
2E3C0
3CFAA
00C00
0CFCF
03FCC
3EF33
3FF0C
0228A
023CC
3030F
3AFCA
3CF3F
20B20
2E3CE
3C8AA
2AA8A
3FC20
0A2AA
20F0F
08FCF
22080
003CF
3E2AA
203F3
2AAAA
0A2BA
280AA
0AA08
2A8AA
033CC
2F3FC
02FF2
2BFFC
2A8A8
0C22B
32EAF
3B0CF
22FC2
2C3C2
02FE0
20A2C
20BEE
2E8AA
2AA2F
3833F
2CB2C
3FB2A
2AC82
23BE0
2033F
2082C
2F3E2
2200C
28A2F
203EA
20A80
0C382
08E3F
3FFC0
2A2C0
2032A
2A32A
32F8E
003CC
2A08C
22022
00FC2
00B20
302BE
22002
2AFCF
20BE0
23B2C
2AFE8
3F302
20B00
2A08C
33ABC
2ACE0
2C8BC
0FFCC
28A03
22EFF
2BA2B
2AFEE
2E330
0EF8F
20320
03FC3
23B2F
2AA03
2AA03
02C8C
2ACE3
3B822
2A023
2FB2C
0A0CE
28AC0
2AE3C
22B2E
2AAC2
2A30C
0B8CF
00000
02F8C
08EFC
32F2C
2AAAF
3CF0C
00000
20F2C
28AB0
233E3
28EFF
3AEB2
00000
33CFF
2033C
022BE
2ACB8
083EE
2823E
2A80C
2AC3E
20CB0
28FE0
2A08E
00FF0
283E0
0F0E3
003E8
28BC0
2AA3A
3EF8C
3FC00
3B3CF
20028
2AB2E
08ACC
28A00
2CFCF
03CC2
2230C
2AC3F
00000
33800
0A3CE
2A8EF
232CF
283E2
0CF20
33CFF
2A002
2AB22
00CFF
238E3
2AABA
2A3EF
223CC
3FB20
2CB2F
22320
0CC8E
2E2B0
20BEC
23BCC
288EF
00000
28A22
38EBE
0CFC0
2A330
02BA2
20823
2A00C
28AF3
20B20
228AC
22CCC
32AAA
3AF22
23800
30F8E
2C0C3
083E0
2C80F
22802
3ACA2
2A3B2
2AEC8
2828C
2AFEA
2C02E
08EBE
0AAA3
3B2FC
208CF
03F02
203C3
0030C
2AFC2
2BBE3
2BAE3
00FAC
2A00C
20B0A
3CFCF
283C3
283EC
08CCC
283EE
2CBAA
222A0
2C33C
2F3E3
22300
2EBE0
32E82
2CB22
23BE0
203AA
230FF
0CFE8
08023
2A80A
2AA30
3C3EA
0CA22
08C3F
0FB28
2F0E8
2C8E8
0F82A
22B20
0E0AC
208E8
2FBEA
2FBE8
23AE8
2FBE2
20A2B
0C32A
0F82B
0E322
00FA0
2F828
0332A
0FBEA
0F3EA
228E8
2BAA8
2A03F
0F8DA
2CA2A
0CAE0
0FB28
2B3E8
20B2F
0F82A
0F0EA
2A0C8
2F3E0
0F328
0FFEC
2281A
008AA
00AAC
082EB
3C0EA
2F3EF
3F02A
003E0
20CAA
230EA
0BA2A
202E0
0C3AE
2FBEA
20A2A
0E8EA
2032C
033EA
3FFEC
0C8EA
0FFC8
2B0E8
2FFE8
0230E
2A8A0
2AA28
2F0E0
2E82A
0FFE8
0FBDA
22AA8
00000
3CFA2
2AAAA
0F2AA
33FE8
2C820
00000
0032C
20828
230E8
20828
2F3EA
00000
20A28
0FFE0
2FBEB
2FB2A
203EE
20AE8
023AE
28B23
00F2A
30C20
0FFE2
2CB22
03BEA
0FFEF
2C02A
22B90
0CFEB
2FBE2
08820
2ABA0
28028
303E0
22822
2AA28
2FB20
003E3
0FB2A
233EA
00000
30CE3
3F3E0
03328
3F8DA
2A280
03BE8
23A23
28B2E
3F3EA
000E8
2F3EC
3FCEA
2FBEA
03FEA
0F3E8
03BEE
3CFEA
3FBDA
2CF2E
2CFEC
2FBEA
03228
00000
3CFEA
3F0E8
0FFEA
2F8E0
0F02A
2CF2E
203EA
0F3EA
2F3E8
0FFEA
2022C
3FCBE
000EA
3FFE0
2EFCE
2F3EA
0FFEA
00E22
20A2A
2362A
23BE0
230E8
3B023
088A0
3FB2A
23A22
2CFE3
032EA
03FE2
00A23
0FFE3
3FFEC
0800F
22FE0
0AAAA
2C82C
23B2A
0FBDA
02CE8
0BAA8
2C3EA
2032A
00F80
0F3DA
2FFE2
2F8E0
233EC
20BE8
2AB2A
0FFE8
28A20
2FBEA
3FFE0
20FE0
232EA
22F20
22BA0
0FFE8
0FBEA
20003
0A8AA
33CCB
2EFE2
32ECC
0282B
238A8
2FBE3
20F02
08E88
30CFF
0CF0A
00C33
00A8A
22320
0A830
3FFC2
038E3
30A88
33800
0BE08
22322
08200
0A8A8
38008
0F338
08082
30F20
380E8
208CF
08828
0F8B3
3E380
0C8AB
0F00C
08AFF
3F82A
0F300
3F320
22AAA
22AEE
00008
0C300
22C2A
00E33
0FFF0
0F3F2
003C3
0C3E0
3C8AA
030CA
0CA2B
28030
3EFF2
0CFCA
20B20
02E82
2C3C3
02080
3CF22
322C8
0AB08
0FC08
3C030
22A2A
28A0A
3BEFB
2B883
00000
3C0AA
2A0A3
0CF3C
00BE3
38E32
00000
2280F
3CFCE
2A03F
2808A
22C8A
00000
2C3F2
28008
3CCAA
0FFCC
0C0CE
0CFAA
0F8EA
02F8C
0F3EA
3F28C
028A2
00203
0C20C
00288
3F000
3EBEB
0A08A
33032
3CFFF
080E3
3FF28
20BE0
0C088
2BB0A
38BA2
00B23
08E0B
0C3AE
00000
0CBEC
2C032
0C3EA
032EA
02308
2030F
0FF2E
3ECBA
0220F
2CB22
000CF
02CA2
2A803
033EF
0EBE0
3FF38
0F03C
0000B
23F3A
0B828
33EC8
23BEF
00000
0FB20
02F8E
3380C
00C20
22020
0F3F3
0C3CF
0CFCA
30CFF
2080F
20BA8
0FFF3
0E0A0
2CB2C
2B88A
0820B
0CCC8
2FBE8
02232
282B8
03A02
3CFFC
0CB2A
0C3C0
23A08
28CE2
23A20
0F3EE
0F3C8
033C3
000CF
22802
02808
0FFEA
32828
0F0F8
3FF3E
082F3
280C8
0C0E8
20F00
2EFC0
0C0C0
20AC3
03FFF
33EFB
3023F
08088
2F80F
2838A
0F882
0BEFB
20323
0CFCE
3FC33
33A20
3FFB2
08823
3FE33
03FF3
08A23
230E3
20AA8
2082B
280CC
2BACF
0AAEB
08AE0
23020
238E3
08020
2C32B
03202
2CA23
28802
2FAEF
2A88A
23FE0
20028
2A00E
2AAAA
288A8
2A8CE
23AE8
223CC
23AC3
28000
2080F
28882
203FC
0C0E0
2BAE0
0AAFF
3C02C
2C33F
2BAEF
0FFCE
003CF
3AA28
280A8
3C200
303E3
2AAAA
3F33C
2AAAC
23AEF
0AA22
0FB2A
338CF
2AAEB
2F3FF
228C0
20BE3
2AAAB
033C3
28AEB
0C82E
202E3
00FE0
000EF
0FFFC
2A8EF
20A08
20B0C
2B3F3
2AA20
00CCF
00000
2FBFF
00CC3
33228
00200
2F0C3
00000
0AAA2
1662B
203CC
03223
2BA20
00000
3F2E3
2A28E
28AEC
2AAA8
0F0CE
2BAEF
0CFE0
00BEC
02A03
0A82A
2BAE3
0C0B3
203CE
28ACF
033C3
2FFCC
28AE2
20AE3
00B82
23FC3
238EC
0F3EC
288CF
0B3FF
0088C
2CF0F
223EC
0F8CF
00000
28A23
00822
28A23
2AA03
08000
2F380
23A2B
0FFFC
0A03F
0FA23
0C320
2AAA0
0C0EA
28A82
2BA0F
23AE3
22822
2A823
2FB2F
28AEB
203CF
30A2F
00000
0C3E8
2A2A8
33FC0
200E0
0082A
2CB23
20A23
2A6A0
203E0
3AB0F
03008
3CE2B
28AC0
08AEA
2C0E3
2ACA0
0CBEE
2AAA3
0022C
2AACB
288E8
2CA2F
08AA8
20AC2
2A3CB
2800E
308C3
032C3
08AE0
033E0
0F3CC
0B8C2
22A00
2BAEF
2AA23
2AAEB
238EF
20308
288C3
0833F
23323
2AAE3
288E2
203E3
2EA8F
2030B
030CC
23BCC
000C3
2B2E2
03030
23BCF
0CB22
23AE3
0C3EE
28AE3
208FE
00C00
203CF
0B2CF
3B230
33EFC
0F002
0E308
02F28
082F8
0918A
08E00
223E2
08CCF
03822
32CF0
282F0
30E0B
33FE2
3B23B
3A1AA
08C00
02C00
28CF0
2AAAA
08C03
2AAAA
0C00F
3FF20
0BEBE
08E0B
00FEC
2A300
3CF33
00C02
28A03
28A3E
3FAC3
23AAA
08E2B
0303F
3CF33
0A028
30A88
2B3F2
3CA00
28AAA
003FC
2892A
33EFB
20AE8
3F0C0
33E30
3BEB2
03FF3
33EB0
3A2AA
28AAA
30000
2BAAE
30202
33FF0
3F0C2
0AE02
2AA20
2B5EB
308E2
2A020
28EC0
32380
38CEC
00000
3B138
2AA88
3C0EA
0AA88
3B23E
00000
0F300
289AA
28308
28E8B
0F20A
00000
33EC0
2A2A2
2FAEB
0A2AA
3A8E0
03ACB
3A2BA
3F2B0
30E8B
2802A
2AAAA
28A8F
0C3C0
2AAEB
2A2CF
08AE3
0BA2B
3BEB2
3F8CB
28AEB
022CF
0AABE
08AE3
28A20
0C000
00C00
00FEC
330F3
00000
03EAB
08208
0828A
2AA28
0CA2C
0CF00
3F2C8
02CFE
30B00
0AEF8
30C08
28A22
2F0E2
0A280
33FC3
08E8A
2FC03
280A2
38EF8
2A1A8
30FC3
3A20F
00000
0F2FB
3FA08
0FCCF
03300
0C033
38EB2
33238
2BA2A
00CC3
00FE8
0828A
3CC30
0FA03
003F8
30EA2
220CA
3003C
28AAA
080EA
3BEFE
28000
03EFB
0028C
3B0EC
28320
0388A
3A280
3FAEF
3AAAA
20CF3
0FFCF
0F2CF
038CF
2B1C8
0A188
38EAC
3BA38
0EFC2
00E0F
2AAE8
2CFEA
28E83
3F2C3
00FE8
3BEB0
3CFCF
00FCC
0A322
2A00C
3F0CA
3C2AA
22FEC
00BBC
0323B
3FFFF
28A3B
0BA0A
2A320
28FC3
2AA82
00FFE
2BF22
0ACA0
208FF
020BC
0EC0C
2B888
020AA
0CCBC
2EAA2
02F2A
2A03F
0AFF3
0022A
0C0AA
332F3
23FCA
3CFFF
2A3BF
2A0BF
3FF00
302A2
0C328
0CF02
0CC02
2A22A
2A3F2
3C23F
30FFF
3EFBF
2AB2F
0ABE2
3AF82
3AF00
2AB8C
332C0
3008A
0A0A2
03FFC
20FF0
0AFE8
2A022
3C3CA
0A0FC
3280E
0822B
233E2
200AA
23FE2
22A28
222BC
00888
2820A
3CC3B
00F3F
2AAE8
0CF02
0ACBF
2CC02
2F0C0
0C3EA
32CB2
323FF
0A330
38FF0
2AABF
00FF0
00000
3F3E2
0CF08
00B23
2CFF0
28A2A
00000
2A0BF
02FA8
22330
0C0E8
0A320
00000
08E88
3F028
0A323
0F0F0
2AAA2
3AFBE
2B8FA
2AAAA
3E238
2A02C
3FFE0
3230C
3FF0C
30CF2
2A800
320AA
0A03C
28A28
2AF0E
0C00A
3823F
2ACAA
0AF8C
30C02
0AFFF
02C3F
2FA8F
2A3F8
00000
03208
2AF8C
0F03C
28A3F
20B2A
0A033
02228
2AA80
02833
08CFB
0203F
0208F
22C3F
2338C
2A208
2BA20
080AC
2AE3F
3EFEC
3FCFA
022BF
288CA
00000
283EF
30F8C
3AB8C
0EFFF
2ABAC
28830
0800A
00C80
0A3FF
223C0
0AF8C
0F323
2A22A
2A3FF
3EFCC
33CFF
2AC80
3CFC0
0AF00
2AAAA
2A30C
008AA
0A0BF
00B2A
2AC3F
2AFFF
02F32
080C8
33F0A
0AF0C
0A0BC
2AA8C
20AAA
3B22E
233F8
23A2A
02208
022BF
2A082
3FF2C
020B0
2AA2A
2AC0A
2208F
2C802
2E2BF
030FF
02F38
2A33F
3232F
3E320
0A0BC
2A8AA
08A28
2AA80
0A00F
02C82
0AB30
0A2A2
33CF3
0003F
3FF0A
02F3C
0CCCF
2A3BE
330C0
00BE3
33FCC
20FCE
3FA2A
3FF3C
0E3EA
0C02E
00CB0
3FFE2
303E8
300CF
2A2AA
3F38C
20AB8
2AC3F
3FFCA
3AF3F
03A22
2A8AA
3BF3C
00FEE
0CFFF
200AE
02A22
0F3CF
2328E
2800C
02A3E
2E3CC
00803
028AA
0F0BE
08023
32F3F
0A82C
00A8A
223EF
0C3A2
0E8E2
0FC00
303E3
3C302
00C3F
0ACB0
0C3CA
30CC0
32CC3
0A8C8
28AAE
0A23F
0AA22
33FFF
0E02E
2AA0B
323C8
3B8E3
03F8E
0FFEE
2AAA2
2AFFC
3BCC3
00000
2030F
0B33F
00F3F
2A02C
3BFBF
00000
2EFFF
3B2B8
2C3EE
30FBC
3ACB0
00000
38F3F
3A2BB
0ACBE
0A02A
3C0A2
0BCFF
0A0EC
020BE
3CF8B
3FF02
0AA80
0C30A
2AFFC
0BE88
02020
00A20
0B8BE
30C33
2AAB3
3FCCF
0BC3C
0E303
30A3C
088E0
02CA2
2E0AA
2A0B8
0CFCF
00000
0322C
300AE
03BE0
0B238
000EC
3CFE2
33FFE
320BE
0EF0E
0C02A
33FC0
00EB2
2AFB2
2FFE0
3FFE2
0C3F8
2CBA2
2A2BA
02AF0
2A288
0FF02
33BE3
00000
3FFFC
2ACBC
2CBAE
0A000
0F382
02BC0
00AAA
00F80
302AA
2CFEF
30F0A
3F300
00E3E
3F338
03A82
0A230
0AA8A
3EF23
20FCC
0B0B0
0F30E
0CF22
30B8C
3F82A
2AA8A
3A0B2
20AAC
3A880
0A02F
0AAAA
3F8A0
3E083
30C28
0AC80
38AE3
02CC3
38FC0
22FF2
0CFFF
32FC3
0FFEC
303CC
3FB0C
3FFE2
022AA
3FFFF
08E38
0EF22
0FFEE
0AFBE
0F3FC
0CFC2
2A8A2
00C22
3CAAA
3F88E
3FFCF
2A8A0
3FFF8
3FC0C
0FA20
0F3C0
3F3C0
08FCF
2A883
28E32
202AA
00C3A
2AE82
2382A
0238C
28800
3C3FF
0A2AA
22003
2003C
0AEAA
30382
3FFFF
22BAA
00FE2
3082A
00F30
08A20
2202A
3CBCF
0CF03
22322
2FCC8
20803
0FFCF
3F3CF
2A0CB
0F008
223FF
2883A
08A08
0FFFF
2AAAA
0EC80
032E8
30FF0
0FA0B
02020
3B28A
003CA
30288
00283
0828C
3C8F0
0C028
3022A
0AA00
0A038
32AA8
0C8F3
208C0
0FFC3
020C3
2AAB8
2A2A2
08A8A
0C3CB
2033C
3F0C3
3CFFF
2C382
00000
2B2F0
0CF3F
3FFFF
002B2
0C330
00000
2E3FF
00CA0
22328
03082
3C0CC
00000
0FE22
0A20E
3F203
202FA
0AAA2
032BA
0A2B0
00F20
3203E
3FFFF
0B28E
3FFC3
0A8FC
0803A
200FA
0AAAA
20C0C
33003
032FA
0CAAA
0303F
0AAB2
03080
0A2BA
0032A
0A0C2
2AFA0
3FFCC
00000
0AA82
0C3EC
00080
2EFEE
2A2B2
203CC
0FCCB
2A02A
22FE2
2A2C2
00300
3FFFF
2AABF
20FFF
0AAEA
08A80
2AAB3
0CFCF
3AEB2
2828A
088EA
0FE0A
00000
3FFFF
30FF0
208EA
0F2A2
2E3CC
28E3F
08A80
03A30
0B0F8
0FFCF
0C3C0
3FFEF
03B03
3FFC3
02FBE
22F00
0C020
0FF02
0C300
3F3F0
0FFCC
00FCF
2BA00
088B3
2232C
0FFC0
22802
333C0
3022A
3E80A
28A80
2A030
30300
0BABC
2AAAA
3FF38
30CFF
0EFEC
022BE
2002A
2CFFC
0CCC8
20802
2ABAC
3FC0C
0ACA2
30238
003E2
0CFFF
30CC0
0F3EC
00300
0AA3E
088CA
3F3C3
0033C
2AC3C
008BA
280EA
03880
08EF3
3BEF3
28AEB
03303
03AEB
3C200
08C32
3A2A8
33FF0
2AF3F
2B2CB
2FFCF
2BACB
23AAA
3A2B8
0FFFE
00208
38C30
0F3CF
3F000
33C0E
08E2A
0FCC0
2C23B
332BB
3C230
08A28
222AA
0FA0B
2BAC8
20CF8
080F0
0C828
2823A
3BEFB
208CC
2A2B0
200A8
2AA8A
0F238
0F0B3
0A228
3CEBA
38ECB
003F3
0EB3C
3AEBA
0B238
2220A
00C0F
332AA
0A0FF
220FF
3A80C
03C33
3CFF3
08AAA
0E0FF
2B20A
3CA8A
0F02C
0C030
0023A
3BE38
23AC3
3FA2A
3C2B2
00000
3020B
3F300
0FAC8
28A08
03A00
00000
0AE0B
080BC
3A23A
2E0BC
00AF0
00000
0CA2A
0CBCC
2C032
000FF
0A2FF
3FACC
2FA80
3F0E8
3F238
3803A
3FB0C
3BA08
08288
0CBA2
0FCC3
28ACF
20BC3
2F283
0FEEB
0C00E
2C0AA
0B2F8
0F8F0
3C03E
08AE8
082BB
3F0E8
2200E
00000
2A800
3BEFB
2C08A
3F3B2
0020B
3BA3B
00ACC
2BAEB
0B2C8
0800C
0CFFF
3F2E8
3FFCF
08A88
2AA8A
20808
0AEB3
3F0E8
0CF3C
0C33C
203C0
0A28A
00000
0CA20
338E8
0BAC8
0BA08
3BE08
02A8C
030CF
3FC0E
0EFFC
269BA
08A3B
22A2A
0BE33
23BCF
03EF0
3FFCF
0828B
0AAAA
302BA
3CC08
000B3
000A3
28AAB
382B8
3FC3B
3FA2B
2A2BB
03280
0080B
28228
0BFFF
0BA3B
0B288
0E030
082CA
08288
20382
3F22A
33C0B
3F0CB
0A2AA
38A0A
03EF3
2A208
00EF8
08AAA
00F3C
3FC38
33EFB
2AAF3
2BA2B
00F8A
0AAB0
3E33C
0A2B0
0BA0B
08008
0F8FF
0CB22
0A000
2FF02
33FFF
2A228
0C300
3BEFB
3EEA2
2B83E
2AA03
082C3
28CFF
28A20
228C3
0BAEA
2C0AA
3BEF3
0F3CC
13A8E
382B3
2AE0A
08E3B
0CCB0
03ECB
2CBAA
032C3
38EC8
0AA20
2B22A
3FCF3
03A23
33EEB
08C08
0A2B0
32E00
28038
0B2EB
28A83
0A08E
080BA
2BA2A
2AAA2
20A00
2A0F8
30E88
3BEF0
0CF3E
2E30E
28832
0BCF3
0F00C
00CE0
38ECB
2A8C3
2882F
0E3BE
2333F
202E0
33CC3
2A0FF
28080
2C82C
0C382
32CB2
38A28
2BAC3
23A28
30CEB
30E32
00000
0CFC2
0CF02
38F0A
2BA8A
002C3
00000
2A20B
32C8E
382C3
2A82C
0AAA0
00000
2B222
22008
322A8
2F33C
2AF3C
3E302
2FB23
2AC0B
0F30C
088C8
0C3AE
3B2E8
280F3
0E002
3F023
0AF3E
3A8A0
008E3
33CFA
0C3B2
3E38E
0AC02
0E282
32F3E
3B228
33028
33C3B
0A03C
00000
2C88A
3ACF0
2C382
0EE8A
33E3C
08A28
023B2
20CE8
08A3B
22882
22B3C
3C882
08EC0
00CF3
22AAA
0B2C3
08CF8
32E02
3F33E
0E8AE
0BCFB
2AA82
00000
0B20A
002E8
032C8
3B228
0AECB
233CF
0CF0C
0EBB2
02CC3
382BB
0B2E8
33E8A
283EA
2B03C
3FF0F
32308
08C00
03AEA
022A8
3AEC8
2A880
3C3BC
2B2EA
08CF3
3A283
000AA
2B808
02F33
2382E
088AA
0BFFF
2AFCB
00CF3
3C302
22BBE
280A3
00B8F
38ECB
38EC3
38FB8
283C3
2A2AA
38CFF
2BECB
0FFFF
33EC3
20030
082C8
082CB
0AAA0
3B22A
08CCB
2AFEA
0FF3E
38EF3
0BC28
3EC38
2AAFF
00CF3
2800F
3FF3F
20088
2AC22
2A302
20320
0BEC8
3A230
2AA80
2ACE0
3233F
23880
28302
2AEC0
2AAEC
3C033
03FC3
0A2AA
2AC02
2A2A2
0C8CC
0A20A
28000
0028A
038C3
0832C
2A22A
2A0E2
0EF2C
2AAB2
2A3C2
28F22
2F0C3
03CF8
3CFF3
00F0C
0B2EB
30FC0
2A022
302BA
0AA88
2AABF
08CE3
02A8E
0ACC2
0BECB
2AAE8
0AA02
00BEB
3BCFB
38C0A
00FE2
0A288
3B2C8
0BECB
202BF
220B2
08FC3
2802A
02FE3
08C08
38C08
0B2CB
2C2A3
2A080
2AABC
22322
0BA08
00000
3FFFF
080CA
3AFEA
0A283
00802
00000
0AFF0
0B2EB
0CC0F
23208
2A2AF
00000
08228
2AF00
2BAC3
0BEC8
2A328
0B2CB
38EC8
00C20
2F08F
00302
28CF3
22F2A
28B2C
2A2C0
33A8C
2AFEB
2BECB
0AE88
00828
08BF0
3BEFB
0ACC8
0B220
282E8
2ACFC
22C22
2233C
0A208
00000
08200
00F2A
2B2EB
0AB0C
3C2B2
02CE0
08A03
0C33C
000A2
0AAA8
00FFF
2A2C0
28FF2
030FB
3BAC3
0BECB
0AFC8
20B00
33FF3
2BEFB
22FC2
3A220
00000
0AFEA
2208A
2AFCC
2A20A
2AFE0
3BEFB
28FE0
2BECB
00FCF
0A8BC
22FE8
0322A
2ACA2
0232A
33FE3
0A3CC
22FE3
000C8
20830
2EAAA
2A302
28208
2AC30
0C80C
0CF8E
2A0A2
2AF8C
38208
3AEFB
2AFC0
0EFFF
2AFC3
0F888
37EFB
2AE3E
0AE03
282E0
223EC
0CFC3
000F3
20300
0A008
03FC0
2AB0C
38EFB
0083E
20FE8
2A08E
2AFC2
202BC
3EF2A
2A022
2AFC0
28CE8
22FCE
28EF0
03A30
2A23F
003EC
0A203
3F8FF
23AA8
23880
02FC0
028A8
08C3B
002E3
2B8EC
0288E
2A200
080B2
2A0E0
0FABF
088A8
03A22
30FC8
322EF
08A80
0EFFC
0AEBF
2BBFC
2C30A
0A03A
33AA0
0B2F3
2BCB0
082A8
22A8A
0B80F
3B2AF
3C32C
2AA3F
033FB
33A3C
3FBEF
3EFCA
0BA80
30A2F
3FA08
2A33C
0800F
00AB0
203FF
0AA2F
280C3
0F0F8
3208F
03A0F
3F308
28EB0
2AA28
28C3C
322C0
0003A
2B22F
20CBE
0F3E8
0B0BC
0FA03
0ECC8
30323
28030
2BB0F
2F32C
2BA2C
2AAB8
088CF
00000
3FF33
3A3F3
0CB2E
28200
08C32
00000
28B2C
28F30
2082C
3CC02
2B8BC
00000
000BC
0BA88
03C8A
2F000
0A2A0
0FC02
022EB
3F8BC
3C2C8
3F320
03038
23233
28B08
38E3B
3EC88
3AA3F
0CC8A
20C38
3A8AF
322AB
0FFFA
22A23
3A2B0
330EB
2FA0F
30A20
28AB8
2803C
00000
228A0
08ABF
0F0EA
0A2B8
3802F
3820C
2FBFC
3EABA
203BF
2382C
0ACB0
03C8E
0CA2A
2FBCC
2AAA0
302E0
2FAAA
2AABA
03FFA
2022A
0028A
02AEF
00000
3C3EC
323B2
08A2F
08A2C
03BAE
2C0C0
382E0
03F08
0A288
2BBFF
33AA3
0F320
2BAB0
023AC
3333C
0A28B
0AAA8
2F80F
00C20
2B2BA
2AB0C
23A30
33AA3
33AB3
2A2BB
38F0C
3FACC
0083F
3F008
08A30
3A02F
0AA8B
33A3F
00028
3A2EF
030B8
23032
2AABA
00B3F
38AFF
0FBA2
2BA83
338C3
2CB0E
233F3
0B238
3AE08
20000
2EB0F
23BFE
3F8CE
2E8EA
228A0
303C8
3CA82
28A20
0F030
2AA20
0A2FB
208A3
3F03F
3E23F
0AA3B
000C0
03223
22020
3FBE0
28A2A
3FCFF
30FF3
33028
02F22
00A28
3F0C3
38EB8
22AAA
0C020
2AA82
2A800
3F8FF
30CFC
082B8
3CF2C
30230
0B2FF
3A282
2AA00
08A30
0E208
08220
00AEA
3FFCC
30BCC
0A28B
30E88
28F00
0A23F
2282A
00808
3FCE3
3FF33
222AA
32EBC
3B208
02AB8
20A80
00200
302BF
22288
00C32
08230
003F0
0A02A
0AE80
33CE3
02F02
332B8
0003C
0AA8B
0CF8E
0CBCF
00A20
3CC02
08A3B
0FF83
00A00
02BB2
00000
308E8
0C32C
3FA2A
3C0C3
00082
00000
3FEC8
30E30
3AE8A
0F33C
3FF3F
00000
0A28A
20FC3
3FFCF
082B0
28BC0
0F228
20028
3FACB
22AA0
08AAA
0C3FF
2AA88
032B2
00FCC
3033F
2CBEF
03020
08CA2
0A000
0C82F
2AA2A
0F8F3
0083C
0C320
32288
3823B
332FB
0AAAA
00000
08028
03AE3
2A880
2CA0F
3328A
30203
28A00
23A23
33203
02288
233FF
33EB2
3F0C8
30233
0C230
20A00
3A2F3
28AA0
2A828
0C3FF
33000
0F0E3
00000
0082C
3B200
03C08
33CC0
3A2F8
28A2A
0FC00
30082
3FC03
3AA8A
2AAAB
00A8A
0A000
00FBF
0C8E3
33CCF
0AAFB
28AB8
3ECB0
3A08A
0E800
02AAA
0AAC8
38230
0B2C3
0AAB2
0F8F3
2AAAA
3A3CF
2AA8B
3CCCC
3CCFF
0B20C
28822
0F3EB
3308A
2AAAA
0BA88
30A2A
3FA0F
00EB0
2AAA8
30A00
3F008
32882
38AA8
0CFCE
08233
3FAA8
3FF00
0A28A
2A2AA
08EF3
0882A
02CF3
38AAA
32AA8
3CFFF
3C30C
0083E
0F30E
33203
2AAA0
3F380
2302A
0CF00
2002F
2A88E
203A0
30C03
28A2A
0EFE2
2AAB0
228AE
33F03
30C3E
3E0AF
3C8BF
08FCC
0030F
02382
0030F
33C82
3FFCF
2008E
302A2
22280
0F033
2AA82
33ABC
28C00
0AA8A
030E8
03003
203BF
3EF82
20AAA
03CF0
208AA
2AA2A
02AA8
3303C
0FA28
03BCB
0E3B2
3288E
3CC20
03F2E
02FC2
0EFA2
0E323
2C382
0E3AE
02FB2
2AA00
30C8A
3CAB0
0AE8A
00082
0CBA0
0CB82
0E3B2
02ABA
2C32A
2A2A2
2283F
0FFFE
00000
3F3C3
0C33E
08F32
2A822
030A2
00000
22F0C
3E08A
0CF0A
0E382
2AAAA
00000
28A32
2000A
02AA9
0E38A
2ABB2
3EA82
0E3A0
3FAF2
3080E
33FFF
02F22
02A83
020A2
02F02
00F0C
0E8A2
0A23A
3C0A2
3002A
2FBBE
30C3A
00BBE
00382
0CBF2
02ABC
0C8BE
0F283
320B2
00000
3A08E
2080E
0EF02
28C8C
03800
02BB0
0C2BE
2BA80
2A3A0
08B3E
00CF3
02AAA
2808A
0E082
0A88E
3E30E
30A80
30F0C
0C38E
0EFBE
0238F
0232C
00000
0ACF0
0022A
08A83
0AAA8
008B3
3EF82
3E0BE
0E38E
2032B
22880
28ABF
08CC0
088B2
0CF08
2C3F2
20CB8
08B8F
0C30E
003A2
3C0A2
08B0A
30C3E
2A2BF
0F0EE
3C80F
008E0
28FEF
00FCC
0CFA0
028B3
082CA
0280F
0F3CF
3E3BE
023AC
3CBAE
3C2BE
0F000
03F3F
0E8B2
0CFA2
2A800
0C33E
20822
3ECBE
23C03
0C020
2E880
000BC
2AA8A
20ABB
00FA0
0A882
3EF3E
03A03
2A230
0F3F0
2A28A
0CCBC
38A88
3CF30
0CFC2
2CC3C
22C3C
2AAAE
2A033
02F02
080C0
22FFF
2AAAA
0B3EA
0AFFF
30FC0
3328A
0F02A
0BAF0
32F3A
0AF30
2A0B2
02AAA
03CCF
3F32A
3FFC0
3C02A
2AAAA
2382A
0C30C
0FFC0
3CFE0
3FF22
22303
0E3EB
2B820
0822A
3FBEC
2AFFE
2AAAA
0AA83
08F38
3CFF3
30FEB
080EA
0F3C3
0C028
2AA28
332F0
3002A
2AAAA
0AF32
2823A
0200C
2A8AA
08FF0
2882A
3AC2A
28E08
038AA
283FF
2B0EA
2AEF8
2AA0B
2AA2B
3FFE3
0FFE0
0232A
2322C
3BA23
00000
0CCC0
08228
0AF0F
0EFE8
2300A
00000
2EBCC
2AAAB
3CFE0
33FC3
3FFC3
00000
08C3F
3BC03
2FBE3
28C02
2AA82
083F3
02F32
22AAA
3B208
2200E
28CF3
0F3EA
38302
2A238
23AAA
26A88
2F3C8
020B2
0A3BF
3AA88
2A008
2AAA2
3E200
28AE8
00F22
0002A
230EA
03FCF
00000
33EB0
0A828
0B0C0
00AAA
2A00A
00F00
0C00C
2AAAA
3C30C
2BEFF
38CFC
0E3E8
2A328
2C3C0
0A82A
2ACCA
2AAAA
2BAAA
38EF3
282CB
22FFF
32C28
00000
2A3BF
0EF0F
303AA
00FC3
22382
2A230
08E2A
20820
0BCFF
0E3EE
00F0A
2A088
2A88A
2A3BC
3FFC8
00FFF
2AA80
3F00A
0EFCF
28AEA
2AF33
032E8
33F3C
00AAA
28AAA
320B0
0F32A
0CAFE
3CC08
38302
08008
2A28C
00A28
2A003
32FBA
002AA
28AF3
23B2A
08CC0
0AAAA
2CFEE
2A2AA
0AAAA
2032E
022AA
0CFFF
00FFF
033CC
2032E
0F3CF
0CF02
22FFF
2A8A0
0B2FB
08A8A
2EF20
2BAE8
00FEA
2CBA8
3CFBF
3303F
33238
228C3
3F003
032EA
2BA2B
3CCBF
22F2F
33C3F
20FFF
3AA8A
20308
332CA
2B228
3822A
0833C
322E3
000B8
20A0B
3320B
0C03F
3BEF8
2302B
33E0A
302CB
0FA00
02A8A
0BA2A
0028A
08AAA
2828A
00EF3
022CB
0C320
38E88
0F803
00B3F
03EF0
302A8
3823C
0EC38
0F022
0AABA
0BEC8
0CB3F
30F0C
3AC3F
330FC
30F08
0FCFF
08A28
200FF
32003
2C8C3
22FC0
03AE0
0828A
20B3F
3C3FF
3F200
30CBF
2E03F
0BE3A
3A2B8
0820A
03A2A
3EFBF
00000
3B038
3F08E
2A28A
0A220
23830
00000
2A2B8
2A803
38EB8
00B3F
2AA3A
00000
20C0C
2CB83
00AFB
0C8C0
08BBC
03A3B
3EC80
0F2EA
0BAE8
0B2FA
2C8C3
0023A
0C800
0080C
3CC3F
32CFF
232CB
0C03F
08E0A
00FBC
00A2A
3BA2E
00000
32EF2
002BA
33AAA
3FEE8
00F8E
00000
0F822
33EC8
0CC38
3F303
0BEAB
2822A
22B0F
0F0EA
08228
283AE
2A02F
08A3A
00322
0AEFB
0800C
3200B
28AA2
3F028
080CC
0030F
3300A
3200C
00000
2A2AA
0FA28
33EC8
2222A
081AA
3A808
33CFC
2FB33
2230F
0A98A
2328A
282BA
00030
2A8A0
20E0A
2C820
08A28
0C08A
0A2BA
3F8C0
2B232
3C0E0
08E2A
3320B
33AEA
0CA28
32E20
0C820
0C2C3
202AA
28CF8
28AAA
33C0A
0C000
3CCAF
3FE83
2830C
33AE8
30288
3FF03
3A3B8
0C822
330C3
38EF8
3CF30
3F2AA
0F38F
0AE8A
38D0A
3823A
33EFA
0A20A
2A2A2
3F30C
08E3B
00EE8
0000A
20E00
23038
2B00B
03FF0
2A2C0
2CCAA
03A30
38A2A
3AAFF
2B0B2
22AAA
2A8BF
2A3A0
0AAA8
228B8
02FEF
3F2B0
00EC8
0C2F3
2B000
22880
223FC
2A28A
0AA88
38C82
0822C
0CFFF
3CEF0
20228
2AFEA
28AAA
02088
3C3F0
22808
2E822
3020C
3CFC8
0F03C
3FFFF
28FC0
0CFEA
288FC
20CF3
2A028
0EFC0
2AA08
023C8
3C0F3
0C800
2B82A
3FCCA
0380C
03828
0AA8A
0280C
2B23C
3FACF
3CFFC
2BA0E
3FFC0
0200F
220AA
3B23C
002BA
30CC2
02FC3
2A280
00088
2828A
2AC38
00000
0FC02
3B80A
3FCE8
28A88
0BEE8
00000
3F030
002C0
08FFA
0A232
3E820
00000
03CE8
28820
32AC8
0F300
28030
3EF33
2B2B0
3EFCA
0028C
00003
382B3
0AF0A
30AA8
383FF
0A800
32E80
000F0
2380B
083F0
080CF
08233
300BE
303CF
3A003
0EFEA
32FFB
082AA
0F8EA
00000
00FFF
00FFE
38AB0
20088
2B03C
003FC
20EEB
2002E
28E30
0C030
2A803
28AA3
228A8
2BA80
22EFF
2BA3E
08FF0
0BAAB
3FF2C
33233
2A2BA
280BA
00000
0F3C3
00CEA
30FEB
00FFB
00CC8
230A0
0C0FC
3C003
2AB8F
22A8A
223E8
0F820
208E8
2A80F
3EC20
2A832
38E3F
2B300
0A28B
0022B
00FCF
03280
0FFFF
00CF0
282B8
02F28
2FFF0
3FCC3
28080
0EFE0
0CFCF
0BFFC
0030C
033F3
2B200
28A8A
0CA28
0AA8A
0328A
3FE28
0A2BC
00EEA
0BF00
2AABC
3F3C0
2A2BF
008B0
2A280
288BF
0EAE8
30328
0AA80
00F3C
0C2CF
2A280
0FF0F
3AA88
3EB23
2A28C
00FFC
00C02
38CF3
2CBCF
03C30
3EC2A
03CC0
2333C
03F3F
30032
0A2A8
3F0E3
33EB0
22A0A
20AC2
082A0
200B0
2F3CC
38A2A
2AAAA
3FCAA
0032C
30CCF
038FC
322EA
02C02
02F3F
33BA2
30288
0380F
0C2E8
0AA8A
00A28
0C22A
0E88E
2020F
0082B
2200C
2AAAA
28AAA
033FF
0C00F
2CB0F
0A0BF
20208
008C0
220B2
3CF3C
002C3
22C22
32B02
08008
2000F
03FCE
02E30
2A820
320BC
0A2AA
0228C
3C38A
2F3C2
3CF30
28FFF
30033
08203
2A8EC
32E08
0FFB0
00000
2022A
0FFB0
2AAAA
0FBFF
28E3C
00000
02AA8
03B20
38233
2CB08
23A82
00000
0E3FC
2AAA2
208A8
0000C
00FF3
0F808
2C2C0
0C200
00BC8
2A2AA
08820
30020
082A8
2B38C
0A022
0FFF0
2AA88
2AC8F
228AA
20CF0
2B880
20FCB
20300
0FF0F
338A0
03AA8
32038
0F3FC
00000
2CBCF
303CC
2082A
3CC82
0CF2C
02003
0FFCF
02008
3FCF3
0F3EC
0200C
20A88
3F222
38C3F
20B3F
3FC02
2C028
32A8A
288C8
230A8
38F0B
20FFC
00000
2AAAA
20B03
2CAAA
0002F
22A28
032CF
2CB38
03300
0228A
03033
02823
2AAAA
0C3CF
0A28A
28A08
00380
2E20A
2008F
03008
0AE3C
0A2AA
0C0BF
2AAAA
0AEC0
3CE32
3E3FF
2AA00
0CF3F
2B0CE
2C880
28AA8
2A022
2A220
02C2A
3FFFF
0208F
2C3FC
30EB8
3222B
32F30
0A20B
033CF
0FFF3
30FC3
0B0FF
32E8A
28A20
380CB
3AEBB
2FA2B
00AA8
33003
2CA08
2033E
2AA33
2AAEA
3CFC0
038C0
32E23
2ACC0
22F02
0EB3F
022E2
0CF03
0E302
28330
0E320
2E0EA
200AA
30202
28F08
0C8AC
2A3AE
2AFC0
3F33C
33FC0
32F0C
2B23F
3FFCA
2A300
22F02
2A88F
0A230
00BCF
2230C
2808A
02C88
000F3
22FC0
22F3F
3F3CC
22AAA
2A0FF
008BF
22B0E
3CFCC
302AA
0800A
2AF0F
2A3B0
2A38A
0E80C
283FF
22003
30F2C
200A2
02382
2CBA2
0CFFC
2BB32
2883F
2B802
08300
0E3CA
0AC3C
00C02
0E33C
038AA
000AA
3BFCF
02C2A
32F82
2A000
22F20
22F0C
2A3C3
28323
00000
3FFFF
2AC38
3FF22
2A000
08C8E
00000
2CFCE
00FA2
22F20
0A322
2B80A
00000
2802A
28EC8
23F82
023A0
32FA2
03FFC
2CBEC
223B3
0CFCF
0FF2E
0ACBC
2AB0C
20CFC
00FC0
22FCC
32323
22FFA
2F33A
0282E
0ACAB
3FFFF
0232C
3EC33
383CB
22300
22F0F
0A03F
2A382
00000
0AF0C
22AAC
2CF2A
2ACA3
02F8F
0C30C
0222A
3ECB0
2E3A2
0F0CA
302EA
2CFF0
02C0C
2C3E0
0230E
3CFCC
3F30E
2A33C
2BFF0
30F03
28A80
22BA0
00000
3FF00
20F8A
2238C
2AFCF
2CCBE
0CFC3
00F0F
0EF0E
2F028
2CBCF
2000C
3FF22
2A002
3FFE2
28CC3
0AA2B
0E30F
0AF2E
203AA
2BAA2
20C00
20330
22300
0FFA0
2A33C
2AE30
22BEE
2230E
3CC22
03030
0A33A
0238F
0FA0C
3FF0F
323C3
23BC8
08CC2
2ACFF
2AFFF
0A88C
2C320
2200C
2238C
2E88C
22F8C
3FCF3
00228
223CC
2038E
2A302
0C382
2A22C
0C32C
02C2A
3C280
223BE
3CFC3
2AAA2
00203
30FBC
2CB0E
30E33
3F308
0A20F
002A0
22283
0F3F0
0FFF0
08AB8
282AB
3A003
08A3B
3CFEE
080B8
30E0C
22888
3FFFC
0F0EA
280CF
0A238
022C3
3FFFF
2AC3F
300C2
33E0B
000CB
3C3C0
03E3B
0CFF2
2C008
00220
2A808
08C00
3F30C
000BF
0B0C3
3C308
2FFC8
283FE
03F33
03B2A
3F3CC
20A3A
200C0
3E3BC
0FF0A
0FFFC
0FB2A
20B2A
033C8
08200
23FC0
2AFF0
32CA0
0ECF2
0A8CF
322B2
0200F
3F3E2
08030
3CFBC
3EF3C
230EF
0C803
0CF32
38E33
2EF3C
00000
02BAA
02CFF
0FF00
3FFF2
20C38
00000
3F833
00000
03CC8
0E00C
0282A
00000
0CFEB
28A30
220AA
2000C
3EFBC
3CFB0
03BFC
3CFC3
2088E
03328
0A038
0CCC8
3823A
22EFF
02E20
3EF3C
0CB80
2FBEB
0E83F
0CFFF
00880
3EF02
02F30
0CFBF
0F322
2C802
00203
3FFE0
00000
0E322
2E203
3A008
0003F
2FF0F
2823C
3E3C0
32FFC
0AE82
0F30E
0A0B0
2E080
0220F
0000C
3CCF0
233C8
0FAAA
0A2F3
038FC
002C8
0820B
3FFF0
00000
200C8
00CE0
203E2
2C0FC
00AAA
0FBCF
0ABA2
223B0
20233
3FCC8
3CFCE
2002A
3F3AC
0A330
2080C
282BB
0C00B
2032F
28A0B
2C3CF
203CA
0CF80
23FE2
0E008
3A230
0C3E0
0F332
3CF3F
00F08
3F3C0
2AAA3
02A82
30B03
02B88
3FF3C
033F0
3F3CE
082FF
3F3CA
30C30
08280
3FFC8
00AAA
08A33
3C3FC
3BE03
20AB3
002A3
0AC3C
23020
0CFC0
382C3
3C220
0CF0C
0AAB3
2202E
3EFBF
0F302
082FB
032E2
3F00B
33EF3
30AA0
238EF
23002
28820
3F02B
302AA
08A32
20FFF
0AA88
223A0
02CF3
30008
38EB3
0F2F0
3F0E3
228B0
0FBE2
3BABB
00A03
2B02B
3FBEC
30CBC
0818A
30A22
333CC
2BAB3
0FE0A
03CF3
0C82B
32F30
02AAA
30300
3FE0A
230CC
2AABF
2AAAA
0BB0F
3222B
3A030
0AE08
2FA88
32FB0
3C0FC
00000
38A2B
002BB
03C00
330FC
2E808
280CC
23CCF
32E0F
0CFFF
0F0CF
3FCF8
22BCF
2AAB3
33CCF
3F0A0
20A2A
2A23A
03A08
3FFC3
3FAAA
32AAA
00000
3BE30
3F0AA
3F8E8
3202B
33222
00000
3FEFB
0AA83
2AA8A
0008F
2AA8A
00000
3C200
3CFCF
2A280
302FF
28280
22AA8
3F203
33FE8
30A80
202AA
3F3FC
08EB2
33A80
03BCC
00830
2B2B0
002AA
3383B
20AAA
200A2
22AAA
33228
0F8E0
00AA0
08C38
3BCF2
3BA88
00A2A
00000
38A28
302A8
2B883
3FAAA
032E3
30CF0
2AA3F
2BFC3
3323A
2880F
203CF
38AB8
020FC
3FAB8
0AC8F
0003F
0A2BF
3FAAA
3228A
3F0FF
28803
30EEA
00000
0F003
33028
30CFC
232C0
3322B
33030
33023
0CA00
2A30C
3BEB8
3023F
3F82A
00220
0F3EF
3A28A
3F80F
33208
3A2B8
2BA08
32AAF
2388A
33AE8
33C0F
08CBC
3BAAA
3FAEA
3CC32
3022A
038E3
38C3F
0CFFF
33CC0
08E83
0383F
33FE3
03033
00A8A
3FA88
300AA
0FF08
33228
33AA8
33300
00038
3CCBC
28AA0
2CFCC
28A0B
3333A
0AABA
00A08
0882A
33ECA
2B8E3
2A280
020BA
2AAAA
0CC33
0003F
330CA
08ECC
0C302
2AC83
0CA28
2A320
3C022
3AA80
38F32
0CF0C
3FCE8
2232C
3FF0A
2AA82
30A82
2F3E2
3B2C0
3F082
0EF0C
3FC0A
3FFF3
382BF
2CB20
3BC0C
28A02
3C3AA
38CBF
2A2AA
2C000
38830
2AAAA
0FBFC
03CFF
03820
2A2BC
2A33F
00A82
00B30
3FC0A
3CF0F
0C08A
3C33C
2A230
3F30F
2AAA2
280FC
0BEFF
0A28E
28FFC
300BF
3AE8F
3FFFF
28E8C
00282
23033
08A82
0AC8C
2AAAA
3FFE2
2A2B0
0F002
2B8FC
03BCF
0A883
2CFFF
0808C
333EC
0BA22
00000
0AE30
2800E
2808C
022A8
3BFBF
00000
2A32C
33CFF
2C3CC
33C30
3A00C
00000
3BE80
3C288
0C03F
0A28A
2B8FE
3BCFF
0208E
2AA80
33EF3
0C32A
2AA82
2AAA2
2ABAA
332AA
20FCF
2B3C0
3A00F
0AC8E
0C002
3B032
2CF82
28B0C
0B8CE
2BACF
2AA8A
2AA8A
0220A
2A2A0
00000
3F0C2
2AFCC
2008C
3BAEA
28008
2A380
3F208
2AA0E
2A0AF
33CFF
0F22A
3C33F
2A88A
2A88C
33B02
2A28C
03020
3FC38
082BE
0022A
3C3EC
02AA8
00000
30C3A
2A2B8
2AAAA
0A0BE
22FBE
3E882
08EFA
0F0FF
3FFCA
2AB0C
2A8A2
208C0
0BFFF
0FA0A
0ABA0
3FA28
203E0
2ACBF
3FFCC
0BCBC
3FF02
3B2FE
0AC0F
28CCC
3F0E8
0A28A
2AA82
0B320
0A280
2AA2A
3F2EA
0FFFE
2B0C0
02A8E
23A82
2AE8F
38E33
0F02A
3BFFF
0B8C8
0EBBF
0AC30
2BFFC
2E3E2
3A288
3C88A
0022A
0CF3F
2232C
08BA2
2AAA2
2EFFF
2B8A2
0BEF3
003E0
2A0AA
233CC
08F2C
3F3C0
3FF30
0F000
0830F
2FFC0
0A0F8
2833C
03E03
3FFFC
2FFF8
3CEC2
3C28A
00BAA
3CF3F
08820
0CF33
0080F
2A2B3
3FFFE
3FFC3
000CC
0CF2C
30E83
303CF
3F0FA
0E38A
3CF32
2AA2A
23B02
3030F
023E3
220E0
3FEFF
2AAAA
0A2A8
00B20
0AB23
3322C
20FB2
2AA23
3002A
0FFCC
20FB8
02328
003EB
2A82C
0A0B2
0F33B
0CF3E
2CF28
2B0EC
2A6AA
30F0F
023AA
3FF0E
0A280
0003A
2A6AA
22332
08A2A
00FF2
288B2
3FF3F
03FF3
2ABEB
3200F
03FA8
2C30C
0CFFF
00000
2AE20
3CF3B
08203
0FFFC
2A62A
00000
3CC80
00023
3C0C3
3F028
0AA18
00000
0FF02
33E8A
2AAAB
02A8C
3FFFE
3A0C0
3FF3E
28C28
0C3FC
08A03
0A2AA
0C32F
2ECB3
08208
02CB0
3FF3E
08A2B
2AAAA
28A82
3FFFC
0AA2F
0CF82
20F3F
3FF3F
0C02C
20380
0C30C
0FB2F
00000
00C30
2E32A
3CFF3
3CF3E
2038A
00080
3C2BA
08FB2
00800
3FFFF
3FFFF
2A82F
32A0A
02EBF
3CEBC
2AF22
2A88A
2A8A2
0A2A3
0AE0A
3300F
0FFFE
00000
0BE3F
28AA8
0282A
2F8E0
2ABAB
0A2AE
080B0
2033F
33EC3
0AAAB
003E0
0BAFF
2AA2A
30EF3
3A023
0CFB8
2038C
30FFF
0FA23
2A59A
08A03
2AA80
28038
0030A
3E08E
200CF
003CE
23FFC
3FFFE
0CB22
02A8A
20FB2
30202
02EAC
3FFBE
28A2A
00AC3
3F00F
20C28
3FF3C
3AEBF
03FC3
0F30A
3AAB3
2AAAA
0A82C
3FCFF
20AE0
0AAAF
2AA18
08AE3
3CE03
280AA
0323F
2030E
0802F
280C0
00F00
3C228
0C3F8
0F3CB
3F2AA
008C0
08AC0
28F02
2A2FF
03C30
2BCEC
2023C
3FAA2
283C3
2CE32
03FBF
0AA82
02320
2AA33
3FFFE
33F02
0FBFF
0C028
0300F
0CAA2
203F3
3C3EC
30F02
23800
28B8E
03230
3FFFF
2CB82
0FB8C
08B23
283CC
02300
0EFCE
2A23B
3C322
038CF
33FFF
3FFF0
33BCA
228E2
033E3
20AAA
2AAB0
0AAB3
083A2
3FBE8
2AAFF
3C8C3
03C8C
0C80A
0AC30
2AAB3
2AAA2
23AE0
20BA2
03830
0AF08
2ACF0
0F000
22CBF
0CBCF
0FFFE
3FF88
03F03
0330F
00000
3803F
283F3
3FBEF
0F3F2
2C8E0
00000
2AF0E
32333
0030C
0B3CF
300E3
00000
2A23F
08A08
3A32F
2AA83
00F02
3280F
2FFFF
0AF8E
0AE3F
00FF3
2AA0B
0F3CC
02E3A
2A200
2008A
2C2BA
0232F
03AC3
28300
033FC
2A23F
23F0A
00C3F
03E30
3C3A2
02AA8
03CC2
080CB
00000
0AA88
2F3CC
28A3C
20C3B
0CF33
20A82
2AA8B
080F0
2A0AA
0A233
0008C
33BCF
2A8AA
22E82
2AAAA
2A283
0E02A
0C0FF
3A28F
0AA88
2C2B2
08FB2
00000
0F833
2AA83
00A80
0FF3C
0EB02
28833
2AAAA
2AABF
32003
30FC0
03FEC
038A3
208EC
0030F
3230C
28AF3
03C08
3023C
003EF
3F820
0F32B
0AAAC
03FFF
3C3FC
00FCC
00C3F
2833C
08EFC
3FC30
0A0AA
28AAA
0CFFF
3C3C0
2AABC
0FFF2
23823
2AA3F
08232
00FCF
3FFF0
0033C
02FFF
2CBEE
2A8A2
000A2
3F2C0
2A200
30CEC
2BB0F
3C0E8
22B2F
0FCAE
2288A
2AA80
0CC0B
008BC
20BCF
3FFC3
33AAA
2AAAA
08032
0233C
269A6
0AC8C
200C0
3CC38
3FFC0
2AAAA
33FC0
2A8AA
38AA0
0C032
2AAAA
22A2A
030CC
028E0
33C32
00F3F
22AA8
303B3
08208
000A2
3FFFC
0AB3C
08333
2AAA8
165AA
000CC
2AA82
2A9AA
00F30
2CAEA
0FF33
00FC3
0F303
3BC3B
2AA2B
2AAAA
38A0E
30FFC
08002
33FFF
00C3C
2AAAA
0820F
3FFFF
3FF3E
2AA28
38C3C
28AAA
0FFFF
28A0A
33CE8
0B20B
3CFFC
0828B
2AA0F
00300
2BCC3
3FFBE
38AA8
3AA2B
2BAB0
0FFFF
2A03E
0020B
33AAA
00000
33EB0
3BA23
2A0C8
080CC
2BA28
00000
20F03
03A28
0C000
33CC0
2300F
00000
2AAAA
0082B
0C0FF
00A00
2A2E8
32200
303C3
2BAE3
0820F
2A200
03C3F
165AA
202A8
30C30
2AA82
2AAA8
2A033
28AAA
2AA28
08AA8
3CF3F
2A0E8
0AAA8
38E20
2A5AA
2AAAA
2080C
33CFF
00000
20BF3
08003
000A2
22020
33000
2A02A
28AA3
2AAA3
00F3F
30CFF
3F3CF
2823F
3032A
22FBC
2282A
228AA
2A0EB
003F0
33EFB
03208
0C33E
38F3F
00000
2A20A
2AAAA
2AAAA
28A82
2A0C8
3F3CF
02823
08AA8
3F30C
0A2CC
2AAAA
300C3
2AA28
00C08
33EFB
0C3CF
2A820
0AAA2
3FF0F
2AAAA
02C0C
032C3
2AFC0
28A0A
000CE
2AAAA
0FCFF
0AAAA
33E2A
265AA
3FFFC
2AFCF
08800
00A00
33F3E
23A02
03CCF
00C8C
0A0AA
0AAAA
0C0CF
269AA
3A028
0F33C
38220
30C00
3FFFC
0B830
2283E
2BAC3
220A0
0C30E
2A8E8
3FFFF
0000F
0AF3F
0080C
08020
22A82
33A28
2882A
0F32A
3EF0C
0AC0C
2A03F
388BA
30A2A
3FFAA
080CE
28A28
3CCEB
0800F
083BC
00008
2F33E
0E020
00FEA
30C3F
08E82
3BE33
3FFCC
0CFCA
00233
2AA02
0B238
3FFF3
00FCF
30FCB
03FFF
0030F
283CF
20B03
03808
2A2B3
2C32E
3B208
2FAAA
28A2F
3CF32
2FFE2
3F32A
03E3F
3FFEF
08B03
0E8AF
0FCAC
28E0A
2CA2A
3FB08
003BC
0C3FC
000A8
0323A
0F8A2
2A823
0EFBC
2AA32
08003
00F0C
0FBCA
0FA2B
3EAA8
0F3CF
3FFEE
22FAB
3BEFB
3CA0A
00000
028AA
2BA00
2A88F
0CFCA
3CF3F
00000
22BE2
3C3AC
0FFCF
00C0B
3FFEF
00000
32F3F
33E38
3F3EF
0C88E
3CAA2
00328
33ACA
0C803
30232
0808C
0CA8C
38020
282CF
0B233
280E0
2FA28
3FFA8
3FFFF
2A3FF
0CA28
0F30F
2CA28
0B0A8
2CA2B
0C30C
0B083
382F3
3CFFC
00000
3FFFF
2AA20
0F322
0BEF8
20B0A
0F322
0EF20
32203
030C0
3C0CF
08A38
3FFCC
2AC3C
0F82A
3FFE8
3C22E
2F208
0B238
2AAB3
00228
032F2
3CAEA
00000
2A08E
3AF3F
0A8E0
3FFFF
2A280
0C00A
03002
320A0
0B200
0CFCF
33F20
2AC22
0CF3F
2A2BC
203CF
3BE3F
2F08B
3E0A2
0FFEF
20EB0
2A8EC
0308E
202B0
22A8A
0B288
02F80
2AA80
22A82
3EAAA
08B28
2A820
0E820
2882B
0FA82
02209
0C802
3F30F
0AE38
3AC2A
2AA28
0FFE2
3FFF0
2282A
02002
2AAAA
3BC3F
33233
033EF
02320
3FFC3
0F3CC
2C30C
220E3
3E88C
20A80
2A8AF
3C8EF
203E0
0F232
30280
3BE3F
03FE0
03EFF
00030
0CCEC
03AAA
02EB3
30CBA
3FFCF
3F3C0
23AB3
0F3C0
38E32
0828A
0F0F2
2A9AA
3C233
02000
03C30
003FF
3F2FC
03232
3F0FB
3FABC
220B8
3FC30
0303C
0CFFF
0CA0F
0A208
00332
3F2C3
2AAA0
3BC3F
2A802
28AAA
3F33C
33CFF
008BF
33E30
3FFFF
032C8
0C8C0
00CC0
289AA
2BAB0
03000
3FC00
28ABA
33CBE
3FFCF
3FCBC
0C28A
28AAA
382FE
03ECE
28AA2
33FC0
00CFF
082A8
3BCEB
2BA28
00280
020CC
38F3C
083EF
32A83
00000
2AAAA
38083
08E3F
3F0FF
33FF0
00000
2A028
2BA28
0A820
3F300
3FA3F
00000
33CBE
3F0C2
03A3C
28A8A
3020B
23AA8
0A2B8
3CA8A
0BABA
030B0
2CA28
0E02A
0AFCF
2CA88
28C3F
08200
2AA88
38C30
0A2B3
33AC0
28AAA
0AA82
28A2B
02A23
3FFC0
28E80
00FF3
032FC
00000
08A8A
3BEB2
03A0A
28A88
3F200
08CAE
33A88
3F00E
0A20A
33EB0
3C00C
00A30
0F3FF
0A08C
3020A
33288
03F80
00C0F
2AAAA
20AA8
03FC0
30230
00000
00E3C
0323F
33F20
330FF
20FB0
2AAAA
08AAA
28A2A
0FC0F
2AF00
0C03A
00E30
33FFF
3F0C3
02EB2
00CC0
00C30
28ABA
0F3AF
3FF0E
3FA00
23AAA
080BC
3FF30
220F8
08C3B
32A83
28AB2
3CCFF
28A22
0F032
280B2
3FB00
2A9AA
38A3C
3FFFC
28A88
33FC8
3A0BA
0CBFC
0FFC0
08E0B
3FCF0
0F0EA
0828A
2E30F
03020
303CC
0AA02
22200
32C3C
0C300
0A830
08A8A
0FFFF
2228A
0FA88
3FFFF
3C3FC
3F3CA
32A0A
033C0
3F000
02A00
20F0C
33A20
3FF3B
0F030
20A88
3FA22
08C3F
03AA8
30C00
082B3
223CF
0B208
0FE33
3F3CA
3FBC0
28B0A
0A80A
032F3
20808
00A83
0C0E0
28A0A
0F3F8
308AC
02002
2A002
3CC23
3028B
0AAA8
00FFC
22322
00AA8
0FFC0
3FC3C
3CA30
0F802
02802
0CFC0
3330C
20C00
3FC38
08A3F
2F3C3
00FFF
2AAA2
0AACA
2F3A8
02822
08208
03808
0FA82
2AAEA
20FFC
0C0EA
08F00
00A28
3BCB8
332BB
2288A
02002
3F802
00F00
0AAA3
00000
2AA88
08000
3FCFF
3CC38
228E8
00000
3FFF3
08AA8
2002C
0A20B
3AAAA
00000
3BA00
00230
0AA88
30288
0FCB0
0B203
3F238
0CFC0
2CF28
00C03
2AA8A
0EF33
30FC3
03A88
3C002
3FF38
2AA23
0A82A
3F330
33EF0
3F2EB
3CF0A
0FC0B
0800B
30228
08002
0CFE2
20200
00000
282C2
0CFC3
002B0
0C32C
30FF3
3FFC0
0F28B
0AF0C
23CCF
22002
03AAA
20A2B
2C000
02233
3F28E
32A8B
3FFC3
0CF02
30E0A
3AAAA
030A0
03E3F
00000
3FFC0
28830
0AC00
03A8C
00FE0
30E00
022B8
33AEB
0FAAA
2CC00
3FC00
00BE0
3F3E2
3300A
0A2AA
3C8AA
3FFE2
000B0
00A00
0ABEA
3F008
020C8
2E2E0
22CC3
2C30A
0F208
0283C
3FA00
0CC33
0F3C0
30828
3F3CC
083CF
3F20B
0F230
083A8
33A88
02FEC
002A0
03F08
08F8F
3F020
0FFF3
203C2
00CCC
28220
0BAAA
3083E
208F0
0AA88
0A0E3
2C00C
3FFE8
0020A
0FF3C
2E2A3
283FF
3F2B8
3F32F
00803
0F032
28C03
30F0B
20288
2BB3E
08AB0
3FCB2
0F002
0C2BB
3CC2C
0B2BF
0202A
0F3C3
3AAA8
228A2
2AAA8
0FE88
28822
00230
2AA03
00CBF
2AABF
0B0F3
03A00
28280
38E0C
03CFF
0303F
3FFC0
0E32F
28A88
3F20A
08AA8
0FCCC
00282
03283
33C3C
3228F
3FCF3
3F00B
3FFF0
3CFFF
3A2BA
0C320
00AA2
08AB8
0303B
338C0
0AA8A
38CB3
0A08A
33FFF
30AB0
08AA8
3F3CC
0AF0F
3C8AA
28C33
00F3F
332B0
3BC3F
0F203
3C00C
382BB
3FCCF
3BAAA
0200A
00000
2AAA8
30E83
0EA03
3FC32
32CB3
00000
3F2B8
23223
3A288
3023F
3CC8F
00000
33E8C
00FC3
3F8FF
0AA88
2FFF0
00A0F
30288
3C00E
02AAA
302BC
03203
20B23
083CE
0380B
0AC3F
0FCFF
08A8B
30C33
2F883
23FF0
2AAAA
03C80
0320E
3BC3B
0F33C
28BAF
3082F
3FACF
00000
08200
03820
3B2B3
30AF0
03232
228A0
002A3
003FC
38A38
00A00
02F30
3BA80
003FF
30AA8
082F8
30AB0
0F320
0AA8A
0AAA8
03A80
028F0
03288
00000
2A200
032E3
0CFCC
0FF3F
3302E
022A2
00AAA
08AA8
30008
33288
2EB3C
0AAB0
33FF3
30008
28AAB
30803
3A822
0A28A
38A0C
3AF3F
0E080
30A28
220F2
330BF
38A0A
080A0
032AC
2A2AA
33C33
2CFEF
30303
0B00A
3000C
08A88
3FCB0
33E3F
30A0B
08AA3
3FE88
3B80A
002BB
3FCFC
3BA08
288AA
0EAA2
2AABF
33330
380BC
3A28A
33033
20CF0
02283
3FCC2
002AB
2A32F
32A00
000A8
3FFFC
028FC
3F203
3F0FC
0C3A0
0FFFF
30322
2238C
0F82A
3EF2A
03008
2EFE2
2CB2A
30FF0
2EFEE
0F322
0C02A
2EFEC
0CA2A
3C0AA
023AE
0FF2A
0202A
3CFEB
3C3F0
02E2A
0F00F
22022
2F88A
0CF2C
2E30E
22EC8
2A0AB
0F322
00F2A
2082A
203CC
2E3EE
028AA
0EB22
0CAAA
3C2AA
3FFBF
02008
00F2E
308AA
00BEE
303AA
0C8AA
0FCEA
32FC3
3F8AE
2E808
023CC
0C80A
0CF22
2C0EA
000F3
2AAAA
2ACCE
0FF33
0030C
228AA
32AAA
3C0EA
3EFCF
0CFE2
2220A
0CFEE
03C0B
00000
3E822
2AAAA
0888F
0FFFF
03808
00000
22F3C
3FC2A
2E322
33A3A
3F08A
00000
3F0C3
03CC2
0F3AA
2A32A
3EFFF
3E32C
3C0BE
3EFA0
3C02E
333A8
28AAA
3EF28
2EFEE
2C0AA
2AAAA
32280
3C022
2C202
2A000
330A0
0FBE2
2EB0F
3F322
3022A
203C0
2A32A
2200E
3ECE0
00000
2BE2A
22320
2E32A
3082A
003C3
2202A
3FCFF
003A0
2232A
3B22A
3FFEC
3E82A
02FEE
2232A
2282A
0FFAA
203FC
0C0A2
3CBAA
0E8AA
023CE
003EA
00000
33C22
02FFF
2AC20
2CF02
2E38E
0F822
208AA
3FF2A
3CFE2
2EF2E
0CF2C
3F32A
3C003
3FFEA
3F3A2
22FCE
00330
3CFE2
2CFE2
2B83A
0C3EA
3332A
3EF3E
00F03
2A82A
3C330
22FE3
3FFFF
0C32A
2C02C
00FC0
3CFFF
2A33F
3F3A2
3F0EA
23822
3C22A
0EF22
0EF3F
3A828
2E3EE
3CCC8
0C3CC
22F22
03C0A
0CF2C
00FCC
22B22
22BAA
00828
0C0A2
2232C
2833F
0CA2A
2C0E2
2E322
0FFEC
003C0
0032E
2F03E
2CF33
3BEFC
0022C
32E02
2CE80
088CC
0AF3A
3F3EE
0B2A8
0E03C
0A330
3FFF8
0030C
0A8F3
2AA3F
0A2C8
3CFBE
20FC0
3A28A
3FE30
02283
30FFF
2A333
22C02
38E08
3EC82
23002
38E8C
0E3BE
2C802
08030
2AA20
2C0EC
20322
02F0C
00AC3
23E80
2A820
3FFFC
3FF3E
28302
233EC
00FF0
02222
20AA3
2B0F0
02FB2
2C3BE
0CFF8
0388C
0CC3C
0F8A0
08F82
30280
0CB3E
2F030
2A3A2
3C080
23AEA
03FFF
2CF0F
20C83
3CAEF
03F3F
220BE
0BE3B
2E300
00000
0C300
2CB03
2AAA0
0CFB2
30022
00000
3CEAA
200C3
30303
02800
208E3
00000
2C330
02828
288EF
000A0
0FF0C
20BCF
33F32
20BEF
20F30
2AAA8
0EB23
02AEC
3FE3A
0E0C3
3CF00
0CF23
3C3CF
2A808
2A800
20F8C
30CF0
0FF3F
20F30
2EF20
03B2C
330F0
33E00
0BBC8
00000
33CFF
200AC
2AA0A
3AEB8
0EFB2
008F8
02080
2CFFF
33E30
0FFCF
3FCBA
208CF
3F02B
30C28
0ACFF
0A88A
2C028
38288
28828
220E2
3FC3F
0ACBA
00000
0AAA8
200C3
02A2C
228CF
2B3E8
3FFC0
08030
2A80F
3F20A
33823
23B8C
2AA8A
3FF0F
3003A
20823
3EE8A
2F8C0
2A80F
088C3
00A03
20008
00023
23F02
2E38C
38C28
0A03F
2038A
2200C
008B2
2FA2E
3E800
0FFE0
2AAA0
200E0
3CFBE
0330E
28820
38E33
0FFCF
2ACBA
0A288
0F32F
2EC00
3AEBC
228A0
3FE38
3C002
08803
08288
2FBE3
3A30C
33C3F
0F3EC
00AA8
0C23E
2AAAA
20F03
020B2
3AEB0
23F3E
238CF
00E33
30A33
00233
330F8
08803
2AABC
3BEAA
3FF30
320C0
28AEC
32EAA
3E3EF
3BA00
3A30C
2AAA3
2A830
0A2B0
0033F
0B20B
30808
3AC33
033F0
230CF
00C33
23A23
320A0
3FF3B
32832
3A08E
3AA88
3F3EF
00CE3
0303C
082A3
223CF
0CFFC
2A003
2AAE3
03BE0
33302
23ABC
0082B
02230
2AABA
0F0F0
20B23
03F3C
28AE0
2F8EF
33AB0
3C02C
2A0A2
2AAB0
0ACFE
332E3
2A282
28B00
20CBC
0208F
33FB0
22EBF
3EF23
3000C
3A3FC
232E3
0CFB0
00000
2BA2B
3FFF0
33A33
308CC
23AE8
00000
3CA80
0AA2F
32E00
3FFCF
3F3E3
00000
00A00
3F0FF
3FBEF
0AA80
2FFBE
008E3
2AA0F
280FC
28AB2
2AA00
33CCF
3220B
33C30
3A23C
2A032
2FFBE
038EF
23A23
2AA8A
22FB2
2AAA8
28FB2
223B0
00F32
303C3
3AA8A
33CC0
30A3F
00000
28ABA
233FC
32F03
23AFF
28002
0B2AA
2AA8B
00FFC
0BACC
00EB2
000BC
3AA2C
3FFBA
33E80
2AABA
0022C
30FFC
2F2EB
0AAAB
3330C
0BEB2
28A00
00000
02030
3FAE3
3E2C3
3C8EF
28B03
2AAA2
00A8A
2AA00
30000
0AA08
32280
0A23C
230C3
0003C
2AA23
0FC38
08082
3A283
320C0
203E3
0A800
3B280
2A80F
283C2
038F8
08A00
0A83F
2AAAA
333FC
3A08A
02C30
2AC82
2B33E
2AAA8
2883F
23BCF
2AA8B
2F320
282AA
0FF30
33C03
2228B
20030
082B0
22AAA
002B8
0C0BF
3A838
30223
3FBEB
3AA23
0AAAA
0BC82
0AA80
23EB0
30AEF
2A082
3CBFF
28208
02F02
2AEA8
3C30C
3F3FF
020A0
3FB0C
330AA
3E28A
302B2
003C8
0AAAA
3FF22
08222
2AAAA
2AB3F
2F30E
000F3
0EAAA
0CB22
2A665
2EBAE
0CFFC
0002C
30000
0802C
2C30E
0B0B2
0FCFC
00F22
3A08C
2EA28
38AAA
28AAA
030C0
0FC08
2AA3F
0B00C
0FCC0
2AAAA
3C022
2C02A
000B8
3FCC2
0FFF3
228AE
3F308
000CB
3C00C
3F0FE
0C000
3CCBC
2AB22
33288
33002
2022F
2AAAA
23828
3E33C
3F2AA
3FFF0
0E300
0ECB0
0C223
2B82A
3A282
02082
2CF2C
3FC38
00000
282F0
0CF3F
3C66A
00080
382E3
00000
00A83
03328
3F203
33202
0FFEE
00000
03C08
0EF0E
0F000
000B3
3AEAA
08A0B
02C8A
3F8A8
22FC8
2AAAA
3F0C0
0C30F
0C32C
030A8
0800C
0000A
20A28
0FFFE
0F320
38CBA
20B83
0E3AC
3232A
330FA
0F882
223A3
2CF2C
3FCF0
00000
03C00
282A8
2003F
3C3CE
33028
208A0
3FE08
3CFCE
2232E
00088
0B28A
032CC
3F3CB
22CFF
32CA2
00CF3
3F00C
3CF0C
282BC
00CCF
228AE
020BE
00000
2A555
23A2C
22AAA
0CAA8
22AAC
02F8A
02330
0F300
2AAAA
2A08C
33280
30AA8
238E2
3AAAA
0ACF3
2230E
2EFCF
220B0
00CA8
2C22A
0AAAA
0C0C8
00AA8
0F80A
0C32E
3F30C
2AE02
0CF38
0FC0C
3C082
2AAAA
22AA2
0C0AA
02C30
00883
30E0C
0FCFF
0EFEC
02A0B
0C30F
2A230
0C0C0
02AAA
0CBAA
2C002
2EBA2
002AA
03F00
2AAAA
28A0A
0AAAA
028A2
02A0C
03EF8
2CB2A
2AAA8
3F0EB
08228
22000
302B0
3E30A
28CCA
28BEC
22F2E
2ABE3
200C0
08A23
2FBC0
2A3CF
203C3
23BCC
3AF80
2FBEF
203F3
23FEB
22FB2
008E0
2AEBA
2EB2C
2AEB0
2AFFC
2C3EA
2233C
00CC8
28EC8
20BFC
2C3E3
2AF30
28BEF
0BCE3
2C822
2EB3F
23BFF
233E8
13AE3
0EFBC
28AE2
238E0
2BA0A
223F0
208EC
2B0C0
2FBFF
238E3
208EF
02FB2
2A8A2
2B3E0
2C08A
2382F
2A208
2ABAC
02038
280C3
28AE8
2882F
2B0EB
2283F
2B8EF
00A0B
0C3C0
20AEB
23BCF
1FBE3
1AAE8
28C30
38AEB
00000
0C30A
02BC0
20822
2AAE8
28B3F
00000
1BBD3
0AC3C
1FBEB
2C333
1BBFF
00000
2F3FF
3ACB2
2C30C
200EF
0FB0C
2CB00
00028
20BEF
20002
2F3E0
22F3C
2B3EF
283EB
32080
038E2
00283
2ABBC
238CC
283E8
32EA8
3ECBA
23AEB
3ECB2
008E8
2B3EF
2B2E8
28EF0
28BEC
00000
2F8E0
2F8CF
2BBE0
3AE32
20FE3
2B8E3
0033E
3C3FF
2BBEC
2300C
3EFBC
20830
283E3
23BEF
2F8EB
200C2
2BA2F
0A332
0A2BA
02C00
0AC28
282E0
00000
2C82C
23FFE
288EF
20BE0
188EB
0AA00
203E0
003C0
0AF88
1BBEF
2F8CF
28A20
28BA3
22BAE
2AC0A
3AFBC
2BA2A
23AEE
10BEF
2BA23
2CB2F
28B3C
23828
2FFEF
08E38
233F0
2A2EB
0C823
2F3EC
23AE3
200E3
03A2B
0FFE8
0EC0A
00AE3
2C80F
223BE
28CCB
238E3
080C3
23BE0
2B820
2BBEB
20BEB
238E3
0AF38
3AFBC
1BBEF
23BEF
1BBFF
2F3EC
283E0
2BAEB
2838E
332A8
288E0
2FBE3
2AAE8
2AE0A
0BA23
0FFC3
03CF3
28A8A
020A0
2AAAA
00FC0
038EB
232E8
2FF30
3FFF0
2302A
0FCF3
2B8C0
0330C
2AAEA
200C2
338EB
2A203
020B0
082B3
2CC3C
200E0
00200
0FFFF
03208
0CCB2
28A00
30EAA
300CC
0B2C3
2BBE2
083BC
0FB20
0820A
2BACF
0C33C
2AA30
33FC2
3FBE0
3CF0C
3088A
3828A
0FC3E
03FCF
288E3
0CC3E
00222
330E2
03EF2
300B2
0C3FF
0CF3E
30030
0038C
230C0
3EFB2
030AA
22FB2
28AAA
3FFF3
2FBE3
2382B
03F0E
2F8EF
0320C
0AA88
2BB20
00000
3F308
3082B
20320
088E8
3CFB2
00000
2BAE2
2BF3F
2B8EB
0F300
3FFB2
00000
2AABA
00F0C
3CC32
0C3CC
0082B
33328
330C8
03FC8
08BE8
03BE3
33FB2
2AE33
282BA
02CCB
0F3FF
0F8EB
00E32
30CBA
2BFE3
238EB
22038
038EB
23820
2FBE8
2AA80
0B8C3
08AB8
28A8A
00000
0330C
030F3
3CB2A
2AAA8
022EB
2B0C3
0E002
23A23
2FA08
08320
08080
00CBE
0AAAA
23A8B
3FBEF
3FCF8
0AA88
2AAA8
2820A
0CFF3
0A228
3F0EF
00000
38B23
3FC3A
23EFC
00FC3
0B03C
03CF0
20FE3
020A8
30C3F
2BAC0
28A0B
38B2F
0A0BA
0230F
0CFF0
3223B
2AA2B
2BA0B
0330C
00CB2
0880B
2888A
0B2CC
3BC23
28AAB
28E3A
033E2
22AA8
33323
28AAB
0FFCC
323CF
20F2A
00A08
3C8EB
3FCBA
2A08A
2AA88
0F8EB
20AA3
20223
2AAAA
003E3
2AA28
0020E
33E38
00FCC
003F3
2CAEF
23FBE
3BFFC
2CBC0
0BA2B
0203B
08233
282F2
0F3E8
0022C
0CCF0
3FFCC
3FEFB
2E322
300FC
22083
0C30F
0AA2A
32203
08200
2A208
30030
382B0
32002
22AA8
2A80A
202BC
0ACB3
02AA0
0C3C0
20808
2C3EE
0A002
02A80
2A28A
330FC
2FF0C
0330C
3FF3F
22B00
0C280
0C300
2083A
0A2C8
0822A
3FF3F
22A82
2202E
0AC3B
22A0A
2AAAA
3CFFF
2A280
3FFFC
2AA8A
2C300
0820C
00030
0ACC3
2AAAA
32FF3
0B38C
223E2
3FE00
0222A
20033
3220C
00000
0A8B0
0FC00
30C3C
0A800
2A220
088AC
03CB0
2AA6A
02022
2CFEC
020AC
00000
082AE
2A882
3F2AA
02030
00CFC
00000
0AAAA
308C3
22AAA
0AE00
33F3E
00000
030CF
22F0C
28300
0A2AA
32220
08EC0
32288
3F280
2A30B
22080
30CC8
0EF3E
0E3BF
00020
30A80
33CC3
0C3FC
3C03F
3C820
0C33C
28BCF
0AAA0
3FFCC
28A2A
00A03
2C300
0FFEC
3CF3C
00000
22800
0C000
2A2AA
3CFCF
002AA
22BA0
3FFCC
0FFEF
2A8AA
0C8C0
3FCCF
20C32
0F3FF
2AA8A
0AA88
0A800
2A08C
2EFCE
0AAA0
0838A
2C32C
3A28C
00000
38AAA
23822
0233C
3CBE0
2AA82
3AC30
38300
00FCC
3C33C
2AAAA
2080C
3FFF2
3FF30
03238
382B0
3EF0C
0EF3F
0808E
2AA8A
03C32
02830
20C08
3C208
00208
2CFE2
0C330
0E088
0CFFF
0A2A2
3CFCF
000F3
2A8AE
02ABC
2AEB0
3A2C3
30CB3
0FFBC
2EFCC
2AAAA
22C0C
2A96A
3330C
22AAC
0800C
008B2
2C30E
0CF0C
222AA
2AA8A
32C3C
0AAAA
2A002
02C30
00E03
20F2C
0E033
2AA22
08008
0CFCE
2030A
28AA2
2E0A2
3FFF3
032F3
0C302
2AA8A
3AAA8
30A08
3F303
3F03C
00CFC
3CCCC
388C8
2A208
22322
28E33
2AAA8
3FF22
202B8
2A0A0
33C3F
20AAA
0AAA8
2AAA0
2E08E
08283
3FFF3
2A00E
0280A
0032E
0E88A
3323C
28A8A
3FFFF
2C328
28A8A
3CFF0
20AB0
0A282
08AA8
203F3
0FFC0
2AA3A
0F33C
33CC3
0B233
2AA20
000B3
3AAB8
3AE80
00B2A
38C20
3AAB8
0000F
3CA00
28033
33FFF
3FC03
3FFFF
0AAA2
0A8C3
2BACB
0F0F8
02A8A
302C0
2AB80
08802
00000
2AAAE
2A238
22838
3C280
3A202
00000
0FFF0
330C3
02AAA
28AB0
0ECBF
00000
38E33
02C20
2BA3F
00C0C
328C3
0BA30
3AEA2
0CFE3
282A0
02882
28A0A
000E3
0FFCF
23A2A
0B3B3
082F3
03A38
3AE80
3F0FF
33AC3
2A823
0C83C
038E0
0BAE8
0F3F0
02302
22B22
3F0CB
00000
080C3
08000
08A82
22FCC
20003
2B3E3
3FE23
0C3CC
288A3
0BC38
33C00
23803
3FFF3
20800
08CFF
2A2B8
0CFEE
2E32C
322BE
2AAAA
2E30A
30A2C
00000
2220A
0A0FC
00F00
00C28
2CB3E
32CBC
0B20C
00023
3FFC0
200EA
0C320
2AAAA
00FF3
0022A
32A82
20000
0CF3C
30F28
00AA8
08CB2
0C08A
03FCB
0CA08
000F0
2A32E
38802
3F082
08C02
2AA80
0C3CC
3CF0F
2CB2C
2280C
2AA88
0AAA8
2AEB0
33CF0
2AF2E
0A2F3
088E0
0220A
33FC3
30800
3FFA2
30CC0
2A8A2
30C00
0C002
20EAA
3CC32
080FA
3C022
0C3E3
3B2F0
0CFEE
03288
288C2
3FC33
0BFF0
0AEB3
2382A
022AA
3A280
02382
3FF30
2EB2E
00CCF
3A283
0EF22
2AAAA
3C2BE
0CBA0
3F2BE
2E82A
3ECB2
2CB2C
20203
3FCBC
2A0C0
2A08A
0228E
22AAA
0C308
3F8A2
0A2AA
0AC8C
3C0BE
0E38C
00EB2
3FFB0
2003F
0230E
0FBCE
32EB0
3FFB2
2F3EF
3AE8A
0802A
32880
3C082
2A28A
38E8A
2E382
3C3B2
00820
22BA3
3EFBC
3A28A
0FBEC
20B2F
3EC02
08830
2F3EC
02B22
0AE8A
0E3BE
3A280
3822A
30EBC
2FBCC
03203
3E38E
333BE
0A2BA
2AE8A
0A332
08EF8
00000
2FB0C
0A20F
3AAAA
0A08A
03883
00000
3AF82
2E8AC
00FB2
0C00C
2EBAE
00000
382C0
3FFFC
0E3BE
23B0F
38EC8
3E38E
23CC3
08A8A
2E0CB
30003
3CB2C
3FCBE
322B2
3F3EC
22A8A
02E0B
22C82
22F00
28F32
38E08
003EE
0AABA
3CF0E
0F820
3F2BE
333B2
30CB2
0A2B2
00000
2A8AA
3F282
0CB2C
02FAC
0C8A2
30380
3A20F
3FEC8
02FAA
2A828
3ECC0
22C3E
3FC3A
00F0B
2AAAA
0F32F
3E38E
00C0C
2E82F
2FF2F
2E3AA
0020C
00000
320B0
020B2
3F0B2
232B2
0AF8A
2FBEF
0082E
0238C
3F328
02CBE
3FEB2
30A03
3A282
3B8C3
3FAA0
0F322
0AC8C
30E00
22BA2
0AEB2
008CC
082AA
3F2BA
3E2AA
2002A
08CC2
3FE88
3AE2C
0FFCF
30FBC
2208A
2ACF2
3A28A
2C32C
2032C
2FFEF
2282C
3E3A2
0A2BA
2A28A
3EFBC
3AEBA
322A2
3CCB2
22AAB
0C38E
3FF0A
220B2
3F300
0288E
3FA38
2238A
3AC02
2EAAE
3ECF0
30082
2CAA2
2AC8A
2A88A
0A280
2F80C
3BEA2
20A38
00F0C
288C3
2380F
33FFE
20AFA
0F3C3
2A2AA
20AE0
238CB
030F2
32CBA
3AA28
2A883
0FFFE
2B2E3
3AFFF
020B8
0F300
2A880
0FFF3
0CAC0
0ACB8
3FFEC
03222
0F030
2F3FE
030FE
08003
02AAA
2AAA8
30FE3
008EC
3F3CF
32BEC
2AEB0
0F3CC
0CFB2
330C2
02A2F
2F8EE
002B0
28A28
02C83
3FCF3
0E3EF
2380F
3F3CF
2B8E3
0FFC0
3FCCF
2AAA2
2A082
3FFEF
20220
0C0E8
232CF
3FFCF
2A8AF
2AAA8
03ABE
2FBF3
23FF2
20C03
2A2AA
00000
2AAB0
02088
32230
233F2
3F3EF
00000
08A02
2BA8A
238CC
0C282
2A5A2
00000
2B808
20CB3
2AAAA
00AEF
2A8CF
2AAAA
0FFFF
0AB2F
0A8A0
02A80
3F8CF
03232
003C3
00C30
28000
2AA3C
2AA8A
3F0EF
208EB
2A00C
28AA8
2AAB3
2AABC
2AA82
33282
03238
33FCF
08C23
00000
0A2A8
02A00
2FBEC
02EB0
238EF
03032
2A2BA
2A80F
3AEB2
00AA0
03F80
2BA82
0CFCB
02E82
082AA
0FFCF
32A00
33802
2A8A8
0F000
328C3
3FFF2
00000
30C0E
03A80
3328A
23BCC
008EF
2F823
00AA0
2BA28
08028
28A0C
038F0
32C32
030C3
3CFCF
2AAA2
03F33
2AA03
38233
23AE3
3F0EB
28AB3
0C8EF
28B02
0F3E3
0AC3C
238F2
0AEBE
288B8
3FFFC
0208A
0223A
2AA08
028E8
28AA0
3FF3E
3FFCF
02823
00300
22822
2ABCF
0FF0F
20A0A
2A820
0A00B
0382A
2AA80
3F0C0
238C0
02CB0
2A9AA
03A30
2302B
2A88F
30A83
28AEC
02E82
2AAAC
03332
28282
08000
3EFEF
2AAAA
0AA8A
0F0FC
2AA83
0E3AA
28AAA
00AA2
3FCC8
3F822
2AA0B
00303
0E000
0C30E
00303
3F30C
32088
3F822
2888F
33CF3
00AAA
0802A
2AAAA
3FFFF
30283
08AAA
000C0
0AAAA
00FC8
30FC3
00A80
0CFC0
2E8AA
00CE8
3FC30
00800
0AAAA
3F000
22AAA
00FF3
038C8
003C0
3303A
00FC0
2AAB2
3C30F
2A288
3FF20
2FFCF
28AA8
30300
00000
238A2
32A82
32CC0
2AA8A
0A02A
00033
2AAA8
20AAA
2AA88
020B0
08CCC
0008A
0ACEA
08A88
02888
00000
0C30C
2AA8A
028AA
30C00
08AAA
00000
30A80
00302
3CF00
22A8A
2882A
00000
22300
28AAA
228CA
2AAAA
22A08
22F38
2C823
088EA
0C32C
3FFCA
28AAA
33C08
2AAAA
28A2A
3FFEA
2AAA8
00FF3
28AA2
00C00
02000
02380
20A82
00333
2AA80
0033A
330C0
08A8B
2AAA8
00000
3CFCC
003F3
02A8A
2AA08
0FFC0
00F30
08000
2AAB3
0F030
3CF3C
08280
22C0A
2AA83
22AB8
30002
23300
08A80
08A88
0E3BE
0AA8A
002AA
3FF30
00000
0A080
28820
00FCC
08FF8
3CA80
0F002
0C3CC
0A2B2
3FFFC
0820A
002F0
028AA
30A8B
2A8BA
0EFFF
30AAA
20A2A
02008
3F30A
2AA88
0CA80
228AE
3C0CF
0E0C2
00A0C
030C3
33FCC
0CFC0
2AA8A
08000
0000A
3FAB3
333C0
33828
0E8AA
2AAAA
208BC
0AA88
3CABF
0AAA8
33E8A
20A20
30F00
08088
2AAA0
0AAAA
2AAAA
3CC08
3FFFF
23B20
3FCFF
3FCCC
3FA00
0C3FF
083EA
0FFFF
3F0F3
08000
30AAA
28822
3FFE3
302A8
0FF28
2830C
2A88A
2BAF3
30EAA
00A28
22F3C
2A822
20AA8
02330
00FCF
0E82B
0CCAA
230CF
002AA
030CC
0A3FF
3FFFF
2AAAA
028AA
20AE8
32FF0
3CC02
0FAEB
3F3B8
2A280
3FC0A
0ECB0
3C02A
00FE8
2BACB
3EFCA
0F382
2B2F3
222AA
20028
3F22B
3EF2B
33A2A
32FC3
0FAA8
0CF02
2AA8A
28A0B
30AAA
08C2A
33FC3
0BAE8
00303
0A008
2BACB
00830
3CFE0
23AE8
3ECC2
0282A
32082
2BEF3
2AAAA
28A2A
003CF
0C08A
3F328
0A0BF
0AAAA
00000
3FFCF
2AA2A
2A82A
3FCAB
0F2EB
00000
3FFBC
2AA03
2C8AA
0BAE8
0FAE8
00000
030EB
2820F
2C8E8
2A28C
2AAAA
2F3E0
0BECB
0E32A
0A02B
2CF00
232CB
3CF88
3A0BC
238F3
3F82A
2AAAA
2FBE3
2FAEB
0CAAA
2AAAA
208FC
00AAA
23AE8
28AEA
3EE32
0238E
3A0B2
00223
00000
00280
00FEA
2B833
2A03F
008AA
3F000
2AAA3
2AAA2
208AA
00283
282C3
0F82E
0AFAA
082B0
28AA8
3BCFB
30F2A
28828
0B2F3
2BACB
00F3C
3A2A8
00000
0232A
3A3AC
3EF03
0000A
3F3AA
2B2FF
0022B
2A8A0
00FF0
3FA80
0CF83
02C28
32A28
28220
0CFCF
0203F
3F3B2
3CFC0
2F82A
2AA28
2AAA2
08A03
3CC80
0C3EA
20F0F
0E820
3CFF0
33FC3
002E8
3CF30
00FF0
3F02A
0202A
2BAC3
3CE2A
032E8
2AA03
08C3C
23F28
2AAAA
0008F
3FCC8
280AA
3CF02
0B080
303BF
00C0F
3F80A
00F30
0F823
3030B
2AF2A
3F08A
28A23
3FA8A
0AFCF
28AAA
3C0A8
0230E
2F3FB
23FF0
300FF
2F002
080CF
02A88
380AA
238EA
2CCCE
2AA80
2A3FF
02C88
08083
2030E
0F0AA
3C0FF
0C0EA
23BFA
02A2F
08FEF
0BAA8
0002A
330CF
220F8
3FFF2
3F0E8
3ECB8
0ECAE
3BECF
0C330
3CF8F
22FCF
2AF80
3EC28
0CF32
302EF
0C2BA
0F28A
03F2A
2A30A
20FF8
0C33F
3CF3A
00EB0
38023
2E3AA
03388
23BC8
0CFE0
2332A
3CA2A
3223F
2CC38
23B0A
3ECAA
02F3E
02A8A
0EFC0
2A283
2EB8A
280FA
0B330
00C2A
03C82
0CBEC
0C33C
30E03
23303
00000
0CCE8
20CBA
0FFCF
2C3C8
00EBA
00000
0088F
00CAA
32F00
28000
0A2AA
00000
30F0A
2B2FB
320AA
0302A
0E830
30F8A
2F8CA
0EFF2
3CB08
333CF
0A2A8
0FB20
33000
30C28
02C03
3FF8A
3ECAA
0FCFA
22FC0
033C3
30EA2
00030
23308
080E8
00F80
0F030
3BA00
22FEA
00000
3CF02
2EF3F
08AAA
03E28
0F0BF
00C3F
02EAA
32CB3
2A080
03002
2AA0F
02EAA
0AA22
20AA0
2AAB8
0FB2A
0C8AA
3EC08
03C8A
0322A
33823
2BBE2
00000
0EFEF
30EAA
30F3C
2CF80
0230C
0FBEA
0FB2A
2C022
0A88B
02830
3CF82
203CF
3E0B0
2A08F
0CF30
3B20B
3EE03
20822
02888
30EF3
02F08
3E32E
2C30C
0E3FF
00C33
3CE2A
2C322
3FFFB
233F0
00000
00F0F
0CC3C
3FCFF
0F2EA
23BFA
0F8C8
3CF8A
382CF
230FF
32032
28A3F
3CCC8
233F3
0AA8F
0FFF2
332C3
333FF
0A000
20B0F
32EAA
0C380
38E00
3CFF0
0CCEA
3C2CF
0E3AF
3EC80
0800A
3BEFF
0C30A
28AAA
32B2C
3F0FC
0020A
0CF0C
23A80
3FF3F
030C0
00283
3F080
28C0F
3FA83
3E0C0
32200
2238F
08AB8
03CFC
3F3EE
3F28A
02BA2
3BEF3
0AA20
03C30
2AAAA
2AC20
3A0A8
3C3CC
0238F
30008
3E383
3828F
0CA8A
2BA08
3CFFF
0E00F
08280
32F0A
02AB0
000B0
0C2A0
0EFF0
3FF0F
00A2A
0C300
0FFFB
0BA3B
03FF0
3CF0C
2AAA8
32CBF
2CB00
3C300
38C00
03A8B
3CBA0
0032F
0FFFF
03E0A
38FFF
38080
0FF33
2F0FC
02A28
30083
3CFC3
3CF0E
2CB80
00000
28A28
02C83
0C030
3FC30
2ABAA
00000
3FC3C
00800
08C83
202F0
0AA8A
00000
3C00B
0A83C
2AA00
30A83
0FF3C
22A03
0C2B0
02F3F
0B232
00AAA
0B2C0
3C320
0CFBF
030E2
3FFCB
3FFB0
2AAAA
2A800
3F0AC
0FF30
2A823
3FF3E
0C8F0
2FFFF
3C3CF
3232F
2EFEC
30CFF
00000
38E08
0FB00
30A30
32F8E
00F33
3CF00
20A08
00F3F
0EFB2
0380B
3F002
32A0B
0FF3F
2AA3C
33C30
38083
33BEC
2200A
3B20A
0300B
2E820
2FCFF
00000
3E28A
23AA3
3E38C
3E8A3
0FBAF
02A08
282B0
03808
0C02A
00200
0E302
222AA
3F322
3FE8A
3BA2B
23000
3F32E
00CBA
3320B
3A3CF
03AAA
082C0
02AAA
02F0C
3EF22
00080
3C30F
000A8
3F0FF
3E3CC
3C2AA
2F8A0
203EC
20AB8
3FC3F
32C0F
0B200
3E30C
2F0C3
2FFCC
2AA0B
0F3F3
2FB00
0C32C
0CF3F
228AE
002B2
30C88
322AA
2AAAA
0AAA0
00A8F
3F3E0
38EF8
3C3AE
00AAA
280FF
3FCF0
30B8F
3AC83
330F0
0A28E
223B2
0EF02
0E3AC
0C3C2
32280
0AE02
0E382
02F82
0BAAA
0EF0E
00CF2
3EC02
3C38C
3CCA0
02AA3
0A0AC
2AC82
32A8A
000B2
2AFBC
2A0AA
3CF3F
2230E
2A2BA
0EF2E
22382
2AAAA
0CFCE
2238C
2208E
233C2
00FBF
0EF0E
3EFCE
0A83C
0030E
2AA8A
02283
00A8A
023BC
28AAA
3CF2E
0E8E2
3233E
0CEA2
382BF
2F30E
0A0B2
2A3AC
2AE3E
3EC8A
32F0A
38ABC
2A2BE
22B30
2AC3E
220BE
02000
3A28A
3E800
28C32
2AF8A
02A8E
020AE
3AEBA
00000
0FFCF
3AE8A
0FA8A
0EAB8
2AC2E
00000
0EFA2
228A2
2ECA2
2A882
282B2
00000
22882
0EF02
200B2
22A8A
3A232
32C3C
022BA
0CC03
03220
0C33F
22C0A
22FC2
02F8C
0EFC0
00CAA
0A2A3
0F0BC
0ACB2
3C322
3A2A8
0FFFF
3ACBE
3E0B3
3AC2A
020BA
32FE2
0203C
0ACB2
00000
000C2
0A2FC
02FB2
300A2
2022F
3EFE2
2AA8A
223BC
0E322
3220A
32FBC
2AA8A
0C300
200BA
32F22
3EC02
0E0BC
330A2
22223
3EF82
32FE2
3EC0E
00000
0028C
0C30A
32FCE
202AA
0EF3C
30CCA
3EC82
0E388
323BE
2A0BE
02FC2
28AAB
2A33C
2E8B2
0A2A8
2EFB2
0A3BF
222F2
2AAAA
2A282
2A882
30A8E
30FF0
3203F
3C8A0
2CB32
32882
2803C
3EC8E
0EFEE
0E382
02F0C
0208F
3CFC2
3EB8C
2AE8A
3AC82
0EB8A
38CF0
32AA3
2208A
2A3FE
0003F
32FBC
2AA83
223BE
3EFFA
0A22A
02F3E
2A8A2
3CFEA
0AF82
0238F
3ECBE
0230C
320B2
3FFEE
2AA8E
3EFCE
30BC8
0382B
22FFC
28A08
00800
023CF
0C3AA
00823
280EB
0F38F
3CFFF
2AA2B
0F0B3
2AAAA
030C0
00A00
020A0
0FAEB
3E3E2
3C38C
3C300
0BA08
2C303
3C3E0
000E0
2A300
02C82
08A20
02A20
33AAA
020A2
33000
0AA8A
202AA
00200
000FF
0CB22
2A000
00E30
0AA28
2AAAB
330FF
08000
3A28A
0E00C
0FC03
33FCC
0AAA8
3F883
228AA
0AEB2
3CFCF
0033E
038AB
2A08E
3FCE0
32FBE
3A220
3F330
3A288
2E8A2
03FFF
033CC
02AAA
00330
3C0E0
3CB02
03CC2
00000
2AAA2
3FFF0
3FCC0
0AAE8
0AE8A
00000
030A0
0BAAA
3F320
00838
0AAAA
00000
282C8
2C382
2AAAA
30EB2
030C3
2302A
228A8
3FE03
30203
3F3C0
3000E
28AB0
22BC2
0C320
3FFF3
03BCF
2AAAA
2AEB2
3F222
3FFFF
2AAAA
038C0
3FFE3
0F3CF
2AA2A
000A0
3EF02
082BB
00000
3F0C8
020C3
0088C
0CFC0
00803
008A8
28A08
03BCF
288BF
08C32
3F3CC
002AA
3C83C
2AAA3
000FF
22AA3
2AA88
3EF22
32F82
3CFEA
2FFCC
2AAE3
00000
3FC32
2F22A
00B00
30AAA
0002C
2A0AA
3C303
0CC00
03000
2A2A0
2AA2B
03088
0CF00
3FFFC
3AE82
3CF23
3EFCC
2AAAB
33380
32FB1
33E20
0A08A
2A828
3F8A8
3FFC0
3FCCA
2AA00
2A2AB
30823
00F30
3FFFC
223E3
33803
2A28A
20AEB
2A28E
3A200
0CF02
0FFC0
0FCCF
28AA3
0B2E8
0FCEF
0E30F
0ACBC
22BAC
003E2
3FFC0
330F0
2AAAA
2A8AA
3002F
0C200
33CBC
0CFF0
2AA82
2B820
0F22B
0030E
3BAE8
02820
2808A
0EF02
020B0
0EC3C
3CA2A
03BE3
00322
2AF00
3FFF3
08F28
0FCF3
3E28A
0300A
3F30A
32F2A
23BE3
080CC
0AEBC
3BEFF
3CFF2
00C2A
3EE02
23AC8
023F3
30F82
022CF
28EC8
3033C
30F8E
30CBC
3AEBE
0008A
0CC0C
2C30E
302AA
00B2B
3FEB2
33AEA
2880F
3FFEA
2F33F
00C82
0CC3F
0A3E8
3C332
23BEF
3FFEE
2FA2A
30F80
2BC33
00F00
3F0EA
23FE3
0A0BE
32FBE
0008F
0AE00
22300
338AB
0A8E3
283EB
33FBE
0FBE2
20B30
28233
2BBE0
00000
0F026
0B22B
0ACBE
08823
30C02
00000
2AB2E
3FF00
0C32E
30000
08EB2
00000
3AFC0
0B23B
30EBA
2AF2A
3C3E8
3FEAA
3F8EA
020BC
3FFE8
3AE80
022BA
0AE3E
0A33C
38A00
00FC0
0B3E8
3A2BA
33C38
2A3BC
088E8
2C2BA
003E3
000BA
008E8
32282
003FF
2AEB3
2238F
00000
0C302
0A0BF
2FBEA
282B3
3C3E0
0C33C
32F2A
32C33
0C032
3033C
0B203
00C8A
2AB0C
22B2A
3F322
3F0EA
0C302
2AE30
280CA
20A2B
28EF3
0F8E0
00000
0A2BC
32EB2
3828C
02CB2
30CF2
2F82A
2CFC0
20F2A
08E03
00B8F
028A2
08F3F
3AFB2
2AABF
20A3A
0A2F3
2A2F0
00B2A
3EF32
28EB8
3AEB0
22F00
03A82
3C0E0
282B3
0AE32
0F8AC
22F02
3F8E8
2A288
3BF0C
0E83C
03F32
00A0A
28BE3
0F3E3
0AFBE
2AE38
03320
0AFE3
0FBAA
0A022
33FEE
03F00
0AFC3
28EF8
002F3
02020
00882
3CEB2
30EAE
00FF2
220FF
22F02
2203F
3328E
3FFCA
00EB0
3FFF8
00CF0
2AAA8
2E2A0
33BF0
00B8E
3A080
20880
00E30
3AFB3
00C02
2A03C
2AAFF
30230
2AA8A
0CCFB
20AAA
3FFFF
30FFF
3C333
0020C
0EBEE
0C0A3
22880
0B033
2AAA8
0EBAA
208EF
30030
0A822
0CCF3
0E200
0ACFC
2AA88
200BC
282A0
2AABF
0BB2C
2AAAA
0803F
33000
3CCFF
02230
0AAA8
3FFFF
08ABC
20080
0C33C
3AC3C
2A9AA
0C3E0
320C0
30E0B
00C23
0F00C
32888
02A0F
0AA88
20AAA
38220
30AA3
33BFF
2AA8A
320B0
0083F
2A0BF
33CFF
3E3CF
3CF3C
00000
00082
22C3C
3B2AA
32FB3
308C3
00000
2AAA8
03F0A
00E3F
0080C
200FF
00000
3F000
3CF02
0B2C3
3C320
2AA8B
02A2A
30C3E
2AAAA
030FC
03033
00A80
20FFF
2002C
0CF3F
2A0A0
2AA8A
0F3EC
23A23
0F0C3
3ECBC
3F3EE
2AAAA
30B88
0A20E
23ACC
2A380
0CB2E
02082
00000
22880
2AAAA
2C030
3FFFE
2A22A
08B8C
0F8E8
28A2A
02828
3F320
33C3F
3FFCF
30E3B
02A8A
0A2A0
00A0C
2AAAA
2C3CC
0F03F
00C33
3F3FF
3AFBF
00000
0AAAA
0B0C3
0AAAA
3FF3F
2AAA8
0F020
3C30C
0C382
0C0CF
2AA88
32A28
3FC2A
3A030
082F0
0B20F
3CF3C
0E00C
0CFA0
282FB
2AAAA
0A2FF
22A00
08A8B
2A9AA
2CBA2
2F3CF
08280
2E00F
30CFC
200A8
0AEBF
2AA83
2AAAA
3C02E
3FCFF
0AA8B
00BCF
0C3EC
2AABC
028A2
0AAAA
03088
2AAAA
2E08B
2BAAA
02828
0FC00
000F3
2AABA
20AC3
2AAA8
038FF
2AA80
3FFFF
03803
28A33
2A280
00C3F
3030C
0F3F0
0BAE0
2230C
33033
00A2A
3E3EE
28A28
00C3F
3B202
02088
30C38
2AA80
30223
032E8
30E00
22B80
2BA2A
02A3C
3F3CE
2AA69
2CFE2
0F330
2AABF
08AC3
082A0
0C32E
2BC3C
03FFF
0C3FC
0A020
00FC0
2AAA8
0AA8A
282E0
3FFFF
22083
2AAA8
3FF3C
2AAAA
220F2
032E0
02CBC
3FFFC
0AC3F
03F00
3F2EB
33E30
0A8EC
3C8BF
202C0
08EB0
003C2
33280
08202
0F800
3F3FC
2B2C2
3FF3F
032AA
3BFFC
2AE00
3303F
03AF0
2A200
2AA8A
0CFCF
0EF22
0A28F
00000
282B0
30C33
02AAA
3F2FC
2800B
00000
3C2AA
0F200
0AABC
08E00
0A0BC
00000
380CC
00FFE
2A23F
38EA8
30A2A
2B2CF
322B0
30EA8
00C00
2AAA2
202C0
30F0C
3FF2E
28AEA
28030
333FF
0E82C
08C3C
3FC00
030C0
203EC
00CFC
2B8EF
3B2EB
0CF3F
003FC
0CF2E
0B030
00000
03208
3E028
0A208
0FF2C
22E30
3A0C0
0B28B
0C3EC
0E32A
03880
3C332
3233F
3FA82
028AA
00230
38E8B
02830
0F3EE
0BA08
08280
2FBA2
3083C
00000
2A56A
2BAA2
00FEF
22FCC
2A880
0C282
20A00
33820
2C0A0
0ACB8
0CC0F
2AA88
23280
32AAA
30288
0F32E
0FFEC
32E03
0AA80
2BCBE
0AAAA
08228
0C008
2038C
0CFAE
20F3F
3F80C
2300C
08C3F
33FFF
2AEAA
223FF
20F0F
0A28A
3F0FC
0AE3C
3CEBB
0EF2E
38A2F
3F3CC
2AA8B
0EF3F
2AB08
028AA
3203F
2CB20
33220
3AE3C
2AAAA
2A2A0
02800
328AA
0C82E
3B20B
3CFCC
0382A
228E3
3CCCC
0CFC2
2AA8C
33A0F
3EFFC
3F30C
00CEF
0E3F8
2AEFF
3A2B3
08ABC
3FF0F
3FFFF
2AAA8
0C0C3
08A33
0A03C
00FAE
02C3F
2A20B
3F3CC
2A8B0
02FCC
03C83
3F002
2AA80
08AAB
0EF22
2AA80
33CC3
2C0CC
0A80F
00003
0F03C
0F033
28A0C
3FFCF
00BEA
0F233
03E00
230FF
2A23F
2AAA0
20300
3320C
200F0
0FFFF
33E3F
2AA30
2AAAB
00CA2
28ABF
2AA88
30F3E
0AAA8
0A28F
00CFF
3F008
2AA8A
33FFF
30EB2
3F03F
082F3
0AAA8
2AAAA
08C38
22800
0030C
2CBC3
2AAA3
00000
2AA8C
2AAAA
2A2CB
0080F
2AABC
00000
3380E
082C8
0A280
2AA80
2AA8A
00000
2B203
2EC30
28A82
33CFF
3AA23
28AB0
0A2BF
02A2A
2A33F
220BF
28A00
023F3
3CFFF
008FF
2AF3F
0AA2B
20233
2AAB0
0003F
2AAAC
2A0BC
0AAA8
28AA0
2AA03
30803
0A8FF
02FCC
28020
00000
30CFF
0A2AA
3B203
2A020
28AE8
3C0F3
03A8A
22080
3CC20
02E00
3FFCE
2CCFF
020C0
3F3FF
0CCFF
2A203
3FC0E
2AB22
0A2BF
2823B
033FF
3A2AB
00000
28030
0F23A
3FC30
2300C
3E020
00CBF
0803F
20A3F
0000C
0C0C0
28AAA
0CFFF
28A80
3300A
00282
0FFC0
3FFFF
02EAA
08208
2AAB0
222B0
00AB0
202A8
3F8A0
2A80E
2A002
00A8F
28A80
2AAA8
303C0
3FFFF
2C8EA
0032A
08E3F
2A223
2A9B0
2AA30
0EFCF
2AAAB
288A3
03B0A
2A22A
0B8E0
3000A
08C3F
0F3EF
30F3C
2F3B0
208C8
2A28A
0028A
00830
3FF00
20A33
3300C
022B0
2AAAA
0F20F
30FFF
20FB0
33CCC
2AABF
00C2A
208CC
0F03C
22000
0CCF0
0028A
2AAAA
200B3
3AE8A
00EAA
0CC30
00AAA
32A28
3CC08
30C33
2A80C
22CFF
20828
2AA0A
303C3
0020B
00F3F
0808F
22820
0CBCC
2AAA8
0C2F0
00CFF
282C8
3E080
082A0
0CF0F
2AAA8
0C3F0
2AA82
0FCE8
2A8AA
30FF2
0A2B0
0FFCE
2AABA
200FC
02FFC
2E082
2AC08
0AAAA
0FF08
008E0
2AAA2
2A80F
02E8A
2AA28
3FF0F
28AB0
0EC2A
0000F
02AAA
00C00
30030
0AFB0
008F3
2AAAA
0F233
0000B
08E00
00000
2F080
323B3
3F32A
02C3A
23080
00000
2AAAA
22230
2AA8A
2A2B0
0F000
00000
0C808
2C300
08200
28023
3FF32
3EFC3
0EC00
323EC
2F882
08C32
02038
2A8B3
223A8
22FFF
020BC
0CCFC
3F3C3
0FAC8
0F3CC
02F3C
08000
3C20A
2CFFF
02E02
000BF
0883F
0F303
0C322
00000
00C33
2C0F0
0AA8A
3FFFE
332AA
2AA8E
20ACB
03F3E
08AAA
0CEB2
00FFF
08800
3C300
2AAAA
00CBC
2BACA
30A88
0080F
2F0C0
00C00
28823
3A2AA
00000
08008
0FCEB
008FF
0F3F3
38AAA
3FFFC
0EF33
3C330
200BC
3AAAA
0288F
303BA
280F3
22CFF
0CFF3
0038F
3F030
2AAAA
0AA88
2A80F
00F3F
02C2A
0C33F
02222
3CF3C
0F3CF
2E0AA
3FC00
2A2AA
03CFF
08C3F
0008A
30330
30002
3EFF3
20200
00332
20A03
32AAA
30C30
269AA
0FBA2
02EA0
2AABF
0002C
28BAA
20CFF
0AABA
2AABB
2B0F8
00AAA
2A022
3FF03
0CF8F
0F833
000FF
3AAAA
0EE3C
22A20
00BCC
00202
00E38
20A23
00F82
38A8A
20E00
20A2B
2ABEF
00C82
0AEBA
0B82C
0ACB2
32282
3C822
00282
0230C
28A0B
38E38
32CB2
3AEB2
238EC
2E80A
0008C
3028A
32F33
0AB2F
33EF8
00003
2020F
38CE0
32302
3A28E
03E3C
32E82
3CFF0
3E088
2AA20
3AE82
3FAA8
2AA8F
0AE8F
0BA8F
2CBCF
3AEB0
2EBE3
2882C
0EC0F
0A8AC
0C20B
20B20
33CF3
2C32F
2382B
2882F
3AEC0
32FAE
08AAA
32E82
2B22B
3F20B
23BE0
0380C
32C2F
2300C
2A20F
38EFC
2B80C
00000
3A308
2882F
323AE
2AA23
02320
00000
02A82
2B83C
0C30F
0C3EC
2BA0C
00000
20B03
238C0
20CB2
2CB23
28A2E
08A82
2F8EB
2BABF
0F3EF
3E03C
0F00C
3AE32
0A0BA
3F3B2
23000
2BA2E
0223E
22823
38EAB
038CC
23CF3
08AA0
30CB2
23AE8
32E30
30C00
30E3B
2AA8C
00000
2F82C
3CE8C
2FBE2
32CBC
3E080
30238
23BEF
33238
020B0
22800
38C38
200BC
3828A
2CB2F
2C8AE
0F020
088B2
3AC30
0B30F
2FA28
0AE3A
2EA2B
00000
3ABAE
0A8BE
3AE82
00C03
32EBE
23CC3
30823
0C8EF
3AC32
2A88C
3BE88
3EE2F
0AABC
3E08E
2BE30
03C38
03233
20AAF
2033C
0A08C
3ACB3
28AFF
38EBC
30AA0
3AEB2
08C02
3222F
02A2F
2F8E3
38EF8
3AEB0
3BA80
3F280
23300
0822B
2C0A0
2BAFF
3AE38
3A80F
08BEF
2FBCC
28A80
380A3
32CBA
288EF
33E38
00038
0E00F
3EF0C
08ABC
3EABC
00C3A
3AAAA
2FB0C
3FEBB
3AEBE
2F2FC
2A2AC
0AEBA
00A0B
2A080
3B230
0B2C0
032C8
3B0FB
33C3C
03A0A
0AEA3
0BABB
20303
2AA2B
032F0
0CFC0
0008A
2AE2B
3CCA2
0FCE2
33EFB
33A2A
3BA3B
00A28
082B3
20B00
2A0A0
3B238
0AA0C
28FFF
30228
3FFF8
00FFF
2AA0A
2AA08
30033
020FC
2BEF8
03F02
2A288
202AA
32FF0
0A82A
0F3E3
00C03
30C8A
20FFF
0ACBC
2E02E
2AA3A
0ACFB
383A2
200BF
3B203
2A803
3FC22
3C0BE
3FFCF
0CCBF
30F0A
2A0BF
300E0
330BA
0003F
020BC
28EF3
33E30
3FFFF
332CB
22ABC
00000
00AAA
33AEF
22CC3
0FCCA
082BF
00000
33ECB
2030C
00CF0
20000
28803
00000
22303
3F2C0
008A0
0F30C
008BC
02000
3F0C2
080CB
3080C
2A02A
0C38F
0B2A8
0B2E8
3FF3F
3FFCF
0C3CF
3C028
20A0F
3CFFF
0233C
3F38C
330CB
023BC
3CF8F
20FF3
33FFF
33AFB
20802
00000
3CFCF
2AE33
03AA8
33A08
2AEBA
0C003
2AA20
00CCF
33EFB
0C32F
0030C
3FCBC
0AEC2
33A88
0CFFF
00A80
38ECF
3BA3B
2CB23
3FF03
0B238
008AA
00000
0C020
08AC3
03FFF
00FFF
38EC8
3F33C
33CFF
02082
0A003
33E0A
2AF3F
0A20A
0AFF3
2A00C
28AE3
03230
03E3B
2AAAA
330F8
2AA3F
020E0
3883F
2A383
2A2B0
3B2FB
0023B
03C0A
0AA82
2F802
23C3F
3FFCF
28EE8
2A200
3F883
3F08A
2BA82
22B2C
3B20B
33200
38208
3028A
2AA08
0AE30
2B2CB
2A0EC
382B8
0F003
3FCCC
3B2EA
0F3E0
08F0A
382B3
33CF0
0038E
08E33
28A0A
3AC83
3CF2C
08A08
23AE3
3800A
3F3F0
0E2B0
03803
0208C
3F22B
2FA2B
02A08
0A883
220FF
0AF02
2A2BF
0E88F
03288
0FCFF
3F32A
20820
02300
2803C
28ABF
03FC8
0ACF0
0000B
3FCC2
3FFAA
0EEB2
0A8BC
332B3
008BC
22BBF
203EC
22038
3FE22
3CF22
2A8B0
3F288
3F0EA
2088C
332E0
2A308
03CFC
0CF2A
3FFCA
2A3BF
3CFEA
338AA
203E8
0F02A
3F02A
00F8A
2A283
2BEB0
3CA28
0F328
2A30F
30A32
0CFE2
08C3F
2202A
3F82A
00A2B
3CA2A
00A83
2A020
2ABF0
23A33
2BA20
00000
3F82A
00A23
00FCC
0A3C3
30EBA
00000
2A0BF
0C02A
2AA3F
02E3A
0AEAA
00000
33200
3320F
302AA
08CEA
0F8EF
3F028
3FAAA
0E300
3F0AA
23328
3F208
2AB80
03820
3FA83
2A008
02AEB
0CE8A
3C2B2
30ABF
23A2B
3F2A2
2FAE2
030C0
33A2B
082BF
00BBF
330FC
20F0A
00000
3F0EA
3F33C
038E8
2AA8B
033E8
0838F
2FC3A
0E0C0
2A03C
2882A
0AE3F
3F00A
2AB0F
223EA
0A0C0
03C2A
3FB22
282B3
3FF2A
3F8AE
222B3
20AEB
00000
2FF0F
30CB8
2ABBF
038BC
2200C
3F0AA
30AC8
0FF2A
3800F
2AFFF
0C30F
20B22
3C302
22BCF
3F088
3BA33
0F000
0C022
0A28A
30CB2
220B0
3F32A
0F28F
0FCE2
28ABF
0CC8A
2CB3F
3F030
0CB20
02AB3
2A2BF
0F3CF
3FFC0
3F82A
288E8
00A02
33C8A
00C0F
28A80
30022
20303
23080
0FFE2
2A00F
3FFEA
0003F
23CBF
0A3B0
2AB8C
3A28A
002A3
2AE33
20B22
03EEA
3FFEA
22BBC
302AA
2A330
20C3F
2AAA0
2A8A2
0008F
2AEA3
03828
0BC2F
2FB2E
3232F
2AAAF
0F32C
2A003
2AE2A
0CC0C
2A033
2020B
33FE2
3F0F3
0A283
0CFC3
3F022
3C3BA
2C880
2203F
20F2E
0CA28
2AA82
2AAAF
28000
00220
2A2FF
28FFF
3330C
2A8E2
208AE
2A22C
02080
2FB2E
2A2AE
2A0B3
2A00F
2AAAA
280C3
28A20
28020
28CF3
3C02E
0B3C8
0A8A2
2AA8F
0CF00
22BAF
3FF0C
2002F
2FBEF
2CB2E
2AFC3
2A38F
3FA80
33C20
0BFC0
0F32E
2AABC
22BAE
2AA0F
0A0C0
2A0F3
20822
2AAA0
00000
3C38E
2AA2E
3FFE0
0A2A2
28B2F
00000
300AB
2C8FC
2AFC3
2080F
2AA82
00000
2A20F
0FB0E
22A2E
3C3E3
2AA3C
2ABAE
3C323
28A00
3FE2B
200A2
2FBEE
2A03B
02820
2CBAE
2AFE0
2A23C
0A822
2ABAF
03C03
2A08F
0F3EC
2AA0C
2AB2C
2280C
2A3CF
2ACF3
02233
080FF
00000
28CCF
2A002
2FBAC
228A2
0EE2E
28EC3
2AA03
2B0FC
0C02A
30300
3FF28
2A0C0
030FB
0FAAA
0A0C3
2FB0F
2ACA3
22022
3F002
0CBEE
2C3CC
22020
00000
3C320
22CC8
2AFFF
2ACFF
08C00
3FF0C
02CF3
0CBAC
3033C
38F22
2AC03
3F8E0
2AE0F
3F022
3CAA8
0F3E0
38CC0
0A800
2F0FF
2A28F
30AAA
03230
0AE2F
2A200
0A3CC
2A00C
22CCF
2AA80
228A0
28003
02CFE
2A2CA
30EE0
2FBEC
2A3A2
2ABAF
0F023
3EBAC
2A83F
2AA83
0F00C
2A2A3
2222F
0202C
0CC0F
028AA
3CF22
3CFCC
3AC8A
2A202
2A082
2CCFC
0A208
3F0C3
02328
2AAE0
23A22
2ACE3
28BA0
02A28
08AA3
3FC0C
2A882
03C3F
20308
38EBF
08E08
2A0BC
2AEC0
3C8CF
2A2AC
20F3F
03FF3
3AA8A
2A020
3AABF
23E38
3CFFF
00FFC
2AA80
33A82
3CCAA
28AA3
383A8
3F080
23AFC
08FC3
00A82
3FFF0
3C3F3
22C30
28FFF
3AE3C
00033
08330
28A00
0CC02
33038
2AA08
302A8
0FA00
02FCF
08A88
3CCFF
309BC
2A980
20028
33203
2AAB3
23AA8
3000C
02A2A
2AA83
33ABF
3CFC2
23ACA
33C0F
2830E
3AEFF
082CF
302A3
0A9B2
3F3C0
0000F
3FFC8
0CE0C
3FC23
00000
3BABF
3FE28
00328
3FC02
2BA3C
00000
0AFFF
2AABC
03380
00A82
3AA2A
00000
28A8E
0C888
2AAB2
28A8C
0002F
0AAB2
2AEB3
02CEB
0AA80
0FC0A
332BC
0FFF0
3E30F
3B83F
3FF30
3AE22
0AA30
20AA3
3F3FC
0322F
3BE3F
3ACF0
38A88
3828F
0CFC8
00033
30882
002CF
00000
0828A
0FFE0
0AAB8
30230
2A283
00CF3
2AAA0
2A823
0C088
3A2FF
00300
38A3F
223CB
3F803
2A2FF
0AA83
20C00
3C020
33E8F
0A988
2A8B3
082BF
00000
23038
08A82
30FCF
30FF3
2AFF0
0AEBF
08A8A
2A94F
02F33
3C3C0
2A3E0
00028
20CCC
033C0
38F8E
02ABE
03CFC
0228C
08CF3
238FA
33FF0
38A80
2A028
02AA3
030F0
00332
3C02B
2023F
08AAA
28FFF
0CFCF
2A0FF
0288A
0A9BF
0BE20
28AA8
3A9BB
3E8A0
2A280
3F8AB
338B3
2AB8C
38203
2A3B3
3FE8F
0008F
0B33F
3C2CF
00FF3
3202A
2B0CC
00000
08FC2
2AAB0
083FF
20800
2A2F3
3FFF8
38303
208AA
2E322
3F8AE
3FAAA
30F3C
3C08A
3FF00
2AAAA
23AAA
30FAA
3FBA2
20FC3
00A82
3F88A
2ACBC
0FFE2
0CFFE
0A2AA
3F8B0
0CE00
02080
08A02
22AAA
000B3
33F2F
300AA
2AA8A
3FAAC
0020C
3082C
3FB2C
2F880
2F000
3F0EF
3FFEA
0FB22
3CF30
20AAA
20A8B
0C0A0
0ACAA
28803
3CFEA
00BF0
3F380
33C33
0AC0E
2A0AA
0F32A
22000
0A282
0F0A2
02A82
002B0
33C30
3FCCF
0808A
3FFE0
28AA2
3F2E2
3FFA0
230E3
20C00
3C823
0F0E0
0033C
3F080
202AB
00000
02FEC
20820
3033F
203C0
2A0B2
00000
3F30C
0288A
0C022
208F3
2AA00
00000
22A80
00F0C
2AA08
30EB0
2C028
28F0F
2A08A
0FCE2
0EF0C
3F22A
03FF3
3FAA2
3FE20
3F08E
3CA8C
0C82A
0A008
2A2AA
0FA8A
2CAAA
02FFF
0F8A2
20A88
2C00C
3FAA2
3FAAC
0008C
2AAAA
00000
2A200
3F322
02E38
2AA82
0EF02
3F8BC
2AA8A
0F0E2
0038A
02C30
0A8BA
00CF0
3FBA2
23F2A
2A8A8
22AC3
00802
30E02
0EF0E
00EFF
228A2
2A8A8
00000
33C00
2AA88
3F88C
3388B
0F0AE
33CF3
2CC03
022BE
00C80
3833E
3FAA2
30333
2AAAA
0F0B8
0CF22
028B2
3F0A2
30282
0E8E2
2A23E
33A0C
2C3C8
3F00C
2FFE2
300AE
3FAA0
3C320
2A280
0C080
3FA02
3C33C
3F00F
00F00
22FF3
2A080
22CBA
2AC0C
0C002
0C3FF
23AAA
2C0A2
3FA82
00FE3
0F322
30F00
0288C
02082
3CB00
3F32E
0A020
0F283
2CBA2
3FAA2
02030
3C32A
3C300
0FFC3
08B28
3C022
2A828
000B0
0BEF8
02822
0032F
38EFB
08E3F
20AA8
02283
22FBC
28EC3
08AAA
03FF3
3C23F
00002
00E0A
3CFFF
28AA8
23CF3
00B0C
2B233
3F3C0
08208
2A8A0
28A2B
38E3B
2AA20
08CF3
330F8
38E0F
3BFFF
0F003
0A8BE
280BF
03B00
0FFB3
2023F
08A0A
08222
00820
2AAAA
302A0
3B038
0EC8C
33FFF
3CFFF
0C30F
2AAA8
3BAAB
2F808
20AE3
2BA38
2A8EF
238E3
30FFF
0203B
2AAAF
3F3C3
0A823
03008
28A83
2AA8C
2A2B0
0828C
20800
08200
0B2C8
28232
00000
322BB
2AA8A
0000C
0AAAA
3C823
00000
008F0
0C08E
08C0C
2A8B2
0AA8A
00000
00BCE
200AA
02E8A
0F3FF
2A203
00A82
2FAEF
2302A
0FA0B
3CF22
02ABC
0BE30
38233
2A830
00FC3
2AAA8
2C0BC
238E3
0B03C
2AA0A
0C8BC
0AA28
0AAB2
2AEBE
08C30
3F0FB
3B2FB
00302
00000
0E882
28A33
0FBF3
23282
3AAA8
00C3B
0CB22
232C8
0800F
2EBAB
3E3AF
3C3B2
28F00
0F3CC
00888
0C8C3
00A88
0BA3B
2CF3F
00A8B
3FEF3
00A2A
00000
23323
00CEA
38CC3
30C88
0BEBA
2FB0F
3FFFF
30F30
20CFC
303C8
3AC0B
3FC20
22A8C
0C3CF
2803B
00000
08C0B
3F32A
22200
2AAAB
28C3C
0C33F
38220
0AAA8
202F3
3220A
380EA
02822
0FBE3
00EF8
03CFF
3BAB8
03AE8
0FA3C
0AAAA
2A82B
0CF0C
03EFB
0823B
382FB
0F308
02AAA
08233
03CFB
0ACFB
330F8
300EF
0832E
3FCCF
00882
330CC
28003
0A288
3CFFC
03A3B
0AE3C
32280
2A238
080CB
2800A
0822A
02C3C
02222
30028
32C28
230E8
0CBAF
382EB
08E80
02232
3BAE8
02A0B
02C32
0AEB2
3CC2F
2032A
0CB2F
0003C
3AEB2
3CFBE
2E023
03FFF
2F8E0
28F32
32F3F
02802
38030
0003C
200FC
00CF0
0AABC
0AAAA
2382A
32EB0
30032
2F3C0
0CC00
020B0
3F3CF
0208A
00AA8
08EB3
03B2F
30FB2
2382F
2A2BB
3C30C
30803
3FFCC
3FB0E
028BF
22022
0F3EF
238E0
02038
0FFF0
3088F
2AAA0
032B0
3FFCF
2B823
288E8
282FA
03A32
20038
00C30
2BB02
00000
2F302
2BAEB
0AABC
20080
00F2C
00000
3AAAA
0B82F
08C3F
23828
2BAE8
00000
380E0
080EC
2BAE2
038EC
33E2B
20AE8
333CF
0B2FF
330EA
0AEBC
2FBE0
32E30
3CCB0
23BE3
00CFF
0B3EF
2AAAA
0C300
0CB2A
2B823
2C8E0
03223
2AAE0
2B8E8
002B2
3CC32
3EFBE
282B3
00000
0E2A2
3020C
208E3
2A28A
3F3E3
30E8A
2A223
0B0E3
3AEB2
2A280
320BA
2BEC0
3E2BA
0A8AA
2A28A
0FB23
3C002
0228A
2BAE8
2F3E3
023BA
020A3
00000
3A2B0
28A2A
0ECBA
2303F
3FFC2
3F0E0
32C08
23823
3A082
32EB2
382B2
3AF3F
00808
3A2BC
2BACB
00F28
3008E
082A0
20AC3
2308E
3AAB0
0AAE8
3C2BA
3FC00
3AE8A
0C000
02CBC
2AAA0
2F8E8
3BEB0
302BA
3F022
00F00
238EB
3FF0C
0FFBF
2A280
38C82
230F3
2BBFF
2AAA2
08A28
080CF
322BA
2080F
32EB2
00028
2B0FC
0AEBA
2828A
32CBC
28800
30FC2
2AAA0
3CC8C
0A2B2
230E0
2A288
30CB2
023C3
30FF3
332B0
3E338
038C0
00E08
02222
22023
22B03
00F33
33F3F
2A082
00C00
3CFC0
03FCC
0A2B3
00FE8
2AA83
20AAA
2AA2A
03AF8
3C0C3
3BC30
23AA8
00C8F
3FFFB
3F3EB
2A2BA
332CA
3A083
3820A
2828A
003FC
3E280
0B3C3
082B0
0C800
03FFF
28A0A
002BA
2AA8F
02083
30300
0AE8A
0A080
2CFEF
3F3FF
202AB
08FC3
302A0
2F0E3
28ACA
23BCF
22000
0CBF8
0CF2F
2F8E8
0F02A
22BEF
0CB08
0AA80
2AB82
0ACC3
322B0
28288
3020F
0BAEA
02CBA
00000
33F08
3F208
23AAA
0A8B0
0F3EB
00000
282B8
2003C
08EB0
20FF0
3E0B8
00000
0CB0C
330C3
3F080
00AEA
0AC0C
38C00
280B2
0030A
08AC3
28A8A
0F88A
38E3A
3F03F
28A82
30CC2
0AF2E
03E00
2F8E0
2A2AA
02FB3
08AAA
3A030
0CE23
2A0B8
3CC30
30AAA
03AEA
0C302
00000
080EF
3BCF3
0CC3C
3F238
0BEB3
30233
2E3EC
30E02
00A08
22300
2ABEC
32280
02822
382FB
0200F
23C08
0A3B0
33208
3FCFC
2F3C8
0B032
00C03
00000
2AAAA
3FA2A
3CC3C
30CB0
2822A
0CAAA
333CF
003CC
2A030
2AA8A
0F3B0
2AA8A
0C308
2AAA8
02088
2C22A
082C8
00000
0A2A2
0F8E3
2AAAA
033C3
2ACF3
00CFF
33AEB
0F2F8
3CC0F
0F3E0
2303B
0EA28
0BF3C
0AF00
3BCF0
0CAAA
2A2AB
3F82B
033E0
33E08
2AA28
3FF33
38EBF
2EFFB
08F3C
3BEFF
0FFCF
332CA
2C00B
2AABC
08AB2
02A82
3AE30
0B0BA
200E0
3CFCF
0AA03
3FCFF
2A2A2
02333
03CFC
080F0
2AA0F
2EF2C
2AC20
2A02F
2ABAC
2AF0C
0AFFF
2883F
02F3C
223CC
2A3FF
2A03C
2AEBC
3AAAA
22AAC
2AAAC
3CFFF
3E02E
283FC
3F322
3CE0C
03B3F
08FFF
2AA22
2A8AA
2AF33
2A3C0
0F30A
283FF
0EF2B
2A3FF
20330
2A8CC
2AA2E
2A88C
228A2
2ABA2
02FFC
2AE3F
08FFF
3FFFF
2AAAE
33FFF
203CC
0203C
2AAAB
0BECF
16A8C
22A0C
2A08F
233CF
28333
0030F
22F8C
3F3FC
2A2A3
2AABF
2AFCF
2A280
2E020
280C0
288FC
0AF0F
0003F
00FFF
0E322
0B82C
00000
2AA8F
0028C
2AFFF
0C30C
2AC80
00000
0A3CC
3803C
083FF
28F33
2A8BE
00000
082C0
0FFC2
2B00C
0283F
28800
2AAFC
0CFFF
1A03E
30EFF
2AF0C
2A8A0
220C0
2238E
2CB8E
20FFF
2A0CE
2000F
2A08C
2AFFF
0B0EF
20EEC
2A82C
333FC
2800E
2AF30
02CE0
22BAA
2AA80
00000
02C08
2A0CC
0030E
3F30E
2AA03
30F20
3FF3F
28002
03AAA
2AA08
003CC
3F0C0
2AAA0
3C282
30FC0
222AC
2A38E
3FF22
0A2A8
2E882
2030C
08AAF
00000
2ACCC
3CCAA
3C300
28CFF
2A38C
00FCF
2A822
30F3F
2E3CF
2AAAA
2AAA2
2A0C0
2A320
00FE3
2AA82
0CF0E
2A38C
3E288
38FFF
2AF20
28FFF
2AAAA
2A000
1AAE2
0C30A
3FC0A
28A03
3B003
0E3CF
28FEA
003FF
2AFC3
2AAAC
2280C
38FFF
2A2A3
2AAAA
3C3AA
2BCC3
2BCFC
220BF
2AA28
2AB20
2ABAE
2AA8F
3C0A2
0C30E
02FFF
2A20C
2A3B2
2A308
0C3FF
2A3AC
2AAA3
2AF0E
28AA8
2AA0C
30FFF
3F3A2
3EBBC
03A03
0EF22
3FFFF
02382
2A80F
38200
3020A
30383
0CF03
2A83C
3AA2A
00CC2
0BA2A
3FFE0
00AAA
3CFFF
32A28
0303F
2AAAA
0EB2C
3CC3C
000C0
3AAA8
28200
0F3C0
00002
28FC3
0EF0E
0820A
3322A
3A038
2AAAA
30B03
03A3C
22288
2EC3F
2AAAA
00023
30EF8
08A0A
20AAA
08E2A
23FC0
0BCCE
38082
03CFF
32CCB
2AAAA
03003
228A2
0E028
00A88
0BAE3
0E330
2AAAA
28AA8
0F800
0228A
3FACC
000CF
322E2
3EE3A
0C2AA
20008
08AAA
0E32C
3FA33
00000
00E3F
3E220
2AAAA
0AAAA
0CC33
00000
2AC2A
0802A
3F2CA
002A8
00A8A
00000
0F00A
08888
28A2A
3FF3F
0A200
0AAAA
0B0CC
0AAAA
00FCF
333FF
28238
3FFCC
0CF3C
22FBF
28AA8
3A280
0C802
00B0C
20FE2
32200
33B02
0A203
22A28
3A200
032E8
3CF2A
2E30E
3FF3F
00000
00F00
022AB
2CF3F
0C30C
0AAA8
00F03
0F020
2EA22
0E30C
000A8
0AE30
33322
20ABC
0EF8C
20F2A
080CC
2AA33
0C38C
020BF
00CFF
02320
3EF38
00000
2A9AA
20BE2
00AAA
0F2EA
2A283
230CF
3C3C0
3CC02
2A232
0F0B0
3C0E0
0AAB2
2A208
2AAAA
0020F
0232C
22FCC
0FC20
3FFC8
2E2AA
2AE80
32CF0
03A88
2A9AA
0CB2C
2CCE3
00AB2
08F0E
002FB
0E3C2
2AAA2
2A883
0CAAA
02FFF
3AAAA
02008
3FF0F
223EE
3A233
2E8A8
0FF32
02C30
0AAA8
02AA0
20A8A
2EB22
000E2
0C0CA
022A0
00AAA
0B22A
0CF32
2A00F
30FCC
008A8
0BAA8
00EE8
2AA8A
0033E
0B0E3
282CC
0CFEC
3A2BC
00E08
22A8F
3FFEA
2BAE3
0BAC0
20028
3FFCA
2AA8E
0A8AA
33A8C
0CBE0
3F3FF
3320B
238EB
2A88F
0BA88
0C33E
02C38
203CF
382EF
3F3CF
2A3FF
3AEBC
3228C
02233
223E0
3C0B3
2088F
00E82
33FB2
2A8BF
2203C
3FF2A
2A82C
3FAB2
08FEF
23AE2
2A3F2
022BF
0ACCA
3F30C
20AC3
3CCFF
2BAE3
2803C
30C08
38EBE
22FCC
2BC3C
08228
0F200
00023
0AE88
22ABF
000BA
2AABC
330E3
28AE3
2BAE8
000B2
2A2E2
22F20
00880
238C0
00000
00CC8
2BA20
2AA8E
20AEC
0AC82
00000
2A3BF
0828A
2A330
082F0
32EB2
00000
3BC0C
33F2A
38CBA
0023B
28AA3
3B00C
0882B
20ABC
30CA0
3F30C
0BEC8
2088C
2208F
3FFCA
0FFC0
2AAEB
3CCAA
3A0AA
3032A
0B8E3
3CFCA
2A80C
0BBEA
0BAE8
208A0
0C00F
2280F
0AABF
00000
03FE2
2AA0F
03AC8
2B8E2
00C00
2038C
3BE8A
22ABC
2C800
082C3
0F008
0AC8A
2AA80
0020F
2F3E0
03008
22B3E
0A2EA
0FECB
33E08
03F00
2B8EF
00000
28A80
30EBA
0F8BF
0808A
2ABBF
3F328
332C3
3380C
33E08
2E8AC
03ABF
2AA00
2A033
0BAA8
3F8EB
33EE8
2230F
0820F
2A3AA
0AEBE
008B2
