00000010
FFFFFF4B
00000025
00000026
0000012B
FFFFFFF2
00000029
FFFFFF0C
0000005C
000000C4
FFFFFF5B
00000001
00000022
00000083
00000043
0000008E
00000055
FFFFFFB4
FFFFFFFA
FFFFFF8A
00000004
FFFFFFF4
FFFFFF5C
0000002A
000000CC
0000002F
00000020
000000F6
FFFFFF27
0000001C
FFFFFFED
00000020
000000B0
0000000C
00000096
FFFFFFF1
00000033
00000000
00000061
00000074
FFFFFFE3
00000044
FFFFFFFE
00000058
00000012
FFFFFFF7
00000020
00000000
00000009
FFFFFF50
FFFFFE72
00000003
000000ED
FFFFFFB4
00000068
0000000B
00000040
FFFFFF72
FFFFFFED
FFFFFF81
FFFFFFB7
FFFFFFDF
0000007C
00000044
FFFFFF43
0000008D
000000A3
FFFFFFE8
FFFFFE56
00000074
000000AD
000000D6
FFFFFF36
000000BC
000000F4
000000E7
FFFFFFE0
00000006
0000006A
00000040
00000018
00000045
00000101
FFFFFFDC
0000000D
FFFFFFB4
FFFFFFED
FFFFFF21
0000004F
0000007F
0000006C
00000088
FFFFFFF9
00000056
FFFFFFAE
0000002B
00000020
FFFFFF83
FFFFFFAB
00000098
00000026
0000003F
0000005A
FFFFFF44
000000A1
00000035
FFFFFF21
00000046
FFFFFFE9
0000000D
FFFFFFB9
00000019
FFFFFF9D
00000010
00000039
FFFFFFD9
00000133
00000032
FFFFFF73
000000A4
00000036
FFFFFFD4
0000003D
FFFFFFBE
00000096
00000068
00000025
00000064
FFFFFFF7
0000002F
0000005E
00000059
FFFFFF7F
0000002F
00000014
FFFFFFDA
00000011
000000F7
00000029
FFFFFF98
FFFFFFC5
000000F1
FFFFFFE7
FFFFFFE3
00000049
0000008A
00000030
0000005C
FFFFFFE6
FFFFFFE2
FFFFFFEE
FFFFFF83
0000010B
FFFFFE0C
000000C3
00000033
00000046
FFFFFFA1
00000010
000000DD
FFFFFFA6
0000010A
00000020
00000022
0000002C
FFFFFFF3
FFFFFFD4
FFFFFFD6
0000003B
0000005C
FFFFFFCE
000000D7
FFFFFF21
FFFFFF86
00000063
0000004E
00000082
000000EF
FFFFFFA5
00000011
FFFFFFA2
00000085
FFFFFF37
FFFFFFD4
000000FB
FFFFFFF0
FFFFFF71
FFFFFF39
00000074
FFFFFF98
00000075
00000049
