FFFFFF52
00000023
00000087
00000003
FFFFFFAD
FFFFFFC3
FFFFFFDC
FFFFFFF0
FFFFFFC0
00000024
FFFFFFD7
FFFFFFD4
FFFFFFC5
000000FD
00000041
FFFFFF88
0000003A
FFFFFFBA
FFFFFF09
00000018
000000A0
00000000
FFFFFF91
FFFFFFCF
0000003B
00000040
0000000E
00000000
FFFFFF85
00000015
00000065
0000000D
FFFFFF72
FFFFFFF6
FFFFFECC
FFFFFF33
00000072
0000009E
00000039
0000002E
000000C1
00000000
FFFFFFFA
FFFFFFF5
FFFFFFA9
FFFFFE9F
FFFFFFF6
FFFFFFCB
FFFFFFB5
000000B7
00000092
00000000
FFFFFFCC
000000AF
FFFFFFF7
00000081
00000054
FFFFFF1E
0000005A
FFFFFF94
0000004B
FFFFFFC8
00000030
FFFFFF65
000000BF
000000C7
FFFFFFDD
00000053
000000A5
00000014
000000F7
000000BD
0000001F
0000006A
FFFFFFC4
00000026
00000000
00000051
00000009
FFFFFF98
0000012B
000000E3
FFFFFFC4
FFFFFFE6
FFFFFF35
FFFFFFAC
FFFFFF92
FFFFFF4B
00000005
FFFFFFD4
0000006A
FFFFFFAA
FFFFFF99
000000B3
00000000
00000046
0000000C
FFFFFF70
FFFFFFE2
0000003A
FFFFFFE9
FFFFFFCE
FFFFFFDB
FFFFFFD4
0000001F
000000BD
FFFFFFC9
FFFFFF6A
FFFFFFDD
000000DB
00000034
00000000
FFFFFFD0
FFFFFF7D
00000006
0000004A
00000052
FFFFFFEA
FFFFFFEA
00000021
00000000
00000058
00000014
00000043
00000080
00000000
00000079
00000038
00000011
00000006
0000001A
FFFFFFF9
00000173
000000A4
FFFFFFF6
00000018
FFFFFFC5
00000000
FFFFFFDD
00000077
FFFFFFF0
FFFFFFAD
000000E3
FFFFFFC3
00000000
FFFFFFEB
00000000
00000048
000000BC
00000112
00000000
FFFFFFF3
00000034
FFFFFFCD
FFFFFFEB
00000163
FFFFFF82
FFFFFF92
00000091
FFFFFFBF
FFFFFFDA
00000067
0000001F
00000083
0000011B
00000118
0000004F
FFFFFFBA
0000007A
00000055
000000BC
00000045
FFFFFFD0
00000020
000000E1
000000B8
0000002A
00000000
00000002
00000042
0000008A
00000031
00000030
FFFFFF9D
FFFFFFD9
FFFFFFBD
0000008C
FFFFFF7A
FFFFFF6D
0000001D
FFFFFFFE
00000081
