2322E
3208C
3F2BE
08300
20B2A
0BC28
282A3
2C00B
38FA3
2AAB2
2A0CA
28E0E
3E82E
2C2E2
0E038
290EA
08E82
0EB07
0CBA2
2BCB3
21382
00026
3CCBF
0A8BB
38A28
008EE
03A28
0AFE8
3038C
3A0F0
0A28F
30B70
22088
3AFE0
2832A
2A3AC
2C820
1A8AA
23FAB
22BB3
20E20
00B02
2A2E8
00000
2A830
20830
322FA
0CC0E
30EC3
022E8
20FBB
22AC1
38A23
2A3AE
38AC8
23CC0
0FCBB
2B48A
38CB2
2ACE8
2880E
33BA2
00800
383EB
30C0B
00013
0FE08
20308
0AB2F
3B2EA
2A3B2
0F3A8
2B3C0
28C4F
032AA
1B820
083B2
30283
38F2A
0282A
08A2E
0E283
02032
0FE3C
30C88
2C8B8
08200
00002
22B8C
2383C
3ACBA
28C00
3C0AC
0AA08
3E0BA
008CB
0CC8F
2A032
028E2
2CE8C
2BAAC
0288E
02FB8
220C0
2A8CA
0238E
0E080
3C21B
280B3
00023
23B02
3A3AB
2F88E
0B00B
2ABC8
0AA80
088AC
0CC08
2CB3A
30ABE
0A880
3A08A
2EACC
2EE20
2EA23
222AA
00003
3C2F8
00C88
2EFEA
02A20
00000
0B822
2ACA4
0300A
2EFBB
2F3C3
2E80C
28286
1032A
0A8B2
0BCAC
0E4C0
323A3
2ACBD
0F26B
23B28
2F202
1EA8E
201A2
22038
3BAAF
3C2C8
0002B
208C2
0FE3E
388C8
0EB8C
30080
0A028
18CFB
2A88E
3BE28
2AE8B
3B886
0320C
000A9
08A88
08E02
3A0A2
2A80E
2A28A
083A8
28A3F
20E83
0002A
0B888
023AA
0FA82
2237B
0ABC8
1CA2C
0AA2A
203AA
383BA
0F2AE
2EBFC
3CB23
23382
30E02
293A8
0390A
21AE0
2BE2C
28EBA
390EF
3C2CA
00002
0FE08
2EFEA
32A28
30AAE
2A382
0B028
00CC3
28EA3
2A2EA
2382F
3BCA0
0BB00
20822
0BA88
3B22A
3CCBE
00B88
2BEA2
30E8B
00AB2
28E0C
00002
3CF24
2E2E2
2B228
02AAE
0AEC2
23EE0
00323
06E8E
22222
2022A
30E0C
230E8
20E28
28BB8
38A22
0EFEA
003A3
032A2
282E3
08020
0A208
00002
2320A
03E82
2ABC6
000BB
00830
2238C
0A3B2
28BAA
302FF
2BE22
3E0BA
00CE0
036B0
3C880
20238
0BFBF
228EE
0C22A
028B0
309CC
232A3
00008
2B830
303AE
2BEBA
0EA00
3C822
20E88
328B0
0CA87
223C0
08E3A
22FE8
28E32
20AFF
2EA8A
32EB8
0AC0E
34E88
22A02
2380E
08EA3
2AFBC
00020
2A33F
02AB0
0383E
0E8E2
022E8
0B3F8
0A88C
20134
228B0
0020A
2A2EA
2808A
32B0C
22F01
303BE
2B028
00A83
23A3E
0800E
38C83
013A2
00022
123CF
3AB8B
2CF39
20EF4
2F83B
21880
000AA
0F3CB
2E83E
3888E
2CB8A
3E2A2
288BC
00E88
2CB8B
28E8B
228A2
32833
00AA8
0E2AA
228EC
00020
080BA
2EAFC
342EF
234AE
320A0
33888
03003
3AA0F
3AEA0
183BB
28320
032B3
0A32A
10AAC
00EF1
0282A
2B0BE
2B2A2
23C3C
2BA33
22222
00000
3C038
22EC8
2822B
3BAEE
2AC8A
30C28
2C30C
3A24F
0AAEA
22BAB
3BEAC
0B833
0A2EA
2867A
382CE
0F2A2
00378
2FEB2
30E08
2EAB2
02280
0000A
00CF8
328C0
28308
3BAF3
2C8B8
06EA8
3E3A2
3FC38
0A83E
3223A
283C8
02C3A
00A33
21BA2
0E2A8
2AFA8
03CA8
0C238
0CBEE
2F28A
2908C
00008
28A8C
02A3F
3323C
2CB0C
308EA
03308
2AAA3
3FC0A
0AFA8
2AABA
2000A
22002
3A38E
1FC0C
1E083
0A29A
0BDAF
2A82B
23322
3088F
3D022
00008
28ACA
02238
20BFF
2CBA8
0B2FF
38B8C
2E830
0B8E9
3A630
23C92
0C28B
02A2B
3A38A
0BC88
23A33
2B2A8
2CA3E
2A8EA
27CAA
3A62C
2FBAE
00028
0082A
088BA
20280
080AA
0AE28
2EBA8
28882
0BAFE
2EAF3
0FB2E
38A2F
2EA8B
28A8B
3A230
28B2C
20A38
22280
38822
2220C
3A3E2
3BB3A
0002F
00000
00000
00000
00000
00000
00000
00000
00000
00000
00000
00000
00000
00000
00000
00000
00000
00000
00000
00000
00000
00000
00000
3F32B
3A32B
26C28
008AE
0AE8A
22E38
3C00E
3AA3F
20A20
0BB20
2F0AE
380EB
23A2B
2ABBC
082FC
00200
33388
22833
2BAEC
0E80A
033F2
00020
03A28
020CA
2A3F6
2EA8B
0083B
0CBBC
0F88A
30F26
0AACA
2BCA0
2CB03
3A880
0238A
2FABB
20AC8
23082
2C880
22A8A
20AB8
2CABC
2CAE2
0003B
0BE2A
0A8CC
2303C
0EAA2
0AE10
23288
3E382
0F188
2CBF2
220C2
03CDC
2BA28
0CAE3
208B8
3208C
1883A
3A273
0B28A
03CCE
02CA3
38F8C
0000A
0CCBB
2E2F3
10B23
3BAEA
081C8
38BF0
1EBA0
2AEB8
192EA
2EAA8
0B0AF
08208
0A3CA
28AB9
3AA2E
2CEEB
0C87F
03230
33F2A
0EA08
3E0A0
00009
388B8
32A3B
2B2C0
0EA20
38E23
2020C
3083C
38A3E
3A222
22CA2
0B283
0A823
28284
28B33
0A2FC
20A8A
0F20F
00AAA
23ECF
32A2E
3C388
00008
00000
00000
00000
00000
00000
00000
00000
00000
00000
00000
00000
00000
00000
00000
00000
00000
00000
00000
00000
00000
00000
00000
3CC02
20A0C
3420B
08BAC
0AC02
0C2E0
2308F
2AA80
3AEAB
1838B
02C02
282CF
03C2A
10A2B
3B032
1ACC8
2888C
20B80
2800C
0A8CC
0A03A
0000B
30033
30033
00300
0C000
00000
03F00
3C00C
30003
330C0
0C000
0030C
02300
30000
0C30C
0C003
00000
0000C
00003
00C00
0C000
00300
00000
202C0
0A2BA
00802
2A308
0CA83
2AB8C
2A88A
28BEA
3FE3C
3FE22
2E82B
0E8A0
0BA4C
3888C
20BB3
2B2BB
2A80D
088EE
0E388
3A820
2BB82
0002F
2EA22
39C00
20738
2E2B8
08AFB
0A88C
02202
3B3EA
3AC32
33E8E
0EB20
208A0
1AA7E
0CE70
2C20B
23082
2F260
08E28
330FA
00A63
230EE
00038
20C8A
0CBFE
2AB29
0EAFC
3E8A2
2BEB8
3F008
30C4B
28CA0
2823B
28FAB
2BE09
02A83
0EAAE
03E36
02F2E
0BEA8
293B2
00BA8
2013B
1EC9F
0003A
28AC8
20A3A
03A0E
0E32A
28E28
008E8
2083A
2BACA
0323B
2C8A1
08AE2
02AAB
38CAE
3BECA
0ABBC
2BE28
028FE
030EC
0AE8A
02323
3A30A
00023
2A03F
2BB3E
2E0F0
2ECFB
30B8B
2A8B0
028B4
033E8
02C88
082C2
2CB3A
228AC
0A8BC
0EE0C
200B8
3B0AA
092AE
220E0
2C08A
32A23
2EC23
00020
20320
230A2
222C0
2ACBB
0FBBE
28B0C
2A0BA
28B2A
0CC80
28A90
223F2
0EC2E
083AE
3CAE0
0832A
00EE8
228E2
280CE
2EABA
32BC3
23CC3
0000C
0308A
22FE8
20B9F
0A2AA
228CB
0388C
20822
2BE62
0A2F2
2F20C
3AE8F
08888
288F8
082B8
22A22
0F2BC
3C88B
33E22
33338
2C288
302AF
00039
38322
288BA
3A2A0
3422A
22EA2
2E8E8
020A3
2A8CC
00020
02880
0A32F
302CB
03C00
2382E
08BCE
022C3
2ABF2
0308A
00B80
383C2
33208
0000C
28B32
000F2
280F2
2FBEC
322A8
23B38
0C882
3B330
282AB
283F6
0FCAA
30088
3AB02
2E38A
3203C
0828E
0003A
2E82C
08AA0
08BCB
0CBEE
0002C
0001F
288A8
33ABE
0232A
0BE2A
388EC
202A2
280CA
30088
00BA2
2AA28
328AB
0AFAE
08CE2
28B8F
18E28
28B3E
0882F
28E88
0ABAC
3AAC2
00023
0BB2B
2B3BA
19BE0
0AE0B
00823
228F0
220BA
28B20
0FAC3
2F0E2
3EB80
238AB
0B0B8
30832
2080A
03E38
2EA22
3B0AD
3088A
328E2
03083
0002C
00000
00000
00000
00000
00000
00000
00000
00000
00000
00000
00000
00000
00000
00000
00000
00000
00000
00000
00000
00000
00000
00000
2B082
33B8C
2F23A
2AE3B
0E328
329E8
320B8
2F028
323EE
3828E
028CA
23F2D
1CA03
0232E
02C8B
2AF82
0A2A8
3020A
2E8FA
23E28
2AE83
0002C
0A2A8
33BA0
0FC0E
38A08
0A028
02220
32B83
2C28A
083E2
0CE8E
0A838
2B8FA
2FAFF
0C82A
3CE08
02838
0228F
3320E
220FD
2BEEF
2AEAC
00002
23B8C
23BB2
0E00A
2AEFB
2FBF0
2A22C
30006
2FBCB
3C30C
38A0E
2083A
2ECAE
2C88C
328C2
20F28
20CC2
2A8EA
32802
3C88A
30E2A
2823F
0002C
22B3C
23A3E
312FA
22FFF
3C380
02008
302BB
00F88
382AF
2AEB4
22B3A
1AEAE
0AA8C
2E88C
2BC3A
303AA
08E82
2A808
0CBA8
2CA80
2EC80
00008
08838
2F380
082AC
08BA8
28B8A
03800
2A828
22AA8
08C2B
2FA22
0A800
0BABE
338C0
302E2
0A288
3CC0F
3A8C2
0FCEE
2D2BA
062F8
0820E
00002
23A3A
2E2FC
3A030
2E4CE
32BA2
030C8
28323
0AAAB
3B8A8
1ACBB
283AA
28E82
3AB2A
2EBA2
20E3A
08FAA
02C72
200A0
00280
23AF3
3CCAC
0000A
0F083
383A2
2EFAA
0AEC8
00B3B
22280
3E08A
0C003
0ECE0
3AA02
20B82
00C2E
2EA33
3E23A
02C28
22CAE
0E028
32832
3CAAA
0FE8A
232C3
0000A
220BB
2AFA8
2E328
00EFB
0CB3B
2282C
2282B
0B0AB
0880A
302AE
2E88A
28FBA
2C8B2
3C30A
0EAA8
00C8E
0E8AE
3CAF2
0E8B8
3BAC0
20E23
00002
2AABB
22AFE
232FF
2E8E2
3A2CB
2C8EC
29683
202A8
0ABA8
28208
03320
2B2A8
00FBA
233AA
2928C
08EEA
2028F
2BB9E
03EFA
2AB0F
32CA2
0003A
00000
00000
00000
00000
00000
00000
00000
00000
00000
00000
00000
00000
00000
00000
00000
00000
00000
00000
00000
00000
00000
00000
030EA
280A2
0A8FF
2ABBB
0C8AC
0A880
3AB8A
20BEA
3CF30
00E0B
2EFCB
2E2AE
0868C
3088C
08CF8
0B88B
2AA0E
2B22E
1033A
3AA20
23B0F
0002F
208CA
0A28C
2A3C8
3BAB0
0020B
0ACA0
3EFB0
383FA
328FE
3EC02
224AF
2CCAA
221B0
02BB2
0C2B3
233BF
2C282
30A3A
000BC
03CAA
1B28C
00020
33028
0A0CE
23C32
2EA08
32828
23200
02A38
38BA3
2C208
200CA
00CE3
232AA
0A833
2C0B2
3A080
083C2
30F8B
2282A
336CA
082A3
32F8E
0000A
20ACB
0BA00
0200B
0B2B3
0A8C0
38F20
0EBBB
20EA8
0F000
208EA
02A39
2028E
3C80E
32BE2
0AA88
07FB3
388FE
0C8FA
0FEA2
3EEEA
283B3
0002A
33803
22FCA
2A304
2C0A2
328CA
0AEA0
0E83A
32AAF
39AE2
200EC
33BAC
2BACB
28ABB
2A8B8
08AE2
038BC
2C0A2
001A0
3B600
03AA2
0BECE
00008
2C0FB
208CE
09328
22F83
303AB
23888
2ABC8
2BBA3
33EB0
08A23
0CBB8
0F87C
3ABBE
3C802
1A028
3F8A2
20822
03EEE
002BA
3E8FF
2FE2F
0000E
3CE2C
2888B
33A0A
3B222
0FCC0
3DEE0
0EF0C
0220A
0A82E
3A3A2
022E3
0B0E3
28E38
288B0
3CB8C
22CC0
20B88
200B0
3C3CE
30322
3A2FB
0002B
0800A
1ECA2
010C6
0E2BC
0C380
0CC80
1F0E8
0AF22
222EE
24FBF
00B88
2002A
1307A
2F6AB
230E9
3CF3E
2C28A
08A88
28B2B
2F6BF
13EC8
0000F
3EEAA
08808
2CFE6
37A83
28323
22EA0
3CFBF
3E180
0AACE
323A2
0C0AF
0BB33
02DFB
20BB0
3FE20
2EB32
20B8B
33ABA
3E830
2EEA9
082E3
0000A
3FEAE
20AE0
03002
3022E
08EFA
22C28
3E02F
30EAA
228CE
2A080
00E8F
00BF2
20E28
282A3
20288
2E022
0BC98
22BBB
0BAC0
2E00A
2202C
0003A
0BCA0
2CB8E
20ABE
2E888
0A32A
232F8
2A0AB
0F8AA
2830B
20409
0AFCA
23A8E
3BFC0
2FECA
3A38C
0A3CA
0002B
1332C
00A0A
2AC33
3A32C
00032
008E0
238BE
30AFB
2E333
30B28
2CAF8
2EAB8
23BA8
3BFAF
2AEFA
22BEA
2823C
30CAC
0FA2C
22EB8
2A0CA
0AA0D
20822
2C20A
08E8F
0238C
00023
28B08
28AB0
0A2F2
308AA
302A0
2C238
200B0
0283C
0C2E3
28BC2
0F82E
20A0B
030A8
0AAB2
38C3E
28C3B
228F2
0ABA2
2A800
30CE8
03B8A
00023
28BC8
2AC88
02322
28C2A
20EBF
2EBBC
2008A
28BEB
0EA3E
3B32E
0CB88
3E2AB
28A80
0AA30
2BB03
23ABB
22B32
30228
3A288
32BA2
3F8CA
0002C
00000
00080
00000
02800
00080
00000
00000
00000
00000
00000
00C00
00003
00000
00000
00000
00000
0A000
00000
00000
00020
00200
00003
3F283
2800E
2FBA2
2AE08
383FB
20DEC
0C3F3
0CCA0
0A8E8
0BA0C
0A33F
0B88A
2AC3B
3FC3C
0A220
0E032
1CC5B
2808C
3BAFA
01A88
3AEEB
00032
0A030
2B3BA
0FA8E
08C1A
2AEEA
0E8E8
28022
2EAA8
0C3A8
3C82E
2AAEA
08AC8
330EF
38CE2
36F62
080F3
0A8C3
3B202
28232
2AF20
0A0FA
0000E
23032
30C38
2ACEB
30AEE
2AE88
3BE28
0C3C8
0224E
38AEA
02C23
0B23A
272F0
00A02
0A3AA
3BEF0
00C8E
3BABE
28EB8
388A0
2A20A
23C23
0002A
22B84
03080
20ACE
2EB08
0E8AC
23AB8
288BA
2B88A
2FCE8
0CEE0
00AC8
23AA2
3308F
33300
32C08
0BA32
0AAE2
0022D
2A282
283EF
200AC
0002F
0223B
13AFA
203CA
0C00B
30A2B
082E8
0E8BB
08AA0
08A28
22EE0
333CB
13822
3A0B0
3CBB2
02CEE
0B0BE
20EAE
2BE3E
00B8A
022E3
3ECAA
00022
0EE7F
22BB2
088AF
2082A
32B32
2BB2C
2A103
2A8AA
188A7
23AAF
2AC8A
3A33A
30F0A
33FE2
0AC9E
0EC20
2E3EB
0A0AF
0AE2A
0E8FC
0C0EA
0003E
222B0
2B83E
32A3A
2C303
0BBC2
380E0
02ABB
0C08B
0ACB0
20EAA
2A83A
0008E
3EB82
0CBEE
2A28A
0A322
02022
20320
2F882
22ACF
2EF8B
00032
3C041
0E8EA
33AE0
2E84E
088C4
2B82C
28A23
28C12
0AFA8
202AF
0AE8F
08BC8
20382
23CA7
22A0B
0E202
2C0AF
283AB
22EBA
0AABF
3E2C2
00038
33ACA
21A2A
3ABEB
3E802
08CE8
0E38C
0C203
0AC82
0AAE2
20FA0
3008F
0A32B
2CCB8
23A8B
1F828
3CA0E
2C383
03283
20CCB
2FABE
20220
00030
00000
00000
00000
00000
00000
00000
00000
00000
00000
00000
00000
00000
00000
00000
00000
00000
00000
00000
00000
00000
00000
00000
03B4F
3A387
2F88E
2CF08
2382A
0A820
28EA2
2CFC8
2E0BA
3BA0E
0A80A
3EBAA
2002E
20CE8
2EB2F
12288
22028
0E0CB
2A0AA
32312
2E8CA
00003
30888
0BA38
38803
00C68
082C0
0E8EC
0EA70
0ACE2
38A8B
2329E
0298C
3E3A3
00C8A
3B20A
2A800
1CCE8
2E8EF
2B8A0
0AC3A
3D8EF
00AEA
0003B
002EA
2E2C8
3BAC3
3F820
29E22
0CBE8
1A8AC
2A2A2
3BC08
28BAB
03F82
28A0F
08F0A
2FB80
0AAC2
029EB
28ABC
23EAA
22E3A
0A8FF
3B242
00008
0FBE8
30822
20B38
2A2AB
3AA0B
28BBC
3EB8A
3F8A7
3F8FE
3E8EA
2EB38
2298C
02AFF
3DE3A
02A33
2BBBF
32A82
388E2
33A88
02EA4
23FAC
00022
2228F
2BBB2
2E008
22E88
3ABC8
222E0
200B8
2CA28
2C8CA
338ED
2A802
2CBA0
2CC0C
322F2
2832A
18FFB
00BEA
3A8EC
03ABA
32323
0BEF8
0002C
2038C
2AA88
382AC
2332A
200AA
383C8
0A0A0
2AACA
232AB
3A802
2AE2A
32CC0
3282E
2AFE2
08B8C
222E8
38BFA
2EBF3
28220
0A30A
000FA
0000F
088E0
021C8
268FB
0CBA2
322B3
28BBC
2008A
0A4CE
00A00
23028
0F882
0E9AB
2228A
1B2B3
2B8FE
2B0A8
208BE
020A8
08EA8
0080E
0B0B0
0002B
023F0
28ABE
22202
1AC3B
0EB88
3AB38
0288A
23B27
3FE33
201F8
1D332
0EEA1
3A4AE
3DA2E
228BB
083A8
0A3C1
22BE2
2E4AA
02806
10008
00023
28BAF
30B23
38E3E
2E37B
0F8CA
20A2C
2A024
20B2D
033B3
0B293
03826
0CB8C
08F89
0F288
22BA8
32ACA
22AEE
18F20
20CB0
3A8CF
0CAEB
0000B
2AA8B
0208E
308F0
28F3B
2CBB8
3280C
2AA24
0C3EB
3AC7B
28E42
22BB9
0AFBE
0AAA2
2C32C
2E08B
0A298
22A2D
2230B
0EB48
2FA3F
22203
0003B
2BA3F
3A8FE
2FAB2
2DC3B
337E7
22A00
028BA
3FBE8
0A300
38EAA
22BC8
18AA8
0A3BC
0CE8E
19083
28222
0A2A2
2A820
2323E
00B23
023E0
0000B
2082A
2F38E
39AAE
28802
00362
03AB8
08308
228A3
30C23
202F8
28B20
23ABE
30220
008EA
30E3A
30B32
3A222
2FC02
2E088
2B1FF
2808C
0002A
20A83
22AA2
2200C
12F47
2E400
20B80
25686
287EA
03FB8
03D2E
2DB3B
3EB02
38B6E
3F020
228AB
38A2A
22AEE
202EC
22EB9
398EF
0FAE8
0000C
0282C
38AAB
03800
08A0A
2BAE8
310AC
0E06C
33CC6
2AB82
3208E
021A3
39B8A
2E002
13EAB
2C823
1A22A
2B2AB
02833
23C30
000A2
0AAEA
0003A
0F230
02803
0ACCA
2E88C
302C8
2CCA8
3CC08
3AC8A
0B820
0A032
0232E
2ACE8
08F88
203AF
20A28
2ABAA
0FCA3
2238B
2B2EC
2FAA0
02E00
00030
30038
20AC8
308CA
0EBAE
3BCC0
2C2CC
33C3F
3A28C
02AAA
2AE02
3088F
288EB
22C88
28883
28E0A
200E2
030AC
02A20
3B000
22AAC
31E80
00002
0880B
0A38A
2ABA0
2AEAA
2A232
2C880
0888A
20A1E
00AFA
2F4EE
28BAE
32088
03B2B
3A338
2A82D
032BF
3E3C8
3320E
3B2A8
2E32A
03AF2
0003E
00000
00000
00000
00000
00000
00000
00000
00000
00000
00000
00000
00000
00000
00000
00000
00000
00000
00000
00000
00000
00000
00000
283F2
20B0E
328C8
3C332
0FCE8
0C008
20FBB
2A3E8
0A2CC
0438E
088A8
0A0CF
2CEB8
23688
3FFB8
2AEC0
0A8BE
30AA8
02008
3388F
232CB
0002B
28F0A
2E2CE
08E20
30AAE
0A38A
332A8
00BCF
2AA8F
0822A
2080B
3BCE0
2B230
38AE8
2AA8A
38F21
3C3EA
20388
2B062
2C00A
2AF3B
3AF8F
0003E
3C2A2
0AA2B
0B2AF
08B87
3AC8A
0C8AC
2AAAE
088AE
2A0A8
287A0
2B08E
388AF
2882A
232AC
0ABEE
32ACB
22333
2009B
23EFE
3AB30
30AEA
00030
0C082
0C0FA
2A3A8
2BAA8
28AB2
0BB6C
2E828
2AA6E
2392A
1F888
0A88E
088BA
3882B
32432
0AA22
3FE7F
328C3
20C2E
382AA
0EAF9
2FAAE
0003E
03223
0B0F2
100B2
2EE2B
3AB2B
23020
320B8
3F26B
03008
23AEE
2EB32
2B882
300BF
0C032
0AA80
0B08E
3CC2B
080E0
0323A
2D223
22F00
00031
00E82
0EAE0
0820E
0E82E
002E2
200E8
02BA3
0AEBA
22888
29280
02C2E
00C3E
023AA
13328
0C282
2A2E2
2BE23
2ABAB
23028
2008F
01282
00032
2B8CC
28ABE
3F932
0CFF2
033E8
322E8
29E8B
2E8C6
3EFB0
0ABB1
2A2EA
1AA2C
2EC0E
28E2E
2A388
1A2EA
28B82
3AB8B
0FBEE
38FA3
09388
00028
2A038
23A3C
3B2BC
20B0C
0222A
238E8
2AB8F
22ABA
08FAB
10A09
08DEA
2B222
30C0B
2BB2A
32C32
2A0C8
2B20C
28B8E
200CE
0A3EF
38088
00020
00C0A
0CC02
3ABAB
0BAE2
2AC70
30F20
23C0C
0AE8C
382CA
23B23
38A8A
08203
00222
28888
08ACE
0EE80
0C308
0FEBA
328A0
22AB1
2BA83
00022
3202C
383AB
2F2BA
08CAA
203EB
3E208
0A032
0F20B
2EF3E
3A7BC
0202E
0AA83
2E2CF
0AE32
2288F
22AB8
3838B
3C3F0
3CAC2
02FAA
06828
00028
23A08
20F08
2A32A
20AE8
28883
233B0
2E80A
0886C
20AF2
2F2E0
0388B
2B88A
3B2BB
32B0A
33228
330BC
3E822
3CEC1
3A8B8
2F208
230AC
00009
0C3C8
0A28B
38EF4
3BAEE
28E0C
02C28
3FCB0
0AACE
3AA8C
2AFA8
02BA2
02CC3
2AEA8
187B3
0BCF2
2281A
288B2
02AB0
222E0
03822
288BA
0002B
3AA8F
28B0E
30A3A
22C3C
33BF2
2EDE0
02E3B
32220
3A0A0
0A082
02BC2
2A003
2ECBB
0CB3C
28F2A
2AFC2
20E2A
2A8A0
0F83C
30CE0
38EFB
00020
30F8F
32F33
0826E
208DA
322A2
0BE88
322AC
0C28B
03823
0C8FA
2AEEA
0A8E2
330E3
18EE2
32882
2E8E0
0832B
08B8B
20220
2A33A
0AB32
00032
28BEE
002B8
038F2
023AA
03908
38880
0CC8A
2BBC6
3C0FC
30F2A
2EADB
2EAA3
2A28C
2A280
20FBB
23027
2288E
00A8A
20320
30FA3
0AB82
0002B
208F8
032F2
092CA
2EB0C
323A2
223B8
20AFB
0A880
38EA3
2AC0B
23BAA
2B28E
020A2
008A3
2AEFA
0BEA2
2028E
2A0AA
00680
08A3C
20CA0
00028
00000
00000
00000
00000
00000
00000
00000
00000
00000
00000
00000
00000
00000
00000
00000
00000
00000
00000
00000
00000
00000
00000
3F388
3EBE0
2A0AA
23AE0
2088B
2B3B0
322A2
30CAB
2B8CE
324F8
29382
30CFA
0AA0B
22CA2
0FA88
000AC
00FAB
2EAF8
08A0F
2C235
2C8AE
0003E
3CE0F
2E0F0
0B0A0
2CAAE
0A22A
03B88
3F32C
38E82
2280A
2208B
0AC28
308CA
32BEA
20C20
0CAA0
0002A
0FF8B
228E3
2BE2B
22032
0D0E0
0003E
28AB2
02228
000F2
0E8B3
008C3
2282C
0AA8B
0B32A
3AB3A
23EAE
028BB
02B2A
0A0B2
0F0A8
0AAAB
08801
2E9AC
2B922
28CFA
38AEF
0EA2B
0003A
20B0C
3BA88
3B2FA
22BB0
2FAE0
31A28
3A28A
0CBF6
0ECBF
30C02
21AEB
2ECAC
28E8C
2B02F
2CFAB
202C6
2842D
0A0AC
2EAAC
383E8
283CA
00023
1AB3F
38B8B
23AB1
2EFF8
0CA8A
2A8B8
0A82A
2FBF7
2CCBC
3A8F2
22BEA
0EA8E
3AA0E
02E0E
0CBBB
00288
0A802
020EC
0029A
00FA8
22B2E
00023
32EB8
2F3CE
20BCE
2E88F
3EB28
23800
20BFB
38F6B
0A2CA
18E0B
333A3
23A0A
3A332
0CAB8
02E2A
33B0D
02EAF
2B02E
0320A
20AB3
0CE9E
0003A
2B20E
23A8C
30A8C
3B00B
283CA
300E8
2A8A8
2C0A8
0BFA3
228BE
2A83A
0AE0E
3C2EE
002E0
0AAB8
2ACE3
3A0C0
0CBCB
2C38A
2AC03
2A0BA
0000A
28008
2ECC2
06023
023AA
020B8
0F8A0
2AB33
28AAE
3B2E8
2302B
3B082
0B2B3
3B80A
0C8BA
0ACED
33283
02AB0
2BDA2
28BB2
28A3F
0BC83
0000B
00000
00000
00000
00000
00000
00000
00000
00000
00000
00000
00000
00000
00000
00000
00000
00000
00000
00000
00000
00000
00000
00000
20C20
0A23F
3BACF
3BB32
08E8A
3801C
3238F
2208A
3A38F
22CBA
00228
02EBB
3C020
1BB82
3EC83
2A3EB
2AA3E
23AB8
2EFC2
0A02F
3A880
00008
080CC
028C3
28C02
208EA
02220
2AC84
3A88F
3F0B2
20AFE
3A80A
0BF22
02286
0AB00
2EEB2
2EA8F
288BA
3BE8B
28C03
2B02E
2E3AA
3EB22
00032
3EC28
228A0
3F0AF
3BA22
2A80A
3B020
32AA3
2C9AA
28B02
2C2AE
2AE0A
3A8F8
0C8E8
00FEA
32AA8
2A2EF
303CB
0FACB
20C02
22EC0
2AA0E
0003D
20233
39ABB
28BC8
00838
0FA2B
2ABB0
023AA
333F6
03CBC
32E32
2DB0B
0230A
2AAA0
2CCAE
2E8AB
0BE80
231AE
2E800
303B0
3CAA2
2E8AC
00023
2030C
38A8B
080C8
28202
031C8
39CA0
32E4C
320F8
22CBC
388B2
0292B
39FA8
200AA
28FAE
2CAAB
1A82A
2F022
2A833
20CCC
2C221
2A208
0000B
3C223
3880B
2BC8A
0801A
08C26
3E200
2A2CC
30AFF
2208F
38BE9
0C32C
30A2B
2822A
2823D
0ABBE
00AF0
0BBBA
08B8F
03ACE
02FAA
3ABF2
0002B
3CEBF
0AB0B
38863
0B32A
0EEA8
0E800
228AC
3AA3C
2A80A
30B80
22F92
322AB
28BCA
2800E
228AE
0E283
2033B
20CA3
0B282
0E38A
3B2F8
00002
2AC80
22AFC
0B2C8
0C82E
30230
0B0E0
3C3CC
3AABC
0AA28
1ACB8
0BE22
28E38
3832A
28BB8
32E02
080E2
0B0BC
2EA88
23320
00ACC
02392
00028
0B233
30ACC
280FA
32880
308A0
2ACA8
3EBB0
3C88B
3A0FC
02038
2EBEB
20280
00A33
0E37E
2EE80
08B8E
08E88
2BA88
23AFE
0E2C8
0A38C
0002A
2888F
3A303
2B23A
0E8EE
3CEEA
0AEE8
3E0BF
3CE3A
0A30F
3A0BA
20EEA
20AEA
200BC
22382
0EC80
28C0A
2BEA8
2A3BF
2BACE
08FAC
0AF0A
0001B
30202
2A83B
3FACF
0A8AC
23CEA
02CE0
0A383
22EBA
3A3EA
2204E
020AC
0A3AB
2020A
2B320
20800
2DAEA
2B28C
038A8
02CF2
2888F
3AA08
0000A
22ACB
2B8B2
1CBF2
02A8B
38AE3
220F8
3E3BB
2FA0A
30BC0
32CE2
00608
23AA0
32CBF
32BB2
2AE00
2BC8A
0AA8D
0BAC1
28002
38CEB
08FA0
00010
28AEF
3A088
2F0F0
2E8A8
38AEB
00888
02B4E
3F2AB
00BF2
2EEA2
2C3C0
2A6A8
0233F
0CE38
2228F
2BC8A
382AF
0B2E0
2B0C2
22CA3
39FA2
0000A
008C2
220B8
36B2B
233C4
23280
0AB70
2882A
28B2C
28A28
2B8FB
03B02
322AB
388AA
08088
23802
0C28B
2EBF2
28EAF
0832A
22A02
2F832
0000C
08F08
0CB0E
3822A
3C2BE
3F00A
20208
3CF00
02EA8
000FC
2C2B2
2A2C0
2BCCA
2EA33
22B22
33F8A
0AFE0
20028
08ABA
2FBCF
03EE0
2AECB
0000C
02CEA
28EAA
3A22B
3B0AC
2ACBE
0E0E0
23F88
0AABC
30EA3
18B03
38A08
00ECF
2022A
27400
3B0C2
28803
08B32
0C03A
0E033
28A33
0BAB8
00018
00000
00000
00000
00000
00000
00000
00000
00000
00000
00000
00000
00000
00000
00000
00000
00000
00000
00000
00000
00000
00000
00000
28AFF
02A33
3A3F8
23B0A
0C283
3A3B8
2C000
38BFC
3A28F
04BCA
2CBAA
09EA3
3A88A
1C2BC
23B3C
282A8
033B2
29B83
08220
0E862
20BB2
0002B
3F388
2CF02
228A2
0AEAA
2A300
0C2E0
08EFA
00A6F
022EA
0FA2C
332A3
2B82E
2FE3B
3AAA0
3A2AA
328FE
02B26
3B28E
3E8B8
28020
0BEC3
0003E
28BAC
082B8
3398E
0C3C8
2FA2A
3A428
2A22A
2EFCA
2ECA0
3AA82
3AAC6
02C2E
0009C
28CE3
20B03
222E4
2AAEC
22B0F
220AA
24322
224CA
0002F
0EAF0
32828
288AF
02068
08AFB
2BBAC
3E8AE
0B22A
20BCA
0FA28
22E2E
3A78A
333E2
0CEA2
210A3
23EA0
0EABB
0BEE3
0BE39
39E88
3EACE
00032
02A08
2B808
2EB20
08A3B
22B38
30BA0
02BA8
23288
2B8E2
20822
0AA38
2B0BA
0C2F3
303FA
222A8
0BEBF
32B02
3FAFE
323B8
0CE2A
20C80
0000E
282CA
2CAEE
30A0F
38B6E
2A318
2FB08
2AB2B
10AAE
3BF80
20A8B
2000A
288BC
38332
003A9
02E30
3C828
0A28C
23E28
22C3A
2A0FF
323AE
0003A
00000
00000
00000
00000
00000
00000
00000
00000
00000
00000
00000
00000
00000
00000
00000
00000
00000
00000
00000
00000
00000
00000
0833F
383B0
2AE28
23AC2
2F082
00288
3FEB2
022F3
022BF
328BA
028E6
0DC30
28A23
2189E
33CB4
2A02A
2BF2A
00EBF
2EBAF
2F0C2
228BA
00023
00000
00000
00000
00000
00000
00000
00000
00000
00000
00000
00000
00000
00000
00000
00000
00000
00000
00000
00000
00000
00000
00000
28A3B
2303A
220FB
0E0A0
3ACCB
2E8C0
20FBA
0A80E
00AC0
2B32E
0FBA2
202A3
0CCBA
0CABE
280F2
0BC3A
22A3E
080AE
2B208
30820
0BC0B
00022
238AB
22CCA
12BC8
228E8
08A23
23B30
2AB3A
2BB22
00AF2
3F8EE
3C883
23A8B
08838
302BA
20A20
03AB0
0EA0E
08C01
388BA
0CAA8
2F3AC
00002
3EFAB
20BCE
2838A
38AA2
3ACA8
2A128
3EBB3
38283
22AC2
2C0EA
20CEF
23238
232CB
024B2
3AF8E
083F0
22008
00AB1
02BE2
0ECE2
28CE0
0002C
00000
00000
00000
00000
00000
00000
00000
00000
00000
00000
00000
00000
00000
00000
00000
00000
00000
00000
00000
00000
00000
00000
3300F
0BB80
2AE0A
28E82
0C03B
22EC8
22CBB
3BBE3
0CE03
0B722
02322
0E2E3
28C83
0CA3E
283AE
20CFA
080EA
09B3E
03AC0
3E328
0B2FA
0002F
03EBF
2E23C
3AB9F
03A22
22032
3B8E8
2BEAB
29E83
2AAAB
20BA3
008AA
38C0E
023EA
1300A
03E1E
3EEA8
2CB3B
2A073
32CA8
2FA32
2CA2A
0000A
238BC
3A8BB
02002
280F8
2C48B
32BB8
2A22A
3F3CB
20C2F
3A2B2
0EBB2
0AFBE
0A820
2E223
2E88B
3AEAA
0A21E
2EB0B
02B6A
2C882
2E420
0002B
18883
0E830
0A880
2C8FC
00B82
0BB80
08A2B
3832A
08288
00233
20BA9
38332
3ABA2
2FB80
2CA8B
02062
0EC0B
2E223
08CA8
2EA30
2E0EE
00000
388EA
0A324
2F008
0829A
201E8
2E2A0
3A882
0FA00
008FE
0C802
00220
0390B
23AF3
3A83A
32882
2BA3C
32880
33A0A
382C2
2ACA8
3A3BE
00020
28A2E
02EBE
3B83F
2E0CA
20A2A
0F3A8
0A2AA
2F0CA
38FB0
08E82
0EFC8
29280
3888E
2EC2C
2C833
2ACAA
2CE8C
283A0
2CF02
280BF
00BA0
0000B
002EE
200B2
0EBC2
2A308
333B0
08BB0
08B8A
03822
32FBE
38E00
2E30B
0E82C
0AA8E
32032
23BBB
0B087
2A88E
08AEE
2EBB8
36B28
28BC0
0000E
02B08
00C3A
288AF
208E8
00A22
23B08
2A228
204AA
23ACB
1CAE8
303C0
33AAA
3BC08
3ABC2
0AA8A
3B23C
3AAC2
0BF0E
3AA88
220E0
0308E
00022
300A2
23F82
02094
2BCB8
20382
20A20
0AE08
2ABA0
00EAB
2BA2F
308B0
03C8F
232A0
3040A
2822A
3E3B3
02BCA
0038B
3E8B8
3E632
232C3
00002
2283C
083B8
2F80E
20E0A
38BFB
2282C
000A8
2CC0A
32B3A
3F2AE
22808
22BA6
200BC
3CE3A
228AB
2813B
02A2F
3B2E0
080BA
3A323
02CE0
0003E
0BCA8
0E022
082AC
3AAAA
2A8AA
23808
38020
2F068
233E8
2CA02
20E28
2BA3A
3C0C3
28C06
322B2
3000C
3A02B
03E02
2228B
0AE33
06B8E
0003D
3EFBF
3883B
2A0A0
378EA
2A0AA
3A004
3E0AC
0C23F
0AA8E
30438
2AF29
3A03A
3A4E2
21E02
3C88F
2ECA8
0BF0B
2A2B3
08322
2E039
2E082
00002
3A28E
08BA8
0CAA2
08E08
2A3C8
0E2E0
08A88
2EEAA
3A32A
3CA8E
0203C
08308
2CA3F
00C3A
000A0
02A0C
0032B
3B220
322B2
0AC2A
0A2F0
0003E
0220A
0ACA8
2EB2B
2BE88
22030
2EB8C
0EA2A
0002A
2FA32
3F2AF
22280
323A8
288E8
08E0A
22020
2C183
0EB88
332C2
38088
2E202
0CAC0
0003E
20C0F
08A88
2C88F
3BA28
0A288
38308
0ABA2
0F23A
00B8C
0220A
0A2CA
3AA32
32ACC
22F0A
3E83F
2AE13
382BF
0F2F0
02F2A
02CA8
2A34C
0003A
23B3F
00380
2C3BA
20F88
0EAA8
2AAB8
0A802
0F8C7
3C20C
3A8F0
020E4
2EA8E
38A3F
3AE0E
228B0
0F8BA
3A329
32B0E
3C4A2
0ECA4
2AB22
00020
2283F
0B382
2202A
00EB3
00B30
00220
023B0
23AAB
03A03
03A2E
0A83A
0FC0D
2F8AE
32BEA
28289
0BF83
30BEA
3EBFE
0FA88
3E2E8
2B2C3
00002
203EC
080AA
0AEAA
2BC2B
200BA
38BA8
328AA
2F8CB
0F2B0
0883E
22A3A
3EE32
02612
3A3EA
03BB4
2A22B
3A3FA
3EBF2
2C898
22FAA
2BBB2
00023
220B3
228BC
38B1C
23CEA
3E882
2B708
0AD2A
2ABC8
2B267
33A00
223CA
30FF8
3A30B
0AFEE
23FAE
32223
2E3CB
0EA2F
0A8A8
22BF2
0FEFE
0003C
28B0C
0B088
0F2BD
20C92
2E22A
22A28
2A2B0
2CAF4
2CC03
308EE
022EA
2E2AA
330AF
3AAEA
08B72
2AEF3
3A8CA
3ABE2
0BAA0
06FE8
38BF8
0002F
00837
33BAE
002B2
020AB
328A0
20A34
02BB8
0F8BB
2FFCF
280CA
003E0
232AC
33A8F
30880
38CB2
28BF2
3A0CA
008C1
20AA2
20EE3
2B3AC
00028
003EA
0CCC2
3A0C8
0C8AE
32F8A
2FE28
00CF2
0AA3C
00AE2
220EB
3B2A8
232C0
0B928
0A780
38CC2
33FF2
0A33A
2B8BA
0AA2C
2A83A
2BC32
0002F
0808B
30A08
20FFA
02A8C
30EE0
1AE20
3E33C
38082
0A8CE
08C2A
02FEC
130C8
22F88
3EBBC
022A0
0A32A
23208
22A82
0380C
00CA8
0AC03
00020
3CB28
09CC4
288AB
30AAA
09D00
028AC
0EA0C
38AAE
0A2CA
2F322
3B02F
38A2B
27828
08AB0
3882E
2B933
2C830
032AA
232C2
3EBA2
3F8C0
0003F
02BFF
28B8B
2F9F2
0ECDA
382E8
3E2E0
2ABCE
2C2C8
02B22
3AA2E
02CE0
20AA8
0CC3C
28E0E
2238C
0E2CA
2A88C
38A22
283CE
0AFAB
323EA
00000
0C8AB
3A02B
200F8
0EAAB
08AF7
09EA0
3E08C
33CC0
08AE2
00022
0E0AF
0A8A8
12EB8
2FFB8
22AE3
20BA2
0CEAB
22800
33EF2
2EEA2
0A200
0003A
00000
00000
00000
00000
00000
00000
00000
00000
00000
00000
00000
00000
00000
00000
00000
00000
00000
00000
00000
00000
00000
00000
28A0A
2EAC2
03AFC
2EB80
382EB
2C8C0
2A8B3
22A02
30088
2CEA0
03A0B
20808
38080
03388
22EC8
00228
0A20C
0B2AA
20CBA
02AEF
300A2
00038
082AE
0888C
3FA82
3800A
233E2
02220
02C23
2E289
3A38E
30082
2A2E8
0A0CC
22EC3
108C2
303A0
020E8
28BA2
3F8B8
2CFFE
08C22
0920B
00002
2A338
28AF2
23AF2
0E8A2
3A223
22200
0C33C
06A3E
38AE0
12CC8
03EEB
1BA28
3028B
2ABB0
38C2E
0BAC2
28ABE
00A82
20822
2A8E0
3238B
00023
2A80B
300F8
14BC3
232AE
3AAFB
2838C
0C300
3880E
0F938
0C0E2
23082
0C207
38BAA
282BA
2AACE
2BE83
33A0F
083EA
33EAA
3E202
0F30C
0000A
2AAC2
32ABC
30AFE
0A8F0
0FA24
320A8
3A26A
0C3F9
38FBF
32EBA
2EBCB
292F8
2228F
2FFAC
2CF8B
06022
2818E
2C2BA
2E3BE
0BC8E
2A88C
00028
20A8F
0A8B0
0F00E
2AE3B
00BC7
02AF0
080E8
0FF28
2A388
38E8E
22B32
28B81
22F3C
3CC0E
1D083
010A8
282A3
2E0EB
000BA
3A882
0DEE8
0003A
2B92F
3AA0C
030F2
0A233
3F8C4
3AE90
32808
3C8AA
38F32
32EBA
2EB08
28CB8
2EAB3
2F38E
1E2AB
08BAE
28E20
2C288
2F03E
00E2C
2A282
00032
3FE8A
30ACB
030A2
38ADE
0ACC2
2BF20
0EF2F
3ED42
2A801
02880
02C0F
088E8
0EFF4
28238
38AAE
2E82A
33F0B
20B3B
0B2C2
0ECAA
39CC2
00032
222A2
2B3AE
0E0A2
2BEFB
2ABBA
0C200
2A8A8
2F3A8
0C08B
0BA8E
22A3A
02CBE
3CA2C
3C3EA
0E2BB
222E3
0EBE2
3E0C0
0CBBA
322C3
2B0C3
00032
000E8
038F2
2AC8A
2A2E0
0A3A0
3EAF8
0F0C0
3AA8F
0F2AF
2A3E8
33B88
2F200
0B0A8
32402
3883E
033B0
3A809
0238E
3E8A2
0E82A
2B032
00020
00A00
2CF8C
3ABE4
02238
083B0
03800
28AFA
2AB8E
3B2C8
1B203
307B8
2028C
03AAA
3088A
282EA
3384E
02801
02EA2
0E888
20A30
23E33
0000E
2083B
22AF2
0ABCA
230F3
3EBBB
08BAC
3EB28
3B028
03A82
0A202
223B9
32CF1
32782
3CB0E
2EA28
3BCA3
00031
2EAC2
33802
3EAC8
0FCBF
00002
00F33
0B80C
0A008
08A32
0C202
20E10
3EC80
2E208
3200C
30202
2AEC8
20FE2
2CAF3
0ABAE
3CCAA
0A320
2832A
00A32
2C8CC
08EEA
2AE03
00000
302BB
1BB3A
0C202
082AA
32C02
222E8
23333
2AA80
2A020
02BA2
003E0
20303
03C3B
2B80C
38CAD
2ECFA
2A808
3B882
0EA3E
30FE8
33AC8
0002C
