FFFFFFBB
00000046
FFFFFF98
FFFFFFE9
FFFFFFE2
0000003B
FFFFFFC1
0000004C
0000001E
00000051
0000000D
00000085
FFFFFFE6
FFFFFFE6
FFFFFFE7
FFFFFFD2
0000004C
FFFFFFDD
FFFFFFDC
FFFFFFAE
0000006D
FFFFFFB5
FFFFFFE5
FFFFFFC0
FFFFFFCC
00000024
FFFFFFBA
FFFFFFDF
0000002B
FFFFFFB4
0000004C
FFFFFFB0
FFFFFFF0
00000049
0000008B
00000005
FFFFFFF6
00000009
0000000A
00000006
FFFFFF99
FFFFFFBF
FFFFFFC4
FFFFFF8A
FFFFFFD0
00000040
FFFFFFEF
FFFFFFB1
00000082
FFFFFFC8
FFFFFFBF
FFFFFFA0
0000002A
00000010
00000016
FFFFFFE5
00000043
FFFFFFEB
FFFFFFA7
FFFFFFA0
0000001D
FFFFFFBA
00000017
FFFFFFF0
00000002
FFFFFFB4
00000067
FFFFFFDA
0000001C
00000054
0000002A
FFFFFFED
FFFFFFFC
FFFFFFC5
FFFFFFD5
FFFFFF82
FFFFFFB7
0000000E
FFFFFFFA
0000000D
FFFFFFDC
FFFFFFF6
FFFFFFAD
00000000
00000007
0000002D
FFFFFFE8
00000034
FFFFFF87
FFFFFFD9
FFFFFFDE
FFFFFFCA
FFFFFFBC
00000010
0000007B
FFFFFFD4
0000000A
FFFFFFDE
FFFFFFB6
FFFFFFE5
FFFFFFE2
FFFFFF83
00000042
00000020
FFFFFFE7
FFFFFFC6
00000083
00000018
00000000
00000008
FFFFFFAB
FFFFFFAD
FFFFFFDB
FFFFFFEE
00000036
FFFFFFC6
FFFFFFF2
FFFFFFCD
FFFFFFA7
0000001E
FFFFFFAE
FFFFFF8B
FFFFFFA2
FFFFFFEE
FFFFFFEC
FFFFFFB8
FFFFFF1B
00000029
FFFFFFEA
FFFFFF9E
FFFFFFF6
00000000
0000004E
00000049
FFFFFFE0
FFFFFF8D
0000004F
FFFFFFCE
00000045
00000057
FFFFFF85
FFFFFFB4
FFFFFFD1
00000013
FFFFFFC8
FFFFFFDA
00000027
FFFFFFB2
FFFFFFEF
0000003E
FFFFFFDA
FFFFFFDD
FFFFFFC6
FFFFFFC1
00000089
FFFFFFF2
FFFFFFEF
FFFFFF8A
0000002E
0000005B
FFFFFFE9
0000006A
FFFFFFC0
FFFFFFDC
FFFFFFF8
FFFFFFF2
FFFFFF8F
FFFFFFE1
FFFFFFAE
00000059
00000028
FFFFFFFD
FFFFFFDD
00000019
00000064
FFFFFFE3
FFFFFFEC
0000002C
00000007
FFFFFF80
000000AA
FFFFFFA8
FFFFFFE7
0000002E
FFFFFFBB
0000004D
FFFFFF90
00000006
0000009E
00000024
0000007E
FFFFFFF8
0000004C
00000037
FFFFFF90
FFFFFFE3
00000014
00000014
0000002A
FFFFFFD8
FFFFFFDB
0000001C
FFFFFFD9
FFFFFF96
FFFFFFA6
FFFFFFAE
FFFFFFA5
00000099
0000003B
FFFFFFEA
0000004E
FFFFFFE4
FFFFFFD6
FFFFFFF7
FFFFFFFE
FFFFFFB8
0000002C
00000005
000000B4
00000001
FFFFFFF9
FFFFFFEB
0000001D
0000000B
FFFFFFC7
FFFFFFF0
00000034
FFFFFFCA
FFFFFFAB
FFFFFFC5
00000033
00000082
0000001D
00000025
00000004
FFFFFFCA
FFFFFFE2
FFFFFFD3
FFFFFFAC
FFFFFFA9
FFFFFFAB
00000053
FFFFFFF7
FFFFFFEA
00000020
FFFFFFF9
00000009
FFFFFFBA
00000006
FFFFFFFE
FFFFFFD6
00000009
00000012
00000013
FFFFFFCF
FFFFFFEB
FFFFFFA4
FFFFFFD4
FFFFFFD6
FFFFFFBE
FFFFFFAD
FFFFFFC6
00000027
FFFFFFDF
00000033
FFFFFFE4
FFFFFFCC
00000061
00000082
FFFFFFCE
FFFFFFD1
FFFFFFB2
FFFFFFD0
FFFFFFBA
00000037
FFFFFFE5
FFFFFFD5
FFFFFF74
00000027
FFFFFFEC
0000007C
00000000
FFFFFFBB
FFFFFF91
00000058
000000CA
0000003F
00000089
00000033
00000004
00000034
FFFFFF76
0000001B
00000036
FFFFFF84
FFFFFFDC
00000086
FFFFFFC9
00000046
FFFFFFE9
0000002F
00000030
00000028
00000028
FFFFFFF6
FFFFFFD3
FFFFFFFC
00000061
FFFFFFC9
FFFFFF9C
0000000D
FFFFFF95
00000000
00000021
FFFFFFD7
FFFFFFC1
00000039
00000055
FFFFFFB8
00000023
FFFFFFC6
00000026
FFFFFFDE
FFFFFFF3
00000011
FFFFFFEB
FFFFFF98
FFFFFFC3
FFFFFFC8
FFFFFFBB
FFFFFFE4
00000065
FFFFFFFA
0000001C
FFFFFFDA
FFFFFFF0
FFFFFFAA
00000081
FFFFFF6C
00000021
00000053
FFFFFFDD
FFFFFFA0
00000002
FFFFFFDA
00000001
FFFFFFCD
FFFFFFFF
FFFFFFC4
FFFFFFE0
0000005A
FFFFFFC8
FFFFFFB9
0000004E
0000009D
00000077
FFFFFFFF
FFFFFFDC
00000053
0000001A
FFFFFFF5
FFFFFFD9
0000004A
FFFFFF72
0000008E
FFFFFFC9
FFFFFFCA
00000034
FFFFFFD8
FFFFFFAC
FFFFFFD1
00000018
FFFFFFBF
0000000E
00000063
00000056
00000072
FFFFFF9D
FFFFFFB0
00000004
FFFFFFC2
FFFFFFEF
FFFFFFD2
FFFFFFCD
