FFFFFF7B
FFFFFEC9
00000185
00000032
00000115
00000088
FFFFFF12
0000009A
FFFFFFDE
00000341
00000045
FFFFFF53
0000014F
FFFFFF3A
FFFFFFAF
FFFFFFFF
00000036
FFFFFFDF
000000E0
FFFFFF24
00000017
0000020C
FFFFFFEB
00000073
FFFFFE0D
000000B1
FFFFFFC4
00000056
00000222
FFFFFFF3
FFFFFFDF
FFFFFFC4
0000008E
FFFFFF4A
000000DE
FFFFFEC0
00000043
000000AB
FFFFFF9F
FFFFFF5A
FFFFFEEB
00000087
00000003
0000008A
00000055
0000006A
000000A5
0000002D
FFFFFF63
FFFFFF06
00000083
00000133
00000091
00000093
000000EA
00000064
00000017
000000A8
00000038
00000097
FFFFFFFC
000000B3
FFFFFFC3
FFFFFF2F
0000001A
00000073
0000012D
FFFFFF67
00000000
FFFFFFEB
0000007C
0000003B
00000000
FFFFFFE6
FFFFFFFE
00000024
0000006C
FFFFFF2F
000000F6
FFFFFFF3
00000000
FFFFFFB9
0000016B
0000006A
00000185
FFFFFFEF
FFFFFF01
FFFFFFE5
FFFFFF9C
FFFFFFA6
FFFFFE92
00000115
0000001E
00000204
00000014
FFFFFFFA
0000006C
FFFFFF47
00000091
FFFFFFDF
0000004D
FFFFFF92
FFFFFF4E
FFFFFFAC
0000000B
0000005A
FFFFFF5D
0000017A
00000047
00000000
FFFFFF50
FFFFFEF6
00000193
00000010
FFFFFEDF
FFFFFFCF
FFFFFFEB
00000006
FFFFFFC6
FFFFFF95
00000137
000000B0
0000009B
000000CC
FFFFFF9D
0000009F
0000001E
0000008F
00000039
0000016F
0000019C
00000053
00000000
FFFFFF69
0000004B
00000030
00000006
FFFFFEEA
FFFFFFD5
FFFFFF70
00000041
00000168
FFFFFFFD
FFFFFF28
FFFFFFA8
FFFFFFE2
0000000F
FFFFFF35
000001AE
00000028
FFFFFFAE
000000AF
FFFFFFCB
FFFFFF3A
FFFFFFBD
FFFFFE66
FFFFFEE7
0000000D
FFFFFFB0
0000001F
FFFFFF82
0000018A
FFFFFFBE
00000045
FFFFFF85
FFFFFFC9
0000000C
00000003
000000A6
FFFFFFDF
000001A2
FFFFFEAF
00000074
00000169
FFFFFF61
FFFFFEFF
00000016
0000007C
00000147
0000012E
0000008B
FFFFFE17
FFFFFEEF
FFFFFEB9
00000103
FFFFFFFE
00000025
00000036
FFFFFDEB
FFFFFF26
000000B4
000000EA
