020EA
022E0
2C88A
20200
2203B
02328
3E82A
2BC8B
00003
2BACE
0208C
2E88C
2B828
22CCB
088AA
0AA28
00282
008AB
08280
0E8CC
0F38A
2B20B
0080C
2B2E3
22F03
2080B
322A0
0C3F2
2CAA0
28AE8
08282
00C08
08383
382AF
00FE2
02B82
2B0C8
08EEC
20AF8
2EAEB
23C38
2CA0A
032CA
20BB2
32C2C
22AA0
2AA3E
0C800
2EA88
08228
288EA
0C888
0E2E0
03288
3AEEE
22FB2
2E80F
2EF32
2A30B
0A0AE
0C28A
228BB
3AE8F
0FAEC
00FB0
3A883
300AB
0EFCC
238A8
02E2C
0CA20
03ACA
0288A
0CE80
0ACA3
0B030
0CC03
220A3
3370A
0AE8B
08880
0038A
3A800
00C20
0CFA0
0C830
2ECA2
22222
0C80E
030E8
2CA88
3A8F0
3E0C8
30388
2BE0A
222B2
02CE2
3380A
2C20A
02EAB
082B2
0F2AC
33080
2AAFC
0E232
30FFA
0B2B8
02EAE
38E2A
0E888
3A0A2
3A8CC
20FA2
223BF
02BE2
2E2AF
0BCB0
003E2
0CFAA
3AA22
08FAB
200A8
033BC
2CAE0
0F30E
00AC8
08026
08BAC
3AB28
2A300
0BB2E
0BC02
2BC2F
026EE
030BE
2CAAA
0BA03
0BCC2
3EFBA
083B2
003A3
2308C
0AF23
02B2D
32EEE
2CF30
2F0A0
22CF8
22B0B
02088
30CB8
220AB
32CC3
0FAFF
20C00
3AA80
08FEB
2CEE8
3A0B8
02E22
03C82
000A8
200F0
08CB0
2A0A0
0EE00
2EE88
32800
2CB38
20A00
0A03A
0F023
02002
38008
0238B
0C0EC
22220
22CE8
0C0B0
03028
0CEC3
3F02C
36AAF
028EC
2E7EA
2A2BE
278EA
0E6C2
3AFCA
3AA18
2B0EA
32B88
22020
02B42
2EFAF
238EE
0C8FF
02208
22BB0
3A2C3
0A0CA
0B02B
222A2
0303F
28308
238CC
20EBA
02FAA
2A802
0BAE8
0A33A
2AABE
0EC0C
0F332
0FF3E
00E83
0C8F2
0BC80
0A008
02000
02228
02CAA
02B00
22A30
020C2
00223
2C22C
2B280
02388
33023
22888
22C2A
032BB
0322A
38CAE
2C0B2
2000E
2CFC8
30B2A
22E2F
288FB
22EE8
3AB8E
0F032
2B0A2
22BFA
02220
02FB2
3FFA3
2CECC
02323
02880
2842C
0BC8C
20C0B
20208
388EB
382E3
2BB20
3A0B8
22003
0F82B
038BA
2CF3F
2B022
3AA32
022E8
08A2B
0320B
003AC
228FB
28ECC
0BACB
2F827
080F0
00A82
0BEF2
0BBBE
0E0E2
01CA8
0AAF2
3F28C
2023B
282A2
2A021
3E3BA
09C88
0208A
2A42E
0CC82
28F2B
23234
0C32B
0E8AB
0AB2C
02233
32EBF
3F788
080B0
2AC3F
38F23
3CE03
30C82
2A8E8
03BBC
02888
0B3AA
30BA3
3A328
08BEB
2BB8E
2BE30
0BF2C
02A2F
2A03A
228AA
2B8A3
302EC
02BAB
3BFBA
2FF6F
23AFF
0CF2C
008AD
2E8BB
03B03
0AB08
3BF0B
2BE30
02232
02ACA
02AA0
3ECFA
02EA8
200AE
0F22C
20083
0B02B
2208A
3080A
0E238
03A3E
3234A
3CABA
3A082
3B332
3FAFF
3CCAF
323E0
30E0B
0FBB0
0FAE0
3388E
230BC
3232C
333F3
2EF88
0022E
0CE3C
0388A
038F8
0322C
2AA2F
3A2A2
330B2
088FE
3F002
3AABB
3EA3A
338AE
2A2FB
2E3CF
2E8AE
2A8BA
2B8BA
0AA03
02AEF
0388C
222E2
2A282
22AAE
22C30
0E008
3AAA2
3FA8A
2A290
02803
238AA
002FC
3072A
008FB
2E0C2
230AA
20E22
0EAC0
00F23
2A20A
001AE
000C0
2E2C0
0FB38
2888A
202F8
0223E
32338
02200
08030
3C2B0
2AA2B
022AE
28322
2CCA8
0EE00
00A88
2A80A
3A2CC
3E88A
333F8
00CA3
000B0
0E802
232AC
0E0B2
22B02
080B8
0EAE0
2BA8B
2AF30
2EFB2
2F2C0
0C8C8
002A3
3AF83
2C8E2
0BCBA
0B803
22ABC
08B0A
0AC8F
2FFA8
23A00
0E0F0
0F2A0
2222E
23E02
2C808
2A80F
3F8A0
00F82
023EF
338E0
2FE8A
2C0BA
20E88
330B2
082A0
0C832
323BB
20A03
00A2F
3C8F0
0EEAF
0FA3F
02828
080E2
3A023
03220
02C88
2200A
203B0
2FE0C
20008
00F28
0E2AA
3CAC2
02FAB
3002F
2FEAE
08EFA
02A8C
0323B
0FC33
08B0A
2802F
0EB2A
0202A
2ACE2
22C8A
2CBE0
220F8
3833B
2A3AE
3208A
222BF
3208C
3F22C
22E8B
300B8
2AEA3
38FB0
0308A
022CF
0F2CC
00AA8
228E0
28A82
2C803
0EAE8
20F8B
22882
30AB2
32A80
0F3CB
0082A
0AE30
0C88B
23A23
2A2A0
0A8E2
00080
020AC
020A2
0A322
00B8C
2AB82
03AC0
33832
23AE8
0B0C2
2A0AE
303F0
2088A
02BAC
02AF2
2AB8B
33322
20F88
380E0
0C2CF
03B20
28B82
0EE83
20822
20F23
338F8
2BE2E
002E0
2223B
22CC0
3CAB8
2B883
2E7F8
32A20
303B0
3338A
000CB
08EEB
00A8F
00AB8
3C230
00328
3C338
3228B
0AFB0
02308
02B30
22338
000B0
0B383
20283
003AB
0EAF2
2CF0A
00E8F
0323F
00EAA
0A2AE
002AE
0A88E
3EBEC
0AAF0
2AC3F
2BAAB
22A2B
3EB3A
2BB2A
23AAA
0AB38
22B20
20BBE
2CF0B
22A2C
0FA0C
02FC0
0AC8E
308B8
30A0E
03208
20EA0
02BF0
08808
22E2C
30F82
0232E
00F08
3A882
38EA3
20BB0
28F8C
0E0CA
0CCCE
02E2B
0C7A3
38888
0B882
3AAAB
20E0C
30202
088F2
338A2
0F202
2AC28
3F8CE
0B2AE
088BE
10AAB
228E2
002AA
0AFBA
0208A
0C2BF
2B030
3EFE8
2F0EB
3B820
08BC0
2F330
08E3C
08332
3EE83
2A3C0
3038A
0C288
383BC
00A8F
3C0B0
00E03
00C20
32FA2
30ABA
3A282
32032
20C83
2288C
30B03
2E2E3
030B2
2F80E
3BC0E
08AAE
2AF2B
2E322
2ACAF
0C2AE
0CB8E
00A28
202E2
02088
2C0F2
2A28A
20EBA
3CCA8
03BFA
0080A
08E8F
22A22
0C23E
00EAC
020B2
2F2E3
0AAE2
2A820
0BBB2
00E0B
02F8A
3CAA0
0A320
3BB30
32A03
0838C
023A2
0CC03
0E33B
3B020
0B8A0
2883C
0302F
0BB3B
2CF0E
228EC
0EE0F
02A30
20C22
0AA08
238AA
28020
2EBA8
20A23
2A8E8
22CEF
2A020
2AB3E
2AF83
3AAE8
2AEAB
0ACA2
3B8BF
23AF2
0BBEC
02E8F
2A8AC
30AA0
07308
38B28
2B8AC
200CC
28328
02A2C
02BBA
2838A
088A2
2CAEE
22020
2008A
0EC03
00AC0
0E33E
02BAC
200CE
3222C
3AA83
2A200
22820
2A230
28B00
20A2C
2A3EA
0838A
2A002
2E8EA
2A820
0220A
088A3
20A22
0C8CF
00AA0
30883
3BBA8
38AE8
38A20
2CEBF
0E8B2
3A3AC
3FA3C
2300E
2A32B
3C802
0BCAE
0AB3C
238A8
2A8FE
0338A
000BE
02A32
2000E
0202C
220AF
28A0F
2C0B0
20BF2
03A02
033AF
0208B
0ABA2
22300
3EAEF
2F28B
2C0BA
3BB32
2C028
023EA
00C03
2ABA2
2A202
22CE8
2C0C8
30C00
02C22
03A23
22230
020CA
33AA8
08ABB
328B3
32B23
38380
20C88
222C3
00A2F
020AF
3C02A
3AACC
3E832
303FC
2BEB8
3B2B2
0FEFA
28B2A
0283A
22DCA
0F8EC
0042E
2CB3B
28ACF
12FAA
30C3E
02D0A
02EC2
2ABB3
08FA8
2AE2B
20228
3B828
23082
2A02F
3A2F2
33E83
2E00B
00B20
28F3B
2200C
3BA88
028E2
0AB2B
083BC
003A3
28BA8
3200A
08B28
20A24
20C2C
232FC
283B0
0880C
082BE
00388
38832
038EC
0083A
0B2A2
0E223
23B28
0EF8C
0206E
080E2
223FA
2CEF0
1B083
2C0B8
328A2
2FBFC
0B3A2
0AE3F
22C00
0EB32
002A8
0093A
2C03E
0AAEA
3EF23
08F3A
03CFB
33CC2
2E888
082A0
2A28E
2C0AF
2F8E8
0A82F
2EEAB
03E03
02BFC
2AF80
00AE2
0FE20
0CC20
38A0F
2B0A0
088E2
02BFC
2B22A
2280A
2CA22
22FB0
2002C
30EA2
3C0F3
02F28
083AC
00282
3BEC8
0BA8E
08AB8
33FFF
000A2
230BF
02B22
02032
28000
080C3
223C8
0A828
03EBA
2EABA
3C8C0
028BC
02C32
02E80
2A80C
0CA0C
22E83
3808C
2880A
20BC8
0E2A8
0222E
20AA2
0AAF0
0E800
2C338
2A0AB
32C8A
0F030
08820
0B30C
22882
000C2
2B820
08A8A
20CCC
0A2A2
2820E
0238A
00A82
33C2A
0A803
02A2A
3AC0C
2B0AC
03E82
28008
228E2
0B228
02AAE
28F83
0BACA
283B8
2800E
00FA0
2BAFC
00B2C
00202
3E322
3238C
3EAB2
0A2EC
28E3A
0AC3A
338CB
2ABE2
2F80A
2A22A
2C2CE
088A2
238F8
2B8E0
22328
0C88C
02280
02CEC
30A0F
30803
0A28F
0A8E2
038CA
28CB2
0AEEF
02AEA
088EB
280CB
0BA22
2EBFA
2E8CE
08BB2
23F08
0B022
0A0C3
03A32
2AA0A
028B8
3CA28
03FB8
22CA8
322A2
3030C
03F23
20A8F
3F2B2
3ACBA
23A2C
3CCBB
0CF00
22802
20CC0
0DBA2
008AA
3CB02
03822
3A888
38823
28E8C
3BA32
30E3B
3ABAE
0F00A
22E2A
2CAC2
28AA2
2F838
2AA32
2E32E
0CE2A
0AEAA
02C0A
22238
080E3
030B8
03332
20398
3CE88
328C2
20F88
08BCE
0AE32
002AA
2BA00
0AB80
0BEE8
1CAAA
28E2E
0ABFB
038C8
2C7B3
38A0F
3AA88
388A3
2FE82
03A32
2BBF8
0BA2E
238CA
22FAA
028CE
330A0
302BA
20A8E
00AEE
2F388
0B038
02E00
00FE2
028A8
38AA8
0888A
00FAF
28BB8
3B820
2EAAF
0B2A8
0ABE0
03C20
3A222
0B2AB
20CAB
00080
2F22E
003AA
02A3E
02B22
222F2
228C8
2388B
22EB8
32BAB
0C8FA
2B8E0
30008
020FA
20323
32AA0
0BAEB
2ACC3
32802
02E2B
03E3A
03E23
0CC2E
32EFA
3C8BC
3320F
0A238
0ABCB
2CA8A
2022B
0F388
08EF2
2FFAF
3888A
2BAE8
2A0CF
32CCA
3223B
03130
02CEB
0282E
3020E
3A2AE
00BE0
33AFA
222EF
0B332
28EAF
0E832
0EBAA
0C8E2
3CB3E
0ABE8
30B32
0CCB8
220E0
0EAFB
00F0B
20FCA
20083
0E2EC
2F223
0C33C
23AFA
23ACA
32ABE
0A310
0AC30
22B0C
38208
00C0B
3AE8E
3B42B
00B88
0AECA
03200
2FAE3
0238F
2ABE2
028E3
23B3A
280FA
0BECE
0AAE2
023F2
0A82A
288A2
3DBCE
0A222
38A22
08F8B
0B8E0
028EB
00830
08E20
2EAC0
20008
38A8E
000B3
13B3E
302AE
30878
2FA38
30382
0B030
0EBAF
3F2EF
32BB3
32E02
03822
02EA0
020BF
3AC1E
2AA3A
3E882
2CAE0
08E0A
3ABA8
3E408
208AB
0C2C2
3AACC
0EF8E
0EAA2
3B8EB
2A2CB
3A382
2ECA8
03C0A
02823
00000
00000
00000
00000
00000
00000
00000
00000
00000
00000
00000
00000
00000
00000
00000
00000
00000
00000
3A22C
2C348
2BCBF
2A022
2C3A3
0ABEB
0ABE0
0A2E0
0C28F
20322
3A0B2
0002C
0BCA0
2C3AA
3AB8F
2EBA8
03B8E
02B30
2A322
2EA02
2E0A8
2B3C8
2CC8F
28BA3
30880
030A3
3C02B
00BEC
00230
28A6C
33223
0AB30
03001
2CEC0
0F222
032A3
080BE
2CAB8
223A3
033F2
0AAA2
28F8F
0CC02
3BBA3
2FB8B
0F803
38BEB
28A23
3F8AF
2ABF0
2FFFC
2FEC8
02E22
02E8E
2E82C
30F2C
0AB88
028EB
20830
282F0
280A3
00A2C
00038
2202A
2BA22
023E0
0282B
08A8A
023B3
23A8E
0232C
0238C
2AE00
22B30
0C20E
02C08
0BF28
009AE
08AF0
22F83
0000E
0F28C
00E32
2AAA8
28A03
20E38
28320
200EC
0EB2A
0002A
00000
00000
00000
00000
00000
00000
00000
00000
00000
00000
00000
00000
00000
00000
00000
00000
00000
00000
282AE
20C3C
0EE23
2CFB8
32A18
2A38C
2308B
0A808
0B880
0CA83
0A0C0
0A88B
332AA
093BE
308EF
2ECBA
08C82
00CA0
0EEEA
223A2
0CAFE
02C0E
2A20A
3A23A
00ACB
0AE03
02032
20222
2F28E
3C0A0
208C8
0032E
2BF0A
2880C
0F20B
00CE0
320B2
0883B
023E0
03803
000CC
0B030
20BFA
08EBC
08332
02EAB
28BA3
382F2
0ABA3
0C3BE
00302
3CFFB
0CE38
00EAB
2A80E
32ACF
0CA80
280F8
20EA8
02C30
02838
220E3
00FA0
2AB02
22288
2AAE2
0BA08
22CC0
2EF80
2E2E2
03800
020AB
2A83F
341AF
3AE0C
338E8
00A32
2E2FF
08AC0
02ACC
0FB3A
22B88
2CB88
3E2C8
1A4EE
0EBBA
3CCFF
3DBC6
001FC
020A7
00000
00000
00000
00000
00000
00000
00000
00000
00000
00000
00000
00000
00000
00000
00000
00000
00000
00000
08EE0
2FCA2
2028C
28C30
28328
282A8
32A00
2238B
3A223
03AFC
22FA8
2A8A8
202A3
2EF28
3B300
00EE0
0C020
03AF0
2A822
3AAAC
0A080
0A8BA
20C83
22332
3EBA2
2C828
0CAAC
28BE2
08CA0
2EA2C
0802C
23BE0
0800E
232C0
0F8CC
008A3
200EE
3A06C
02A3E
3A3F0
0BA0A
228FF
2BAA8
022E8
2C332
2BBEE
33A20
022C3
22AE2
21BBA
3FEFF
2E83A
0FACC
02EC7
3F30A
0A003
028CA
020CF
28E8A
38EB2
3FACA
228AE
2A03A
02EAA
2C8FE
336A2
2308B
08ACC
2AFAA
282FE
0EE8E
00ECA
3202A
2ECF3
0ECC8
20208
28E8A
0E3A8
22BC3
20AC2
08E03
0FAC2
20FAF
02E62
223A0
0C2F3
0A82A
2A80B
032BA
032A3
20E22
0EA20
2C8BE
283CF
28AB8
2A30F
23C88
22CEB
22AAA
08BF0
0CAA0
28A2E
0BACA
22332
23FFB
0C820
0C2EE
00CCB
33F2A
0A8AB
2ABEA
028EC
0B8E2
23C8E
38E2B
2E8EE
0880A
3E220
023B3
302F0
008A8
08C82
2B82F
2B03C
0AF28
0280E
038B0
2C8AB
3AC88
3BB8A
02EAE
2A823
32EA0
3F2AC
03A88
2A0EB
2C822
0BE60
33C3C
2EAB0
0E2CC
30C80
08E8A
00A0B
0A633
2802E
1AC2B
202EA
03F88
22A2B
020EE
23883
3EFA0
2B3AE
22000
2EFF0
00E83
0A802
3A73A
32BE8
008EC
00AAE
0EC80
03830
38382
3F3FB
32AB3
38CBC
08F32
08CAF
20330
00C2A
03820
332AE
0038C
2BB33
22FC8
323EC
0EA0F
00F02
2ABBE
32A82
38AA0
3A03A
2CCAB
2EBA0
338AA
2C2E3
2308C
203EE
38EB8
28AA2
3822B
020A0
0EA8E
2E0CA
0CBBE
02AA8
0AEA2
2AC8D
22AE2
2E2CC
30F3A
0B82C
0332B
202BB
30CB8
30AA0
2828B
3EB38
22BA3
08302
202A8
22823
0CAEF
020BF
2E7A0
3B830
3E008
3AA88
20E8E
00232
00838
3C82A
238C3
21AAB
38AFE
202AC
0FAB8
2AACE
228E2
220BA
08EA8
02CAA
32E02
3C8AA
3A08C
3203C
20CA0
023B0
30CAE
2E2A3
0B2BF
200EA
3BF82
082AE
02E2B
2E02B
2EC8E
00800
0CB82
03A0B
020E3
30F0C
2888B
000C0
208CA
02ABA
0A0E2
0083E
0EFE0
02A2A
0A8A0
0A0F2
082AC
30220
22B8A
2BA08
0CA23
00A02
022AE
22EE8
2C030
2B3B8
22E38
0E3A8
3222B
2F8CA
03E2B
038F0
2C3AF
0228C
280C2
0ECEB
08800
3A22B
0BD32
00223
2C3AE
024BF
2088E
023CF
2A2BE
203FC
3F8A8
22EE0
2383A
2E232
03A02
0CA8E
2E8EA
20BBC
2BE38
0008C
0E220
00003
03E2A
20F08
2C282
20C30
08F02
30EA2
3CAC3
023AB
0822F
3F28E
0B238
2008E
0BA33
23CE0
2B8AB
0BC0F
02B2A
00B8E
0A2AE
2E33A
20F28
20802
30AA8
22080
2E22E
2AE03
2AEFE
0EB83
28BAC
0AA08
0AEA3
330B8
0FCBA
202F8
0E02B
02282
0EEA0
22222
2E822
202CC
08E38
383A8
32B8A
2FA08
0223A
302C0
2F3AC
0A2BC
28B2B
020CB
3A08A
022CB
03E00
00223
30E00
008A2
3A08E
0AA2C
2AE82
00BC8
03A2A
22CA0
0F8B0
0ACF2
0E022
0EAAE
20200
22AA0
2A2A0
2CA88
02AAA
008FB
3A32E
2EB3A
2C2EA
03230
022F0
02B82
229C8
2FCC0
0CEB8
308FC
20FBF
22003
0F0EC
30330
3A8E0
0E2C8
0BD02
00FAB
3C28A
028E3
00830
0B30E
22C38
0EB2B
000AA
2FE08
00028
2A0CC
2380E
2C200
20B00
028CB
03A0A
3AA00
0020E
03A38
0A0C0
02232
32B0A
2CB82
2FE88
02B80
0CA02
2FAEC
2C0AA
02FC2
2CF2C
3AAA0
33823
2A803
3A8CE
0E22A
0BE3A
02223
28CAA
200AE
0388E
1E0C3
038FA
02020
2B0CB
222C8
300B0
0C8A0
0AC20
323F8
228E8
320AA
00E83
22020
0F8EF
00828
02BC0
2AC0F
22F88
2C088
300F2
23800
22820
22230
023E8
30A80
2A203
0EB33
00280
38832
3088A
2C0EB
00EE3
02880
03B38
08A03
2E00B
08BB8
23EBC
208A2
3FE2E
338BA
2CA03
028A8
388F3
0F00F
3FA8F
2A03B
2E0A2
08030
08222
0228E
00BB3
33880
362A8
32AE3
2C22C
20238
28B03
30ACE
23B02
22F2B
32B08
3BCA8
32B8F
2BA8E
22FEC
0088A
00382
00082
00000
00000
00000
00000
00000
00000
00000
00000
00000
00000
00000
00000
00000
00000
00000
00000
00000
00000
0A780
380FC
2AF0B
0F004
380E8
0A00C
0BC2E
2303A
32FEE
020A8
08208
20CF0
0820E
38830
0EE08
000CB
0EC03
0026E
32B2E
0CBCC
2F0B2
23BAA
0ABF0
0C2E3
0C2C3
0332A
3E3B2
28832
238BC
22B3C
0CA02
323C0
0AC23
3A2AC
08C02
00B3F
08CEE
0E8BE
328A2
2A2CF
22CA8
3A888
23838
22A1E
0338A
200AE
22C30
3A822
200AB
2C22E
02AAC
2CE28
0330E
02E08
3FFCB
20222
2C8B0
3808A
2EC3F
0ABE8
3EAAE
302A8
0CA28
3B8E2
038FF
2C08F
23320
023C7
00032
0A2AF
00A2C
0080F
20A88
30800
0B30B
2B8AB
2CC23
2280B
00308
2BEAF
0A08A
0802A
32B2C
0BC2E
38C8A
2C030
2A8BE
33388
0E332
00A0E
0A802
22232
2E00B
2E028
338CA
282CE
000C0
02033
323C0
3CA20
0880C
22BB0
00EA2
3AAB2
30088
22000
0B883
0238A
02EEE
0AB80
2C88E
2AF32
2A33A
3AEAA
3EC83
2E02B
0A220
0BA32
2C0E2
2AAAE
2B8CA
22FE8
0BB3A
08C2C
00AE3
03008
0FAB2
20AE8
0ACFA
3B802
2CE0A
0C208
3AE2A
33600
0CA82
2ACCA
208CE
0CCAC
00A82
22AE3
0EA0E
080B2
0BABA
00283
08B0F
20030
22C00
0CB28
2002C
208C3
03808
32C80
3E3A0
03820
0A8F2
223CF
0CA82
228BE
0AA08
02280
02CC0
00F8F
028B3
20FA0
2A0EB
028AA
338C2
22200
2A3E0
082B0
28E22
3A3AB
328A2
2BCFA
02CB2
3822A
2E2F2
08888
080B3
0088E
22A8A
383A3
32A08
0AA0A
20C2B
3CE8A
223AF
2FAC8
0420C
2A0E8
032A0
282EA
0232C
2B0EB
23CC0
2B2F2
038C8
00A02
0FE28
020A3
2A8BE
2E82C
02AB0
2B8C2
0FAC8
220A8
0E338
0AA22
22A02
3CA3C
2CAE8
0AAAA
0B008
038B0
0AAE8
00FC3
2C888
082FB
32028
323BB
2AEAB
0BC8A
00F32
03802
00232
222A8
3E0FE
0BEAC
32BB8
202E3
2EAA2
22FFA
0827A
002A2
3CF0C
2E2BE
0EBBA
2CAC3
2C08E
008C8
03AB8
0282A
033AB
0AA82
0A2F2
02ACB
3F088
22ABE
3282F
3E2A0
08C22
02F0C
2A82F
30CAE
36E8B
2E80A
0BBE8
2AE0C
2BBE0
02832
32F0A
32BAB
288E2
0A3F8
22223
38A80
0E108
22A2A
02B8B
002AE
3BFEE
08830
00882
2A238
28A2E
20C8A
08033
2A802
3308A
22ACE
0AC32
388AA
03C38
20C2E
2AAAF
208AC
0032E
02800
0A2E2
02F0A
2EEF0
22E08
2BFB8
3AE8E
202CA
238F2
3A00F
0CAA2
30A82
20EA8
0B030
383FC
2A2EA
02380
003F2
000A2
02308
22222
2308A
3A832
0EF8F
2FBC0
3C2AD
00F8B
2C980
2882E
38AB0
2C08F
0FAC3
0FBAB
0033E
080E2
022EC
02B8F
0A40E
32EAA
28CEB
0CA0A
2C2AB
2C3A3
2AAA2
08AE2
02E80
2F78C
28FA0
2AE80
3AE2C
0ACA3
3E202
22AEA
03ABE
00A8B
02CC2
3AB8A
30A8E
3A03A
0EE83
2232C
30B20
2EA18
2BAB0
23BED
08E03
00A8E
38C2B
02022
0E0AF
2F0F2
0FBBE
008A3
2E308
00E83
32838
0E2C8
2BC3B
0EE82
308F2
32A3A
0E3F2
3CAA8
28CFC
0C3BF
22080
22A0F
23C0A
2A8CB
0EE8B
00222
20BA8
283A2
32FA8
2A8E8
03B2E
2020E
28F2F
02632
03ABE
200A8
38AB3
2BFC3
3E0B8
3628E
0202F
2F8A0
083AC
023AE
00000
00000
00000
00000
00000
00000
00000
00000
00000
00000
00000
00000
00000
00000
00000
00000
00000
00000
3228E
0FAB8
0AF88
3FFFE
0AAAB
0BCAF
2EF20
20208
2E8B0
0F8FF
3382B
28B03
33B2C
38BF2
2FFC0
0CE03
0CCBE
009BE
0A00A
283B2
0E88E
0233C
3ECA8
02AAE
0F08A
02EAB
2022A
2BAAC
002C0
288AB
008FB
20B32
2FFB2
22222
0E0E3
03A3A
0A80E
20E8E
2AA0E
2E308
3B8FA
2BEAC
28AE3
222C8
02AC8
33A2C
2B2B0
2EB38
3EAE2
0ABB2
23CAB
03C03
00C2F
00083
2BE22
320A2
2BAAE
0A82C
2300A
2082F
22CC0
22223
22032
02022
208AA
0E8C2
0AACB
030AA
3B030
20AE2
0E0EB
00AC0
0B80A
323F8
0EFFA
0FFF0
338B2
0AE8E
2C8CA
00FF0
0EF3C
0C88F
3B8BF
3EC83
0CB30
38BFE
3CC2A
2C80C
0CC2C
02EAA
3FF2A
028A0
3828A
32B2C
282AE
030B2
38A38
22BA0
2320A
0A202
2300A
30AA2
2B00B
282AA
2A0AB
2B2AE
0228A
00ACE
2A803
03C0F
28FE3
20C04
383CB
00220
2A02E
3B038
320E0
3C88B
3B888
20FF3
38E3E
32038
302FA
3A3E8
0802B
008A2
0CC2A
0A8C3
0EBFE
020FC
2AE3B
0AC8A
0FAFA
2AE20
0330A
00EE2
2F23F
30602
2C80B
2A3CF
0B02A
2A038
0E9E0
00EE8
22380
30FA0
38A8E
3A200
28CC8
30C22
0EA0C
08AF8
2A03E
28808
0F0AE
08382
020CF
0B0A3
2202B
282E2
002B0
0380A
0EB00
33B0F
0A08B
038EB
22280
2A8F8
3B8BA
3A8AE
2EB28
02388
0ABC2
02FE8
2328C
2EAAE
08703
30F8A
0ACA0
0038C
08CC2
22E8E
2C0B2
2E002
3EB38
20BA8
238E8
22CF8
3AE00
028BE
28F80
0E803
22C20
00F82
0F283
0A800
08EC0
003FB
08B82
02B38
02EA0
03F30
08AA2
38EA2
20E28
3BAE8
0B883
2EAF8
33AE0
002AB
3F32C
2AAFA
2ECE2
002B0
00C3E
0228A
2AE2A
2E208
2C000
23FBE
2CEA8
02EA0
0C802
2ACB8
0220C
0F222
02202
0828C
3BEA0
03CC8
02A8A
222CC
0030A
00AEA
3CA8A
3CA03
3A2A0
03F32
22A0B
33CA0
22FA0
0F20B
08A8C
00C0E
33BA2
2B820
0232A
3F0E8
2CEA2
3B2E0
00832
03A08
0CA83
2220A
2BC08
3BA20
0EA80
2F3CB
2A000
08AEA
2E2B0
2F380
2BEA2
20AEE
3CEEC
23238
32C02
3A2E0
03EAA
00BF3
2800A
0A2AB
0A08B
3A332
00C8B
303A2
328AE
00AB3
2FA0C
088EC
00C03
0C82C
3CB2C
200EB
0CA8A
202F0
00808
00A0C
0A22A
22E02
2CCE8
2C2C8
33238
2E8A2
30A2E
23ABB
0AE3C
080A0
080BC
0E08C
03E83
300A8
3AC0A
0A0C0
0CAE0
022A0
30CEA
20002
02B82
202E0
08808
32BAA
338F8
222AA
38830
2228E
20F0C
0E832
2CB28
03FEC
2C8AB
2AA2C
08A08
003CC
2B000
0000C
3A0EC
002C3
20C08
28830
2C03A
2288C
2AFB8
2EF00
22BB0
38EE8
2AFB3
3C0BE
0883C
0E328
0EE00
00AC8
2A822
2ABC3
2FA32
0CF82
2BCAA
3FE6E
0C8F2
28FA3
2E80E
08EBC
38AB9
2C86C
3BABB
230F3
200A2
283EC
0DFA2
00B39
3EE88
3308B
3A3A0
338CF
30223
383BC
28ACA
0328C
008B8
0C02A
0F8AE
080BC
0AB23
08303
2EF3A
02220
0CEB3
002B8
2ABB0
0FA00
0ACE3
03088
2F280
2E0A0
0A820
038F2
2C28C
0288B
38AB0
23EA3
0B0A0
2C0B2
323E2
02388
033BE
0026A
2B288
02E3C
2EF2A
20C8C
234B0
28CC0
20AC3
28CF8
2A8CF
02A3C
0B3AC
028E2
022E2
003C0
00C2B
28AAC
083E2
023FC
0282E
0E0E3
23AFA
0BAEB
230BE
3CB8A
230F3
2BF0C
200B0
28C0A
3C8BE
302EE
08A3A
2F2E0
2A8C0
303AB
0BFB2
03303
03308
2CA22
23002
0B82A
0FFBC
03823
3CAC2
33F8B
0C882
0B08C
38A3F
3CC2F
0F00F
0AB08
08882
0008F
0C2EC
0083C
38E0A
282A2
2E00E
2A08E
32F02
280A2
3EC22
28C83
02C08
08AAC
38A03
0C23E
3008B
08080
23B0A
2A8CC
0E202
00A3E
2C8B3
20BA0
000AA
088C3
22A2E
38EFA
082CF
3A822
00BC8
22EA8
0FAF2
0B322
2EAC0
2C802
288FB
30C80
0ACA0
02F8C
3ACC0
20202
23C82
20C32
2C002
088A8
3C282
22C8B
0A228
30AFE
00308
022A0
230A8
2EBCB
2832A
38E2C
02EA2
00AF0
2ABA2
3AA3E
02BAA
220CB
00000
2AC32
000C3
28ADC
300B8
0CAE2
0AEB3
30AE8
08088
08CBC
080AF
200CF
0302E
028AC
0ACA2
02EA2
0C020
2A038
338F0
2C0A2
0CC1C
2E0F0
322B3
3F80C
0AFA3
2EB30
0A0A3
30C38
00880
2AEC3
00E2C
02AA3
3EA23
00E13
0A8A2
02A8C
300EA
0CF8E
0A22C
0CAF8
388C2
38AE8
2FCEE
2A833
2ABE2
08008
23C0A
28F2E
08203
03A38
28AA2
0AE00
2F0F2
2E082
0323A
22E88
2E8C0
20CF0
0AABC
0E803
0A08C
02800
0F88A
33C3C
0A82A
22A82
0BCC0
02F08
08000
2B3E0
080B2
0000B
0A038
30820
20CF0
0082C
02838
020AA
0E88E
00280
32A32
2F088
38002
380A8
00B00
00B8B
3FFC2
0AA8B
3BABD
3A0CC
02CAE
23BBC
30B3B
2D0E8
0380A
0E0CE
2CFF3
32AAE
2C828
283A2
2A0AF
23C8C
0CE8E
038F0
2A8AB
330A2
07328
0AB2A
23BBE
20CCC
0BF2F
0DA23
2823A
20B88
3BA22
23CEC
32A88
3B2BA
2EE8F
0F2CE
02FE0
028AD
2880A
2A028
0322A
2088B
230AC
3F00A
30CC3
203A0
0388F
302BC
3AE82
2382E
382BA
23E82
0A8AF
038AF
0A3A2
02882
2BBB3
3BC20
3AF2B
3CA2A
2FEA3
2C8B0
2AB2E
332FE
2F202
023AB
38B80
20FA3
0038C
03A82
0E8EC
2338A
00BB0
008AB
03B33
201C2
20308
308A8
23CB3
1FBCE
33ACA
30B8B
2C288
30882
348FE
3CF2F
0F230
0ABA3
0FC2C
3838E
082A3
000BC
3A2A2
22AF8
2EEA2
23CB0
2E0AB
22BAF
2E83B
28C2B
2AA00
2083E
3A388
06A22
3B2AB
02CFE
3828F
2E28C
03C22
00E03
0CAEE
2A202
2E8B8
0802C
22E38
0AB2B
3F2FA
2B8A8
2EA2B
200E2
00AF2
3E2AC
33A38
2AAF0
0ABB2
3EE22
0BEA9
02C08
008CC
08C32
0232F
2FA0B
2C323
0AB08
038BA
3A88C
383AB
0EAA0
22EFA
380CB
0FC8B
0222E
38623
2E3A0
08332
03C0C
08CE2
2EC3A
2C02E
2ECB0
2E33B
20BA0
3E800
22C0B
322B3
0F8EC
08F0C
3EA80
20F20
0CFE3
3B08B
0222F
00E22
03AFA
20AEE
0A8F0
2C032
2B02C
2CA08
38820
202F0
28FA0
0AE32
222FE
2EB22
0288A
0220A
0CA30
08802
322E2
08CA8
03EF0
0CB00
03EFE
3AA3E
2F8C8
283FB
00E3A
33FF3
388F0
3E3F2
3EE88
082C2
3F3BC
0EBB8
028AF
2AAAB
0ACB2
022B3
02C3E
00828
008E0
038BA
0880C
022B0
3BA82
0F0F8
2A3A2
2202A
0A23A
20AF3
00AA2
2BA3A
28AC8
220A2
3820E
0A80A
02EFA
2EBC0
28EAA
0AA2B
0EACA
23E00
20B8E
3CA2A
32A82
3C888
3AA88
280F2
00B83
2CAA3
2AAB3
280EA
2E0F0
0EDAB
000A2
00EA8
220A8
3AEA0
3A002
23CEA
3038E
3E8A0
2E0CB
2B2A0
0A2E0
30FA0
08823
2AC20
203EB
200AA
2380E
00822
00A30
002C0
00808
22000
03823
288BC
207FA
00ACA
2828C
023B2
02000
22BAC
3C0C0
22080
3C083
088B8
0E80A
0220B
00008
3EBB2
3F230
31322
3F3F3
328C3
0AFEF
03FB8
30C33
3CB3B
0F220
03BCF
3B33F
3FB80
2FBFC
2EF8B
02C2F
0CE3F
03F8C
0ABBF
3BA3B
3A0A8
3F388
32AC0
2283F
2A2C0
30AEE
238CA
02BFB
00880
2A0F8
20B2E
0FA38
0ECFF
3E8EA
00EB3
00AAB
380B2
0CAB2
223AC
3C303
38828
2AE2C
2303B
22E23
223BC
03C22
2BB23
3AA3A
3A320
2A33E
2CF80
3CE0F
0C30E
00832
2E022
08883
3A3E8
0200A
20C2B
0288A
038C3
3A2BC
0AF32
3C2AB
2B2CC
380B0
020BB
2B08F
2230A
20308
0E2B3
002AA
2A2A2
2E002
2FCEB
203FA
3C23A
20CA2
08EAE
1383A
32283
00223
38280
23208
03E0A
3203B
00AEB
020C0
03000
02FAA
2AAB3
0BF8F
22FEB
22828
0F02B
0CE8E
28FAE
3B2FC
08C3E
323AF
3AAA3
2BEBB
3ACAF
3BC88
0E2E0
08B28
02332
02AA8
0F0AB
08EE0
003F2
3AAA0
3B0BA
0C88A
0FCEE
20C38
22EFE
08222
2C2AC
0C28E
0A22F
0F0EB
00C0A
0BBFA
08828
03232
30380
003BC
3C02E
330CE
30AC0
22CC0
28EEF
00E38
33A00
202F0
0B080
0F3CC
0E8C0
0A33C
20FE3
382AC
03EAC
02FE3
38EB2
2AAC3
3808E
08803
02EA2
208C8
2B3BB
2B02E
28F28
0AC0A
3E0A0
342AA
22038
2EAB2
088E3
0E0B8
08CFA
00E2B
2C82C
3C82F
04882
028E8
2083A
2AEF0
2BF20
206EE
303F8
0088A
23AA2
3E8C2
2A820
0AB8A
00FAB
0CA22
0C80F
02820
2E803
03E8C
0A8A0
0E8EB
2A8E3
2AABE
0B8BA
02A30
3E8FA
308AA
2B8C2
2E33F
2E8A0
0A8A0
2CC2A
22000
0E2C3
02AA2
