2BEBE
22C0F
0200C
00F1A
000CB
3082B
0BCA0
020A0
232BC
1B2F3
0F2FF
00B02
33FC1
322C3
3303B
2CB3C
0DEBF
03CCE
3EA2B
2A203
0C220
0003C
3B360
3AB2C
30C8F
288BB
0BAA8
08FAF
32BBE
0EC0C
30FAC
32C20
3E0FA
020BF
0E78B
20CD0
3B00C
2BCAB
3FB3F
230AA
0B8F2
32F03
03BC8
0000C
3FF2F
0200B
3BEEF
1CE3E
0CBD8
33CF2
3FC0B
33233
23033
33000
02312
0222B
3B30F
0BE03
30FA7
33EB3
37EB8
02A3B
3038A
2803A
32283
00032
00CC3
2000B
20A2C
0F328
2C03E
00000
0B2BF
0CBEA
2F2CB
08B03
30C33
00B83
002C0
0EFBD
302AC
3A338
2B080
3FC3C
00CB0
0E088
0CE23
00000
0BE37
30F30
2EAF0
2230C
320CF
33300
10AE3
23C02
0B7C1
202A7
2BC0B
0BEC8
0FAAC
3BCB0
3CBC0
38FBF
33C12
32B80
02E03
2B39F
23203
00032
032E0
3B808
3CC32
00083
22CCE
2CBCB
3323F
2E0FA
3B2CB
0EB00
2B2F8
0F33B
2EA02
0CBBE
028AC
3333C
208FA
082A3
20FBA
30B38
0FBB2
00023
2A73F
002AC
3C3B0
3A030
0282E
2FC2C
030C1
320B0
0FCFF
3A820
02C22
2CE8C
2BCBC
3C80B
3A8FC
30A21
23AEE
3BAF2
0CC00
08CFC
013FF
00008
388C0
0C8CD
0C02F
30C2C
0B2B8
0F2C8
223CF
03EA3
2B2C0
2CE02
0BA68
08F2F
080C2
2328C
0C108
32AFB
2C388
32CC3
28F23
038C3
3C2B2
0000C
0DAE0
2FFBB
23382
3B53E
3AFFB
0A08E
2A303
0F28B
0AC88
023A0
333EE
3CFC2
36032
020E3
0F0F3
0EB2C
3CBE3
28002
300FE
3FE2A
3832E
00003
020C2
233F0
3A0C8
3CCEB
03042
2A2CC
00F03
3680C
3ECC8
30C83
2CA3B
0A0E4
2C0E3
2C3F8
2BC8C
002E8
0E0BF
0C000
0E8CA
32003
2BF23
0000F
