23E40
002F3
2020F
03828
0BB30
0EBE8
00C2F
3AF8C
086BC
28E24
02032
20330
303E2
3AE03
3F384
2000E
38833
2CB3D
2C446
388A3
0388E
00031
0AB48
0832A
08CC8
08A7B
0B80E
1441F
3338C
3000E
3ED03
08EAB
0C832
20030
0E8A0
23F08
2328C
08024
330B3
03CC7
0CAC8
02020
0F0C0
00028
33CE0
3E30B
3FE00
0D283
3EBE0
0CC00
330FA
0B2F8
03BFE
0A8A0
0802A
0DACC
08026
20FA3
3E3CB
00033
34038
2CAC3
3BC43
02CC3
0EBA3
00030
328E8
028C9
3FB8E
2E008
02E31
002F2
23A7C
0CBCA
008E3
03BA0
30CBF
0FC88
02228
0CC7E
3820E
3803E
08A3A
0323F
0AC70
32832
0F28C
00002
246FB
232B8
2CAC4
2217E
212BE
1FFC0
238EE
23063
23BC7
29068
00FCB
13908
03CDC
34280
31304
30320
3B202
35BAF
22C83
2339C
2CCF3
00032
286FC
02422
3E3CC
0EC73
08F0E
13020
0301F
3ACF8
038E8
2008B
0023A
3BF08
327E2
0C37E
31E80
38232
1F486
32283
08CB7
318C0
3F3B0
0001F
07B3E
028A2
08E0C
3BAA8
304CE
20EFB
24F4D
3233D
0CCCC
0AE8C
2ACF2
22E38
24FA8
3F88F
32E8C
38208
08D2A
3A12D
2FCA7
29C20
02462
00038
3B8F7
214CE
2E308
33C8E
3B0BA
3FAE8
2B83C
230EB
006CA
2026D
2C220
0380C
3AADA
03A7C
2E086
08332
2FB30
09229
28C8F
0BA30
0F842
00028
05808
23FBB
08F88
3BA08
2740B
326B0
020AB
0CA33
25C06
22E5F
3B0C1
0DFCC
22688
0AE02
33A0B
10B20
3C800
022AE
028C0
0E228
3CB82
0003F
28B9A
02C00
230CB
06C0B
004B1
1AADA
00F00
388A0
3EC00
0BF03
300F2
01ACC
23AA0
2FAF8
1B283
28118
0C8B0
3E334
2080A
3382B
03E3C
0000F
