0000003B
0000008A
00000140
000000B8
FFFFFF80
00000083
FFFFFFAA
0000016A
00000066
00000090
FFFFFFE0
FFFFFEA6
FFFFFDF8
0000004F
0000011B
00000261
FFFFFF6A
FFFFFFB8
FFFFFFD5
00000040
FFFFFF0C
00000041
FFFFFFFB
FFFFFF90
0000009B
FFFFFEC5
00000162
FFFFFFC3
FFFFFFAF
FFFFFFE7
0000007B
FFFFFFB6
FFFFFD47
FFFFFC89
FFFFFF9A
00000104
00000151
FFFFFE9B
FFFFFF28
00000056
FFFFFE9A
0000019C
00000116
000000D5
FFFFFFF0
FFFFFFA3
FFFFFFA8
000000DE
00000080
000000A8
00000008
00000095
FFFFFFFF
00000054
FFFFFF5C
00000153
000000D4
FFFFFFC9
000000D2
00000000
00000083
00000012
00000166
00000027
0000003C
FFFFFF2F
000000F0
0000001D
FFFFFF9F
FFFFFDF4
000000C5
FFFFFDCC
0000005B
000000F5
FFFFFF89
FFFFFFB6
000000ED
0000015B
0000000B
0000007A
FFFFFFCC
FFFFFEE8
FFFFFF8A
FFFFFC6A
00000024
FFFFFFF7
00000056
000000BA
FFFFFFF8
FFFFFFE3
00000034
FFFFFFF9
00000042
000000D8
FFFFFFB6
000000FC
FFFFFFCA
000000DC
00000056
0000008F
0000000D
FFFFFF99
00000087
0000007A
00000182
00000131
000000BB
000000B5
00000122
00000040
000000E4
00000178
0000003F
000000C4
00000010
FFFFFEDA
00000039
000002BE
000000F1
FFFFFE9C
FFFFFEC5
0000002F
FFFFFFAB
FFFFFEDC
FFFFFF8C
00000040
FFFFFF37
00000188
00000037
00000127
00000030
0000004C
FFFFFF76
000000AF
FFFFFFDB
0000007F
FFFFFEB3
00000011
FFFFFFC1
00000024
00000008
000000A0
0000001F
0000004B
0000017A
0000007D
FFFFFFEA
FFFFFEBF
00000084
0000003E
FFFFFFD5
FFFFFF7D
FFFFFFF3
FFFFFFB4
FFFFFF88
000000C4
FFFFFFB3
0000013C
00000015
00000026
