2AA28
20AB0
3A300
283BE
0B882
003B2
2CC00
3AC83
2ABC0
0A888
00282
0CA2B
00E2B
02F20
2E020
2E8C2
2C80C
32880
3B0F2
0FA8E
28E80
00AC0
20382
0242B
28EBA
000CA
3E2B2
0A00F
00A62
082AE
08E8E
0B2FB
0002B
3AB8A
08E88
330A8
082AB
2028C
2ABEB
030A0
0232E
0EA08
28EFB
0020B
00000
23000
00000
00200
00000
0C000
00000
00000
00080
00020
0000A
33028
3FBC2
33823
3AA0E
3FCCC
2CC12
2288C
02F3C
000AF
28BAA
00F2A
23300
03FE2
0F88E
3AA2A
22C23
22EA2
232C0
2E80E
0C028
00B28
000AA
3EA0A
3FE0E
3A8BF
2B202
2B800
0E3E2
0E3BC
033C3
200E8
282AA
00882
33AAB
33CE0
33330
3EAE0
22ECC
2A2D2
2C800
03E3E
30EA0
38E02
00F20
0CBBA
088B2
09C83
0F2FC
33338
3C33C
23F03
0030B
2A2EF
22ACA
0087E
22283
022B8
08202
20008
0EA22
200C8
222AA
0820A
0CC3A
22ECE
0020B
022EC
0CCC3
3CBAE
3E86C
083C8
0CB22
0CE6F
387EC
3CA8C
38ECC
00328
32C0C
00EBC
002F8
3E0A3
0B82F
03F02
323E0
0C0EF
30000
303EA
008CC
232AB
22A2B
22C2A
2C000
0CB82
328CB
2000A
38302
0ECB2
0AEB3
00ECB
02ACF
2A80C
00EC0
08000
208A0
038B8
083AA
2CC82
20202
3E1FA
00280
0B86B
186B8
22082
020F2
30B02
3D8BB
20238
38E8E
230F3
0CEBB
00E3B
3B226
2B200
3030C
2A0BE
23A3C
2E808
3FA23
02C0E
032AE
22A83
00AFE
38EAA
23C33
02880
0E2F0
3EBC8
3FFAA
0883B
03CB3
2EBCC
2BBAA
0030F
3EE0B
3C322
09023
083BE
2BF0E
0E3CE
08F3E
0B3E0
22BBA
0AFAA
0008A
32831
3BFF0
0E3BF
3E2AF
0B838
2CB02
0AC3F
3CB83
2E0CF
2EBEA
00A4D
3088E
3BEF0
2EF83
0FCAF
03A00
0AB82
28F2C
08BCF
2C0F0
3E8E2
00ABE
0080E
2040C
030C0
08208
03080
2B3BE
302A3
2E0AE
0AA02
0CA28
0028C
00000
00000
00000
00000
00000
00000
00000
00000
00000
00000
00000
0CC88
2CA0F
02A30
028F2
00600
0F8F3
3EB83
3B203
3882E
230C0
00BE0
383CA
233C2
3E323
2AA83
0BE88
2BC2A
0C0DC
0EC8C
22A20
2ABAA
0088E
2CC2F
2060B
33808
0F2C2
3F3B0
38C32
2C0B3
0F238
3ACB2
332C0
00FC3
0282A
3CE8E
02880
2803E
0BE00
0A0A0
1B2FC
23C32
22B2B
22BAA
003AA
30822
38CE8
3C3B0
2FAE8
208E8
2A8E0
3038B
00230
0EE8A
3BE3A
002E8
3383E
3F3EE
0F300
3BAEE
3EC33
23EE1
200B0
03230
28E00
3882A
00382
08C2A
23F08
00308
02ACA
38F08
0BEE2
00ABA
2BEB8
0A860
0B8AA
003EC
2202C
22AAB
23ACE
228C8
3EAE8
3B220
0AA3A
32A88
0333C
0F08B
000A3
00C28
008CC
00302
0CA22
38C88
08F8E
2A8A3
2B2B0
0AEA2
08A0A
003E0
3FC28
3CFF3
08EAA
3CC83
0F3BB
0AF0A
30F18
38AB0
3E33C
33CE3
003F3
3322B
33CE3
3FF30
3CFAE
2B33C
20B38
2FCEF
2CFFF
33BA8
0E38C
00FF2
0222E
2E63C
0FCC0
0ECAC
2383E
2FBB8
0FEAB
02F2C
2BAB2
3EACF
00E3F
3B8BA
33CF2
02343
08A22
30C00
010A2
2B83C
0BCF2
222E3
28BA8
0088A
288A8
286F2
0EF00
00EC2
30FB0
3A002
230E0
0BE32
2A020
088E8
00088
30E22
20A30
33F08
20FF2
03482
32BFB
32B88
333B0
33CB2
0F23F
000C0
383AB
3BC82
30EFB
220EB
1832F
0B2F7
03CDA
2CF2F
030E7
2C83E
00E0C
2808D
22A28
23082
00EC8
3EA38
0AA83
280B0
08A0A
30EBE
3CA0F
00EFB
03F23
30FAA
0020A
2830F
2AF2C
22203
2C8C0
0A3EA
0F30B
22F3F
002C8
3AC20
3F8AC
28AC3
222C2
0A220
0FEEA
0A8B0
03E2B
0B8A0
283A1
00020
002BE
28AC8
2200F
22B30
006F2
0C8B3
2C0A3
38800
232BE
0E2BF
00A08
208CB
0E0CE
3ABC0
28ABE
3FCB8
2F00E
0CA00
0CABA
22CAC
2AB8B
00B8E
2B8FE
383E8
0F3FC
03AE3
22CCF
2AAAE
223BC
03BFA
0FE8E
3020A
00B0A
380BE
0BE3A
2AF83
2EEF3
0C8B8
3A0BB
23BF0
33AB8
2E0FF
3B0F3
00A0B
0EEA3
2028A
22E20
23EC0
0A38A
300A2
2A388
08DB0
22CB2
38CE2
002EB
380C9
3BCC2
3038F
222AB
20EF8
2C888
2CAAB
02800
23AEA
2BA08
00A8C
200A3
20AC0
2EEA0
323BE
3B3B2
0E082
13CEF
3AC02
288B3
3202F
00EB8
3CCAB
2BAB8
0A0C8
22FF2
33B8C
3A2C8
2C3A2
2BCB3
22B88
2AF82
00AA2
30C8A
0F303
38EA3
3E3E8
3EE0B
0CEA2
00A88
28EBF
38C20
3782A
00FEF
28B8A
03802
08083
0BAE2
03C30
3E0B2
2FEC0
238AE
28EC3
0040B
00EB2
20EAF
1BAC3
23A8A
200C2
3BBBE
30B30
0A3A0
3BEAC
38CBC
3BE8F
00CCB
2CE1B
2EAEB
0EBEC
220FD
38B0A
0BCCE
2F8B0
33E30
22062
2ACA3
00CEB
1B223
22E23
0C0CA
00EAB
22A88
08EA8
0F8EB
22ABA
0E3B8
3333F
00CE3
28802
18A82
0F0F0
2A228
0EA28
0A088
23AC8
2AEAE
00BE2
3FB33
002C3
3022E
3FE02
33AA3
3AA8A
2B8E0
200E8
3230C
20823
3883B
2EB22
0000E
20FEC
0000E
33AC2
0BAA8
2BF20
030BE
08EE2
2FCEE
00228
0EAE0
00E3C
0808A
20EE3
32080
008C2
08838
020E0
00020
0B830
328A0
28B80
00800
00000
00000
00000
00000
00000
00000
00000
00000
00000
00000
00000
2B8FC
00022
23CCF
2BA8E
30E3C
3B2FF
2A280
3E2AA
22E22
2EA0B
0028C
0808C
30FAB
28228
030CA
30C28
0AEAA
2000A
20C32
02F88
3B038
00CEB
30C2B
38AA0
2ABCB
223FE
23C2C
3B0EA
2EBA2
2BCB3
088A8
28C8A
000A0
3A0A2
33EC2
3E380
2808C
2B022
2202A
20FEF
2AFEC
230CB
0C322
00ABA
2B832
32E8A
0328A
088C2
02028
0A28B
200FA
03A02
00C28
2080A
00EAB
2E008
2E8FE
0EC0C
2EB0E
0B3F8
2C3B0
302B3
33AE8
20AE0
2238B
00832
13303
390E0
0BAFE
388A0
22CB0
202AE
232E0
08A2A
2E0B2
3AE0B
00EFB
0CE2B
2C212
388CE
22F0E
0800E
03C2E
20AF8
30E20
2334A
08FB3
00E2B
30222
3BA3E
33AAB
2F02B
2300C
3ABFA
02FA0
20F0F
32ECA
33A02
00BCC
200F0
02C80
03AFC
38888
2AB83
03FF0
3EFC8
3EAE8
3F000
0C30C
00FCC
303A8
30032
2A3BB
0B8E0
03FBA
0AC82
230B3
0BC3A
2228B
3A2A8
00CBA
38382
0B3C8
2EC40
3CC83
0CCF8
22EBB
23C03
0200C
330EB
0F03C
0020B
230AB
20A2B
323AA
2AA82
30AB2
28222
00AA0
22A3A
2A88E
022BC
008CB
0332A
28633
0ACCC
3EEB0
2EAB2
000B0
3F0A0
0028C
222F2
3AAFB
00A0C
38802
330B1
0233B
2B0AC
2B3A2
20332
00FCC
0FFEC
208EB
2EB02
0027E
2BBFA
22AF0
0303C
082F8
0EAF0
3E88B
3CAF3
3CABB
0B0EF
20B0A
00820
3288A
30C02
3ECAC
0A0A3
1A0E2
22A28
2008F
083EC
2FA2A
20208
0020B
3883D
0BAC8
03380
020C0
23232
2088B
2F0A3
22BAE
002E8
22A00
000BA
30880
33CB8
083AB
03A8B
00280
26BE8
02B22
28F3F
3E0A8
2BC2A
00BF0
30AA3
0B2BE
38280
0EFE2
23822
0E008
3CF23
2BCCC
0002B
000C2
00222
0C080
380C8
2DFBB
00F3E
0BFB2
3208E
2AF80
30C0A
12330
0E0EC
0028A
20ACF
3EAC0
0F380
0B3C0
208F3
0A8C3
030BE
034CA
38282
2C18C
0088C
202AC
08ECA
2EF83
02A2F
030C0
2208E
23CFF
3F3C2
2C833
3EF0F
00E8A
3EC2B
33C80
2E200
3F30E
33F0C
30F3E
02F30
33FCF
3CF00
08F82
00CCA
3282A
33FE2
0EB33
28A2C
33CF0
2002E
2288C
00FF8
20082
0AA9A
000A2
23C2B
2A20B
30FFA
22C00
038B8
3BB38
2F32B
02EB0
3EB02
08C3B
002F3
22BCE
30BCE
3F22C
3AAA0
3CFC8
2FF3E
00CAC
020EE
2AACF
006E8
000BE
203B2
023F3
228AF
3E233
3C03B
023A2
2801C
3AAB8
0E33F
0B2CB
00B00
088C8
00EEE
3F3EC
2228E
282F0
0C02A
32A83
0C823
022A0
2A0AA
00882
1B0E3
2EA22
033C2
283C2
28B0C
33B3C
0320C
2F82A
04288
0E203
00200
08ACC
33BEA
03820
38832
300FC
02212
22282
0802E
3B283
3E2CC
00C28
32F2A
0B2F2
02FC8
0EE23
2B0A8
0BC88
030E0
0EC8C
0E8EB
008CE
00282
02A0E
20EA8
0BEC0
2A3E8
22A20
02223
028CA
23021
3FC88
2EC30
00E2B
30A20
080E0
33AA0
08CCA
208C2
22A20
308A0
28C00
0B282
03D8E
0008B
23308
2882E
03BCC
238EE
0830E
3FCBE
03830
3F0EA
2222B
2AAB8
002BE
0008A
02C03
22B00
2283B
022E2
0EE2A
208CA
08FF3
2EBA3
28F0A
000A3
3F3CA
0BEFB
32338
0F8E0
2CFB8
0083E
0CB43
3FC38
02EAE
08208
00A0E
30BA2
003FB
33328
02AAB
222B8
2B0E2
0EBA0
22AB8
3E2AC
0B82A
00B0E
00CAA
23CB3
2280A
0E0C0
0EAAA
2B202
08B0A
28E33
00820
033BA
00B2F
002EA
20623
333F0
002C8
22A0C
23AE3
3F883
0CE02
3A082
0B23C
003E3
23E2B
2F280
3B3F0
283CE
2862C
03E33
3F038
03C2C
230AA
2AFB3
00223
2823E
20AC8
2EB00
2A3FC
088C2
0E83B
2CE03
3382A
23000
2E83F
00E88
28A82
282C8
223A0
20CF0
30A3A
32080
238F0
3BA32
2C3BC
2E003
00288
0A2C2
2F802
3AA2C
00B82
280E2
20220
0E88F
02020
2A082
2A202
00800
30A83
00AF3
22003
00CBC
2B802
327BC
08FBC
03000
22CBE
3EDE0
00A8A
2832A
03BE8
03FFE
322E0
2EEC3
2CEA2
03A08
228CE
2F28B
3B80B
00F0B
088BA
2BA38
22C88
2A30C
00A80
028BB
2CC0B
0B3AE
288E0
2E833
00288
20C88
2AEC2
000CC
0A38C
28200
2FCAC
2F0F3
30422
2380A
0EF83
002B8
30E9A
2FAC2
32020
3E800
28800
2CC28
2FA30
2AE8C
2B8AA
03F02
00CCB
2C3A8
2BA33
21C3C
2C3CE
0BBBA
3FF72
28C33
3BC3E
1E080
3220B
00E7C
008EB
20AF2
3E803
283BE
3B800
0C8F3
3CAAC
02823
0388A
2828B
0003A
3FABB
0028B
3900B
20FFE
23600
328F3
0F300
3B30B
20302
22EB0
0080A
22EBF
2EA20
0CAA0
038B2
33B38
02232
0AA32
388AB
0BBBE
0FC23
000CB
28C08
2EA03
02BCC
0C83E
3883A
0F0B8
0CA83
00A08
288AE
2838B
00AAF
28C0A
2E22B
03082
220FA
0063A
230FB
03A00
00883
3300E
0083F
008FB
08332
0BFC8
3E33C
32FB3
222C8
08A2B
3CE80
32BA2
00AE2
008BC
00A08
0B0A2
3BCEB
2108C
3C02B
22200
21EA2
20308
0883E
20080
3BE08
000CB
0CB89
380C8
2ACA3
2022E
03C3A
2E3AE
2037C
08FE2
289CE
0292B
00880
2CC2B
3E2EF
3230C
028CE
00030
2E82E
00AB0
03AF2
0806E
07E8A
0032B
2802E
208E8
033B2
3032B
02033
28E2B
338C8
0AA82
330C0
3F83F
003CB
3CEF3
3F2BB
2A02B
2FC32
33AB0
360C2
0C32E
30EBB
3A3BF
22FA2
00B0E
0B0A0
28AEB
00F82
3E2CA
02B00
3AEA8
2FAC3
28C3E
30C80
3BC03
00FC7
2C382
0AEC2
0EB8C
382C2
08338
20F80
2F0CF
038CA
20303
02B23
002B2
3A8FA
230F3
32320
2F2F0
33338
323C0
0FF80
328BF
3ACCF
2880A
00B02
20BA8
303EE
3E32E
28880
08CCE
200A2
20C20
020E2
220A2
080A8
00CB2
08B32
088BA
2AEBE
0B2C8
228EB
028B0
000B0
2C202
28EC0
2C6FB
00EBB
20C03
020EB
3C002
30BBE
30AF8
2002B
0FAEF
32628
3C8BC
08F8F
00BCB
380AA
2F200
32202
02BFA
02A00
3E28B
0F6CB
08E8C
2FBA0
2BFB8
000EB
3B0AA
3B2E0
3FF83
0CAE8
2EE08
22E28
0F808
22230
0AFE8
2883A
0022B
38A8E
00A00
2BF0B
0C008
03AA2
2A800
03083
208BA
30C82
38ACE
00000
283A0
088A3
2BABE
3AA89
08FB0
2A2AE
088C0
022C2
2838B
308AF
00C0B
083A9
3B0FA
3AF88
3F223
0CFB8
0AEA0
23C00
0A2B2
2AEC0
3BACB
00F37
288FE
208EA
3FBFC
28202
2A8CC
2BAF3
0CE08
2EB2E
0B2E0
2CA30
002A0
3CE83
0F003
22E20
2CEF2
308B0
28B2E
22362
3BCB3
32E8E
2AE88
00BC3
330B2
30EB8
2ECB0
2ECFB
2C6F8
328B3
23B00
38328
0C8EE
2C83F
00AB8
280CC
2042B
030CE
000E8
2EACC
23223
00A38
02E8E
0BE0A
330F3
00EEB
3BC23
0F8E0
00328
0F000
330BB
2BE2A
2F020
08EBF
3A3B2
333CC
003E3
38832
082F2
22023
02080
0FAF8
22800
0000C
08388
230C0
2E822
00782
32E3E
2F802
2EB0F
3E0F2
0A0C8
2CC2A
2AAB8
0828F
0BA8F
003A2
00F28
238C0
0EC22
3FECC
02000
2AAC0
2F283
3C0F0
3C8EA
2BA2A
2CB00
00E80
0B82B
28EC2
3FB00
0C2AF
22AA0
288BA
032AC
3E0B2
2E28A
08E3B
00002
28BBA
208C2
2C0BE
322E8
0E03B
21CA8
2FAF0
02ABE
20CEB
2F7CB
00E0B
28CA2
20EA8
23E8E
3EE28
228C8
28EA8
280C8
388E2
0FAB8
33B33
00033
280FA
338E3
030FE
028C8
02EC3
2BE20
23AB8
0222E
03020
2B8B3
00CEB
08BFE
30222
0BEC3
28A20
0E2FF
08A2F
3AA80
0E822
00220
30AC2
00082
38209
3CECB
00088
0E0F3
2E503
22AEB
33B28
008B3
30C2E
030FF
00BEB
0C82B
32E00
3232F
2E00C
0BF0A
00B32
3E880
30200
2E28E
2AEAA
0088E
08BBE
08C3A
1ECB0
3CE2B
2CAFB
08C8B
2BC00
32B8C
23EC0
2FBF3
00AB3
0AE8A
2C8C0
20A00
32032
33A33
2CC88
238E3
20283
07B2B
20BB0
00302
3A2C2
3C883
0FB33
220F2
206C0
00AC3
308B3
0C083
3881C
28EBA
00BEE
3BAC8
03EC0
3E30B
220B0
00800
388C0
0EBA0
302B8
22A8E
0AE02
00AB2
38A3D
3B3E2
0E37C
3C2E8
3ECC3
2229A
200BB
3003E
2C2E0
3B8C8
00CA8
2330A
3AF80
200C8
3CA2B
0EF0B
0BE00
00800
3CA88
0C00C
0B888
0088F
2BB3E
30022
2F3C0
0B2A0
20220
2AAAC
2EC0E
2283A
002C3
008C2
002BA
20832
082E2
00002
23000
08B00
20020
0000F
00808
0030F
2A02C
00A02
388E0
2020D
33BC8
08BE2
2BC0E
202B0
0CA23
2CC0A
00AA8
2AA88
002B2
2E800
32FF3
3C0AE
3EAAF
2E20B
2A022
30028
33800
2EAA0
3830A
003B2
2CA2F
22EAB
0FF20
283E0
22A2E
2A8EF
0FBE0
3B8CA
3F372
0CCBF
002CB
3A8F1
333CA
3F3BF
3EA03
3C2C3
22ACB
32AA0
0EB2F
33AEF
03A02
00B0E
3F02B
20022
02002
0082A
2A38F
0ACA0
0803C
20EFA
200A8
20C28
0003C
