0000002D
00000218
FFFFFF5C
00000003
000000E0
000000B9
FFFFFFC7
FFFFFEDE
000000A4
FFFFFFB7
00000107
FFFFFFB6
00000090
FFFFFE72
00000039
FFFFFFAC
000000B5
000001AE
000001F2
00000033
0000015F
FFFFFF42
FFFFFFD2
000001AA
0000001F
00000070
FFFFFFEA
FFFFFFEE
000001DE
000000FD
000000AE
00000074
FFFFFFD6
0000007C
000000E9
00000012
FFFFFF97
000000B1
FFFFFE91
00000078
FFFFFF0E
FFFFFF13
FFFFFFE2
FFFFFFED
FFFFFE99
000000B4
00000164
FFFFFEF5
FFFFFEB3
FFFFFFF5
000000C2
00000173
000000B9
FFFFFF64
000000D0
FFFFFEF8
FFFFFEB8
FFFFFFD4
00000057
0000009B
FFFFFF18
0000000C
000000EB
00000108
FFFFFFEE
FFFFFFED
FFFFFD16
00000132
000000A3
FFFFFFFB
00000034
00000030
FFFFFF99
0000015A
FFFFFFF5
000000A9
00000044
00000014
00000016
000000B4
0000014B
FFFFFEF8
FFFFFFAD
0000003B
FFFFFFF3
000000FB
00000069
0000004F
000000B7
FFFFFEC9
000002ED
00000063
0000014E
0000005F
00000079
0000008E
