2203C
3E3E8
2A23F
333E3
3CFAA
3FA0B
38CE8
030C3
0A200
3CCFF
00300
3CFFF
2B23F
2A28A
2B8CF
0388A
03A2A
0AE3A
0022A
2A2B8
00B3B
0A33F
0A28A
00CC0
0320E
23AAA
088BC
008A2
30330
22083
028A3
082B0
020AC
02CBC
38E08
3C2BF
0FF3E
3F88E
0FA03
0B0BC
083CC
080EA
2B2BA
30F30
0F028
0C3C0
3FCA8
30288
08A3B
0A23A
0B2EA
28080
2EBBF
220A2
3FAA8
22333
28883
0FB2B
328AE
0AA88
28A8A
0FA2A
08A30
22030
008FF
0020A
22288
23A22
002AE
0FA2B
03AB3
3F0C0
08A0B
3C330
08AA8
03800
0CCA2
0B2F3
2A2CB
2AAAA
008E8
200CB
02CBF
3038A
03F23
20880
0A820
20F3C
2C380
38B2C
0F0AA
3FA28
302F3
3F0F3
2B0A2
3FAC3
08232
30BAA
083BE
233F3
0F0E8
2303C
0AAAA
08AAA
3CA03
3033C
0FEC8
03ABC
00CE8
3028B
2FB28
33FCB
33AA8
28A8A
238A0
0FEF0
20AA2
2BABA
2AAF3
2382B
02833
02AA2
2AA28
2BEFF
302BE
2FFFF
3800A
3F38C
28333
32F3F
2A232
0C3CF
0A2A0
08800
000C0
0F3CC
0CE33
3BAE3
23C02
003AC
00F00
080CF
0080C
28AB3
3C3B2
0033C
220E8
38A82
0CABF
33BF0
0208C
0AC3F
0B32C
283BF
30C0B
3A030
0BAB3
33FFE
28A33
0FAA8
00AA8
0B88A
2AA83
08FFC
2B3B2
0B28A
0BCC3
0BCBC
0C3BE
0AAAC
0AF00
03EB8
30088
02C82
0A2AA
082B0
03820
0FFCC
0303F
3FB8E
28033
33CA8
2083C
0880B
382AA
30FFF
33C2A
08288
28CBF
0E00C
0FFFB
00000
223E3
20022
2AA80
0F0C3
22CEA
2CCC3
2CFCC
0EFA0
0EBAE
0EFEE
0C000
2F303
0CFFF
0C8E0
03832
2B00E
2FF0E
000EB
0002A
00FE2
2E02A
2CFCC
222A2
2E0E3
2A828
28BCC
3E2AA
3C0AA
3FFEE
0F3EA
2CBAA
0AFFC
223EC
2C0A2
302A8
3CF2A
280A2
3F0EA
003FF
3FF22
3EAAA
3F32E
203E3
3FCB0
0EF00
0C3AE
2CCEC
0CE0A
22008
032CF
23F28
3FCAA
2ABAC
3CBE3
20FC0
3032A
323A8
2F3C3
2CBAC
0382A
283EF
0FFCB
3C3AC
3FFA2
3C0AA
30CCC
3FF02
300A8
00322
2C3CF
2C3FF
28BCF
30B28
2E828
3C00B
33C3F
3CEAA
20FF0
330A0
2A3EF
3ECA2
2F0EA
0EC8C
0CBA2
20FCC
3F03F
22B22
3E2AA
02820
280F0
2C8A0
0CBAA
3F3EA
3F00C
02808
28F23
2AA03
00220
22AAA
3CC2A
023AA
2AF22
2B8FF
0332B
3233C
0E328
3C0E8
0EC22
2F802
0CBE2
303CF
00280
2C3E8
2A0EF
2EBAA
3FF2A
283E3
2A020
22020
233C8
233AE
3C32A
228AC
3F32A
28AA8
0EF02
003C2
0FC28
2ABCC
228A2
2832A
0F02A
0E082
000AA
03C00
0E89A
2C023
3323C
3EB9A
0E328
0EBAA
0F308
3FAAC
30C2A
20AE0
0FF2A
2F3E8
3FEFF
2CCE8
3F89A
2C82E
3F3EA
08C28
02A28
22CFF
22820
02292
3002A
00822
00CFF
3C022
33FC0
3F82A
22B28
3C0AA
00800
0E3E8
0282A
0202A
02320
0FFEE
2B3F3
333CC
0CC28
3F228
0CA2A
3CF0A
203A2
0F3E0
0C3E8
3E0A2
2BCE8
0CAAA
2C8AA
20EA0
3032A
228A0
220A2
02F29
2E3EA
0CF28
00000
3CC8A
2A0B3
03C02
32F8F
2E28A
0CB8C
3AA33
2C032
0CAA3
28CFC
0F33C
2C00C
3FCC3
0F8CA
3FB2F
0FBF0
3E283
2AA8A
20AAA
3F0AA
20AB2
30800
2B220
08AB0
23080
0F030
2C8A2
3003C
23A3F
3F8AA
23A82
00FFF
3FE89
23A0E
30F03
28A22
0FCFC
0FF3E
30CB0
0FEFE
2C8AA
2B800
23808
2B000
32FBF
0A83F
3C8B3
38288
22C00
2F8EA
3CA3F
0F032
3FC8A
0220A
3E200
2F83F
20AA8
3EFFF
2028E
3A32F
0F0E8
32CFF
3E80F
2BAB3
3E0B3
0FF03
0302A
08082
32F82
02C2C
3F228
3FCFF
238AC
28A8A
3C3E3
2F88E
22882
022B0
2A33B
0C0CF
3EFFF
03ABE
23E23
2AAA8
022AE
2A8EA
3FCAA
2A0B3
3F30F
3C0CB
2A8BC
2A8FF
3F080
0803F
0C3C3
20C0C
30C0A
02CC3
23220
2AA8B
3AC3F
3000C
3FA2A
3E208
2C880
22E88
03082
233FF
038F0
2F32A
0F0C0
0F3F3
328C3
2F3C0
00AA2
082B0
33CB8
032A8
2A8B0
3E3FF
00BFF
2F082
203A0
3B2A3
280BA
2323F
23CFF
28388
3C8EF
2E83A
08A20
0FBF2
280AA
3FEAA
0F00C
2F33F
3EF8C
22300
200BC
3BCC3
2AABF
3C32A
300AA
0F300
23E22
03FF3
0A0BE
3A38A
28ABC
0303C
20AA9
3F002
3FF0F
00382
338C3
3FC0A
3FF32
22A8C
3080A
00003
0330F
008CC
0C033
3F03E
0F2CC
3303F
00A3F
2FEB2
2BA20
28AAA
288B8
3F3F3
3E283
030E8
0F3AA
0F3C0
22288
2AABC
0BCF0
03CBC
2082A
0AFFF
0F092
0CBC0
08C0F
033CC
020BF
32F83
02CAA
28F00
0F8FA
00000
3CA00
28832
2E3C3
3F000
0A083
2202B
0AA8A
3F08C
2AAAA
33020
0F0B0
02E20
30330
0C30C
3C3CB
2A23F
2AAC0
03AFA
20882
2A38F
2C82A
00FE0
00A8C
208F2
303CC
2383E
2A082
3F322
3F3CF
2A32E
00822
2203F
0A0CF
20A20
08FCC
0F00A
080F3
0FF3F
3EFFF
02C2C
20BAA
02830
08AAA
2AAA8
338A2
02BF0
0FABF
0AA82
200CB
22800
338C2
0FBEE
200A8
0B880
2A880
32FAB
22AAA
2A0E3
280EF
3C8CC
228AA
002E8
22B2A
3CF00
203C0
0AC3C
2F800
00C00
20A20
0A0CF
0EFC3
3C3F3
280AA
00332
08BB3
0FFFF
2A8FA
2ACAA
2A080
088AA
3CF32
2F3FA
0A223
280A2
02A80
0003F
2AF00
2CC88
0CC3E
0BBEB
2000E
0A3FF
22BA0
02838
30803
3CFFF
0EC20
0F3C0
0E223
032F8
3CCF3
203EA
2AA8C
0880A
2AFF3
2BB82
3F320
3F03C
2FBC0
20B23
02388
0FC0F
2280A
28222
2C322
200E8
22FC3
2CA2A
28B32
080E3
2A000
2203E
23C33
2AAA8
0ACC8
03330
32CFC
2C002
2A880
28A22
0C3C8
0FBE8
2BCC8
33020
0C000
08380
208CC
0CFFF
02C80
00000
22330
0C8A8
0A320
20003
0E2A0
02CBB
20082
02F33
02380
0020E
28AE2
3F3C0
30FF3
08F0C
3CA38
2C02F
00F03
2EC02
23B02
03C3F
3FC3E
320F3
3F0E0
283AC
0CFF0
300B3
2A080
2C303
223C8
2A08A
03AE0
0AFFF
3A3FF
0F200
3F00F
0C0A0
0C800
28A82
3F0C2
32CF0
0F002
002CF
228E0
0F0CB
0C323
282AA
22A8C
08CCE
3F200
2082A
3F3CA
00000
0AC8A
30CE2
2232F
02BE3
283CC
2F3E0
3E302
203C0
32C3C
0F3E8
20CF0
0FFFF
0CF00
380AA
3F3F0
0BCC0
28800
0E28A
30EC8
00822
0A28A
3C28A
0802A
3AEBA
38C30
2ABEC
08282
203EF
20FC0
0023E
3A03C
283E3
2082A
3AC8C
238C8
3CC08
38C32
0F03E
238C0
23002
00A00
08032
2A0CC
03AEC
300CC
3338A
20AE0
328A2
2FBE8
08CFB
3E02A
3A28A
08CBE
02CA2
208E0
03F38
32E3C
3E000
320B0
022AB
2A03A
03C03
30C0A
3FC30
32AAA
23F00
02800
2A8CA
23302
2F800
0F3F0
2FBEC
3F3F3
032BE
0088A
2FBAA
2A2B0
00A2F
08A8A
23B20
2CFF8
02AAA
0A33E
33232
3FF38
3F30A
0C002
3A08A
003CA
0FC8A
3A2FF
32308
2AFEA
22BCC
3AEF8
2F828
32CBA
00EA8
2A22A
203C3
0B032
00328
0F028
0AAAA
28A28
0200E
22B00
2BBCA
3E20B
0CFC0
2FC30
3F838
0202E
28BC2
30FFC
0BCF0
2AA82
002EA
2CBE3
3228A
3FE3E
3A082
203E3
30CCC
3AC0E
3AE3E
23FF8
28E82
3CC30
38EB2
23BE3
3CEAA
0F82A
30C80
00000
2B3FE
323A2
0FBE2
0BCB2
28C03
3BFFC
20F28
0EC2B
23CCA
08C3F
3BC32
0AAAA
20328
3003E
283EE
3AEB2
3AC8A
20A8E
20BC0
00C2A
3AC8A
2003E
0F0C2
2F3CF
28BE3
0A8CA
0AB02
0AFEA
30C30
2823E
2A330
32FB0
3BEBE
282FE
02C32
233E3
3F38A
03802
22000
0FBE2
0B2B8
20C2C
3AE82
22FEF
2ACB2
08C20
30880
33022
0EC08
0F8C2
22AA0
222E3
283E0
2A2AA
330C2
33EFA
00000
2ABE0
28A20
030CA
2A3CF
23F2E
23FF3
0A8C0
0AFEA
30C3B
3FCEA
203FF
023E3
0033C
2C82A
3EC00
3FFA2
20F0C
2A882
0BBC3
3F2AA
28238
3F0B8
28C20
2A33F
238CB
2A32F
0AA88
20BC8
3FF00
3FC22
0B0F8
0CFEE
3FAAA
38E33
02C0E
3CF0A
2BCF8
3F0FA
0A02A
2B8EA
2220B
0ACEA
23BEF
3E0A2
2E08A
3FE8A
003AC
0A0B0
0F332
23B0F
2B0C3
2AE8A
030CB
22FC0
20A22
082E8
238AF
02003
3820E
32282
28BEF
20BCC
020CF
30F3C
0288A
2CF2A
3FFB2
022CC
3C0AA
32F8A
3AEB3
2EB28
0CC30
00EB0
2AAEA
3E82C
22FFC
03BCE
00080
238EC
0AC8B
2A03A
08238
2380C
3FA28
02E83
3FAAA
0C3BC
230CA
02C2C
0B3FC
0B200
20FC2
2FFCE
3A8F8
22FCA
28002
0C88A
22AAA
0FFE2
08CFA
22322
228A0
208EF
3A3AA
3202E
0A0C0
030AA
2F2C0
02CBF
2A888
2C2E0
0AA03
20BE3
28E38
3CF3A
2AAA2
2FBCF
2F33E
2AB20
0F03E
308AA
0F003
3AF08
20033
32EBA
22F02
238AA
30E00
03AC0
003E2
233C3
3C08A
0A2AA
00000
200CA
3FECC
2C020
00E0A
20083
2BC03
2A882
28C8A
02ACA
088B2
3CB8A
28BF3
3EC2C
338C2
2882A
0B0C0
2A2AA
2A88B
23F28
0A83A
2BB0F
0C3EA
0F808
2EF0E
3C022
2A0AA
0A2A3
2AE03
038E8
2FEC8
28C22
08CF0
0F3B0
23028
3203C
0F3EC
00B2A
28A28
0A8EA
208A2
2A088
30F22
082F2
223CC
028AA
2A8A2
22888
0A0CA
0A2AA
2F3EF
3CCAA
0E888
22020
3F3AA
3FF2A
23BCF
00000
3F8E0
28AC3
383F0
000C0
2BBE3
0A8E8
332B0
0002B
2AAA2
2003C
00882
208EF
0A820
00BEF
2AA2F
22A00
088FC
230FF
2AAA0
238CF
2A0AF
20A03
2032E
00CFC
23EC3
0CF0A
0238C
000A0
3C08C
20BCF
28003
0A222
2F8E3
22A2B
3C8EC
0AFFC
2CA2A
02BEB
28823
3C3EF
2080F
20A23
00FBA
0AC80
3A308
2A00F
08000
08AEC
03022
2A8A8
0FCC3
02C3C
208C3
3EA20
20AA0
303EF
2880E
3803F
2FAEB
30FB0
3C332
00A00
2AA8F
2000E
02FB2
32AEF
222A2
228A3
082C3
28A23
262EC
2A223
08A83
3C020
30BCE
028F0
22A03
38FF2
02A00
32F80
3C33F
3A08F
2F828
28AE0
2AAE3
28CF0
2CBEF
082EF
3C20B
3F3CE
28800
2BA3C
3F8EF
00828
3BFFF
388CC
0C0CB
0A03F
03BEB
02F8E
30C23
0FCC0
2080F
2C8FF
20A03
00A03
0AA23
20A2C
228EF
0B2E3
28A00
2A22F
003CF
3C30A
2A8AF
0208E
0FBE8
2838C
22823
2A0FC
232C3
33828
288C0
08B20
0F2EA
2080B
32AA2
0FBCC
08AC3
20AA0
3F0CC
2AAAB
2030C
0EC3C
00000
0C8EC
0B0F0
28000
03BEF
233C0
23823
3CF3F
3CF32
3EFEF
2F2EB
2E0EA
33FFF
3CC0F
003E3
0CAEB
20AAC
2CF0C
0FAE3
03C00
33BCC
22880
02328
2A623
0E382
2A822
3EFCF
28A03
20000
30AE3
3C8EF
3F8CA
2AA23
22AA8
2F82B
2AA0C
3EFBA
0A8FF
2AB02
2A2A2
28BE3
0A303
3C30C
28AEF
3EF82
0F0EB
0EC3C
3088E
02C80
02F3C
02880
2AB80
323C3
0F80C
000F0
03FF3
2ABA3
00000
23A2B
2C88F
2C0E3
03F03
2FA88
3FCF8
3C00E
0CFE8
3823F
038C3
0B2F8
3FF22
0F3CF
23A28
332F3
08CF8
3CC32
300B3
223BF
3F228
23A0F
0BA00
208EF
3C8CF
0803E
080EB
3E280
280FB
33338
3C028
020FF
022CB
2FAA8
3020C
23808
38E30
00288
3AE80
33E00
30FE2
22A80
0C3FC
302C8
2ACC0
0BC00
3E3BE
3FA8B
02A8A
0B8CB
00E8B
0AEBA
3CE38
03EB3
0FAEA
0F0CB
3E288
000BC
32F3F
0F0A3
33A28
302CB
33CFF
3ECB2
30CB0
30E3A
28C08
32C33
0E830
2C82F
3C0C3
0AEFF
0F0EB
038BF
2F0EC
2E8AC
0EE2B
0C00F
30FC3
0C0AA
2AAA8
0FE03
0A23A
202A2
2FE3F
03A8F
20228
23AA0
0EBBF
000C3
332E8
0203F
02FFF
0FE0A
2B88A
208C2
3A3C3
28B88
02222
00A0A
0820A
30E8F
0FCA3
0F8A8
02C32
0C02C
2FA3B
0E0B0
0C2C0
0023C
3EF38
00F3C
2A2B8
33200
0AAE8
020BF
30CF8
2C023
0208A
20838
08C30
0033F
0FF3C
2B203
3CF82
03AA8
230E0
080F8
0CE00
2F203
38A82
32EC8
3AEB2
0F2E3
3828A
00F00
02A28
2C303
03A0B
3C28F
238E0
3FABC
33A0B
03230
230C8
238A8
0FFC8
32CBC
0FE2A
0302F
20BE8
02ABF
33CB8
00022
208C3
2AAEA
2028A
020AB
3C0BF
03EE8
020C3
0AE88
03CCB
20A0B
0C2A8
08EC0
20E03
3CCB2
08CBE
28202
3C0BF
0A2BB
2A203
0E002
3C028
2B20A
3FEE8
08E0A
00ABF
382E8
2B038
00E00
23A2B
32A08
30A0B
23AA3
2A820
00B2C
0FCC8
22203
230C3
0BEB3
00000
20A8F
2BA0F
3A0A2
2822A
3F828
3000F
28AFC
3F3F0
2B2A8
3FF32
288A2
23A02
0F22A
0C030
288E8
0300C
1AA3F
2830C
28A0F
030B2
08E00
3FBC8
20030
1AAA0
00A08
0C32A
2A080
300E0
2A0A8
2C03E
03C02
303E0
0AABA
2AA28
3C300
0B020
028E3
0C0C2
08003
3C0C0
28288
02A22
0E382
3FFFF
0200F
03A0C
308E3
2AA23
3F8C0
3F880
28BCF
2A03C
20A2A
33000
3C3C0
0F0CB
22B80
2BAFF
22A08
008BC
00308
26B3F
28A0F
08020
0C02E
33028
0333C
3AC33
3FCCF
08A0B
00A28
30CCF
2A02E
202A0
03AFB
08020
20A83
08A03
2A0FF
3C382
3FCE2
2A00F
20A2A
282BF
3FCBC
08F02
2023A
28EF3
20AA8
02AA2
28C00
2828B
33AC3
3F0EB
23230
30C23
0A80A
030C3
3333C
3F3CE
02A83
3B0E0
00808
2B8FF
22820
0B2FE
0AA00
303CC
38080
28AE8
222BB
28A38
2BAFF
0CFF0
00F0A
23003
3000F
2BF3C
3F8C2
2AAFF
23333
02A20
3F08A
0FCCB
0C0B8
22A28
3F820
2BA8F
38A2B
28A2A
3002F
28AE0
3000A
33C00
00CF2
3FFFF
2B3C0
0822A
2EABC
03800
28AB8
0F0F0
00AAA
030E8
22EB2
3FC28
1A62F
3BC2F
202A8
3F3C3
28ACA
28832
30EB2
28A00
2383F
20828
0C330
289A8
02380
33020
38FC8
33FC3
20E8A
30E28
3FCF0
3F0FF
2BAC3
08A88
0B2B0
28ABF
3C332
208C3
20AFF
02F3C
223A0
0AABE
00F33
26A03
3FF32
3C2BC
00383
08000
3082A
00080
0B8F2
3F2B0
280FF
3F0E3
33C0A
3FFB2
20AEF
00000
02C3E
202A0
203F0
32C30
3F300
30828
22C08
33CC2
2A08A
02280
22800
20200
2AC00
3C382
082B3
2A02F
0220B
0FF30
0A008
2AAAA
03F00
20020
00032
2AC30
0A2B0
00E8A
080B0
3FFC0
0000A
00A8A
0232B
220E0
2AAAA
00808
00883
2AA28
2AA80
02083
2AA3F
0A002
3F0B0
2A02C
3CC00
00FC0
0800C
08820
03A8C
0A800
0F322
0F022
2A2A8
30222
22B82
00FC0
0F88A
080A2
00028
080C3
2003C
00A00
3F38A
0AC0B
2A282
22800
20A3F
2A003
2888C
03833
00022
2A0B8
0A030
00880
00C00
00000
208C3
22880
2080C
00F30
0008F
20082
2A0C3
00088
22002
0008B
22AAA
3033F
2AA8A
0C0C0
0083C
30033
00288
2020E
3C203
3CCC0
00C00
22000
00030
00000
02A2C
00003
2033C
00082
00A88
20A22
2A2AC
3CACF
088C0
22A80
08388
000C0
00280
3FA00
000B8
3C00A
30088
2A02A
20280
00002
333C8
0A830
00000
2AC3F
33800
00028
00000
228A8
2A00F
00800
2AA08
22802
2300E
00008
2AA0A
00000
00000
30322
28003
30002
0AA82
00000
282A2
00A0C
00AFF
338BF
00000
0A0BF
20C32
2CC0C
00000
3F0C0
20822
02000
22203
0A000
00F03
000B0
00A80
0A80B
0030C
20222
2022F
22A08
3F33F
00220
330C2
0000C
002AA
02008
22AA0
02038
00C82
2A230
00800
20000
3F332
00002
00000
2A800
300AA
2A200
20803
3F800
00000
2883F
0C880
2023C
02000
2AAB3
20033
2A20A
0B82B
00000
38E0A
3AE8C
28A8A
2AAA3
2AA8A
22883
3CC3F
08AA2
0FFCF
3F3EA
3CFCF
3FCB2
3F30B
0A280
0F0C3
03F3F
00203
38322
0A2B3
38E80
2EF02
022BA
20F2F
0A280
080E3
28B2C
22823
088AF
3F302
3FCBC
0E3BF
3C33F
2A2B3
32000
2028C
30280
2A3CF
3F0CE
30C0B
0CB20
282A0
3AA8F
2B833
0AAA8
30003
0A28F
0FFEB
2A20F
2A280
0AC33
3AC8B
2AAAA
033FF
3AE0C
3FFFC
3F0C3
2AAAE
330C8
0A0BF
022A8
2B82F
30F3F
0B0F3
0A30B
3AA88
2ABBF
0B0C3
0AAA2
0888A
3FFF2
023F0
228A3
080E3
2AA8A
0882F
3F203
0A28F
3FE8F
08A83
0FFCC
2A28E
0ECAA
238C0
2AA8C
08838
0CA28
2AA8A
0AAA2
2800E
22AA8
2A0BF
0A28F
289A8
022A3
20A0B
3C80F
020A8
0803C
2803F
3F0AB
038CC
2AA3C
26230
0A280
0A08F
0AAA0
0A2AB
0C33F
3CFB8
38AE8
32FF2
26A88
030CF
03BCC
228A3
002A3
0CF00
08000
0083E
02E83
3CE8F
3ACB3
0F880
0B8C3
02820
3C828
33020
28A8E
3FFFF
200F0
0A8BC
02EBB
330B8
0AAA2
00030
2BACF
0A2A0
3A33B
2880F
28E88
2AA0F
28A2A
20AAA
23AEB
02A0C
3FF80
0A2A3
320FC
3F80A
2AA8F
32FB0
02AAA
0B882
00880
3FFF8
32A82
0230C
2A2BC
0AA80
33F3F
02E00
3FF0F
020E8
23B82
22AFC
2A0BC
2F0CF
30F08
2AA03
322B0
0F3EE
003E3
208EF
2803F
0AA8A
22232
00000
0A08B
0C008
0200C
0AAA0
08A8A
030E0
0AAAA
00033
0F2BC
2AA0C
03880
3CEAA
3FC2A
0AE83
00000
232FB
2A2A0
0ACBC
322BA
3A283
02CBA
3AB0F
3FF80
02B30
0B0FF
33E00
33CFF
33A08
038CB
0CA02
0F03F
020B0
33022
2A000
0B8CF
33F2A
300EF
0B230
2EC80
2F0A2
230CF
3C82A
32C72
2F8C0
038CF
30F0E
0204A
0FACB
3CC38
32082
00F08
3FFC2
33F33
3EE38
0FC03
30CB2
2808C
232F3
32F30
02EB2
0238E
028BA
3EB20
39E8A
0F2E8
3FAC0
3B08A
00088
3C0EA
02EBA
3F30B
203EF
3E080
38308
2A200
23AFF
32C0F
0808B
0F0C3
30382
3F3EF
08C00
22C8A
330AA
320BE
2000C
320A8
3F83A
3C30F
2AEB8
0EAAA
38CAB
3A2AE
02802
238FB
3FFC0
3CE32
03033
2A233
2A0F3
08ABA
008F3
20328
00FA2
3EC0A
2802B
2A30C
3CFB3
3CF38
0CFFF
0E0B2
202B2
0C033
3FFCF
03232
2AC00
32CBA
038AA
2A22C
22882
2A02A
3E82A
3FFEB
033F2
00888
08C00
0CC8A
30300
2FCFB
0A30A
232C3
0B28B
238E8
220BA
0A282
2300A
2A082
0AA8A
3F3F3
33830
3F303
33CE8
0002E
302E3
02C83
2A2AA
3FC3A
3FCAA
33082
32000
3FFFC
02082
0AEBA
333F3
32C88
2A030
3B002
00282
3CC32
32CB0
3F030
0228A
08E8A
2E82B
3EFB2
0FE08
0F2C0
0FFCC
0A3B2
33EF0
0F203
0F8B8
00C3F
02CBA
02C82
0388A
3FECF
0AA83
3FEFF
3FFC3
3F020
33FF3
3F083
3FFCF
29E82
032F8
3C08A
2AE38
333AA
230E0
3F000
2BAC0
2238F
0B2F3
3F0B3
23088
02EB1
0008A
3CF88
3A38A
3EF0F
2AA8B
0AAB2
3CF02
3FC88
3FCE2
00000
2CA3C
0FBEC
002B0
2F2B0
3ACAC
0AA49
3C0C2
0C228
020B0
33CEF
2A203
3FB83
220B0
00330
0B00A
08C33
38CC0
2E88F
3E30C
0B0E3
2ABCF
38CFF
2EA82
2F822
2A23B
3BEE8
20BE3
330F0
3F0E8
208EB
0C80B
3CEB0
23FCF
0B0C0
38A0A
2FACB
0A0F0
0AE8C
0AE3C
08230
202C3
32F8C
33AE8
03032
08A88
3E03E
02C0A
0E0B0
0AAB2
2A0BF
28A8A
3FBEF
0208F
20288
3B08A
0E880
3CB02
32C3A
2E0CB
2BA20
3B2EB
300C0
3C0BA
23BEB
2FAC0
2E2B2
2BA23
3FA0A
2C8A8
02CBC
203BC
38AAA
00ACB
33EE3
32EBE
23283
033BC
23ABC
3E3A2
33CEB
2AA8A
288FF
33FC3
0CFFC
32B83
02800
2B00F
3FAEA
3FBBC
2222C
3C323
3CC0E
20A8A
2CCB0
30230
28ABA
2AA08
0A288
2AC3F
0BAEB
32FB2
0B8B0
08033
3F0AA
30C3E
3F820
0CAAA
3AEB2
238EC
3EA28
3C320
2AA8A
02EBA
3B2CA
088E0
2F0CF
030CC
3F0C0
02E3A
2CAAA
3C0F3
3F8E0
08AAA
3E023
282CF
33FF3
28C38
0033F
00882
32F0F
0F203
2AA4A
0B0C3
200C0
00008
222B0
2BA8A
2A2BA
32F00
2AA32
3F300
03FE3
33A0A
23AB2
3ACB3
32F0E
30A80
032B3
3FFFF
0828A
2230F
233E3
2B208
3F2B0
0A0BF
2AA08
0AEB0
3FFBC
0BAF3
30FBE
3FA33
0AC30
08882
00ABC
22E8C
0A23A
3EFBA
28FCF
2EF3C
3F30A
3B0EB
2A9B8
3AFBE
038F3
0B230
2A8F3
0BAE3
20BC0
333EB
28EF0
232CB
00AA8
288CC
23AC3
2CA8F
2B0BF
3FEC0
382AA
28A3C
2A82E
2AAAA
00000
3382E
0FC8C
38EF8
20AAA
322A8
3C38A
22282
0ACBB
2A83F
08A28
20000
30EC0
0000F
28AA0
32FFF
0E02B
0E332
3323C
208BE
33228
2880C
03BEB
3CA23
283E0
30CFF
38288
003BE
0CFAA
2FA28
0FAEF
08ACC
022B8
33A20
00800
2A880
20AAA
20F03
0FFCF
02C30
3CC03
2B00F
3303F
3C238
1AAAA
3CBA2
3CCB2
3AA88
0A3AC
2AA8A
2AA33
20F03
3F8E0
3FF3F
2A0FF
3E8B2
0E080
3C8BE
3CF30
28F0F
3FC0A
3C228
3CE33
3CFBE
02AAA
0C0CA
20F00
082A0
02080
020AA
3203C
3F33F
3F880
3828A
2AA23
33C30
2AE0A
2AABC
2A3AA
02CA8
33228
3C0C3
233FC
3003F
22B0C
33CC0
0E08C
2B00C
2ACBA
3C388
3C3E2
080B8
30E30
0020C
2AAAA
3FF3C
0A208
02C03
028AA
3C30F
08ACB
0B033
03BF2
2A00C
3EE32
3BFFF
00F0C
3CFFC
3EE80
0FC30
3CC02
3FFBC
200E0
02B0E
3B2C0
2833C
0AAAA
0A0A3
3FE03
0AAAA
3EF30
3FFE0
30EFC
2AA8A
2A2B3
0AF3F
23BEC
00C0B
0BBA0
2C3CF
000E0
33038
3080E
08BA0
0FAEB
00000
223A0
0ACCC
2AA8B
080BF
0303C
320BC
3FAE8
3020B
2F2B2
2ECC3
0CCEC
30302
2AAEA
030EC
0C38C
2AE3F
3FCC8
3CFCF
3CC33
08ACF
00F30
2F23F
3C33F
33AE8
3003F
30E30
32FCF
2AA28
02F3F
2F00F
22A83
28E80
3FC33
2282C
0C3BE
33A26
200F3
38F3F
02003
2000A
0ACC3
3FE08
2203F
03AEB
30CFF
0BAE0
0223F
208FF
030E3
22A88
00020
3AFA0
2E2A2
0322A
0B3EC
2080A
00000
2C0E8
288E0
3222A
32338
0ACF3
20F3A
2AF3F
30F2A
003CA
02CA2
0C2A2
22BAA
30EC0
3EFFC
3CB22
3F2C3
22C3C
0F2AA
203CB
0AC88
2CB2A
0A0F8
22330
2FA2A
2AAAA
0AC33
322A8
3AE30
030C2
22383
2CF8A
3CAE3
0ACB0
22AEA
00CF3
0A2AA
20AE0
022EA
2F088
3CEAA
3AC8A
02ACC
2AC0A
00C8E
233FC
03830
003FF
0C3FF
0A0A0
3C03C
2F0C8
3ACBA
223AA
0F0EA
2C3F3
3CC0A
28C2A
00EB0
208EA
200A2
2AFF8
28C02
20FCF
2AAAA
3208A
33A00
22EBA
3802A
3CCCE
3FE30
0F823
28333
0820A
2A3EC
00E0F
200F3
2FA2F
3808C
03CCF
3A302
032B2
23A08
22A28
00F20
333BE
3208C
0208E
0002A
3E08A
0E3FF
20BF0
283E8
0C228
3FCC8
2A0B0
2AC33
2828C
0F0BC
0F8E0
32FAA
00F33
30EC2
30CFF
2AFF3
208FF
0CF0C
22330
3F8CC
0BA3E
0B00C
2838A
23288
20FFF
22CBA
00F8E
0A88A
2FA20
2FBCA
3AE20
280CB
23002
2A2E8
02200
330EA
22A88
28828
3FAB2
2C80A
233C0
220E8
2A22A
2FB3A
3AF3C
0AC02
00000
3CF8A
20F00
0E2B0
3FC02
3C38C
0A3A8
08C8A
32AAA
320AA
28A2A
20E2A
2382A
0F0FF
208C8
3C202
2E30E
3A069
0C2AA
3A2AA
00EFB
22008
2EB02
2CBC3
3AA8A
0F0C3
3CC2A
2FAEA
0082E
3C00E
0C02A
3F8CF
33FCF
2AA2A
28BE0
20BEF
3AFAA
20E88
03FFB
02CB2
2A828
0FC82
322AA
2F828
0AFAA
03AE0
3A0BA
00E32
00E8A
3AFBA
22808
3E0A2
2A0BB
02000
03FEE
3F0E0
2FBB2
00000
330E0
3F0AA
30288
2B3FF
3C00A
0800A
38FBA
3C00B
3FC2A
00080
3C02A
2EAAB
23FCB
33C02
0F2AE
00F2A
3CC82
030E3
332EA
3CF0A
33AE8
0E802
3EFB3
03033
0E3E0
0CC08
3F22B
0A828
0B02F
3FC02
33AAA
38EC8
0FC0A
33020
20F3A
080CC
228E8
0CCC2
3FFEA
3CCF0
3F028
3FEEA
3022A
28FF0
0FFFC
330A2
02CC0
3CC32
20C30
3F0CA
030FC
0FAA2
3E02A
3FBF3
30FFE
3FCF3
3302A
30FBC
03FEA
03FFF
00CE8
00CFC
322AA
00A28
28CCA
038EA
2B0FF
0CCAA
08F2F
33E02
3FFA2
02C02
0C820
382A2
30FCA
00E0C
30A28
3BCFB
02CBB
30CCC
2088C
03A0C
02F82
3FEAA
02AAA
0030C
3F038
3CA28
20288
2EC88
3CAAA
3C0AA
20C3E
0C333
0800E
330C2
3CCEF
3CCBE
3C02A
328EF
00EAA
0B0CC
3FC2A
3CFFA
3F3EA
3CEA6
0C0AA
08A2A
03282
3FCA2
32B2A
3C800
3CF30
3AE23
3CAAA
083EE
3A30A
030C2
038EA
3FFB0
22820
3FFE8
28FC3
30008
02F03
30AAA
280C0
30CC8
0803A
08282
20C3A
382A8
033FF
3F008
08C08
30E0A
2BFF3
00328
3C224
3C0C0
3CEA6
3F020
0F032
00E32
0CFCE
0B8E2
2FFF2
2FCCF
2CB0E
0A02A
3F0E0
3F800
3AB2A
032AA
3AC0F
30300
0C0EA
3FA96
2030A
30FC2
0F30E
30F2A
000E3
2FA2B
302EA
033CB
3E2AA
023E2
3222A
3F226
082E3
0CFC0
3CFF8
203CC
33FF0
3F0E0
0B00C
3F296
330C3
0C32A
00FCE
00FFF
3FC08
0CC00
20C0F
0AC30
03000
0BFF8
030CF
02F00
322E0
00000
3A0AA
30C38
2CE82
2AA88
3C320
088BA
3FC32
0AA6A
0C288
280FF
3C28A
3F088
3C3CC
3CCA2
08EB8
0EAAA
3F80A
03A2A
0800C
3FC3A
00EF3
00F3F
0ACA2
02200
3EC80
2038A
3CEC8
02AAA
08808
3CC82
3CE30
3AAAA
3FF32
3E020
28AAA
0083C
3EEA2
30F20
3AAAA
32E8A
3AA8A
3FB2A
3C300
0A302
3FB03
2AC3B
3F32A
0FF32
2AAA0
0AE22
0ACB8
33A3C
30A2A
00EBA
3FF3A
3A28B
38C0A
3F3F0
0F2A3
238FC
0F302
3F03A
3F208
30BCF
33000
3A280
330E3
3A2B2
3B33F
008B0
0AEBE
3F33A
38CB0
3E8A3
0F33F
00880
320A8
2AA80
2003C
203FC
30CA8
30A0A
0CA28
300A8
300B3
2000C
3F0AA
00BBE
283BC
08C88
0320B
3F0B2
0AA4A
2AA8A
0F208
28AB2
000AA
3883F
3EFAA
0A83F
3C02B
22A82
0A0C8
0FFA2
0C8AA
302A0
080B2
322AA
020A8
20EB8
0808A
20F3B
3F330
2CF0C
02AB3
30A83
3CF0A
03C0A
2C280
3FF30
00E30
3C06A
0AAA8
2A288
3C0AA
03A20
32AA8
3EC82
3FC33
0AAEC
00A82
0A2B2
03003
00300
08000
0AA88
3AE3F
0AA8A
0C28B
30028
0C0BB
3F0CC
00000
2AAAA
3FCA8
30F00
03230
2BAAF
0A32E
2AAAA
3CA22
3FB33
3CF8A
2220C
0C000
3A0AA
3F0AA
3228C
22A80
08AAA
3080C
3FC8A
0E28A
022A8
3C8AA
3C2B0
3F2A8
3E32A
3C2AA
033B0
0033F
3FB80
3F3E0
3F0F3
3E38A
23208
0083F
02A80
3C33C
3CCAA
3C03F
0FF28
3C080
3FCCC
3A88A
00E2A
0FFFF
32AAA
200CC
033C3
3AEBC
00000
233FB
2C82F
00823
2C2BA
0A380
2A27A
308EC
00BA2
002CB
03BEF
200FC
3F8E3
000F3
0FBE3
28EB2
32EBE
0AEBA
03C0F
02082
2CA23
38C33
2F223
0A2BA
3FEFF
38C3E
08030
08CBA
2B0B2
333CC
2CACB
000BC
02C72
238E3
330FF
3AE72
00C32
3E03E
32EBE
39E7E
3C38C
08E82
322AB
30800
3ACBA
2AEBA
22202
32CBA
3CE32
0AE72
3FF3E
0833C
00882
28AA2
0FF03
0AEBA
23B00
00A83
2B232
00222
0A0B2
38EEF
00EBE
20A2A
0F0C3
30C8E
3C0BE
322B0
0300A
03820
0ACBE
0ACBF
220B2
0FBAA
300C3
322B0
08AA0
38E8E
32CB2
200B2
038E3
0BEBE
38F30
20303
200A0
2F8E3
20A00
20023
038E8
03FA2
0ECF0
0B8FC
2EA08
0CC3E
38CB2
0AEB0
0A2BC
38CB0
3AEBC
3EFBE
302CC
2C0CC
32E3A
32EB2
2A28A
322A8
23BEF
0F03A
0AC7E
33F3E
08028
2AA80
02EB2
3EEB8
0223C
28030
30EBA
28BE0
03E3A
2A2BE
22288
002C3
3AAA8
0AE82
08CF2
03002
00F3F
38F7E
2C300
3382B
23803
3AE7A
0FF32
0C3B0
0A082
08000
33F8E
28020
30EBC
2C32E
00C02
230C2
233CC
2A830
02EBA
332CA
000BC
22E33
33FBF
3C02F
02FBE
0C3CF
20383
080BE
20CA3
3CFB0
00238
3AE8E
2E20E
38EB0
32C8A
0CFB2
0AEB0
0CF33
00B2F
30FBE
3FC0A
0C3CE
3E3BF
3EFBC
02A28
203E8
3AE72
0A222
3000C
30238
38CB0
3CC30
28020
280E3
3C0BE
30332
3CE4A
0AC8F
32CBE
3CFBE
32CB0
28AC0
3AEB2
02B03
2033F
0EFB2
00000
03E8A
0CF02
03FF3
03ACF
00A0F
2A900
0CFF0
2F3E3
3ECC8
0CCEE
3A880
3CC3F
032FF
2AAA8
03A3A
2800F
28AFF
2F33C
02B88
2ACFC
00E8B
003FF
000C8
3FCB0
0BE33
33203
08008
2AAA0
32F30
220BC
3222A
2883F
0330F
32C88
26AB8
30003
30E3F
0A2BF
2AACF
30C3F
08803
2A0A2
0AEB3
2322A
282A2
28822
2A2B8
03EC0
26A8C
08E3B
30080
33E08
380BA
30E88
28ACF
0282B
28A28
2BAEF
02E80
0AA2B
0A2F0
2AA0F
23A2F
08E83
2C3C3
2A2BB
33000
2A22B
2F303
28AEF
0B0CB
2AA88
0F8C3
0AAAA
2C803
0F0CF
08AA8
2BA0C
280A0
0B0CF
0AA00
2320A
0FFCB
2AAAA
0EFCC
000CA
2A20F
0F038
0A000
30CFC
38202
3032A
28CC3
0B20F
23823
2B8CF
2A2B0
00EFC
2A2B8
00083
22C80
00A0A
0A2FF
2AA22
20F02
22AAA
23228
2A288
2083C
000EA
2AA22
28A3B
23AE3
2A30B
0020A
003FF
08282
28A30
2AABF
28BEF
0EF20
28AB0
26A08
3FCFB
2EE32
3AEBA
26283
02A32
0C803
33C3A
2AABC
30208
2AAF3
0E030
00020
0C0EF
333C2
28FCF
3820B
08000
20288
0FFFC
2AA3F
2A0EF
2A2AB
0AEF2
0B0BC
00F0F
3FCC0
26E8B
3ECB8
0CC3C
28E88
0ECFC
0FFCF
08A3A
2AEBC
082C8
2BAFF
2AA20
0C83F
280FF
28288
3E32F
3AC23
2A2FF
3C0F3
00E3C
0AC38
00A0A
0333C
272CF
2E820
200C3
2AA0C
02000
00080
30E28
3F030
2AE8F
00330
2BC2F
2A800
288CF
2AA82
28308
003E2
26AAB
33300
280FF
3B083
00000
032F3
33AAA
20AAA
338E8
32CFA
3F0F3
0E0BF
02CAC
2A882
2FCEA
2200C
20CB2
3003C
30802
2A2A2
00208
33A28
0F020
3EFAE
2AABC
0E8AA
32C30
2A8AA
0E320
3A20F
208E8
2F8AA
3CA28
202E8
20823
3E30A
33CC8
2AABA
3CFFF
0F3CF
0FBD8
20FFF
3203F
3030C
0CCBF
3CF0F
33AA2
03BE8
0F03A
3F8EE
00A9A
3FCEA
0CF88
3FCEB
0A202
3CCEA
03BE8
2ABBC
32C0A
0FC0F
2AA8A
220A1
3208A
3E33F
2F028
233E8
3CFE0
2A282
20A2A
2BA28
3BCB3
0BACA
2AA2A
0FA0A
0A800
0AAB0
33CC3
0028A
330F3
3308A
33FC0
00AAA
0302F
0AE8E
03BEB
22AEA
2F3E3
0AFBF
02EB2
2AFBE
0F0E3
0228C
322AA
2A8AA
22C83
2C8AA
00AAA
38C22
3CC20
02B28
333E3
30C30
0AC22
3ACBF
0F8E8
0C0AA
03C0C
30E32
3C028
3FE02
02E02
33EAA
08202
003E2
2AA22
020A2
3C22A
008B0
2C8E8
2E82A
0F0EA
2A3CF
332E3
3CCE0
0FAEA
0C008
33CF0
200EC
00CB0
22C3F
30F0F
022B0
02BAF
2E3BE
0233C
0BAEA
000AA
2082A
003CF
0E000
3A288
33A28
0F8E0
223A2
20022
32AAA
200EB
20BEB
28C8A
32F3F
083FF
0F0E8
33CCF
38C33
3F300
3EC2C
2F2EA
2A03F
0C82A
33022
2E8BC
3CF3F
0C28A
23AE8
332A2
0F220
38CCC
3CFFF
000BF
023CF
30F00
2A38A
20CFF
08F3F
0C0A2
0FBE8
3C220
330B3
0F0EB
3F0FC
030CC
2B8EA
00AAA
0FBEA
30FFF
23BE8
3FCE8
32FE0
2F828
3C228
20282
30C30
083E3
2F32A
0FC0A
0E82A
00000
0828A
0EC88
3A88F
0330C
0FCFC
0EEB2
3AEBA
3FF32
3E0AA
3CCCC
308E0
2A08E
3F800
0A080
3EF83
00C20
0A2BA
0F032
0227D
2A880
2028C
3BCFF
303BA
02272
30C00
0FFE0
0EF22
3C220
28A30
3AA80
2E2A2
33380
020F0
2EE82
0B330
2233C
32FC0
3C008
3CFCB
3FFCC
000B0
222B8
2080C
0FA0A
02EBE
30EBA
3CFB0
32FBE
00ABE
00002
3EFB2
2AB3F
3AAA2
3CFBC
3F03C
33E22
2A282
3AEBA
3CF3C
230F3
203FF
032BA
39E69
2A8AA
08B0F
38C3C
2AB0C
0A2B2
0CCFF
3C2AA
3E0AF
3CF30
0EFB0
2C0B8
0A330
23F0A
08E8A
20880
00E8A
0FBEF
32E02
3EC3F
02322
0204E
02E0C
080EA
3ECBC
32C72
0A8BA
000AA
0AC80
020B2
0030C
30FB8
0CF0A
33F28
3FF2A
0CCAE
3AFB3
3CBCF
0A2BA
00B80
30F03
300BE
0CF30
32CB1
31EBE
0AFFF
3C3A3
0CFBC
2AAA2
3E38C
3AEB0
0E3CC
3CCB2
00CBC
000EB
3028C
30A00
3CCAA
0F0C2
3FFB3
3032F
3F88A
3ECE3
0AE82
3CB02
222B2
3AEBA
0A2AA
02CBF
0AEAA
20C23
200C0
02C80
382B8
3E000
0C320
3AC82
28E20
0AE7A
2A0CC
3B0C0
00088
300F8
3E3A0
3ECB9
20FEA
0CC0E
32CBE
02AAA
0A00C
32C83
320BC
000BE
02AAA
3CC20
31E79
00B80
30CB0
3CFFF
3EC00
2AFB0
32C83
3AE88
30FFF
0A249
3AF03
02E8E
0AE71
03B3F
3F020
38E0B
28BC0
22F02
33FCC
0A322
0224A
2C8B0
3EFF0
0FF8C
0800C
30FCF
2002B
08232
0A22C
02C3E
3008C
3000F
32E8A
3AF88
00000
3F883
33C23
08330
22288
0FAA3
282BF
0FA28
0320F
3A2BF
3F3E0
2B2F0
32F8E
3FC0F
0F828
2AEBF
30F33
2AA02
2008F
0AEFF
3F3E8
08E3F
0FBEA
0030C
08A0F
0A83F
22EBA
280FC
0F8A0
20800
3FCCB
00E0F
33FFF
3F3E8
0F83F
2AFFF
3003E
0A28A
3E00F
08FFF
0AA8F
2C803
3CE20
32FBE
2A2BC
0B030
003C3
2AABC
02C00
28F3F
3ACBC
0C0A3
0C880
33230
03A0C
0AA80
20AFF
38EBF
08A30
00000
3FAC2
380B2
28A8F
08A3F
0A0BF
003E0
0AF0F
3C33C
0AABF
0FFE3
08BFF
33A0F
28AAB
3023F
0A2AF
2F882
3FFE8
0A8BC
3003F
200CC
0F28A
3A20F
2820F
23A0A
382BF
3F0E8
23A2A
3F22B
0823F
20A83
008CA
28F3F
2B030
0EABF
28EB3
0C2BC
033FC
33022
333EF
0803F
0C330
00ECC
23BB0
00322
0B08A
3FFEC
3FA02
0BA2E
2AC8F
03AE3
0828C
2B0BF
02C3F
03203
30FB2
0ACCF
0A3BF
3C8A8
02C82
2083C
038F0
022EF
0CC2F
20CC2
288BF
028AE
0288F
3AFBF
3F03C
3FAA3
032FF
2A0BF
2B2FF
2C3E2
2202A
08303
08A08
0380A
00000
0883F
0C803
28A3C
00A2A
0A002
22ABF
022A8
20E80
03A0C
0CF02
03CCC
2AA2F
3823F
30380
0228C
0A83F
3F00E
3F20A
30FCF
33A8F
20830
2A28B
0E3FF
08082
0FABE
3FC03
0A0BF
3A0AC
02A3F
020BC
0A2B3
0323F
3F0AA
3F3CF
3F80A
3C0F0
0F00A
0E0FE
3E02C
3A23F
3F8B2
38A82
3CFB0
3F3BF
02220
3C3EE
0E3FF
3FBE0
3F2EA
2A30C
3F0EA
0CBCF
2AEBF
00000
30FCF
0EC32
20B20
0FAE3
2A8EC
2B8E0
32CB8
20328
2FA28
003BC
0FB2E
002AB
2A822
0ACE3
2BA28
2F3FC
038C0
3F3EC
00F0E
0FBEB
3EC2F
3200F
0A280
3F30C
3F3FF
3ACBE
238CF
2CA2C
0A2BF
3F3CB
3FBEC
238E3
3C8EF
0FF0B
2BAE3
2F3E8
033FF
00BC3
2B8EF
238E0
2B8EF
20BC0
3AEBE
3F3CF
0CBEB
238E8
2382F
02822
13AE3
023BC
020AC
23AEB
3F0CF
00B2C
288EF
03B2B
08033
2B8E0
0030C
33803
3AEBA
2B8FC
28628
02B0C
2FBE3
20BEF
2F0CB
20AE0
030F0
0FB0F
28B02
228EF
033EF
0C803
2A8E3
308F0
23820
208EF
20230
08CBC
203E0
0FBE3
33C30
2B32C
02C80
28A0E
00BEF
33FC8
22AEF
228C3
3E2B2
2A0C2
237E0
233C0
2BACF
3FBE0
3CBCF
3CF02
288E3
03C80
000C8
0C800
200AC
20000
03BC8
02000
32020
2B8E3
2C3EF
0FBE2
2083C
0FBEF
02A28
32CBE
00A20
2C300
02082
000B2
2B233
0BBE3
00220
23BCF
20A2A
238E3
3CFCC
03033
00BE3
3C300
0AA08
33CFC
22A23
0F3E3
033EB
2C800
0300C
20B22
2FBE2
208E3
3A82A
008FC
0A002
00B2F
28BE0
288E3
0F30C
2A82F
30AE0
2CBE0
00EB2
0ABE3
3CFEF
2F8EB
3283F
233E0
33BEC
300EF
33BFF
0A8E0
238E3
2C8EB
23BEF
203CF
22BE3
2BA23
0CFCC
38BCE
0A2B0
0FCFE
33F3C
0A02C
3EEBE
0FBEF
003E8
2F82A
008EF
3FB23
2080A
208E3
30EBC
3BFFF
2F32A
00BE3
23AE0
2FBEB
2F8E3
2F8EA
3A23E
2A8C3
0F8E8
032C3
3F3C3
00000
0FF8A
0CF8C
2AF08
003BC
0AFCF
02F38
3F382
20833
0F30E
3CF30
2FCE3
22880
22F32
0288A
0CCB0
0EEAA
2A28A
2F08A
3C0AA
02FAE
20F0C
3088A
00A0A
00FB1
0A28A
02CCC
0200C
3C23F
3F0E2
0C8AA
2C80E
0CFFF
32C82
0E3BA
22280
0FBEC
0A24A
22C8A
0838A
2A230
2A0EF
038AA
03C32
2FA82
08CB2
0F382
30E22
3AC8A
32FFF
0C02A
2F38A
2332C
22B8E
2F3BE
3AA8A
2000F
00302
00A8A
3E38A
3F3CC
02C02
20282
3EFBA
3C822
0FB0C
2288A
0332C
0F833
30203
2AC2A
0C3BA
3AC32
0FF3C
3C002
0AE8A
080CC
2033C
02FF0
3088A
32FFC
2F83C
2F382
3A22A
33B08
3E38E
3FA80
32FBE
0003E
30B3F
3CF0C
3F382
0CF3E
22F3E
2AF30
32E82
2EFEA
0A008
08FC0
2228A
3FBCC
0C082
2A2B0
00F32
3888A
33C2A
303BF
0F33E
08AA8
0CB82
283BC
08B88
2AABA
3828A
38C02
0CF3E
3F8A2
082B2
08022
32FFE
08889
0CF82
02C8A
3F000
2A3CE
2AE88
020A9
2A8AA
22A2A
0E3BA
02EAA
3FF00
2F0B2
3CCE3
0FB3F
00000
222B0
220B2
0C30E
0EF8E
0E380
0CF8E
0F38C
0C30C
220FF
0828A
0AA81
3EF79
303C3
3E3C2
2AA80
0EF82
00B2F
0A28A
0A003
2C08A
28A82
02EAA
0C322
2E00E
230A8
33ABF
2E2AA
0AABF
2E382
0AAA0
23A8A
2E0A2
0A2BA
020AA
0F332
3F3CC
2A28A
03A3A
2F800
0A00E
2C8FF
3F822
0CF3E
0F3E0
2828A
0F8AC
30A2C
028B0
0C03C
030E3
2A88A
3AF2A
0C308
0C3C3
3C3C0
3C0B2
00000
38320
0F828
22803
2EB2B
3EBE3
2F82A
30AEB
33B00
32EBA
38F30
02ACF
380C3
3A8A3
3CFC2
0F2FA
23FFF
2FA0A
3AE08
2F2E8
3EBA2
0C3BE
02C3F
0AC33
3320A
3FA2F
30330
2CE8A
2EB22
30CF2
3CF0F
22AA8
288B3
3EF23
3023C
2B0A8
38CBC
0BECC
332EE
2FA0B
38C33
230C0
08F28
28EB0
30F00
2CA2A
3CA03
2CBCA
3FBE8
2F8C8
3FC23
0F3E8
20C3E
008CC
3C2CB
2C0A8
0BC80
28A30
2CBE8
030E3
3F3AC
30EB2
2322A
0F0EA
08C3C
322AC
00C03
0AFB2
0BCAA
080AA
2FAE8
2F8CC
2CB2A
000AA
0F333
30332
0EB82
03008
20A88
23A00
0AC3A
23F02
0BA2A
38F0C
300BA
3C3E3
0883F
3CFD3
3E0A8
0F8FA
03B8A
3FA0C
2080B
0A8EB
03B03
0E2AA
33FF8
00F3F
0F00A
32F32
3ACBC
0E003
0FFA8
0F3E8
2F00A
2CF0B
0AB2A
2CBE8
03A28
3FA28
0CC38
28ACA
0FFCA
3C828
20EB2
3EA2C
30EB3
383A8
2A0BE
2283C
2FA2A
282C3
02F0F
28CA2
3CF30
303EF
00C3C
2A28B
3EB8F
302E3
202FC
0AEBF
0F0C8
008A0
033CC
0F000
3FFFF
208AB
2CBE3
0FFB0
2A220
333B3
00F22
3C023
3E8B2
0F3CF
032AA
03AD6
0CA28
0C08F
30320
3C008
0A080
0AEAE
0AA80
3E338
3220A
0000E
2FFC8
0AEBC
2F303
38CBC
038AB
0AF20
302C3
33F3C
38E20
30F33
30203
330BC
2CA0A
3AEB2
3C0BA
2F808
0AC82
02FA0
3A28A
2AFBC
23AEA
30EB2
30C0F
08EBC
30C3A
02083
322A8
22333
0A0BF
3F8E8
0BECA
2B03E
0C883
3F0E0
00000
3C080
0F0C2
2880C
20823
382EF
2B6EB
3CC3E
3032A
0C83C
0FF82
00AC3
3C382
0232F
32EBC
2BAE3
2B8EF
2CBCF
2F3CF
3EF30
02CBC
00F8B
30CBE
20233
2CBEC
028A3
3820B
03033
338CF
00C38
02C80
0C8C3
33BEF
32CBE
0FFCC
2BAE3
288CF
080A8
0A820
207E3
30CC8
0A28F
0FBFF
382E8
28A23
20BEF
2F3FF
20AE0
203FB
3B7EF
2EC83
228BC
00A80
30FBC
30BA2
28BEF
00803
02C30
03B0F
0FBCC
08822
38208
3C82E
38FB2
0A2FC
28AEF
28ACF
088FF
3F803
282BF
288E3
0A08F
280E3
0082F
0FBCE
3C0E3
008E0
28AAE
2BAEF
00EC3
332CA
2BA22
238EF
0E382
020B0
3EFBA
3C80E
3AC8C
3A03E
3228F
0ECBE
2FF3C
0F3F2
0AA23
280EB
2C883
038E3
30303
08880
0A23F
03CFF
00008
23AEB
0C08C
0200C
2B3CF
3FF8E
3B2B0
2BAE0
00C03
28B8E
3333C
0BAEF
038FF
002EB
030F0
280EF
02F0A
3C0FC
38AEB
00B0F
0C3BC
2FBFF
0BACF
20C00
0E003
0C302
2AAEB
0EFB2
020B2
3CF3E
2BAEF
0C2AB
2A2BF
2B200
0B0C3
2AAA8
2A823
3B8E3
3A28A
2A880
082BA
00000
23A00
0EA0F
0080C
2A8AA
2CB0C
308AC
3CC0A
2862B
2C38F
02230
3AC82
3088C
03B03
32EB3
2A2E3
3E3AE
0BAEF
338E3
03AE3
0C82F
3828A
00FB0
2AAAE
0C823
3BC3A
0A800
0238E
00FBE
032CB
0A8EF
30FF8
280EC
3AE0F
08800
00CFF
2C02C
03208
0C3E3
28AFF
3E0E3
38E88
2082F
03AE3
2A883
00032
28AEB
2ACBF
0A2B0
32003
00000
3FAC2
2ACF2
0082B
2A2B3
2223C
0028A
2AAA3
3CCBC
2A002
0AABC
033EB
0F03C
0AA80
3F8CA
0A888
3C02B
0F0A2
23FB8
28C3F
3F8B2
20C3E
2203E
202C8
28080
3C2C0
3FBEA
2080A
02208
00083
0B33C
23AE3
03BE0
33A3A
2A00F
3F22A
0F838
3FEC3
3C028
3F0A2
3FEFC
082B0
22A3C
3F3E8
30CBF
0A082
2AEBE
3F028
0A3B0
2222C
0F8E8
02C30
23A82
082F2
38C3F
303E8
3083C
0F000
0FE8A
2A2C3
0F208
3F8E8
322A8
2A282
3FAE2
0CA88
3F3EC
0F802
00C2A
32E8B
3C2AA
0C0A0
3CF2A
382B8
2303B
3C0BE
3E03A
2AFBC
20203
0AE8A
3F0EA
00B0A
0ACB2
08ECF
26C0F
0AABE
238CA
30232
28C8C
3A32B
22202
08C28
28002
30033
0A03F
3F03E
3C2AA
0FAC8
3C0C0
3FFF0
03B30
28080
03BC8
000E8
208EC
322A2
2AABE
08FBF
33FC0
3C332
2A3B0
0FC0E
0F3EA
080A8
3F3E8
28AE2
3F82B
38C38
2082A
3F80A
2A28A
2A03F
023EC
0CA2A
2ACFF
0B8C0
3003C
3FCE2
2A83C
2A080
2A03C
00820
23C30
00AAA
3C330
30C20
30FF3
22EBC
0C028
2033C
33F0E
0803C
22003
00AAA
002C0
200F3
33C23
0A2B2
0F3C2
28E0C
32FC3
2AEE3
20280
3C8FF
23B20
03EFB
008A8
3F82A
083BC
0CAA8
0C822
08808
3F0E8
022B0
02CFF
3FFC3
30CE8
2800F
3F023
320FF
2BC82
3F0C8
3F22A
03000
3FC88
0C30A
03CB8
3C388
2AFF2
3F800
302CF
03B03
22BEA
00088
03A82
00FC2
3FCE3
3A28C
3FA28
320BC
3ACB2
28223
00000
0AA8E
20000
0008C
3AEAF
32E8C
0AA2B
0F38F
23AA3
2F33E
00FF0
0822C
2E880
32E62
3EC82
2B32F
2A8CF
000CB
08AF3
2EAEA
3E380
0F088
22882
3ACBC
00238
2882F
320BF
3BC0C
3AEA3
2B3CE
3E382
3C88B
30A8A
3DFB2
2C808
3AE88
2B0FF
23AAE
0A38C
0A0C3
228A0
32282
2F3F3
2ACBC
0AEA0
3CE3B
23ACB
03AF8
30EFB
3EE88
02A8C
20ACB
0C8A0
3A8B2
3C28A
3CC38
2033F
08FC3
2AA2B
2CB22
32333
3ACBC
2A028
0323A
2EB3E
3A082
2B28E
0ACB0
08283
28AA3
2AAEB
06282
32E30
238E3
0FBC0
3222B
3E3AF
3C3BE
3AE00
33CF8
3EFB2
33CBE
23AFB
2038E
3CFCE
0EFBE
3CC02
3D382
2FA2A
322A3
33AAB
2FA20
2F8E8
39A8F
3C2AF
2AAA8
3A20A
3228C
0833A
2BB3C
2A03C
0B3C3
30E00
38AA2
0C28B
2BBF3
3C382
0CA03
2BA2F
08203
22380
2A3FF
302BF
3C0C8
3A2B2
0F300
2803F
288AE
02EB0
022EF
2EA2B
22000
208FC
3AEB3
038AF
00FAE
23BB2
3AEBC
2C3B2
220B0
0C800
0AC0A
2CAE3
3ACBF
00B00
02F00
02BAC
2A22B
32EA3
2FBBC
0A0FC
233BE
0EF0C
3EFBF
328AF
0FB2F
3AEBE
0E2F3
32FA2
2A808
3A2A8
2EB30
3A030
270AE
08A2C
3EFCB
3A2AB
3A0BE
2C3CC
3AE8F
003C0
2CC02
20BEF
32E03
0E3BC
2AB0C
03A12
2BF3E
2A88C
2FBEC
0028A
2ACF2
3AE8A
0FBEB
02FBE
3EE83
38FBE
228C0
23C02
28030
2B82C
2A030
3EFB8
3A0BE
0A3B3
33EF8
2AA88
00E03
38EBA
2803F
22AB3
0C223
00000
3FE2A
2AA88
3FFC3
0FFA3
0FA2B
03C20
0C83C
02A23
3EBCF
0FFCF
333C3
2AA20
3E3C3
00CCC
0E33F
203C0
208FC
08200
20ACC
203EF
32F3E
030CF
3C00E
0033E
2FBC8
200E0
0AAC0
08200
0000F
2ABC3
22BFC
280E0
203E3
29A3E
2308C
2233F
2AAEC
2880C
23FC0
2A8CA
2A000
2AA80
0A0CA
2A0BF
3FFCC
2AA03
2A2EE
3FCFF
3FF28
033C3
3C200
2AA80
2A8C0
333CF
0F8E8
20BC3
2AAAA
20BC0
2AABF
00F20
00022
23F30
2562B
2AA00
2A30C
28333
2A8E3
2A200
00BC3
23FFE
008C8
008E0
00A0C
00BBC
320B0
2A822
26ABF
03C22
28A0F
33FE2
283F3
0020E
203FC
3E3FF
1A823
03CCC
20FE0
0EABF
0B3CA
3FBC0
2AAFF
2AA8F
00CA8
203E0
30032
233C3
2FCC2
00FF0
2A8E3
0A820
20A03
2330A
3F0E8
0A03C
2AA08
0A8BF
028A3
28BEB
322C0
3CFA0
28CC2
3FFC2
0CA0C
2000E
0E8CF
2AF3C
0F0C8
20FF8
083E0
2F3C8
0C8E0
20A8C
0FFF0
20B20
0B0FF
22B8C
2AFF2
22B3F
298A0
2AA00
28C00
2AA20
03FF0
22822
00002
2A6A8
0FF20
030C0
2A6B3
0033F
1668C
2A3C0
0833C
280F0
00BFF
203C2
0300E
20C0A
3CF8C
2880E
2A80C
2A00C
0A808
208CA
23F00
3C0CC
2020E
2A48B
28FCE
303C0
020E0
23BC0
03F23
2AA23
24A8A
20A08
16623
283EE
1ABE3
2AA8F
203C8
2BFC8
0AAB8
2A300
00000
28880
2AAA8
29A83
02F0B
2BA0C
2A00C
3F3CB
00CFC
2880C
0FB0F
2AB00
00FCF
20302
223CF
2C3F3
282F2
00000
30CCF
26A72
0BCFF
3FB02
20800
0A088
0CC33
02A28
2A23C
3C2C3
0BCCF
23FCC
32CFF
2823F
3AE33
33022
33F30
3FC30
2AA80
3EF3F
0ACF3
3C88F
33FC0
3CFB0
3FF0F
3FF82
08F32
30A2B
3F0E8
023CF
322B3
2820C
020BF
320FF
00828
3F028
0AC0F
3030F
30FC3
303E3
2AA03
28A82
3E28A
0FEFF
3C0B2
2AA82
3FCAA
220B0
303CA
08C0C
32CB2
038CB
0ACFF
3A28F
0008C
20A00
2AAAA
30CBE
0A0BF
3FCFC
03C0A
3F080
2A0BF
3FAEA
0F8E0
00CC3
3F080
2A23C
03AA8
33000
3AAF3
020CE
322B3
33200
2A80C
08020
2AA83
3FFF3
2AEB3
0008C
3208F
3CFFF
0AE0F
2AA0F
2AABF
083E2
2A3FF
2A2BC
3FA0F
02AA8
0A288
2AA82
3320F
00A8A
3AC00
082CC
3022B
3B3CA
0003F
0F808
2BA00
3E20C
020BC
322BC
2AAA2
26ABC
0AA42
0302F
320B3
00E33
2A283
3A000
3CC30
0E008
0A003
3F02A
2AF3C
0CEBC
08B0A
32C3C
2A28B
222B3
0302E
308B8
0BF0F
38C03
3FC20
2803F
0ACFF
2A233
3308A
3AA8C
0A828
00A03
300C0
20A23
33302
02B0F
2AA3C
000B8
15AB2
3C003
303CF
33A28
0F03F
30BE3
32C3C
2A2A2
2223B
08A0C
0AA3F
3F0E8
3BFFF
2030C
3CCF8
0A30F
2B3CF
15ABC
0388A
38AA2
00ACF
303BF
0FCCF
22FCF
00AEF
0B8B3
238BC
330F3
28823
25AB0
3C03A
020CF
2A8BC
2F0E0
2A02F
00200
3FB80
3A2B3
3C00C
00F3F
3FBE8
28A8C
28800
3C828
00A8C
33BC0
2AA8C
3F003
3FAEB
38028
2A8A2
00000
08282
3FF3A
28F3C
3AE8C
22A2A
3AEC2
20E00
3FA08
303E0
3FF82
3F282
03CF8
3FCFF
302EA
03C2E
088E0
2323C
230A2
000C0
3FFBA
0CFC0
0CFA9
08A20
3CFBC
2382A
28CE3
280BE
028FA
23AEF
3FFBA
0C382
2FFC0
3FF85
3FF2E
0A3CF
2A80F
3022A
3C8A6
20000
038FB
2AA80
08E03
28BEF
0ABC0
282FE
3C33E
2A0EF
2023E
208F3
2B2EA
0E300
2AC3F
3F08A
2A282
022BB
0FCFF
00CCB
2F3FC
3308A
2F3FF
288EF
23B00
00F3C
033FF
2AB30
008E2
28A28
0CFFF
308CA
0C88A
3F082
3C208
230FF
28828
0F003
20083
2AC8A
2A2B3
028A0
2282B
0F80C
08C8E
338AA
280CF
3FC29
20A20
3FCBA
3F3FF
03C02
3CC32
00300
00330
30E02
08CC2
03FFC
2BF3F
2A8AA
003FF
002A6
283EF
320A2
0200F
08A22
28B3C
08CB0
30C0A
2FC32
2CA2A
2E32A
2FFFC
0C08A
2AE22
2880C
20BE3
003FE
288CF
002AA
2A80C
3FAF3
0CF3C
3EF02
20238
2E3E3
2BF0F
28AEA
003AA
080CC
0200A
3C222
3FFCA
2F0CF
00C02
0FC08
0300F
20280
3FA2A
22E3C
2AF33
0038A
2C388
08C8A
023FF
2BBFC
3CCCF
0BA2A
30AAA
0AFF2
0A020
3F322
00A2A
3F32A
28FFF
22AAA
22030
233BC
08200
020EA
32E8A
223CF
280C0
288FF
038AA
0A280
33E2A
0CAE8
222EB
38022
0882A
30A2A
0CF3C
238EF
238EC
3A2A2
2A828
2AAC0
00AC0
032EF
0FF32
203CF
20AEA
023F3
28A3C
2A20C
20A00
2A230
2AAAA
0082A
0C3E3
322A8
3CC8A
3003E
00000
0FF0A
2C28A
0803F
0FF2F
3FA03
023BC
30A0A
3FC3A
332A9
083FF
3F200
3BC3F
32FF3
0A20A
20A8A
00C2F
3F88A
30228
00A2A
3FF0F
002BA
2AA8C
282AA
32C28
0F028
0C00B
00AAA
03000
3FFFF
00282
38AAA
03033
3FEC0
0AAA2
0E800
0E03F
00AA8
028E8
20882
33E3F
2AA80
20B2C
33038
023E3
22082
2E002
0F08C
3030A
3F23F
03EA8
33F2A
3C330
32228
3F30A
0A83E
03282
30028
300AA
32C0A
0CFFF
28C0A
3CF3A
00AA9
3F080
08020
3CCAF
200E0
3000C
03FFF
208A2
0BAAA
0328C
00028
32282
3CF0A
00A80
3028A
300CF
20AAA
0A0F0
0FFBF
080AA
08E00
332AA
28A0A
28ABC
33208
30C0E
00E3F
33EB8
032AA
0008A
3FC30
0F3C0
03CAA
3A8B3
23A28
00880
3FE8A
0AABB
30208
2A0CF
0CA88
0C832
28820
38E8A
00AAA
3FF03
3FEA0
0F82A
28AE8
082A2
332AA
082AA
20A8A
3C3C0
2A28A
28A32
3CEBF
033BA
22F30
20EA0
2A2B3
2B00A
3323A
2C28A
33080
0AAA8
00A2A
2AEA0
08F3F
002AA
28C8F
03833
00000
0F3CF
3C0FF
33203
3220A
02A08
202AA
2A0BF
3C03F
33C30
3B2EA
002A0
32EA8
03A83
00822
3CBF0
3B2AA
03C3F
333A0
00FFF
3FC2A
0A2AA
038E8
3BAAA
30A3F
0FCAF
32F3C
0C2AA
0AA23
0BCF0
0EE38
28228
022AA
33AAA
0C2AA
38AAA
0A3FC
332A8
02C0A
2AAA0
00AAA
08220
080C0
0F2AA
30C3F
00E28
0203F
03330
28A8B
28083
00300
00CFF
00020
320B3
2B8FF
033CF
03AA2
00000
3FE03
02C0C
28828
0F8F2
28BEF
20BC0
32C8A
0F0E8
0FCFC
2ACFF
38332
0E3AC
2AA2A
20BCF
022BF
2C2E3
02A0A
0BFFE
3AF82
223CF
3ECBC
22FCF
0A23C
32032
2AAE8
22C02
3FACF
2333F
0FFC3
2FFCF
0000F
3F223
23BEF
02CCB
238F3
20BEF
20B2A
2AA2A
0B830
20AAA
02CE3
3CCE8
0AFB0
3FBCF
380E3
0A080
0CBCA
3CAAA
032F3
0AC82
0CAB2
2C8E3
0B2C3
3F80A
0FFCB
0E82A
3EFFC
2AAAA
08EC8
30CEA
22F3C
2A2AE
03A8A
223C3
238EF
0CAEA
288FF
208E8
333CF
28002
2A88A
0F3EB
00E3E
0CF00
22ACA
0C83F
3EF0C
23A80
0F23C
3A00E
0FBCF
0320E
20AE0
3FEC3
2A33F
2A03F
288CF
3C308
0FCE3
0203C
02CBC
2B2AC
0F8F8
0F8C2
2A88E
02033
2A003
00C0F
20820
20FC3
0C2A8
3C833
2828A
3300E
30CB3
2882B
3020A
2F328
0888C
3C2B2
0AA3F
0C8C3
3C02A
02C02
02EB0
20BCF
00AE8
28F02
2A03A
0AAAA
0A38C
3CFEB
03AFF
0F222
2AAEA
00203
3F828
3CFC3
08EBC
00EFF
23BC3
3C2F0
20BFF
0C8EB
08300
2CA2A
20AAA
0F3C3
3ECC0
308F0
02808
2BAEA
3FCC8
23A00
00E2A
2FBE3
3003A
2CAB2
22220
2F8E3
02FBC
2FBE3
20AC0
20A2A
23AC2
0B2C3
28A88
0A280
23A02
0CFE8
0FBE8
0FA2A
0C838
0228E
0C0EA
0C80A
3C082
2EA2A
3C02A
02C3F
20CE3
028CF
00FC8
220C3
203C3
2CBEB
283CF
32CBF
2AC03
20A0A
233E3
38FCF
08A20
2CBEC
233CF
20A3F
2A080
038C3
2AB0F
2AC3F
328B2
00000
23BC3
3C3CF
03A80
23AC3
2FFFF
23A28
32CBF
2BFF2
3A28A
2ABBF
2C80F
23F30
202FF
28AE8
002CB
33E33
33E0A
0EE8B
3FFC0
2AAAA
0F30C
3AF3F
302AA
3CF3B
2F8A2
3F0C8
0828A
28A88
0200C
2A9AA
23AEA
2CA08
2A0CF
3F0FF
232CA
0A228
00CFC
2BA32
23AA0
20A3A
28A0A
3CFF3
3FAAA
3C22A
000EB
3030F
2F8C0
3EF00
23A82
0C00A
0CFCF
22AAA
380CB
0CCF3
0CBC0
2FC38
33008
328A3
030CF
230C0
3FAA8
3C8A0
30200
0A3AA
2222A
23A30
3C22A
32AAA
200C8
30A3F
02A08
2FBEA
20AEA
08C32
38EA8
2C82A
3308A
209AA
0203F
302C3
2C8E8
0E088
02FFF
030FA
0A0FF
32A82
088E0
3F0AA
02A8A
302F2
3FF3A
3FC08
23BF0
0B233
3B0AA
2FA28
23AE0
0082A
20C3C
00023
30C00
2028A
0FA0A
30288
3F0CB
322C3
0CCF3
0380A
0CCFC
208FA
32300
28A2A
3FE8B
3028A
0C202
3F28A
3203C
30208
23ABF
3B2EC
30CFF
302EB
28A22
03A38
030CE
3AF3F
2028A
08C30
0A3FF
3CFFF
20A8A
0E008
2AAAA
22A02
03300
233FF
00080
23AEA
3C2F0
082CC
33EC2
2A2A2
2302A
23AB8
208C8
2A00F
3C3C3
2F23A
38EFF
2080A
0C23B
2AAAA
23A2A
0CA8A
022AB
0BAEB
38A2A
30C3F
0BAAA
0F33B
238A8
30ABC
2BA2A
2B0CF
0CA0A
0F00A
3CC38
08ACA
3B3BE
3CC08
02208
28AA6
30EEB
0CC08
28AAA
2322A
02A88
0F000
332A8
0B03C
22A88
0C024
2A200
030A8
203A8
2AA0A
3230C
0A22A
28A3F
2880F
0C808
00000
28228
2E022
2A030
0008A
2EF80
0ACB2
22228
3A282
03FFF
3FCC3
23BEC
28EE0
2E80E
222E0
0BCB0
0C032
288AA
2C280
3B803
00CC8
02CB2
0022B
0BEFF
20BA8
2A2FA
0AC32
222B2
0FF0A
3FCC0
0C30C
2EE33
32FB2
0F3EB
2FCC2
00F32
00833
28800
0E88E
00FBA
2AA82
0A2B2
30332
00CF0
0AAAA
3AE8E
2E33E
02CE2
20A08
08FB0
23AC0
22AAA
30C3B
0CBEE
28000
0CFC2
223BC
332FC
2282E
2F23A
2000A
0CFCE
208AA
0EB8C
0BC3F
282BC
20008
03200
3BCB2
30C0C
2E22A
0F3C0
02F22
0B33C
0E02C
3C30C
32F8A
0A08C
0AC30
0CB2E
0022A
0A0B2
282A0
232CB
032FF
0FB2C
22F83
0C88A
00C80
03CBC
2CF0C
0EBBC
3C38C
2A28A
2A08A
0AEF0
32F32
02CF2
32382
28820
00230
3CF3C
0A3B2
200A2
0E8A9
3BFFE
3B003
3B300
023B8
3208A
3BCBF
3F8C2
0AFBE
00022
00E82
3ECBF
2A03F
20022
0EC0A
320B2
22AAA
0E830
002EA
3AC8E
0A233
20ACA
002E3
020B2
00E2C
238C3
0C32C
30F30
0FC8E
00C33
00800
00000
2A2AA
2A28A
32FB2
0E3BC
02CB3
2EB0C
3F0C3
0A0B0
0AC30
03A3A
008EA
28A88
00080
0C0CB
0AE82
230EC
00203
0230A
028BE
2008A
0A282
3F33E
3B0C3
0A332
08332
32FB8
2822A
2A380
0030C
02382
2AF22
0C30E
003C0
2AA2B
338C3
30C00
0A0B2
33F2C
0C033
2AC8A
00BEE
28008
2ECBC
3000F
202FA
08A3F
3AFC8
2C8FC
2AAB8
22C02
28BC8
02E2A
3CFBE
30FEF
0E00F
0A30F
00000
33800
02A82
322A8
28232
0AE3C
0A380
3ECB0
32CBC
22028
33EEA
3238A
2288B
0338A
0AE3C
300E8
320C3
3ECB0
2FB0C
32C32
20AAA
03AC0
3F00A
3FBCF
0FFBA
0A02F
2A3CF
2BCEB
2A02A
08C0F
2082A
23302
0CB20
28A8A
23F8E
00C0A
2BBEF
388A3
33FC0
2A080
0233F
028EB
20A82
2AFFF
2AA22
3CC32
3F002
30030
0C83A
2AAAA
2AB20
3FF3C
2BBEF
2AAA8
3F2F0
30288
0CF3F
292BC
30CB9
00C30
2FBF2
2A33F
3FCBC
0A22A
220EF
28BE3
2C3C8
0F3EF
2CAE3
3CA3A
30F02
0A20A
0AA0A
2F388
230FC
0208A
280C8
2A8FF
22820
0FCAA
2A03F
3388A
0FFB2
38C33
22ACF
3F23A
0F0E2
3A28A
0283A
328A2
3FF38
0B3FC
0233C
3208A
0AC02
32C0C
28F08
0ECAC
2BAA0
0FFCF
20BEC
003F2
000C0
2A0C0
30F3C
2228A
0F2F0
03C38
220BB
3F83A
0C3C2
2AEBC
32FAA
3C3B2
2ABFF
338C0
003EF
2FC3C
0238E
0E02C
3FCBA
0FAAA
20032
28032
0E388
0832F
000B0
0ABC8
030C3
30C8A
0828A
223EE
0808A
3F020
20BCF
0C000
3AF3F
3E0CA
2A3E8
08303
0FFF2
0F2FF
2B8EF
238FF
2AC00
3B30F
0CC00
3CFBA
32223
303C0
0E323
2C33C
28BEF
28FCF
2AB20
0C03A
288AA
2A8C0
0FEBF
2A8E2
0FF3E
238CB
32F3F
02C0A
0E008
023FF
2008B
0A303
2A00E
08CFF
00CF0
280CF
0C8AA
0C032
23BE3
2AB20
0FFEF
2BBCF
0C030
2A80C
2AFCF
203EF
008EA
2332C
0FBE3
0CAE2
00AE0
3CF38
2000E
0FCE8
3F2EA
32C0A
00000
2B803
0FBFF
08E33
2883C
28BFF
2A8BC
2B33C
280E0
0F3CE
008CF
0F080
280C0
208C3
23AC3
0088A
3CEA2
3300A
023A0
3F3C0
23BFF
00F2E
28BCF
2EC3E
28BCE
0FF80
08E33
3CFBA
232A3
3FF38
088E3
3C380
3C0A0
18ACF
08FE0
3AA8A
3FF8A
2032A
28C80
322A0
232A2
0002A
3EC3C
3CFB8
2E382
38220
3CC00
3C08A
2838C
2BABC
0EF80
2ABCC
3CF8A
2A20B
0C80E
0B2FF
0CEA0
3FFFE
33F02
00AE3
3008C
2C3C0
33322
02FB2
0FF82
3CF8A
30C82
3F0B2
0FAB2
0022F
28A0F
3A233
0020F
2EFFE
30C00
3E002
3322C
00F28
3AA3C
0CF02
28ACF
30C8A
32C8E
28A8B
3FC22
208FF
00A80
2BACF
0C08A
3FC2E
2AA28
3F3A2
3F282
18A3F
2A830
38E82
32300
20A30
00008
022A8
3CF80
30CA0
022AA
22220
038CE
30C30
2C823
00802
320AA
203CE
028C2
3E8A3
38AAA
000FE
28233
3CFBC
3FF89
200F3
0F02C
08380
238CC
23B00
3FC82
0E230
2382A
2382B
38EC0
3FCAA
3AF28
2ABCC
2AA2B
3CCAA
3AA2C
2AC0F
30C0A
32C00
2AA83
2A8FF
03A02
2ECB0
002C8
03C88
3CE8A
00003
0FAA0
23E03
3FC30
2AB3F
088CF
02AA8
0A96A
203CF
3CFAA
3FF08
08A22
00088
08203
0A2A8
3CC80
32CB2
3F02A
3FF8A
03E0A
03AC2
2A0EF
322A6
0C88E
0CFAA
0EC02
3CC8A
3FFFE
02030
3CAB0
03A3C
3FF8A
23ACF
3C828
3FF02
3FFC3
0380B
0CF8A
3CFBA
0F02C
0020A
3FC8A
3CC22
02033
28BCF
322B0
00FCF
2803F
008A2
00000
082BF
000BC
0FA30
3082B
20BC0
00A80
2FC8F
0382A
2B238
302E3
38083
0BABA
0F32A
0028F
2A8E8
2A080
0FC30
30CB2
03000
03CF0
222B2
000C8
00008
3FFBC
28233
2ACBF
2A2BA
030EC
0AAA0
0F23A
0B230
238EA
00C8C
330F0
3022A
0F2E8
33C33
3FA03
20208
3FAC8
0A200
20BA8
32FBF
038EA
230CA
0FF30
0328A
28A32
00AA0
0AEB0
30C3C
03AC0
030CB
2A20A
0FC08
23AE8
000C3
2FF32
30A3B
080E0
0AFBF
0CF0F
00AB2
0F200
238C8
2808B
03A23
2030A
038C0
3CCF2
0A08E
0F33C
38F08
3F033
2388E
20AAA
232E8
3F0C3
20A8A
31FBF
23028
30CB0
3FFEB
28AE8
28228
28802
23A0A
20328
030CA
2FB88
0AEBE
2283C
23A8A
0F802
03C02
28A2A
2AA8A
0BA0E
230C2
288EF
0FA2B
0F30E
2A2BC
000BF
2CAAA
02288
00A8A
2F2CA
0ACBA
02ABB
303F3
28AA0
23803
31CBF
2A238
338E0
20C3F
2A2BF
00B0E
0C0BE
200C3
03EBA
0EB00
23A08
0C23B
3F0C3
08A3B
23A28
20A8A
3FFC3
00AAA
00A8B
3F8CA
23B2F
00000
2FAEB
038C8
28A2A
23AE8
0F208
208E3
0F82B
3F3CA
0CA88
0C038
0F3C3
30FBB
00A80
38EE3
3F8CA
03230
0F8EB
0F303
3FBF8
3C33C
2A2B0
30208
28A00
2A88C
22A8A
28A2A
020CF
28AA8
20A8A
03208
2B280
03AE8
2CFF3
3F8C3
2C038
0ACBF
282C2
0FAAF
0B82E
2AAA8
0382B
2A820
28002
0A083
00CFF
238E3
2082A
0F300
3F3C0
22AAA
0F8CA
30FFF
3C322
33AEB
3F2E8
0A20B
00000
02A28
2030F
33088
3CCF3
3FF08
0FFF0
00F2E
0FCE8
20BC3
0F328
02E03
208AA
3FEE2
30FC8
3F0EF
38008
0AC08
0380F
0330F
28F0F
3FA2E
3303A
08B03
0B2A0
08A00
20C02
00AA3
0FFF3
0CC38
28C0F
033C0
0F2CB
00000
30028
0F3F3
1A8BF
220AA
28E8A
23C0A
0B20A
00AA0
200B0
0AFCC
28A3F
000F8
02088
30830
020AA
33FF3
0A2CA
32EA2
2A00F
02083
3F32A
33FFB
0C20C
2B3FF
0A20A
03FE3
0A28A
083CC
0AF02
0CFB0
2AC33
2AA3F
28A8A
2AA3F
2CBFF
2C3CF
33C30
3CCFC
0FCF3
03FFF
0F3CB
000A2
03283
3C3F0
03FFF
3CF00
280E0
3F2C8
288BC
0A02A
0F3F0
0C000
2A288
32A02
0F33F
3B8E3
3FCC0
20FFF
28FCF
3FE08
3CFCC
2AA28
03CF0
0AAA2
30A0F
28AB8
320A0
033FF
3FFCB
33AAA
00FC3
23828
0FF3C
3F030
0FE03
300C0
3FFFF
30F3F
20A00
38C02
08FE2
3F33F
2A83F
0FAF0
0AF30
0F3CB
32CBE
200E8
2A3EF
3FFF3
0CA0C
0820A
2082A
20203
2A08E
2B8AA
220A8
2A20F
3AF3C
2A230
00003
00C03
03A08
00208
0F20B
3CC03
0E883
0CF0F
3C0B3
33C3A
28BF3
08C2A
22BB8
0CF88
3FC2A
23F08
038CB
0CF02
2A0BF
0E823
00B00
20220
30200
0B2E2
0003F
2A8EC
03CEB
22A0B
0F0CB
0A0FB
03282
00AEB
0F828
2E38C
2A2AC
2A380
0FB0F
3000A
02AA8
03333
2AAAC
2A2C8
0AEBC
2A8C0
0003F
0AF08
200EA
2AABF
2CAA8
288AA
29A83
288A8
2A83C
3F300
3FFF0
220BF
20000
00F32
00000
0CA8B
2A683
30FC2
20C33
002C0
0F003
0FCBF
20B20
2A3FE
3008C
0EC30
0BF3E
3803F
000F3
08FC0
0F0E8
3C333
2E00B
1583F
3F3FC
32E08
0F020
3CFEA
22803
0800A
20003
2ACA2
0C003
0000F
323CC
0000C
00008
3C0C0
20080
00CEA
30B0C
20F32
23A82
03AE8
28F32
2A088
2AAAC
000E3
03F3F
0EC08
2AA2C
3FCC0
0AE8F
00338
2A3C0
2A033
2A08C
23F02
280E3
33308
03CC2
2A20B
330A3
2AA3C
2308F
0CC03
33FF3
2A33F
0F0C2
00020
023C8
0FFCC
2A33F
3F00A
3FFE0
30E08
32302
22A8F
22008
328B0
0C2FF
16ABF
00208
3823F
3FA00
0B0CA
020C3
2B0B2
160CF
28CC2
03A28
08033
2A33F
0A820
0AAE0
2A0CC
2AA8F
0FAFB
08B08
02C00
2FC28
008BA
0F3F8
2AB30
0C80C
0A2B3
22CC8
00C00
0220F
22202
2A80C
2AA03
2B3C0
3BE0F
2A223
00EBA
0A3CA
3CC3F
0220C
0AFEA
0330F
00883
02AA3
308B0
2802F
28A28
2283C
300E8
230F3
023B2
22A0A
3FFCA
2BA3C
0E023
1A8A2
003C3
2A003
03CEA
2088A
00FC0
20BC2
2320A
08CF3
2AA3F
30C0C
1AABF
2B20C
0A000
020F2
28AB0
2F33A
203FF
00FC8
20A30
28333
2AA30
22CCF
200FA
00F30
3E22B
3FC2A
208B0
1583C
0A083
0F3C2
22AC2
3F0F3
00800
00FFA
280FF
228FB
2003F
0FB8A
2A80F
15ABF
03BA3
00EEA
22A83
0FFFC
2A2B3
282BE
030EF
25ABF
02A0F
2283E
038FC
0A00A
2880C
2A002
02FC0
3F3E8
2AB33
2800A
3FF28
3F2EA
2A3C2
00000
02A8A
0233F
3CAA2
3E03C
0FFF3
0CF3C
3FF83
008B2
2FFEB
2888F
200CF
23AA9
033C0
03828
22E08
3C08C
3000F
32CAA
0AF0F
208C3
00CAA
280FF
3FE08
32CAA
0C2B2
3C2AA
0C29A
32ABE
0882A
3000F
0EFCA
0CBAA
282F3
32E08
0CF3F
0AA82
0F033
283FF
00E3C
20A2A
002AA
2EFFF
3F2AA
2A8BF
3E833
0A03F
2300E
08FFF
2C88E
30C0B
30FBC
30AAA
3FEC8
32008
0CF0C
208C8
330C2
3323C
2233C
2A80F
3F2A6
32EA3
20220
28A8A
02A8A
3F3FF
0EABA
2CAAA
03C38
080BF
00CFC
2C30C
32F3A
03F30
0F8E0
20A20
00FC8
00AAA
23FFF
3F0E8
08802
3ACB0
0F2F8
00CF0
28ACC
3C8AA
0BA08
22AAA
2AAAA
33AE3
0030E
02233
2AA8A
3C0BE
322A8
028AE
0FA03
20082
0F3FF
002AA
2FFFF
3CA8E
300CC
302A0
0ECFF
20800
2220C
2F0FF
20CBE
22EBA
33FCC
0C20C
3FCFF
3F3EB
2CCAA
02ABA
33FF0
3FE0B
2222E
32E8F
28C3F
0CFBC
3C88C
202FA
0F0FA
30023
0C82E
3302A
3B0C0
0FFC3
3CAAA
0200C
388FF
33202
00000
23A0F
200BF
3CF82
2BBC0
2B2CB
23FFC
0CAAA
3CA2A
209AA
2003E
00FFF
3ACA0
3CFA8
28E3C
20B3F
30C2A
00AA6
0F8CE
03AAA
3C3C3
302A8
3F0F0
208CC
3CAAA
3C0BF
008AA
302FC
0F0AA
23A2A
03830
3033C
2F8F2
0FC30
3FC30
0AC28
0CAA8
3E008
0FFFF
0EFBF
3F3AA
00082
3028A
02EAA
3C8AA
3FF3C
022AA
0032A
3F02A
3CEA8
22BB2
2AAB0
3FC3F
0FF3C
2083C
2033F
2B20F
00000
002A8
330EA
0F3FF
0C280
3F3C8
33AC8
3EAFB
0303E
2AA6A
088B3
2A0BE
3CCF2
03FF3
0C322
082AC
08CFF
22200
2AAC3
008B8
2C02A
2288A
3CF30
2ACA2
33C28
23883
3C02A
2AAA2
2B8E3
28AB3
0CC3B
2AA30
0A83F
3FF2A
20B02
2A000
2A2BF
33FF8
2C3CC
0ACFF
0033C
2ACB0
0B0CF
33E3F
0A20F
000CB
0A033
028C3
00808
02030
0AAA2
33FEB
38230
0FB0A
3A2AA
0FAC0
2203E
208BC
3AE3F
0F008
2238C
3F0B2
0C0B3
302AA
0AEBF
0AC8F
0A03F
3AEBC
0003F
28EC8
23FCF
083FF
3FC2A
2AA8F
38008
0C08C
000EA
00E32
38200
22B0F
3F8A2
3AF00
2B2E8
2F3CE
3028A
3F3EA
28288
0F3EA
0BF30
0203F
3B88E
33A8B
33033
3CC33
08283
0A288
030C3
2A080
283CC
0FFBB
3823F
0300F
20CE3
08B2E
330A0
333CF
3FFEA
300F8
02FCF
3CC28
0AEB2
033C8
000FC
30830
0FF82
28AAA
0A23F
0FFC8
0822A
200C0
03033
03BC3
33C3F
20028
2A28C
2F282
2BBFE
0AAFF
0FB03
3CF32
3F038
02033
2A8B3
28238
30283
0030C
0F8E8
3FFF3
2A22B
000AA
28823
0C0A8
28A80
0823F
32A03
23880
208FB
3F0CB
00023
2233F
0C23F
23A88
3AEBF
0FB28
30FFF
2A20F
303AA
0C3C0
3FF0A
0A283
03FFF
080BF
20B30
020A3
3FFC2
080FC
30323
330F8
00A32
28A38
0F3EA
0AAB3
0803C
2F820
3CC8E
00E08
08F80
08C3C
0202A
382B3
3F830
08EFF
2AA88
22A00
38288
0803F
0883F
3FFE0
2FCCF
08283
2A0FF
0AA83
00000
2AAA8
30F30
20A02
0EBE3
3F080
3C08F
2A3EA
2A032
2ACF0
02AAA
28CBE
2AAA2
002B2
02C32
0032C
3F32F
2C3F3
2A8EA
33FFC
2A8A3
20C80
00382
33F0F
2A2CA
0AA28
3EFCF
0BFFB
3CF8E
0E082
2800F
02CFA
2C300
20208
0A02A
0E33C
200AE
2A8AB
2228A
030F3
2AAAA
33CB3
3F3EF
2C3CF
22AAA
0F20C
028E3
0020F
22003
3F203
22F3F
0ABC8
2F3EA
2A002
08FFC
3EEFF
28C2A
3FFC0
2A0AA
0AFF2
3A38A
2AFEC
0E3A2
2AFC3
33FF3
20082
00020
0008C
00C3E
3200C
0EF0F
3FFA0
02A80
00CF3
20FF0
33E33
2AEF3
0FFCC
38A00
30FEB
0AAA2
3FF03
003C8
2AA8A
08FC0
0AE8A
02F3F
0A2B0
20AEA
2A202
0A80A
30F30
000E0
328A0
08A20
2B303
02F0C
0CA30
20083
2882C
20F0C
23C3B
28033
2ACFF
223EF
03FFF
30F02
2C028
3F030
38A08
32A2E
0F320
0C823
28B08
0ECAC
28F2B
00FCF
2A280
0EF30
0032F
22020
02020
0FCF8
02222
2820E
2A888
00332
3F303
0080A
2A83A
2AF3A
23320
2A008
0AFF3
0CC08
00880
220B2
2AA08
0CC3F
23FF3
0F808
00FC3
0C882
220A8
0EF0F
2A308
0F322
2A0EA
3CC3C
2882A
2E02A
0AF3E
20822
0A382
02022
0C8B2
2A2A3
0A0F8
0FFFC
3230C
03FFF
0F008
3F300
3FF00
282AA
223CE
02C20
2AFEA
0A8CA
20F8C
22FF0
0C08E
3023F
30F3F
22280
0A8A8
003B2
0038E
3CFF0
2208E
088E8
083C0
0CC3C
2020A
0FA28
2C383
00A82
2AAA2
22AC2
002CE
000C2
33CC8
00000
003C2
3CBC3
2AF0F
2FAEA
2F3CF
23AC2
32030
0C3E8
3CFC2
23008
3A233
3EC0F
22AA0
030E0
0F800
3FF3F
280BC
0EC8C
38EB2
203FB
0EB8C
30C00
2A280
320BC
0BA3F
0FBE3
0B088
23AE8
22808
32CC3
3E38F
0F80F
030EB
3203C
2BA3B
22FBF
38CCE
3AAB0
23ABF
2AEA2
2B33F
2ACB2
0CBEF
388BF
28203
3FC80
288A0
0C28E
2B602
0808E
00BC2
0ACBC
03CF0
2802A
236EB
3CE8A
0A03C
0AAB2
0A380
02AA6
330EF
282C0
32CBA
2AEB0
0AC8F
0EC80
0ACB2
23B2C
0F003
00A8C
2FA08
2BAE0
0F30F
38C3C
08288
3FBCC
280BE
23F00
0AA2A
2F8EB
222A2
3228E
0BECA
2FFBE
3C0C3
2000C
2B8F3
0C82E
2A0A3
0CF3A
3E3AC
32CBC
208EF
230FC
2AEF8
3F00F
2BA80
2C2C0
022B2
0CB2C
0ACBE
03800
008E0
00A00
0383F
0F0C2
3C22E
2A282
02BEF
3C300
2AA80
20AAC
02080
2F3E3
0CB23
32FBC
20AEA
03888
2F838
08A2A
3C0E0
0B0BF
2FBEF
3EC8A
08232
32FBC
08A22
0ACB2
300C2
33CF3
2BAA3
3AE8A
080F3
022B3
00000
0F002
20C2F
2FAEC
3CCB8
2F83F
3CCB2
2A02B
2AA8F
032CA
38C3E
2A28A
3A282
0F000
3020C
2A803
3ACBE
0ACB0
28A82
2AE0F
380B0
22208
0320C
3FCB1
23A03
23BEF
22B8C
00A80
2AACA
32F3F
022BE
3F30F
3ECB2
08230
0ACB0
3A83E
23ACB
08A3F
088BE
0CF33
033FF
0E0B0
0208F
3208E
0F0E3
222BC
0203F
2A8BC
32FFF
3EF3F
28E0C
28CBF
230E3
2B8C3
02CBF
02EC0
38E80
00000
08FBC
3FBFC
0AC30
32F80
0ACBE
2E33C
2A2AB
3F0FB
3F030
0822A
3FCF3
020EB
2A2BB
00AA2
3C3BF
0CFF0
22823
3FAFF
0FBC2
2B8A2
0F8FC
02A3C
2AA3B
2323F
0A030
2AEB0
0F03F
30FA0
23AEB
0B0F0
3FA2B
03E02
0B303
03EC0
082BF
20B0F
23080
32F88
00EBB
20330
2F38C
3F3F8
26A33
2C0F8
0003F
3FB08
22C33
0CBC3
30330
20800
2FB00
2A8A0
3FFB8
2E330
3AEB3
3C230
028EC
02A80
3302C
3CEFF
2AA38
32828
308CF
233EF
22800
2CC0A
2CFF0
2E00C
2823F
3EF28
3EEB8
080B0
0F3FC
22E83
3BEB0
3C8AA
03B8C
300C8
3C8AC
06E00
2C3B3
0F003
0228A
3F082
3302F
0A2A0
33F8F
0CBFF
3FFE8
3F80C
3F820
3A030
3EF33
32330
0CFFF
3EE8F
2ACB0
22300
208B8
20A2C
32F30
0028B
2AAAA
0A828
33C32
00F00
3FFFF
2CF30
3FB00
3FFFC
02080
3CF3C
32088
2AA03
0FB03
208FF
2AAAA
28A2A
08EB2
33BE3
3BF30
2B2F3
02E3F
3CFFC
30CF2
030EB
22FBC
33080
03030
3C2CB
2A0BF
3F3FF
00380
20208
0C00F
3EF02
02030
3EC82
0C080
3E3BC
32382
2AA22
28C03
3FFFC
30020
2A08C
228AB
280A8
00A88
2EFB2
0F223
2A803
22C8F
00CF2
00C3F
2FC00
0203B
30030
2A020
30F3C
280B0
0A08B
3C32F
020A0
3FCBC
03AB3
028B3
230A0
03088
3CAC0
28AC0
2A303
38EB0
20AAA
238A8
2C22C
2AA0B
3FBFF
270C3
2A2A8
2A8A8
0AE3E
200AC
22322
30EC0
0AEA0
2A0A2
2AAB3
2222A
0008C
3F3CC
00000
00AE2
22A00
2BE2A
3E082
2AAAA
22B02
02C32
0F82A
30C82
0AABA
200A0
233F3
200A0
28AEB
0CFB2
008A2
2EEB2
3FC3E
0C33E
0A2EA
2BAE3
02AAB
22088
3F3FC
2300F
200EF
02EBA
380AA
33F0C
22200
332EB
222AA
06A88
3F000
3C0AA
3ECBA
00220
2A228
22F82
0B02B
2202F
2EBAA
2F0EF
3CFB2
32C82
0CC3A
0F8A2
0CF32
00AAA
238EC
3333C
0CF30
28AE3
0FCCF
08222
200F2
2C3CF
3C2BA
23B03
30CBA
2B8EF
3FFBC
20A0A
3CC0C
0028A
2C8A2
0228A
3328A
08EA8
30FB2
2A3B2
0A202
0C3A0
30E20
2082A
00AAB
23A28
328AA
00C82
2B8EF
2808C
0CFBC
00220
080E0
0A208
2A030
2AAAB
0FC80
00AA8
0EA8C
2CCB8
2EB30
0028A
30002
030AA
2088A
288F0
3203E
03A28
22302
208EA
3C0AE
0C0FF
0BACF
02AAA
2AA88
30002
30EA2
2082E
2EF8E
2B0FF
02080
2F0AA
23BEF
0E200
3CF32
038CF
2BAE3
3AA02
0FFBC
2F3C0
0FAA8
3EC32
3C20A
2B00F
3002B
00882
3020A
220AA
0F2F3
002AA
00C0C
30EAA
20880
00000
08AEA
3F032
38AAA
23ACA
30030
20A08
20300
23002
3BAEB
28080
22F03
3FF3C
02A2A
00800
3CEAA
3300B
23202
03CEF
2FA28
3F33C
2BAE0
288E0
28AC2
22A2A
32EA2
00F22
000C0
00A2B
2AA80
0BAE8
08AA0
2303F
0B3C3
2FBE3
0008C
03FCF
220AA
2AA2B
32F02
38AAA
300B8
0C3C8
2EEBC
233CF
2C020
000C0
0BAAA
2A880
00E8A
3F88A
3AC8A
0A280
30C02
2A28A
2A2AA
2E0AE
00000
33A8A
00C2A
0AABF
22AAB
0CA00
22A88
3F0C0
00AAB
2C00A
03C20
3CC3F
2F8E8
3FC30
0828C
2CFF2
0F3FF
3FCBA
2AAAA
0E0AA
0F002
0C322
2882E
20380
3AAAA
00AFF
02383
0EA82
22A8A
3FF00
08A88
0008E
0C8FF
23CFF
008AA
0C8B0
3C33F
0FAEB
238E8
0F3F3
0FAEB
20A8A
2AF30
0A003
208BC
20ABE
20F02
00ABC
2AEBE
02AB3
20823
02AA2
3FBC0
032A0
23A02
03000
0F82A
00022
3CC0A
3E0AA
3CA3E
0CF3C
3C00A
0C02A
3F3CF
0033F
3FBFF
3F82F
28AA2
0BBCF
30C33
30FFC
28A80
023AA
2F320
28F32
0C33F
0808A
2AAA3
30008
02FFF
003EB
0EA6A
3CC0C
2F3E0
2FA2A
2003C
0FA80
2002A
2880B
032C3
2C8AA
0208A
02AAA
2AA8A
0028A
2033F
2A080
02A03
20A2A
3C3FF
3F82A
2A808
228FF
2208A
23CFF
08AAA
302AA
0EA32
3E322
3C3AA
0F2EA
0800F
23CB0
0A030
2C3E8
0C0B0
3E0EA
2A2AA
2AAA0
3CCBA
2FCA2
30008
03A88
08A2A
3FEC3
0C8A2
338C3
032A8
0F0F2
30E2A
0283F
0EABB
2FABE
00008
00030
2B62A
2AA82
0203F
0FA16
08030
2F8EA
30B00
3B202
2AA8C
0C82C
033EA
22AAA
00333
3C328
2B62A
08822
3F32C
3C8A2
0C83F
023B0
38200
0FA08
3382A
0AA80
033FF
3F3CF
020C0
022AA
2FAEA
035E6
0F0CA
03AAA
238AA
0EA20
33E8A
00F3C
3CCFF
0CCF0
3C88C
32A82
2AAAA
003C0
3CAAA
3C0B0
3C3E3
3C03F
30FB0
008AA
3C88C
0E83F
23802
2AA0B
0FA28
2030C
3FFE0
02B20
00000
3F3E3
0230C
0B0E0
2F02A
0FFC8
0AB20
02E88
082AE
2A3FC
0AAAA
200FE
0A38E
2AA33
38BE0
02083
2F83C
0E08A
0F8F0
22F00
203EC
323EC
3AA80
02B08
3C8F8
0A8BF
3F2CA
08302
0BA8C
3A880
0A3EF
2A3E0
002C3
3CBE8
0A8FB
003EF
02B2F
28033
2AABB
0CEC0
28032
0A3EC
28FBF
02F88
0F328
002BF
0A3AE
3F2B8
3E02C
00F23
038EC
3AAA0
32F0F
233C2
02020
02A0F
2AABA
223BE
02802
28CFF
3300A
0ECBA
32088
0ACF8
2A302
028CF
238A3
2F00F
023A0
0E8EC
33E82
08A8B
0A8C0
2B800
2A3F3
28C3C
00228
22F0F
033C2
03F03
3CA2A
2A6A3
3030E
2B28A
2AF00
3A32A
282E2
30BE0
3CF2E
28E23
2CFFC
0A0A2
2ACBC
3FC22
20F03
08A20
0E00C
02200
30080
0003F
0AAB3
0AF3F
3320F
030A2
2A0B0
03CFF
3EF22
00C82
0C80F
30EA3
2F288
20FB0
2A80A
02083
3C0AA
3A32A
00380
3F00F
2A08A
08BC0
3A0A2
003C0
22FFF
02A20
28280
2CF3F
2A3FA
20AB3
283BC
080EC
2AF32
28A0F
008FC
0E8CC
20283
00003
008C0
0300A
28A0B
0AC8C
33F0F
2AF3C
082C8
0AA8F
080C0
280FF
1AA83
3FCB2
33CF0
2BCB8
28003
0A3CF
00AB3
20008
08283
0CBF2
030F8
283FC
02BAE
03AE0
0CFFF
2003F
0FABC
0C30C
3CFC0
20833
02A0F
02E8C
220B2
28F3C
2AF22
00A88
28AE0
0ACBF
03FCC
28FE3
0F030
02030
3A382
0AA8A
202FF
032EF
2AAAF
08FC8
300C3
222BF
0320C
032A2
0282C
2808F
2AA00
003CF
00000
23800
2ABC3
3FA2C
3F0F8
20AFF
03CBF
2A2A2
2AEB0
2230C
2080E
28002
222B2
0CCF3
28A8B
3E02E
0E308
32C0A
2A3A8
08F0C
0CBFF
32F03
0F02E
3000E
2A800
3CA2A
0AA80
00FB2
030F0
03282
03300
0030C
3F3FF
00B03
208E0
3FFC3
3C23E
22AC8
2A82A
3F2EA
2A2BA
2282A
2ABCE
2AAAA
3F820
03C33
28303
33C33
3A0AB
33FF3
0A8C0
0AA82
08E8C
2CFF8
0AFEA
23C33
22282
0830C
300AA
2A2F8
000C0
2AAAA
3E2A0
22F33
0A23F
338FC
00A2A
300A3
3C33F
22B0F
302AA
3CA20
3C0C3
0A33C
200CC
0830F
0020A
0A3F3
3FF3F
28FFF
2A96A
030C0
22A80
2280A
3FFFF
0CB00
02288
0C82F
02F0F
0003F
0A0FC
02FFF
2A0C3
0FA30
00230
0A2A0
3FCC8
2FA0A
0E028
02A8A
38000
3030F
0F0FB
2AA2A
22803
00C20
003FF
32F8F
300CA
38AC8
3CF8C
08200
33CC2
3A28E
2AAAA
0C388
03A3E
2A6AA
2A8A8
2A0B3
0A2A0
2880F
238CC
3F300
02CB0
22AAA
228A8
0FFC8
2ABF3
3200C
2AFC0
20CFF
0BB3E
3F0C0
00A88
00080
28830
23030
32038
03333
322A0
2A83F
3220B
3FECF
08C00
20A08
288E0
2A0A8
0F3C8
28A08
03ACB
223FE
00203
0C80A
0088B
0CB8B
28AA0
00A0C
2A3CC
33E03
0B3C3
08CCC
3F8EA
020B8
222B0
2A00F
02B2A
02C82
232AA
2AA8A
22F3F
28A8A
3C0E3
02203
3F330
2AB23
00CFE
00882
22FCC
0CA22
22A2A
3A20F
03FF3
300AA
3C30C
30FCF
3FAF0
0AA8A
3FFEB
038B0
228AA
3B0CC
00000
2033F
23A28
3A03C
2BEF2
2ACCF
28BFC
00808
23B00
200BC
33E02
30FA0
32A03
000C3
2AB0F
2CAFF
23AC0
28BCA
00838
20BA3
00A03
3E3A8
302CF
2A082
03ACE
033FF
0ACBC
0233C
2B83E
3FCC2
300EF
3E2AA
08EB2
00ACF
238AB
2A3B0
3F0B8
2880F
203C3
232C0
3FF0F
0E0E0
20320
0AEB2
00FAC
03A2A
2CA28
32008
0C8E0
200B2
2A080
2FAEA
0CF30
38003
20BE0
28AC3
023FF
08000
2F833
23023
3808C
0ACBE
200BA
203FF
000BA
00F82
23CFC
30C88
0EAA2
08AA0
23A33
0B0CF
2A83F
2FB23
2F228
203C0
0328A
03B8E
30F32
2BF2C
3ACBC
3B20F
00AC0
0C8EB
2C3F2
0E82F
222AA
028CF
2E8A8
2CBCC
28BEC
02F30
20C80
23BCF
08FA3
20288
302B2
3E220
38FF0
23BFF
3CFBE
08003
33CF3
0E80C
2A8AA
03AE0
00A00
0F8E3
208CF
20BE0
23328
00BF3
0380C
23300
0ACBC
0CF00
3EFBA
238F3
2AA82
08FAC
2B0FC
03AEF
23223
3AFBA
2E3BF
3CF00
008EB
28E28
0C3C8
0BAF3
03AA8
020B2
2BBFF
00AA0
30000
03000
2808C
332C2
28AB2
08BCF
02A2C
08328
3C030
02AC0
2A8AF
20323
2B203
28A3A
2C088
3F3CF
2A8CE
02A20
3C080
00C0C
32E3C
23BC8
2ABB3
2AF3C
038EC
2ACB0
00A22
3CC33
23CC0
20BCF
3200F
0F3CF
2F3FE
0003F
08FBC
200C8
28A28
30CB2
32082
333CF
3EC02
0A82F
3CFCF
30080
000E8
30CB0
0FCCF
0008A
30A0E
22AA2
2ECB0
00AA2
02C8C
28AC8
282BA
3A08C
28A2B
20B2F
00000
320AF
2BB2B
23A2A
32CF2
3AC82
02C3F
000B3
08AAA
0A0A8
2B2C2
3EF8F
33AA8
28828
0AEB0
0AEAA
0003C
0A03F
0CCCF
08E3F
3FCB0
2A82B
30EB0
2A0EB
3FFFF
0CABC
08803
08A0B
0023C
080EB
0FC0A
0FFFF
2B000
30EB8
3F3F3
32CB0
28000
3FCF0
3FEA2
3BCBC
00AA2
22A20
2C8AA
230EF
02C3C
0A0C3
0000F
0CC0F
0ACBA
32C8A
323B0
0FBFC
238C3
2F200
38CB2
032AC
089A6
2C3C3
2A8FF
33083
3833C
203EF
0B03F
2AA88
3FBEF
2B8E0
00EA0
2A20B
20AC0
3CF23
0AFBC
38C3E
3C28F
200B0
30E33
2A8C0
088AA
22AA8
28CCB
0ACB0
03BE3
2AA0C
23FFF
3F2F8
2AAA8
082B2
0028A
02E8A
2BAE8
23088
3033C
2A08F
28A20
38C32
33CF2
2AAC3
280A0
0F003
30C0A
300B3
2B8CB
2EA80
008B2
0A2B0
2BBAF
0EE8A
2EAA8
28EB8
3EA3C
2F38E
3E082
232FF
30C3C
28C00
200EF
2ABA8
23003
0C228
28A23
02002
3A8F3
300C0
333C0
3CC02
0AAAA
3CB23
3FEEF
0FC3C
0F8F3
0AEAB
3FFFF
000C0
3CCF0
0FF3E
28820
28000
0AAAA
33FF0
0AE82
2AAAA
3BCF0
2A2AA
2B8E3
2A803
3BAAA
3CC8C
0FFF0
0FFFF
3CFE3
3CEC0
3CCBA
3FC0F
2B8E3
0CAAA
2FAEA
23FCF
2EE00
20E80
0A28A
20300
22C00
20A00
3E2BB
0FF88
28AA8
32AA8
08320
2A18A
0F0CF
0F800
03828
00003
38C23
2AA00
2B8CB
30E08
20828
0C323
28AAB
030E3
3F080
038E3
32008
2BA28
2BAC3
0CCBE
3CC2A
0A230
3033C
3C32A
33C02
03FFC
00000
33CC0
2B3E2
283CC
008CF
00AA8
03AAA
0F232
3EFB8
30CAA
330C0
22028
30F0F
02CFF
3ACB2
002AA
208C0
2C0BA
3F300
2088A
3CCBA
23FC0
0320A
0828A
2F3E0
0F828
3E308
33C8A
0CA88
300F0
0CEB2
002C0
383FC
3FF32
233EC
2A080
3EFF2
23A20
22A2A
2A0E3
3CFBF
2BCBA
22B82
0F3E2
02302
2F3C2
0228A
280BF
23BB2
08BA0
22AAA
0FB2A
00F3C
200A8
2F30A
2A28A
30F32
02B2E
23C8A
03BEC
2F8FF
0CF28
2BE2A
0EFBA
3E08A
32CFC
0A3E2
3CF00
3A38F
0C8AA
2AAAA
2AB80
20882
3FE3B
0882A
0BFB2
22FFF
2BAEA
2A3EF
220A2
3F0F3
382A8
2F302
3CEE8
30022
0FE8A
2AABF
3CFB0
03FFC
02802
2FA38
0B8AA
0E382
3E3EA
0AF2C
2C0B8
2AF3F
0828A
2A838
3E82A
3CC0A
0CAA2
0FBC0
2AA82
2FC3F
2AB0F
2FFCC
0FFFE
32A28
0F8F2
3F0B0
2AB8A
2ACBA
2F8BA
330AA
0B00A
33CA2
3FCF3
00AA2
080AA
20F82
2032C
02BE2
00200
32C8A
3FE00
0BB20
00FA8
2F0CF
2202A
202A8
0030A
2FFFA
022B8
28202
28200
3FFA2
0F3FC
2AFFF
30022
3E08E
0AA2A
28E3F
2A2C0
022A8
23A2A
22828
2FBE0
223FF
00BE0
0C82A
2FB2A
32FBF
2F323
33000
2F320
220B0
20320
2CB22
0A2A8
0A823
3223C
0EAAA
2AA02
3FF32
3FC82
0F0E3
32CAA
02AE8
0C8E2
2330E
33ECB
2AF30
208BE
3CC00
0A088
32CF2
3F0CA
233EA
0C3CF
2FBE3
32002
0AEB0
22C0A
32F3C
000BF
02800
3CC32
2C022
0AE82
0EAAA
0FC02
00000
3223F
0A28A
00803
28AB0
200FF
20BCF
33CB2
3FFF3
03CC8
02C32
000E0
30F3C
3CF33
08C03
0F2A8
003CF
0FA82
2A2B3
0F8EA
0A33C
2AA8B
32F0A
0F2C8
2A6AA
23A8F
02200
00802
23FF3
3F320
2AF02
28A28
2A3CF
30FB0
02A8A
0B822
0FBE3
008A0
20C33
0BC2E
3F3CF
28882
22222
30CB2
2382F
1AAB8
33C0A
2FAE0
2008A
008FF
230E2
2AA8A
038A8
20ACA
0A008
00088
3FBE3
338E8
0F002
22A8A
33CAA
3AEB2
3F000
33EB9
3F3E0
208E8
283CF
03B03
3C200
003B2
233CF
300E0
00200
0203A
0C8EB
3AAB3
0AAB0
28280
288EF
23ACA
32C30
3BCFF
2AAAA
0F0C2
23AEA
32C32
220BC
08C83
03A8A
3CCE3
08F2A
30228
0CAA2
2C0FF
030C3
0F000
2A820
0F330
023CF
3E0C3
00002
3B23C
28280
00F2A
3028A
2A8AA
08A8A
28ABA
0CEEF
32223
0E3BE
23AF0
20A2A
222BA
0AE8E
38A28
0FAE8
22EB0
0A2BE
3FCFF
02A8A
080B2
00A88
20AA0
0F0C3
2CC00
33828
3FFFF
20A8A
3CC32
0BACA
030E0
28A2B
230F2
30F23
00000
0FFCF
20A8C
28203
03A2A
030C0
33AC0
3FC33
3FE80
3FCFF
28003
3FC3C
24AB2
283FF
3EC88
3F0E3
28A28
3F000
302BE
0200F
2A2BA
0AE30
0AE8B
0CBC8
28A03
288E2
000CC
0CF30
032C0
30FCB
3C823
2A2A2
3FCC0
0F0CB
3F3EB
00ABA
32F00
00CA2
282B8
0830F
08E80
0C808
0F0F2
02AAA
38C00
08C80
03820
2AA82
08233
0002C
2F0CC
03AEB
200B2
03800
2EF33
00FBE
2BA2B
00000
0AAA0
0F0FF
3F0A8
2A8A8
288AA
00030
2AA3C
1AA8C
1A8A2
3FE33
2AE0C
2BAA8
3F002
2008A
3802B
0003C
208C0
2AAAA
0F80C
20A0A
2A80F
20F80
28A8C
1AA22
0A0FF
2AFBE
2A03E
0BC38
0A03F
2AAAA
2A08E
0003F
002AA
2A220
03C3F
0FAA8
28C30
33E3C
3CC0F
2B8C2
2A300
02333
22F3C
2AE2A
0F0F3
3C028
20FC3
1AACB
08A20
2A882
2A23F
00300
20022
1AAB0
03FC3
28A8E
023AC
238C8
2BAF0
20C83
2233C
38E30
22C28
0E08C
00888
08E3F
0F828
0E0AA
0333F
03CC3
30C03
0EF00
2A28A
20888
2BBCC
02F02
28A83
30828
3C220
3EF8C
3203B
2B200
28020
0F8A2
3CF00
0FFE8
200AA
22AAA
2202E
2C8C3
200F3
3F0C8
28AA8
2A8EC
0B8C8
33033
3CF22
2A00A
08C30
203B3
203F0
2880C
2A082
030F2
3BFF3
0F3BC
28AA0
30CBF
22ACF
28A00
3CFC0
2AA03
2AAF3
0233E
2EFF0
228A0
30CAE
288C2
00882
23AF0
0C3FF
0303C
3003F
2A282
08EF0
0B200
282BC
222EA
2AE22
23A22
3F0C3
1A22A
23AA8
20C00
00003
2AA82
20A0F
00F3E
2E00F
0F082
03233
303C8
3CEA8
2CAB2
33003
3FCF3
2AA20
2A380
3F0E3
30C3F
2AA8E
00A22
03F0E
3C880
200F0
2ACF2
33F33
3F2C3
0FBAA
0002F
28803
3B0F3
0FFC0
002A8
28C30
32CBC
2A880
03F3C
03E3C
0F00E
0EF0F
20030
0BBC3
0F0FF
20302
00030
203F3
0CC30
0C33C
03FFC
03300
0ACF3
033C8
0F8EA
0208F
0822A
3FFEF
3CF3F
000CF
23F28
2AA0A
00000
3FF30
0EAE8
0F8A8
03FEF
33A2A
0C018
3C022
3C3EF
0FF2A
3FFF3
200E2
00300
02C2A
0F32A
2F3E2
222A2
03AE2
00C28
00022
233C2
02EC3
20828
3F8C8
2CFE0
2FAA8
300EE
3E38C
0F02C
3CC3C
2B2F2
00228
33AAA
203CA
233E8
230EA
20820
2AAA8
0CBA2
228AA
32FE3
33AA2
020B8
02322
02B2A
3FA2A
0E32A
2AAA2
00A28
3FAA8
20AA8
0E0EB
320CF
208E0
00F28
2AAAA
3EFC0
230E0
0222A
2C8A8
3F3FF
2E380
3C30E
3E32A
3C0E0
0CB2C
0AAA2
00822
20B23
03BC3
0E822
0EAAA
00AEA
2C3C3
0302A
2E32A
02803
3CC2A
0C328
03A02
3FF32
0A022
0F3E8
0F8EA
0FF28
22BC2
03FC0
0CBE2
3E38C
3E320
3F32C
0C3A3
0E088
3FCEB
3CBEA
22228
0A02A
0AC2A
0EC2A
2282A
02882
0C382
2FFE0
2FAAE
02322
2228A
03820
0F3EF
20AAA
0A20B
0C303
2BFE0
0E2E3
3E22A
00A82
3EFEC
2CAAA
2200A
0E328
338E3
3C328
2CCCF
020AA
3CFE0
0CFE3
2002A
2F320
0AAA2
2FA2A
2C02A
238EA
33AA8
20CEF
2082A
300E0
20000
003E0
2F3EA
3F320
3FFEC
3E020
2CFA0
30FCF
30CF0
030E3
23A2A
0CA20
0C3EA
0C82B
0030A
0FBE8
238EA
003CF
2808A
2CBE2
3B32B
200EA
0329A
2FB22
3F82C
208AA
3A08F
208AA
3FCE2
3C3EA
3FFEC
220AA
0EFAE
0F82A
23B2A
00020
3CF3C
2A2AA
32802
228A2
000EA
22B2C
0CA0C
3F0E2
00F0C
2302A
0282C
2AAAA
20828
228AC
0AAA0
20AAA
0CA2A
200EA
2F802
0F3E2
230EF
00000
220AC
20828
08230
28AA8
08E00
2AE08
0BA2A
332EF
2A2A8
33008
08A0B
3E323
33CC0
2A3BF
08028
02FFF
020CA
32A0C
3F3FB
28F33
0F032
0F2A0
22BBE
00A2A
3880F
0ACBE
3ACBC
0BC00
30E0E
2E3B2
03A88
03CF8
2883F
0CAE0
2020A
0AFBC
08803
030EF
2BC00
3F3FF
00230
003AA
30F3C
30CBF
2020A
2CA2A
00032
03830
08C30
02083
3F828
00CB2
288AB
3C30B
33233
033EF
2CFF3
220AA
0F8E8
3FA2C
38F3C
32028
38EAA
3E20C
0BCBC
3233F
28C3B
20002
0F322
2BA28
28803
03A00
30280
3F3EF
32C02
00200
0F0F3
3B080
30022
0A280
302E8
2F8C8
33B28
3E32F
008A8
0AA3C
28A88
3FA00
3000F
00FB0
0B02B
0CBA8
2222F
33E80
02CB8
020F0
028A0
0080C
3FFCF
2BE30
3AC23
00CF8
32CBF
30C0E
0FC20
3C8AA
30AE3
0F3CF
08808
08B8F
2B2C0
00800
0000A
3AFBF
3A038
00330
03B0F
28A30
28F0A
23AAA
2F22A
3C0EF
2028A
0232F
32003
33828
2AC00
030C3
28AAA
0F8AA
08C32
02223
28832
002CB
20008
3FFEF
0CA08
2A0B0
3CF23
000C0
3E3E0
0BE00
03A23
2BFBF
0B303
03CFF
0FA0A
0023B
3E3E8
0F3CF
0CB2B
38F03
333F3
00C03
2FC22
2AA83
22FCF
0FBE3
2A282
0F030
0F0C0
03BFF
2A2AC
3C22B
3FFCF
0F2C3
3EF2F
383CF
3FFEF
3CA0A
08CF2
222B0
0A03F
00CBC
22CA0
30C8C
30C3C
0F8EB
38C3A
3FBC3
3AC30
03C3A
020B0
3ACB0
030CA
3F33F
3F0AA
302C2
0BC33
030C0
32333
00000
2AAEF
28A00
032C3
0F3FF
2AA0F
0FBCF
0B3F2
2AB8A
2A2A6
0F002
28AEC
2AA03
20220
2AA0F
0B288
30302
00FFF
23AFF
2833C
268CF
0AE28
3208A
022A8
3FFF3
28AA3
322BF
080E3
20023
3CF88
2AA28
2802A
02A03
2AA3F
00ECB
0FFCF
000A0
223F3
2003F
2C3CC
08A28
0AAE3
3E80C
3F2AB
030C3
0FFFF
0EBCF
3FF3E
0C3CF
203FF
20800
000F3
3FCC3
2AA2C
2AF2A
2033F
000E8
3C0CA
0FF3C
2ABC0
08FFC
302AB
33F38
03FF3
3CCA8
30A00
20AA0
20A23
0F88A
0ACBE
0FF3F
0820A
033F0
02AC8
3FCF8
22008
0ACE8
2A2AC
0FFFF
2E3FF
3FCC3
3CA82
0F0FF
02200
00332
2A023
3F02A
266CF
0200A
288CF
288CF
0A02A
0AA22
0B8F3
0300C
38AEA
002C0
0F0EF
3000A
00A83
282A8
223B0
2B2E3
22C8C
0A3F3
203C0
088C3
08808
0F0B0
0A838
30A30
2FB0F
00B2A
30F30
30283
0A0AA
33C02
3AA0B
322C3
0AA2E
303FF
0833E
0AA00
0F033
0A3AA
2AA2F
0FFC0
3F3C2
28F0B
28030
0B3CC
33EC2
2B8E2
20B0C
0C00A
000CC
0A823
03BFF
20803
080A2
03BEF
00000
3F20A
0F033
30828
38C03
238F8
3FFFF
28CC0
00CC8
03803
0A8CB
3C038
0222A
0382C
382FF
2AA03
28000
22820
03A23
0C03C
02A00
00830
0F828
2AC00
28A0B
0F82B
30F8A
3F023
003FF
2A830
3FCA0
28203
0E08F
03AE3
2AA03
3FAC3
30AA8
2E030
33288
00A83
3C838
32283
03A28
38203
0A28C
0BA22
3333F
0FC3F
03E2A
0033C
038C2
20000
280F3
22FEC
020BF
0F3FC
0F003
038C0
0AF3F
3C3F0
0A088
0A00A
0AC03
08F0F
33CC3
3AFF0
03FC0
2F03C
20830
20AF0
2830C
2AAAA
03B2A
32F32
0202C
033F0
0B23F
28B03
2A2AA
03FE2
2A28A
26AAA
220E8
280CB
2A28A
300C0
2C003
2AA82
0B0CF
0FCC3
200C3
3ACC3
202AA
38CBC
0A200
2A628
2002E
328AA
023C0
0C08E
20BCE
0F0FF
38CF0
2AA8A
30303
33FFF
0FCEC
38328
20BE3
0E3A0
0CFFF
288BA
2A0FF
2C3FF
02300
2AAAA
2A280
00F33
008A2
02380
23FA8
0F3FF
3FFFF
0F80C
0A328
3AAC0
3203C
0303B
03300
20C20
30020
2ABEC
2C828
2BA2A
3EFCC
2A08A
3E088
00000
2AA28
228A2
0A023
00FF8
2A08B
0230C
0F3C3
0FBCF
008AA
2000F
28E33
3C238
0C0F0
2AAAA
28338
0B3FF
0FFFF
22B02
03FFF
02CAA
0C300
03CC3
33CC0
0ABF2
0FFE0
238C3
0233C
002C2
0A2A3
2AAAA
30CF3
303FF
03CE8
0C30F
3FFF2
2ACFF
08AEB
0ECE8
30E03
380C3
23008
3A08B
2003F
32F00
2A2A2
0A002
2AAA8
2B080
00000
3C0EB
20083
2F3CF
02F88
03883
02C88
08E3C
20A8C
33F00
2AA0B
238EA
03B3C
0FFFF
03CFF
023C3
2A033
252AA
0F8C8
0A03F
0C00B
28820
23FFF
0B028
2A80C
02CFC
2A08A
0F00C
03008
00C00
33200
0CCE3
3AC08
3B0F3
0A283
2CC32
0A22A
23BC3
333FF
2AAB3
28AB0
0AAA8
0AAAA
208EA
0A2A0
0FCF3
2AA80
20A2A
08208
22A8A
0203E
2AA8C
2CC3F
2A202
2AAAA
002AA
0B3CC
00000
082C3
300BA
3FCCA
24E2A
2A2AA
0A2A8
0F2E2
28AA8
03BFF
0030C
3CB28
3FFF2
30C0F
2A82C
0A3CF
0822C
2A0C3
0B0E2
30BA2
3CFC0
000CB
2A80C
2082F
38CAA
2C3CF
0A280
330CC
2AE88
00080
3F022
0000A
2AE2A
0223C
0200B
28083
0022A
3E083
3FFE0
2ACE3
3FF3C
2CB02
208EC
3FE3A
2BE30
202CB
082EC
2008B
2AAA3
26A8A
2A02A
0B208
0022A
0A303
2A8AB
08C33
32F2C
3F8E0
308CF
0AB23
08822
300CC
30F00
33EFF
00002
3328A
02E32
08320
0BA3A
3F838
2AA23
2A82F
30E3A
0B228
03223
3BCC3
2AE3C
2A028
0BC0A
02CB8
03333
282AA
3323A
3C3CF
3C3E0
0F202
22C28
2230C
0F0AA
00F8C
00202
0AE82
3C202
2AAAA
2828A
038C3
06000
30C3B
2833F
0CCE0
030E8
30C2A
02B8A
2A80F
382C2
00F2A
0302A
08228
02202
3282B
28A28
0280C
2828B
2B2C3
30C20
00032
3B0EB
3C3C0
30202
2A2AA
08ACF
3EFBC
3B222
28208
0F3BF
3FFC3
33CC0
3A288
3CBEA
032FC
00B23
08A2A
2AE8A
03808
32222
00000
20383
08A2A
26EC3
3C300
20028
3CC0A
30CAA
0AF02
2880E
3FB20
33FB8
0BEE8
2AFC3
3FF0F
282A8
2E020
3FC0A
3FCF8
3FF0A
288E3
28033
22F23
3F0EB
2FE2A
2AEA0
00AAA
300E3
28ACB
3CF30
30C08
02C0C
3CF00
0FF3F
3CF03
0E000
230C8
2AEEF
3C3C3
28C0A
20C03
0AC08
22800
2C88A
0C3CA
3CFC3
03A22
2BC33
028CA
00033
2B280
3FFF0
3B2E0
2082A
3BA2A
303EB
0A2A8
00000
303A2
23023
33CFF
0E0B2
0A2AA
3AE8A
0FCC0
2B2C8
2FFCF
2F3F3
33FB2
0BCF0
0C2F3
2A28A
288C3
0AFF2
3FCC0
32FBC
08AA2
2A28A
003BC
2AA83
3C000
3CC3C
00CFC
32CBA
320B2
0AEF2
3F0A8
3200A
3F03C
3AC8A
2A288
3F03F
3AEBA
03A88
3C33C
2C033
3AE3A
030C2
2008E
0A802
3FEBA
0A222
00E32
3B2CF
3CC02
23E3E
3A9AA
3EEBE
2E8BE
2C883
3FC3C
2A8BC
3AE8A
2F833
3FC0C
3FF3F
2C032
0C0CA
30C32
333C0
3F083
03BAA
332A0
02280
08AAA
3ACB2
0AAA8
38C08
0A03F
32C8A
330BE
0302C
23C2F
03E89
288A0
3AAA8
32002
32CF0
0AC03
2E0BC
0F3EC
03A2A
00823
3232A
2AF80
3F8A2
30CCA
22800
0330C
03002
0AEB0
08C3A
03CE3
0A2BA
0C2BA
08232
20A03
30C88
0FAC3
328BA
3A2BA
0028A
02E3A
22288
000B0
3A2BA
2F83C
2C880
0CFBF
02CB0
0FCC3
30CBA
0EC3C
0B208
22A2A
3CEBE
320BC
0A020
0F33F
02282
31CB2
2B80B
3F308
2F3C3
32F33
2C2E3
030EF
0FFFF
3A2AA
3CCBE
2AA89
0B808
00200
232C3
02883
3ACBA
2FB03
2EC80
0C82A
0C038
30FCA
08EB8
3FB02
22038
3EFBC
0A282
0CAC8
3A380
0F8BF
0F820
2C0F0
38C38
00B3C
3CCB2
32E80
0F82C
30EBA
3238A
02282
0A220
2AA8A
2303F
02323
2AF8A
2F823
2CC0F
0F208
0388E
30C08
32C00
2220E
0A2A0
32CB1
20200
02008
2F00C
33C0A
22C22
0AA28
02EBA
283AE
38000
02A8A
08E28
2A0FB
3ACBA
2AA2A
28A0B
3EE0E
00000
0AF3C
0FCC3
0CFC0
3AE3C
3CF3F
32F80
3C003
23ABC
02FC8
3F2EA
0000A
0808C
3F80A
22F8F
03FC0
2ACBF
02FB3
20382
3F800
0080B
23BE2
3FCFA
3833F
20C08
2B03C
2833F
23B82
23E80
2AA03
282BF
20803
1A3B3
0C0C0
2F038
0B0AA
2AABF
20F82
30028
0A0C0
0A080
0EF3C
0CEB3
2AC3F
2A56A
03E8A
0F220
0AA8A
08030
0A08A
3A0CC
33F03
2A028
0C00A
0CC30
23A88
0823E
0A83F
00AB8
0FCC3
22CB2
2A33F
20F03
0080A
0A2BE
2AAAA
2AA8C
000C3
228AF
08A2A
0BFE2
30FFC
0CC82
2888C
020F3
32EB3
0B02A
3283F
2ACAA
0F228
08B0C
2A00A
0FC2A
0C328
028AA
3F02A
23C2A
200C8
22AAA
2FAAE
0FFC3
03C0F
3FC33
32C3C
32080
0F302
28C00
00C33
200C0
0020F
2AA0F
0F2B0
2880C
0A00C
33C3F
2C0EF
33A20
303A3
380A2
3FF3F
0C33F
200C0
30C02
0CFBF
2A33F
232E0
2A80F
2338E
00C3F
28FEC
3FFC0
3F0E8
02E3F
28FF0
0AA22
0F003
0F82A
2A880
02AA2
3F3E8
3F3AA
2A3AF
02CE3
08ECB
083C0
00000
00030
308C8
0A080
3800B
0F32F
3FFBC
02A82
0FFCF
2230C
3F080
30A0A
3FF30
3ACBC
3C828
02288
0C30C
25A8A
2AAA0
0233C
0FC38
3CF3C
30C33
33FEB
2A0BC
2A3BF
2A0BF
08CBC
3ECBC
300E8
3208F
2AA83
2AEB0
0AA3C
00223
0F082
0A00F
08F88
20283
202B3
0A8BF
288A2
0B2FF
0FB0A
2A03F
23CBF
2A2BF
2AAAA
00FC3
2B8A8
2A2AA
2AAAA
3FC03
28E00
2CA08
0F2E8
2232A
00000
03F8A
0F022
2CAA2
028A8
002BF
020B3
2A233
0E3B2
3F8AA
0F33F
28ACA
3FEF8
0AFE2
3282A
222AA
2CC80
2CE8B
20AA8
03C3C
0C208
2028A
3FC28
0FBEA
0089A
0A2AA
28AB3
0CAAA
30088
238FF
0282A
233A2
3F880
3008A
00CAA
3E3CF
0F3CB
38F30
3E0FA
020B0
08282
320AA
0FAEA
22A80
000F8
0F383
3FC20
03ABF
0A88C
022B3
0AA08
0F0A3
038C3
3CCAA
0F28A
3EF3F
02080
20033
3C2AA
3EC82
03A20
22ABE
0AA0F
30EAA
0F0FF
30A28
3A00C
333F3
23A3E
03302
0AC0F
0222A
0003F
20C38
0AA22
3FC0A
20830
3FAB0
22AA8
2CC00
22ABF
33380
3FC23
30CCC
20033
0CC0E
02A00
3CC8A
2B0FC
20E8A
3FC2C
2A0BC
03C3E
3F288
0F030
23A2A
338A8
3222A
3C2AA
3FC30
3B8FF
00C3F
0A3A0
2AAAA
30020
30282
0F0B0
223B0
03FFF
0F388
22380
0082A
208EB
2008A
22030
2CAAA
230CF
0802C
02AAA
2AA83
3002A
00C03
3C08A
08083
2E0B2
0A28A
03C3F
0000F
0C3A8
3CCA9
3CFAA
20B08
0C02B
0FCF8
000C3
02800
33CB2
3F02A
0CB02
3CE82
2BECA
30F3F
0F0CF
00A20
2CA80
3A02A
32FC3
0F2AB
02AAA
0200B
3FFBC
3FCAA
0F8EB
3A082
0C3A0
02CA8
3CC0A
3C2BA
00C0C
0AAAA
0FF00
23C0C
0BC32
0FB83
3FF02
03F02
02C3C
0CE03
3E28A
00CFF
0F0FA
2B8FF
0C00A
33CC8
332C8
0A8AA
0C020
33AC3
3C02A
2383F
32C02
038C0
3FFEB
3F822
0BAEA
30FE0
0F0EA
302BC
0FCFF
0302A
0FFCA
0C03B
00000
3F003
00323
000AA
322EA
32EBA
3028A
0C828
3C302
23ACF
003E3
0E320
0CF02
3E382
3CC00
2BA3B
3CC2A
0AAAA
08AE8
0E38F
30C00
3FFF3
30282
2FACF
0F0EB
2AAA2
38C2A
0BE3F
303F2
3FC3F
3FFBC
2FFCF
3FC3A
3CBC2
0F3E3
3C03A
0033F
233C2
000AA
3022A
32383
30EBA
28EA8
203E0
0202A
28AAA
200EB
0808A
008AA
30EBA
3E082
0CA18
00E30
3E38C
3C22A
32CAA
022BC
2A3CF
28A2A
3CBE0
0ECAA
0C3C2
0F028
0C83C
083CF
3A0B8
3F22A
0BF3C
020C2
008A3
3F02A
03CFF
3C02A
2B803
038E0
0E0A0
0B03C
32EE3
32ECA
3FA2A
0FF02
28C02
03AE8
0CB0C
2ACFF
2BF3F
262FF
3038C
28FCF
30FCF
2C3F8
203CF
2CBE3
3EEA9
3228A
0A0C0
0FCF3
32C3A
00E08
3E02A
0BEB2
2C0F0
3FCFA
3E28A
3C02A
2CA8A
33F0F
083A3
3C0AA
3FC32
0BA0B
2A02F
03EBC
28AA8
38EAA
23FFF
08023
0FFCE
0E0AA
38C0A
030AA
0CFE3
2EFEB
00CFA
02CA3
3A888
0FBEF
0EAAA
0CC3F
03AE8
2CBA3
3C8AA
3FC00
3C23E
0C0B0
00300
32FAA
2AAAA
30CFA
0C0FF
32C30
280C3
33303
0B0C0
02C32
22AA8
3C8A2
33A16
3CE0A
2F8E8
3AC1A
3C3EF
0030F
0C03C
300EA
3002A
3FF32
0C2AE
203CF
3AC2A
0E8AA
33282
08AAA
3AC2A
0CF02
23F02
3C80A
20F3F
22AAC
020E0
20B0F
3800E
0EC0A
20082
3000E
3AF32
00C3C
32CBC
0E833
28082
2C0AA
0283C
033AA
0A23B
02200
300BA
32F02
08AAA
3CC0A
0CF0C
0C0AA
0CF30
00000
2AFC0
22AA2
33C0F
0A3CA
080A0
280B2
2283F
0A0E0
220F2
203CF
00C00
02332
00FF0
2A3E0
222B0
0CA28
18003
08B2A
28A8A
08FCF
2CB2E
0030F
003CF
2A828
222C2
28308
2082C
2AFE2
20030
2003F
22BAE
2A3AA
208A3
2CF0F
2AFE3
2CBEF
2E0C3
203CF
2AFE0
0E3C0
02380
00022
2C8CF
2C0EA
28080
28822
2A008
200B3
0C08E
23A2B
2AAA8
238E3
2E0CA
08EF8
2A30C
02A2B
22A08
18CF3
2E020
00202
20BEB
200CC
2AACA
20220
0F803
03AC2
20A2B
2AFE8
2A003
22FF0
020B8
2A000
2C8C8
0C820
2E3CB
02022
03B02
288A0
0B00A
2FBCF
20CAE
20B8A
20F33
00E88
2AAA2
0CFE2
22FE0
28A20
00FC0
00C3C
0CB2C
22822
28FE0
0FBC0
20CF3
2AFCC
020C2
00CE0
22203
2CBC3
228C0
2A02A
3F883
20AC2
0282A
2A0AA
2A028
2ABE0
200AA
20AA2
2203C
0002A
22A0B
2FBCF
22BAE
208C0
22233
233E0
03080
2882E
03020
0A28A
2AFC0
220CA
22FFB
2E32E
2AA2A
20ACE
0AFF0
2FCC8
2A800
28C0A
003FF
0002E
00000
2A328
28823
0CFE3
2EB2A
00003
1A8AA
080E0
2002C
20FE8
0EFC2
2A0FC
20AA2
0A3E2
0C02C
2AFE8
0A8A0
2F3CF
2AE3C
00F33
0A83A
22020
20FE8
1A802
203FC
28AC2
0C30A
2A2CF
22FEA
02032
2E023
00AC0
2A820
2E00C
22000
2A008
2BB20
22FEA
220E8
2F02F
22CCC
20220
2A000
2FBA2
2300F
22000
22822
2CF23
00000
238E3
20C22
20300
2A028
2AFEC
0C3EF
03FCC
2AC08
00000
0A082
000E8
222FF
0ABBC
0A23C
2233F
3B0CB
23332
3FFEA
3C0CA
0F220
030F3
2A333
2AA83
0FF3A
2E38C
033C3
3F3E8
0F8DA
0BCFF
0F3EA
08080
3A003
0F3E0
2CCC2
2AA0F
33C2A
2230C
3F8C0
0BCC0
03824
20B0F
28EFF
3FFE8
2882F
00028
28C33
00F02
22FFC
20BAA
0C880
0E0CB
2A0FF
02B3C
3030F
038AA
0288F
2C008
028AC
28A83
23BE0
3F808
000CA
33BAA
0883F
3FCCA
3FFE8
028E8
00CBA
0AA3B
2AAFF
3A0EB
3FFE8
33AEA
2200C
22082
23F8A
2FB00
33300
22FFF
22FBA
2AA3F
2F30E
3208A
0E2C3
203FC
022A6
32F8C
0F3FA
283CF
2A88E
3F8EA
33C38
3CC26
38EC0
22B28
28C33
0CAAA
28320
28883
3F02A
028AA
2A3BC
2F8CF
3ABE8
2EFFF
22FCF
0C3CF
02CBA
2F003
38C2A
2ABAF
2AABC
28BE3
2CFFF
088AA
0F80A
0CCB0
2FBE0
3CFB2
32FE8
22A23
3E2C0
288CF
3F22A
0F3C0
20C3C
2AA30
20320
028E3
00322
22FFF
20BFF
0C3BA
000FC
33F0A
2A8AE
32EA8
08CFF
3BEE8
22BA2
2CFCB
2A0FF
2003C
00000
08FB2
00300
22B3F
30CA6
2FB03
3AEAA
0A03E
2AABF
20302
33F83
00FB0
00BE8
2208F
3E02A
22382
330E8
20802
02F82
2FF3C
323E0
028E0
22CC2
3ECAA
2AB0F
0FB3F
2FB22
2EFB0
2A082
030CB
02C8A
0330C
3FCE6
00FEA
3CCAA
330E6
23BCF
2A03F
08CF3
00CC0
280CF
30C2B
2B300
3FAA6
0303F
30FA2
223C3
0B83F
0A020
20ACB
02822
0F0FC
2A0F0
2A00F
2FAF0
3F200
20280
00000
0A0BE
038E3
0AEBF
08F8F
388B0
03B03
00A2B
230FF
3F02A
08E3F
3F3E2
23FFF
30E8B
02F22
2C3C8
0FF82
0F2EB
2A208
3FAE8
3000A
203FF
2A288
2AF82
202E8
0C32A
0EF8C
32F33
08882
02030
3FC33
0CA23
33030
30C30
20802
02AA0
0ACBC
0008E
0FF82
0FC00
0CB8A
0AB33
3F3C0
0230F
200BF
0E3E8
3CA28
023A8
33B88
02A80
00F0E
3BBE0
32C33
0FBC2
28B02
033E8
203C8
3F3CE
0C2EB
0F8A2
3E22F
02003
00AEB
30AEB
3033C
0ACB3
0F382
0AFB8
28A8C
0B300
3CAEB
3FE3B
208C8
0BC0F
3C000
30CCF
20F2F
08A3A
02AB3
3CAC8
02E00
0A08A
3B22A
22AAE
3F0AA
302E3
00A80
00F20
33A2A
2F3BA
03B8A
0FA22
0FA2B
2A33F
3883F
382CC
3FC02
023A2
00328
0CC3A
02F30
0F888
3C000
32CA2
0FAEB
3FBC2
301BA
00822
0308E
20FEF
2AB08
0F03B
283F2
3F02B
22033
3FB20
3C030
222BA
288A8
08BBE
03AEB
3B2FF
0FAAE
0A080
0833C
0C082
03AB2
0ACA2
3C0BA
0022B
20AC8
0228A
02BEF
02208
0A000
00000
28FBF
2A88F
0833E
00CEA
23C0C
0CBAA
30C3C
3AEB0
0EF0F
0F88A
332BA
08828
30008
32AA8
088BE
3CBC0
02CB8
0AF8A
300BC
33CC3
2232E
2CBAA
3FCAA
0208F
3FF00
380A2
3FB0A
2A382
280CB
2C3B2
0883C
0822B
0FF82
3F0AA
3382B
30C3E
08CB0
330C8
02CBC
008A2
02C8E
32300
0F8E8
300BF
3F3A2
320B0
0A380
0238E
38008
2AFA8
23AB3
08A0B
00A82
0B23C
03AA8
008A2
00000
0A8B8
3FCCC
2230F
0828C
3AC80
3E833
338FB
2A2C3
2CA0E
0823F
080E0
0030C
0828B
283CE
2FC0C
2A8BA
0FBF3
30802
3FAE3
3BCE3
03B2E
2AA20
28BAF
03CC0
02030
0F8CF
0C32F
22C8C
2820C
008EB
332AA
022BC
08F30
32A80
020B0
0F8E3
32EB0
02EB0
30088
38F83
22FCC
0FA28
0FA3B
2AFFC
3B2EB
0C22A
08823
2A8EB
3C022
2A823
3CFE0
0033F
020BB
0AAB0
38C3C
0FF3E
3F8A2
03AC3
00EA2
0F33C
2F8CF
333FF
3F200
28EA8
0F0EF
002A2
2C023
0F3EC
320B0
302C3
2AE82
32F0F
2C82F
0088B
2BAEF
0F3AC
0FAAA
3EC00
080CC
0F830
00C38
33FCF
0A2B3
3FB02
3AE23
028C0
0AF0C
2F2C0
200CB
32B0F
3FA2A
3FA88
023AC
33208
20BEF
0C000
32CA2
3C0CB
32F32
2FAE3
30080
2800F
2A2E0
0FBC0
3FBE0
30083
3C033
38C30
2EFFF
3C00E
32E3F
0EFCF
038EB
0F8E8
3FAAB
2F3C3
0A33C
0F3FF
0CF0C
033F3
0BA0C
0028E
3A200
2F88F
32080
0828F
22A82
30003
2A0B3
0AAAA
2C823
3233C
0E223
00003
000EC
30CBC
02283
0838E
32CBA
0F3C0
3C0BC
20333
03CB0
3F300
322A0
30CBC
33003
32A08
38A83
02CBF
32280
22803
00CFF
3CC83
38A3F
023FF
0A830
3FF30
0F0E3
2CB3F
303C3
3C3F0
2AC00
02F83
3F33C
0AE8F
3CA82
0AEBB
3CC08
3FA08
03AE3
0823F
008CC
0B0CF
00323
0F3FE
00828
3F302
0F8E3
32CBA
0B00F
208CF
02C8C
2F8CB
30E88
0FCF3
33CC3
33C0F
08EEF
3CC8B
300B0
00000
3CE88
2AA82
3288C
0FA32
0E082
00A82
0AF82
32F3A
32FC2
3EFBE
2F3EC
283EF
0AC82
3ECB2
0C3CA
0C023
3AC8A
000E2
3A3AE
00CBE
0A288
0AE2A
330EC
3228A
0CF30
02EBF
0EF82
0E802
3CF8F
02B32
323B2
030BE
022B2
0CC08
3FABC
0C3EC
0E3AE
30F8A
0E3BC
3E880
30082
2A3B2
02F8A
22820
222B2
08332
0C030
33FFE
20A81
0E3FF
30032
2CB2A
02BA2
3C3E8
2AABA
32380
2ABA2
0EF81
02CB8
303FF
3ACB2
3ECA2
0EF81
2C8E3
0CB2C
3FCAA
3C0E0
2082A
2A8C2
3C28E
2E0A2
22A8A
303C2
0CFF0
32FB2
2333F
0AB82
2C8AA
2E802
3ACB2
2F0AA
3E0A2
32F3C
020E3
3AC82
323BF
3ECBC
09AAA
323AA
0FF02
32302
0A02E
3C3A2
00F0C
3CFFA
3C3BF
0F8BC
20CB0
0C3C2
0C00C
323B2
323B0
3003E
3E33E
28BBF
0A22A
0AF8E
2C0EE
30EBE
03A2A
280A2
0C83C
0E3BA
0A0BE
020B2
0C3E8
0CCB2
00200
3C8B2
3EC8A
33A0E
3A308
3F8BC
02000
3CF0F
32CB2
0F822
0208A
3E0A9
0232A
0CA8A
3E302
0FF3F
0CF02
00800
32FBE
02AAA
3F8BF
3EF32
23C00
0A382
2238A
3080E
0E88A
0EFCF
230AA
3A281
3F8B0
2FFF0
02BAA
3EF82
3E020
02CBA
008A2
3CC32
0C3BE
0C382
0EC8A
00882
0F33C
0F3A2
3FC32
3CCB2
3E3E0
00FAA
0032E
0EF82
2EB28
3E32C
0AFA2
320BC
0FEBC
2238E
0C3E3
32BBE
2080C
2FB2C
02082
32C3E
0EC32
200A8
0A2B2
00C8E
3C3CC
23A3C
22028
3A2B2
0008E
3F300
33C32
3EBEE
00000
32CAA
0B208
3FEF3
3E2BA
3CFC0
3CF03
0CEAA
382A3
28AEA
2C3F3
303CB
208E8
3ECF3
0A0FF
2A2BA
30FCC
3CE69
2322E
3F2E8
0AFCC
332CB
0833C
28AB0
38AA9
2C83F
203C0
2FAC8
3CC8F
3FFC2
28202
0BAEB
08303
02FCF
08AEA
00F30
002BC
302E3
208E3
30FF0
0F3CF
28233
302E2
0C800
3003F
22E8A
00AEA
0C002
0C2BA
33CF3
0F0CC
3BABA
3F280
2B2E8
320C8
00F00
28A2B
3FAE3
0EAA9
2A22A
30C8A
003C3
3FC8A
00A25
33802
08FB8
003CF
232BF
0FC3C
2A080
3FC02
3EF3C
30FE0
30A2A
0F0E8
0F2EA
2A880
03220
3CC00
0C8E2
28C28
3E0B0
00AAA
02EEB
02A28
282C3
33A3C
0ACF0
3F238
3FCC3
080A0
03ACB
33208
30CF0
3CF23
0A08A
2A330
2828F
0C00F
308E3
08002
20AAB
0233F
3CC3C
3CABA
0BFC0
08A88
08A8A
303FF
3F230
03AAA
0F3F0
38AF0
2CCA9
28020
23ACB
08000
328E3
28232
3FFC0
00A85
3CC3C
08E2A
000F8
28003
203C3
30AEA
3E800
00A2B
0AEAA
2BAEA
3BE0A
330E0
0A0FC
30000
32000
08AE3
0028A
3003C
2BA28
02C03
20AA6
3033E
3FCBC
080CF
208EB
0F000
03AA9
08C00
2CB08
0033F
28AEB
0FA8C
3EA20
333F3
30EE2
38C0F
223CF
03618
0003C
3003F
0003C
3C02F
2200F
088E8
23023
3EC20
22A28
3CBE3
0F8EB
03A2A
230B0
3E20A
302E8
2003C
3AA30
2A823
3BC00
0B228
00030
3C0CB
0200E
22ABA
0088F
0E082
0A0B0
2A0BF
0CF3F
3E3FF
0A03C
2A08C
088E3
00000
32AAA
3E38B
0F3E0
08AA8
08A28
2A0EB
2C8EA
28A03
0232C
2CFB0
22B0C
3CBEF
2ECA8
200A2
23BCF
03A2A
2F8E8
2BAA6
3C0C0
3F322
000BF
0A0C0
2FBEC
2A828
30CC3
2FBE8
22202
3FA22
20ACA
3FF2A
028BF
20B9A
30B2A
020A0
0BA28
28002
3A000
08FE3
200E0
3E3E8
00A03
3EBA2
0FBE2
2AA28
028EB
0C003
038EA
2A828
226A8
200C0
280EB
0F0C3
32303
2AA8F
3F3EF
2A02F
3FC3C
0BBE0
33B2C
30C20
2FB22
2B8E0
32BE0
22A02
20022
3ACA2
23B22
0C00C
3CF3C
23B28
30B3A
3F0E3
0A8A0
038E0
2C8E3
288AF
0802F
2ABAA
0AAAA
2222A
000CF
2888B
0008C
0282F
32F0C
3FC03
2C8A8
008BB
32C2B
3EC2C
3F3EF
3F020
2AAA8
2A82A
2002B
003E0
003C0
23E0F
00FEE
03000
3FFC3
000EA
2C8CE
3F0E8
3FB2A
3C3C0
2A02F
30CE8
2802B
288AF
3FF3C
2A8FF
208DA
2F8E8
0C3FF
2B028
00302
008E2
0F303
2B3E8
0C38C
3F8AA
00BC0
2ABAC
3C0C3
0C82C
0A82B
3E322
0232C
0A28A
2F8EA
06280
020CF
0CCCC
00000
2ABCF
2AA80
0382F
30FFF
00A03
3CFCF
0F3C3
23FE2
22828
33020
3CF20
080EA
20A22
303A0
080EB
02303
3F30C
33FFC
033EB
28826
238A8
3CB28
3FFCF
2F3E8
0FAAA
0FA80
3832A
33A2C
00B0E
003E3
0A3AE
32F0F
32C0C
3EFEC
3C82C
2F0FA
238E8
0CCC0
230A2
3F3EC
08CE3
2CFC0
023F3
2F3EC
3FFE2
2F0EA
000FF
2A0C3
033CC
2AA20
2A8E0
3FFCF
0FBE8
0ECFC
0A333
2AE8F
00000
0B0C3
0E8A0
0A28A
0CCF2
22082
2E2AA
2CBEC
2238A
382B2
00F02
222EB
30008
000FE
2E0BA
32E82
0A0F0
0A30C
0CFEF
003EF
2AA82
238E8
3C00E
022B2
232EB
20EF3
22ABA
0FFE8
3F0EA
00CCF
08A0A
2002A
3A2BF
30C3E
2BC28
22C00
2A830
2B2C8
28F03
2C0F3
3BEF8
3FC0A
20FCF
20288
2A8BF
2A830
3E30F
0AABC
08CCF
2228E
20880
2A02B
2FCCB
28C28
0CF3C
2ACBF
320B2
3E3E2
2AF3C
08CE3
2ABFF
2AAAA
2A80C
00F30
3F300
0828A
200FB
3F2C0
3C38A
0BA8A
2030E
3FFE0
0AA8A
020A8
28CC8
00F3E
08C08
20800
02000
0C3FC
2080C
2AABB
2B8E3
0BCE3
0CCFB
3C08A
3FCC2
32E02
0C820
3C388
03CFC
0882A
000CA
2200A
0A030
3F3CE
0ACB3
03FFC
2A300
2AC3F
3A03C
2AF3E
03E3B
2A020
2E38E
20FFC
3F000
00FFC
2A0B0
233EB
30E22
03BE0
3CC80
223FC
0AA8A
03826
00A30
20FF3
2A8CC
0E28A
2230C
3F02A
20FC3
33AAA
0A0BA
2BEF8
3BEC8
2AA8B
2AEC3
03FFE
08E2B
38A83
0F822
0A38A
008C0
00022
0A88A
2A2CB
30EF8
033AA
22038
02FA2
00EC0
08203
0C3B8
2BECA
08202
2BAE3
22C38
33CC0
0A2AA
23823
0A0CA
232F8
3AEBA
02F3F
2338E
22CFC
2F3EB
3AE38
2CFBC
08F3F
20CFF
3F32A
33F80
200BC
2203C
3E8BA
2BCE0
28FCF
0C3EC
00C28
08FF3
2233E
23233
08C3C
0BCE0
00833
08228
2AA2A
2BCF3
00E02
020B3
08238
022A2
08C32
383BC
00222
022AA
20802
00382
3F0A8
00000
03E03
3AE00
2EC23
2FBF2
2BA00
0828A
0208E
0F00A
3E380
30FCA
0A002
02A08
0888A
032F8
0F238
230C8
3A30F
30BEC
023B2
3BCFF
0A8EF
38203
03BCF
08AAC
28038
20AEB
0C8E0
2B8F8
333C2
03CC3
32223
2A3E0
2BCCB
3028C
2BEE8
2AAEF
0A0AA
0EE3A
0BCB2
3FA0A
032E3
22CF2
08AEB
2FBC3
082BC
2ACB2
03030
0F33E
23A20
238EB
308EC
338EF
3AEA2
3F300
0083B
3E8A8
2803C
2000E
38E0A
33A28
0BAC3
0A830
0EBA2
08B2C
2B8EF
203F8
22AEF
2FBE8
0C82B
38CB2
2ACF2
3B2A8
3FF08
30CCA
23C8E
0F0A0
03CC2
2F80C
0EC8E
08008
0C808
38ABC
30C0A
03208
32088
00C22
38A08
3C3C2
2833A
30232
0E33C
02C32
23AC0
230EC
20A8F
3CF0F
28ACA
0F82F
0F2B3
038E3
0EF32
032C3
03A2A
08800
28C3E
3F2AA
2C30E
2A2F8
30A8F
3FB20
06EBE
032A8
3C83E
000C8
3E028
28B2F
0FC3A
0FAE3
20A08
3020E
3CC30
20E38
38CCB
3C288
30CCA
30EB2
008CA
3CE30
20AA2
3AE80
23BF3
39A6E
3AECB
0C208
30CF0
3CAB6
0FB8C
23AEB
3EC8A
00200
3EC8A
00AEC
2B030
23AFA
00E8A
3203A
00B0E
2FB2A
38F02
2C0C8
020A0
288EB
0F03A
22208
2080C
08AA8
0AE0A
0E0B2
1BAC3
0BFF8
0E8CF
032F8
2B03B
0EEA8
3E800
0082B
3E3AA
20ABA
00EB8
3230E
008E3
03A20
00F3E
2BAE3
232CB
0E8C3
22003
0020F
3AAEB
2FC3A
28AC3
0F8F0
0F2F0
2B8EF
033F3
2AAFF
0FCCC
08028
2A0C3
00C2A
3A08A
00000
3CFCB
032CC
228A8
3AFC3
3F3CA
3FFE0
00AA8
0BCF3
03AAA
3CF00
332C8
2AA28
3B228
03FC0
38EC0
003A8
008C2
02AAE
0FA00
20FE2
238A8
0FA2A
0803C
28AA8
0B082
2A32E
0F03C
0AFCF
30330
08F2C
0FAB2
33FE8
080CA
23AAA
0FFCC
00F08
08303
03303
3B0B8
00C0A
0FCC0
3F382
2AFFC
30FC3
28808
3FA80
3CC00
20A2A
3FFE8
0F3EA
23A3F
00CF0
03828
3F2C2
0C3CF
0320A
2030C
38A08
03C22
00C3B
22F0F
0883F
00A82
002BC
00E8A
00C0C
2AF0A
00CC0
02CF0
33288
0FA03
30FF0
33AC2
0F3C3
3CBF2
203E2
3F02E
333C3
3FA2A
22BC0
2AA3F
08ACC
0B30A
032B0
33220
033CC
2B3EA
28A08
38E0B
28C3C
00A30
3C00F
33FEA
3CFE2
088E2
2832A
333C8
3C03C
0808A
0EC28
0B822
23FCF
00002
20BCF
3F8EA
2F00B
03A08
3CC0F
2BA30
30CC0
2303F
0C20B
22AE8
20F20
2FE32
3AFC2
380E3
2ABCC
0FFCB
20A2B
0083C
3CF83
30FCC
0C02A
033E3
3FC0B
020FF
03880
08A2A
2B88A
20FEA
03BC0
0A8E2
202F3
00000
082E8
223C3
203E8
3F282
0ABFF
3F820
2C283
30F28
3FFE2
0FFF0
2BE03
00AC8
3FCF8
03002
0BFC3
0F22A
00A8A
2B38C
08A2A
00AE2
203C0
233C0
3328C
203E8
0FBE0
2833C
33E23
2AFC0
2822A
0AFF8
30F0F
02AAA
03030
30C08
0FA80
2EF22
00A00
30BC8
28CB3
22FC0
02B08
00FB0
0FA82
02FC3
3BCC3
0AC0C
00AE0
0E2AA
2203F
083CB
2A222
008BB
3CFC3
00020
02220
030C0
00000
0083C
300CC
02FFF
0200C
3FCCF
20033
2A2EF
02C03
2882F
3FFFF
203AC
0230F
2AAB0
2AE3F
08F2C
0038C
2A8BC
28288
0A0BE
2A33F
32F0F
00080
22A2A
2A8BE
28A8F
2C3C0
28EFF
32CE0
0C0C2
2A823
0200C
3F8BC
2A80F
0A38C
0A00F
0C3E0
2AABF
2AEBF
2A0FF
2A30F
2AAAC
3CAB2
03BE0
00030
20C0E
38EB2
023FF
2AABC
23280
2A880
2ACB8
28F0E
2AABC
3820F
2AABF
02203
02222
2A88E
0ACBC
0A2B3
20BC8
2A28C
16A8C
0BFC0
02BFC
2A3A0
2CB03
280C3
0AEA8
2A8BC
20880
0AC3F
28A08
02B0C
0A0F0
30FFC
3A800
2A882
2620C
2C000
2AAA3
00C0F
2A2B0
0AC0F
2AFFF
00FE8
2AE3F
0A0CF
02220
22FCF
008C0
3C002
0230F
020BC
2A08C
0003F
2AAA0
3BC0F
250BF
0CFC0
2AE8E
2AA8C
2AABF
2A28C
38CFF
0AFCF
0A23A
0AC0F
32F8F
2B2C8
22A3C
0A288
26A0C
20BC3
03CCF
003C3
292B3
2A0A2
3FC0C
2A280
30FFC
088BF
220F3
38B0C
2AA8F
2AC3C
0F2B2
2A0BC
2A2AF
2AA88
238C3
2A288
2A20C
2A8B0
00002
32C3C
23FFC
02ABF
28C3F
33C33
2823F
2A80F
2AA8C
0AA80
2A08C
2A280
2A0B2
033B3
30FFC
0AFCF
0A0BC
2A203
2A083
2A33C
038BA
2A2AF
2A0C3
2A23F
2A8FC
0F0C0
0F83F
2ACBF
3C8CA
22FCF
2A00F
2208C
28A3F
2AE3C
0AC8C
228FF
3FFC3
2AAB3
28200
20BF3
2A000
280CF
0C82A
3AC0F
0F3CF
060BF
0F330
206AA
2A020
2A88C
08ABC
30C0F
0CCFF
000FF
0AFAA
0AC8A
2AE8F
00000
288A3
0B0CF
2AA2F
2A82B
28ACF
230FF
22B28
030FF
0AE8A
00F03
02080
0BE30
2FE2A
3FF0C
3C8EA
2A8A8
208EA
00AAB
000E2
2030C
0000A
282CA
0000F
28A28
2B80F
30FBF
0AAAA
38FFF
02CFF
30FF0
0EC0A
2AAA3
0EF2F
02022
3F023
23023
028F0
23020
2CAE8
0A0B8
0082A
2AAA8
00F3C
23BE0
2FAE0
003CA
200E3
20AA8
2AAA3
2CB20
0FBE3
2B00C
2A02E
002AA
0E08F
0B82C
0C280
2EAEA
32080
0E20A
0CF3C
0C8E3
2ABAA
00AF2
23AA8
28AA8
0308B
03F0E
2BFFC
2F0E0
2CBC8
3CBEF
32C3A
2C3A3
2A820
228A3
28A22
2AA88
0F22A
32CBC
0F2F0
2FA2A
0200C
3ACAA
00F0F
00ABC
00323
0E028
3A220
0C830
0FC0A
223FB
03823
003EB
28BE8
0C822
222BC
0F8E8
3F2F2
30FCE
230C2
28A2A
2AAAA
2C3EF
22A9A
02F8F
028C3
333C0
3C0CA
3E3FF
08CE3
2CAE8
28AEA
33C3E
022AA
23022
03230
2B302
32C3F
2E2C8
080F3
0AA80
30FC0
00C00
20282
082C2
28A28
02280
2082A
0A222
20020
0E0EF
00F3C
08303
00000
33BFF
2382B
0A8A0
033C2
3EF08
3C30C
00F30
30320
300B0
02BB2
2B0FF
22AE8
0AA68
000B3
3F3F3
0C8AA
2C020
28232
030B3
2C0EA
228E3
0FC20
0FFFF
228AC
22AAA
28AAA
20000
38C80
08200
0B3F8
30ABA
00002
2200C
3FC0F
02202
32C30
22AA2
20022
00003
00BA0
02E00
003BC
000E0
00F3C
28E33
23BCA
22AA8
2A000
238E8
28A22
2BBCB
0CF2F
3F3F3
030F0
03030
2C3E0
00000
2AABA
0A280
3EF30
0C223
23800
008C0
3CF3C
00280
3EFF0
2B820
3CC0C
3FFFF
003B0
008E0
3E20C
2B03E
30FBE
3A2BA
28A00
20000
3A0A8
238E3
3EF3C
3A26A
32CBE
2CB00
39CB2
00020
03828
0ACB2
3AEAA
32F8A
2BA28
02AA8
30CC0
32CB2
32288
2A23F
28280
320B0
2ACB2
0AC48
08003
3FC23
00E30
0E002
082FC
0FFFF
020BE
2BAE3
2BB2B
3AE7A
22A8A
38CA2
2B80E
3EC30
3A28A
3FC3E
2A2AB
3B2E3
0BCFF
0CFFC
3FF30
3ECB2
3ACB2
02C3F
3AC30
32CBA
030A8
2BBF8
03CFF
080CF
32C8A
23A2B
30F82
0028A
0AF8A
3EEA8
0AFC0
23AC0
282B2
3228A
23A2A
3CF0A
238CF
0CA22
28A82
02C8A
0EF8A
3FFAF
0AA0F
3ACBC
3EC0C
0F0B0
3ECB2
0E00A
00C3E
202C3
02233
3CBA8
00FFC
00228
2B30F
3ACB2
0FC88
20A28
020BE
280C3
28F0F
0AC0A
2A28A
002BC
3CFFE
208C3
2A08A
30C38
0C0E2
30F30
3C883
3CF82
0CC80
2A24A
2FAC8
3FFFF
002AE
28AA8
280BE
32EA2
3CFFF
20AAA
022B2
2AAA8
3B003
0A08E
00030
2CF3F
0CC08
00230
08CF0
0BC28
02F00
0AAAA
29EBA
3CCBA
032B0
30EBC
0A28A
2C2B8
2083A
20003
0AAAA
3AEBA
020BE
3EFBB
0CE80
3EFB2
0230F
2A00C
32FA2
080AE
38EB0
233BC
30E3B
3FFFF
000B0
3303C
33FFF
3AEB0
2FAAA
32CB2
208C0
02CBE
203C2
32C30
28082
02CBA
00A8A
0AE82
0F023
020B2
3EC8A
2BE02
0ACBA
39C72
33E32
32F00
238CF
20FC3
30FBE
2C23E
32AA2
00000
0C8F3
20B0F
32FFE
3CC20
3F2C3
3F8C8
0A0FC
28AA2
08C0F
008FF
23330
2AC2C
20A3F
2F0C3
03380
0C0A8
32202
0A28A
2AA3B
333FF
028AC
3E02B
0AAAA
2AB00
0C02B
33C32
032CC
30FF3
0CFE0
2803F
3203C
30033
008FF
00BFF
3F3C0
0CEBA
2B002
2883B
3F282
0EF0A
0F820
3FF3F
3CE8A
3FF0A
022F3
0ACBF
3FC2A
3AAA8
3CFFB
3A8A9
2A8A2
30CAA
283FF
0F2AA
3FC3C
28208
2C0BC
2A80F
2083F
3CC00
0208A
0A00B
283FF
2F2EA
302BA
2CA8A
0F002
3C3B8
28ABF
0FA80
0B20F
3F0FF
08232
0008C
2033C
22203
238A0
3CF33
20FF0
30C33
0F2F3
02828
0B0CF
23300
2003F
2A880
002CF
2A8E3
33FF3
288C0
0008F
2C33F
33A20
330E0
3AC02
3FA38
2A0EA
3C008
23A20
022B0
2E033
3C300
008AA
2233E
00003
22FC3
00023
3F80A
0BAEE
28A0A
0FCFF
2A28A
0AA08
3EC3A
23FBF
3C0AA
0B2EF
0CB0C
0EF33
0A20C
2A82C
33C03
3CC32
23028
23830
20023
3C280
28033
2A80F
2233F
3FF3A
0C8B2
0A8B2
00280
30000
03328
02F20
32EBA
2803C
02A20
2003F
000B8
3FC8C
30300
08202
083F3
0A20F
300A8
28380
03C28
2820C
0FC0A
0FBC3
323C0
0A8B8
0330F
0F832
2082F
3EC0A
03CAA
00A88
208C0
28220
0030C
230C2
23AAA
2B802
23830
2BA2A
2A33F
3CCBA
2AAA0
2030F
3CFCA
222CB
3C03A
0320A
2A83F
32CB8
2BA08
0F282
28A80
0302A
0808A
30288
02380
3B8CF
3FCF0
2A83F
2AA83
02AA2
00000
000B0
00008
00030
0AA30
0088F
0A0BF
3CFFF
0002C
0A000
00303
0C000
00020
02000
22000
00300
00203
32303
000B0
00300
08282
00002
000C0
00000
20808
00000
00F02
00000
0800C
00000
00080
20000
20000
0C800
00000
000A2
2A808
00000
00C08
00300
00023
00000
00000
00020
08A02
2A30C
20088
2A880
00333
208BF
28080
02000
00030
00200
08000
20FC0
20000
000C0
020E8
00800
00000
2C300
0E000
022A0
00000
28020
00000
00000
0000E
00000
02803
0080F
0238A
0000F
00000
02000
00000
08A80
2083F
0000C
22000
08000
30002
00803
02020
20000
00000
08AA8
33020
00003
00300
2000A
000C2
288B0
03080
00200
00300
00000
00000
2AA8C
00000
00C00
00000
200C0
00022
00000
08222
0830C
083C2
00000
0033C
03000
30300
0A3FC
00000
20808
2A280
00000
22000
00A3C
02BE0
00000
03000
02822
20000
000C0
03000
08000
00000
00F00
02002
20280
00C32
000A8
00000
00000
2A820
08882
2A0C0
00008
00000
00000
00000
00000
00000
00000
08000
08A30
00000
00000
082A2
22000
2AA00
22000
00000
0C000
00000
28202
08882
0A880
20300
08030
22320
00030
00028
03C08
00000
20820
00008
2A00E
33002
0CCE0
0028A
00000
00000
2A302
00000
00000
2833A
02000
20303
00000
003C0
00000
00003
20000
00000
08228
0022A
00000
00000
000B2
00000
0CA08
03FE3
30F3F
0EC0C
0CFFF
02C8C
2F82A
0282A
3F0E3
0332F
0FCF8
2B2AA
2AABC
0C80F
0A1AB
0A02E
2AA8A
0AE8A
03B23
20800
33FF0
0F000
0FBE3
00322
3E22B
0FCB2
0C0E3
3F08C
3CF22
2BA80
03FC3
3FF3C
228CC
03C2B
020BC
0080F
00328
2AAAE
2ACB3
23A2C
20B2F
3AC2B
000E2
3E080
20CBF
08AEB
0AFBC
028E3
0CFFF
003E8
22AA8
00C2F
3FCCB
2082C
020BC
28AEB
33CF3
2A9AA
33F23
0A0AE
32FC2
2AA82
23413
0FBEC
003CC
3A880
0082A
3FF30
00FFC
2A2B0
30230
0AFBF
302A2
33FCF
0E028
3232F
0F0C3
3CFFF
208C3
020BC
08280
2A0A0
030F3
3F3EF
0F3EB
33A88
238B3
30F23
233CC
0BFEF
0B3EF
030E3
22F3C
0EF02
2A2AA
2A300
3F20A
03880
2AAAF
00300
3C8C3
0E00B
003C3
28BAA
0A22F
0F3FF
2282A
0AA8C
2380C
3C238
002CF
0E08E
20BAA
0EF02
3FFEF
20EE2
2832B
20822
0CC80
2AAA0
0F3E3
02C20
3FF3F
22808
302E8
33BEB
0A880
23FEF
23A2A
3FFCB
2200C
0F3EE
0033C
02823
02008
228E0
00C3E
3CF3C
038E3
3CFC3
3F8EB
22B33
0A3CF
0C28E
0BAC0
0CA0E
20AAA
003F3
33CCF
0A20C
3FBE3
2C8CF
08A2B
03B03
220B9
3C220
02A20
2B8EF
0E00C
2EFBC
303BC
0AA88
2C800
230C0
2AAA8
0A8AE
238DB
3BF2C
28BEB
0C023
0EB82
0A382
028A8
3CFFC
0F0BF
030C3
02022
230E3
023A0
3A22A
3E38E
32FBC
23003
00FBC
02C8C
2A8BC
223CA
3E3BF
0B3C3
2B203
0F3EF
00000
20FE0
2AFBF
02FCC
3FB8C
0C28F
2238A
2233C
0AC38
2203E
29FFC
0FBFC
20FCC
2233C
3FF38
3AE28
28FE2
29330
23FB0
2EF3C
2A3CC
3200E
2A302
3F0C2
29FBC
0C30F
0CC8C
0230C
3FFCC
22F3C
28BFF
0E3FC
2AFFC
2AF0C
223FE
0F002
2AB8E
2E3EE
2E82E
2A8AA
3E3F0
30C33
3E3CC
29F8E
0CF0F
2AC0C
2130E
22202
2A30C
00CC0
0EF0E
0ACA0
2A3AF
223CE
02082
2A32A
2A8CC
0E0BE
2AF0F
2EB2C
22038
2AC0E
2AB80
213AE
2AB0E
2A3FC
00FF0
22222
32000
22F3F
2A88A
020CA
2232C
00A02
02FBE
2233E
38A82
32F3E
2238E
2A028
2AF02
0E0BE
02F8C
2E33C
02CBE
1A30C
3F03F
22F0C
2A0BF
30FC8
2A32C
2EF8E
21F0C
3C00C
0230F
22B2F
2AA82
3FF0E
08B2A
020E3
2233C
22300
33CA2
3EF32
0A080
2ABAA
293FF
2A0B3
0AFFE
32CEC
202FA
2E38E
3FF2A
29008
2A33E
21F0C
2AFCC
00FC3
0FF0C
02F0C
29380
0A308
3C3CC
0EFCE
28AC8
0F3CF
023CC
22F3C
003CF
2AFC0
22B0C
2A832
2A80E
228AE
0CCBF
00002
2A3CF
2AF8C
3C0C2
2233F
3FF08
2938F
0EFBF
2AB8C
330C0
3FFCC
02F0E
1A3BC
08B82
02B0E
3FFEE
2E3BE
2AF0F
303F0
0AFCC
223BC
20322
0CF20
2A30C
0030E
2AFE2
2ECFC
02FCE
3F3FF
22FCF
02330
3F330
19B8C
0CBAE
2A30C
29BBF
29F8E
2A302
223AA
2AB8F
3F30C
2A28C
22B80
09F3F
2AFBE
3C3FF
2A00C
282C0
0A02C
2A30C
280E2
0A3E2
2233E
2230E
2A3CF
2A3FC
2E332
00000
02328
30FC2
0E3AC
3F3A0
3FF02
3CAA9
330A8
0E008
3C228
0AC3F
0F823
22C08
0AAB3
3FF2A
22C03
3FA82
03AAA
00EAA
3F8B3
222AA
222BB
303CC
3FC0A
03C2B
3F3AA
3C029
0F000
3CAAA
33EFF
2A880
008C3
20A8A
2CF22
00C3B
2A0AA
0F8E3
3E08A
32A72
22A6A
3C32A
3CAE8
3033A
3F32A
0FFF2
0332A
38C33
088AA
3F3EA
3FBAA
3FCCA
3F328
2F3E0
3882A
0CC30
0FBA5
220FC
388A8
20AA8
0C030
3FCEC
3FAAA
00AAB
0E8A0
3FBCF
2F8E0
32A82
3F028
038AE
28AB0
2A968
03AA0
3F3AA
0F300
3B3FF
30FA8
0C30E
333F8
0F2AA
22AF3
22AAA
0232A
200E2
30002
3C200
3AF3C
0ACBC
38CAA
0833F
0C00A
2E030
3F228
30C82
3CFCA
3FE30
30882
2C2AC
00328
3FC22
3CC8A
2FB3F
0EAB2
0C202
3FFAA
3F8A8
3228A
23FFC
3030F
02AAA
388AA
03A0F
3AAA8
2CFF8
3CEA6
0FA32
0C03C
3F82B
3FEAA
00AAA
0228A
0FAAA
0A2F3
3CB0A
2A8A2
0FCC8
3C32A
000FF
0AABA
3CCFC
32380
280F0
00B20
0A8A8
2A288
0F320
00000
32F3E
0F30F
3FCAA
30F3C
022BC
3E23E
23820
0A08E
3C28A
3C333
328A2
00328
03E2A
020BE
02C8A
0FCCC
2C822
32002
0828A
2C008
3882A
02ABA
00F3C
0FA28
22A8A
2C82A
3CAAA
3EE2A
02F32
022BA
3CEBA
2EF32
3EB30
3F08A
03F0F
22202
300AA
0F3AA
0F028
3F3AA
030FB
3C82F
3AC30
02000
3E08A
3FBE0
23FEA
200A0
2F828
20BAA
03088
3CFEE
2AA8A
0E0F0
2A2B0
083F3
00000
088CF
2330F
000BC
0AA23
03A20
00E28
00CFF
3002B
28828
00C3F
0C0AA
00028
3F222
22B23
2AAEA
00C0C
3CC3C
20283
2FF3F
02AAA
2BA2E
002C8
3A28A
2803F
032EA
3AFB3
28A8A
0AAA8
0A0FF
3A2A2
233C0
3F0A2
02A8A
2302B
2F8EA
33FBC
03008
3FAE8
3F228
3002A
0AAA2
08CEC
0AC33
20CA2
3FFFF
3CFFF
0000F
0C003
0CAAA
0CF8A
33EFF
0023C
2882A
30CEB
30ECA
30028
2AA03
3FF3F
0B8EB
0BC02
0AC3F
38EFF
22CFF
08C30
00030
3F0EB
30F02
0EEB2
3FAE3
3F2A3
3C2BA
0C0E8
2A8AB
0C028
0FC20
028EA
0002E
2AAAC
0CF33
3AC3F
3F0CA
03FFC
288A8
0F203
038E3
20200
0F8AA
3C0FF
000AA
3F8EB
0AF0E
0AE03
00AA8
08030
3F2F2
3CCC8
008A2
0E2C8
0FAEA
0BF3F
0C0EB
3CA2A
32CA0
00CFF
08220
03303
0C8CB
0FAE8
0BE32
20A0B
0C20A
0CCCA
00BF3
00CBC
2A8AA
08CB0
0FA83
0CCF2
22AA2
0FF3F
3F82C
38A08
20080
0082A
03B0C
2C8EA
3F2EA
0F0C0
23AF3
2A8A8
0EE80
2F0C3
3FB2A
03030
00E00
3C028
33C33
0EEAA
0F320
00F0C
0B3E8
0C23E
322AA
320AA
33220
3F02A
3FFFF
0A02B
288E8
0CAA4
23322
02E30
0F2C0
08AA0
032CF
00CC0
2C8A8
0FAE3
3EE8A
380C8
02FCF
0F8E3
28AAA
2FA20
338A8
0FAEB
0C2E2
08A2A
2F0F3
00C03
02E3F
3FCE8
00A0F
33F0A
022AA
0FC30
02C30
283FF
3A0BF
3FAE3
3AF3E
3CFEB
3F88E
330C0
2E023
3308E
203FF
2CA82
3FCFC
3FC03
0C0F8
00000
38F32
3EC8B
0FFC2
02C32
3CC0A
00083
3F230
2A9AB
3A2E3
0FC3F
0A23E
3AA9A
0E33F
0CC32
3AE3F
0330C
33FF0
0380F
08203
0CF32
2A8EF
0EFBA
0238F
030F0
30F0F
2F3CA
088CF
2AA8A
2B0CF
2030E
028E3
2AA82
3EC8A
32002
08803
2A83F
0AAA2
2A3BC
00B33
09AA0
00033
300A3
0FF00
2A03F
3333F
2822F
22FF3
32C30
008A0
0A00E
3383E
2AA8F
0A022
3020F
0C808
0AACF
28AC0
33B30
000AC
33F3F
3FFF2
33FFF
3A80B
2A80F
0AABC
0A08A
280CF
2AAA8
038FB
3B3F0
32F3F
02EAA
3238C
0802C
3FF0F
2AEAA
380BF
33C0C
38028
3F8EA
0AABC
080FF
3A2A2
080EF
3C33C
0FCEA
0CF3A
2A8FF
2AAA8
3F3EC
0203F
3002C
32E30
02F3F
38882
08FF3
02B2F
08332
2AAAC
2FB03
3F33F
0C8C3
03E08
3FCC0
3B303
23023
32233
25AA0
0E00F
0A28F
0000F
0223C
3FCFF
0F002
32BEF
2080F
0CEAA
3CFE0
03B2C
3FFFC
3200B
3BCE0
0F3F8
0AAA8
38C0C
2AAA0
0AA80
088FF
3E0A8
2AAA2
00B20
0AAC3
28FC0
0A333
08000
29AAA
33F3F
2A00A
082CF
300F0
00C3F
0833F
3CF3A
0AA20
38C8C
2A880
33C3C
30C30
0AF3C
26AAA
2880C
2AA23
00AA2
2AAA2
3C002
3E0B2
3033E
0A23F
2C3C2
03FCC
2AA80
33EC0
3FC30
2082A
0AAA0
0A088
0AA2B
3A28C
0A28F
0AA8F
0F020
00FB8
3F30C
22FFC
0EF88
2AA3C
03C3F
2AA0F
0F003
3AC3C
200FE
02A8A
0AE2B
00C3C
02AA0
0AFF0
00202
0F0E0
00B0F
2A3FC
2A20C
00000
3220B
3F300
3FFBF
32CBB
303BF
32E82
0CBCF
08A2A
00808
0F308
33823
33B02
08C0F
223AA
08C02
0A03F
2A3A3
2AAC3
2F020
0A28A
2BA82
30000
0883E
28003
2328F
3CF38
382EA
2AEBE
2B8E8
2AA8A
2BAC8
2AEBE
30C3E
00A03
3A2BA
2803C
0F0F3
33C3F
320B0
2BA30
0328A
08C03
380BA
3AEBE
0A08F
0ECC3
328A0
3223F
0A280
30EC0
2EEAF
230C8
0B0C3
2A282
020BA
2B083
23AEA
0AC8F
0B028
22BC3
3803F
0AB83
020F3
03AF0
00CB0
082BF
02030
0AABA
3FEC0
0AC0C
280C2
32282
0A8BA
20220
0A08F
32E8A
0BAA2
02CB0
0CFCC
3CF33
282AA
22B2C
030E0
0FAAA
3FCE0
2A2AA
3AC82
3AA0A
028BA
30A3C
0382A
0F228
0AE3B
3E283
3AC83
0AEB2
23B02
23C82
2020C
00C33
0E0BA
0AAB2
32A32
022A0
3A2B8
3FFAE
020BA
2A2A2
0233C
3A2B0
3FFEB
3AE82
2233F
302B2
23288
3BAB8
2F2C8
30282
32882
0ACB3
3C3C0
0A2B0
32CB2
28208
2FAE8
03CC3
28CB8
03008
0FFFF
2FFC3
3A2BA
20E20
302BA
000C2
00008
0CC0C
32EB0
32EB2
0F282
0232C
0F22A
00C0A
3A2B0
20830
0B228
30C3A
3A003
02C80
0CE0B
32E8A
230E3
28202
23AEA
032BC
2830F
02800
0A2B0
3FF20
32EBC
32CBE
0A08A
28CF3
22AA8
030F0
38080
3BC2A
23800
0B0CB
2F8EB
3F0E0
33F08
0A283
20AA0
33C3F
32CBA
2828E
0823B
2FAE3
33208
23208
0023C
2A249
002F0
30EB0
38FBA
3C0B2
3CCCF
32ABA
3FFCC
0C033
3E0A0
00000
20002
2B420
2AC30
28AC2
02F08
0CF30
280EC
2A33E
22B80
30002
2A8AC
0888A
0C2BF
0ACB2
020B8
2222B
23F0C
322C3
28AEF
2A03E
3C0CF
002C0
228AE
188E0
28A80
3EF82
2A300
30C32
0F0EA
2A800
2002B
30F88
2A0BA
2A8E0
02FCE
2A800
2A8A2
2A38C
02CE2
00F30
00020
00A2B
3EFA2
2A83E
23FCF
0FA08
00FC3
23CE3
2ACB0
20802
2B8FC
233CF
208A8
2A33C
2AF3C
208C2
20028
2F2FC
280E3
22A00
0CF2A
03C3F
2CBCC
2B82B
00FBC
2AC80
208BC
0B3B0
0A8CC
33EA2
3E0A8
22C32
0E0A2
20CA3
3FFCF
3AFEA
2AA20
28000
0CB00
3EC82
0A28A
2BACF
100E8
2BBEF
0E8C8
3CF28
0A2FE
2B8EF
28F3C
22B3C
20820
23A18
2EAF2
0033E
030BC
0EFB0
02022
2C38C
203FF
3FF0A
200A0
23EF0
200B0
038EC
00CE2
2BBFF
232E3
02F3C
00BC2
30E2A
20022
20C02
23FCC
3EFA2
3C8B3
00BA3
0F03C
038EC
33FAA
000CF
3B8E2
23AEA
3EC88
2C002
2A00F
2AAE3
23FAA
0B0CF
28A0F
23828
38200
2B8A2
2A003
32E30
02C00
0AFBC
2A2CC
2EC8A
203C2
0800C
20B2A
0E03E
2AA28
3C0BE
2A283
2AAA2
28AE3
20C8A
0302B
3233F
2AAC3
28BFC
2CC82
00C32
0FCC3
2A380
2EFE0
238E8
0E282
0BCEB
33FC3
0FCC0
03FEA
080FF
22333
22FBE
28BE8
2A880
232C3
1BBE0
3CC8A
0FC30
0BFEC
200BF
0B3C2
2830A
03F2A
2BAE3
3CC02
00080
0203C
28C32
2AFB0
00FBC
22F03
0233C
0822F
0C0BE
03200
2AA0F
28820
00000
2CA8E
2BA03
300A2
2088C
02002
2B8CF
2BAE0
3F8EA
0F323
3FF28
0B3F2
2AA2A
3C22A
2023C
232C8
323C3
28BFF
028CC
2BAC3
008A2
3FFFF
0FCF0
08BCC
166AF
2A28A
30F30
3FFC3
03082
02F0C
0832A
33FFE
3FF33
023C8
2AA28
033FF
2E3E8
1AAAA
0F82A
3F033
2A23A
03C33
0EA80
0EC0A
20800
03ACF
2B8CB
0A0CF
2F0C3
28A2F
2338C
23BCF
2A3A2
13ACA
030CF
3C03F
0EB28
28AAB
2B6E2
20230
2AA00
3030C
2A8CE
1B6EB
2A228
2C30F
00A0A
0EF00
0088F
3F3C3
30CFF
3000A
20008
00F3E
22280
3FAFB
03FFF
08220
22AAC
2B0CF
3CFB2
0C222
23AC3
28A2B
2BAFB
3FFE3
00FF0
0F000
0BAAC
08A2A
3BA03
0303F
2B2C8
23822
230C3
2FC0F
3FFFF
002BC
0F3F3
2BA00
3FF2E
0FA02
00BF0
0B3FF
1BAEF
3C03F
3BAE3
0BA28
0C03C
330CF
0FC33
2AA8A
2FA30
238CF
0C3BE
3FF3F
02C23
282BE
2CBCA
3C380
2B82F
33CC0
22A82
0F00E
0E8A0
20AF0
28A2A
0E802
23A08
0BAAA
2BAEA
3C82F
2FAE0
233F2
023F0
08000
0FA28
23A22
3CFBF
23AE3
000C0
23A28
2A032
20AAA
020A8
0BC3E
00AE2
185EF
00F0C
28020
23AEE
232F0
003C8
2AAB2
202A8
03AC2
2BA00
202C8
2B62B
0C3A3
3F0FF
30FC0
0B0F0
003EA
2BAE0
28A2A
000BC
1BAE3
2AA22
2BA28
2BA2F
3CF0E
3F8FC
3F823
3FF3E
028B0
3A332
0CFC3
2B2C3
0C880
00A02
0E30A
3F0CF
0300E
20332
3F032
0C8BF
280CA
0CBC8
030A8
0F0E8
2FAC3
00000
22F3A
000C2
3F0AE
3E0A0
0EFFF
0F0EE
08AEB
3FBE0
33AC3
2C02A
20002
08AEF
0A082
33002
0F3CA
3C38F
28AE3
2C00A
33E08
0A2A8
3230F
00CFB
2B003
0A082
0200E
033C3
0FBCF
3E0A2
2C300
0A283
3C280
0088C
00FC8
30CBE
0F33F
0E280
0AC8A
3C8AA
3E0B2
0AAAA
2032C
2A8F2
22208
22ECE
008AC
202CB
0EB0C
030E3
0FF0E
30C38
033F2
2AC88
00EB9
0B0FF
0C820
208E8
0A2AA
2BAE3
3CFBE
3322B
280E3
20A23
2BAEB
00A80
02C0C
0F382
2C30C
2EA82
00F2B
2E8A8
0CAAA
3C32A
00A32
00F3C
2B8CF
0F33F
2A020
02A80
0F8CF
200E0
00330
28CCE
38C82
38E08
03CEB
2AC83
30F0C
00388
3F02A
080A8
3FFEB
2FECB
22322
20F00
2803C
0FBBF
2200E
003BF
0A0AA
2C33F
0F8C8
0C3BC
3FFC8
03AEA
00030
22CA8
3FE20
3F302
08300
2C23E
022A9
3F3CC
03AE3
22B22
3FFEF
2233F
02CAA
2AA8A
2003C
3FA28
022C8
000BE
2FB00
000E0
0C3FE
30FB2
0A33C
0A2AA
2BA2B
08EBA
2088C
3FE2A
2E20F
3C000
0F000
0C802
20AA0
0C30E
333CB
0003C
038CA
00030
0C38C
208A2
3CCFE
0A2AA
082AA
32283
3F2AA
0E332
38EBC
2A8AA
02E09
008B2
