00C00
00200
00022
002A8
00000
00800
00A02
02230
00000
00000
00230
08003
20000
0000C
02080
023E2
0282A
00003
2803F
00000
0800A
00000
000A0
00000
0A288
00000
00008
00000
2A080
00000
22300
00000
0C008
00000
2A80F
08020
00000
08208
20080
02020
00002
00000
00000
00000
08000
0000C
00000
00028
0000C
0808A
00002
22033
00000
30000
00000
0000B
00080
08000
3C200
00200
00000
00220
02080
020C0
00002
003C3
00002
00000
00030
00800
00200
0080C
00000
008C0
00000
30000
08008
00030
00000
00000
00080
00080
000C0
00030
02030
2A00C
0A803
00020
02022
00300
2000A
00800
00000
00808
00000
00200
0C280
000C0
08000
08228
00000
00000
00000
0000A
00082
22000
2A883
00800
00002
28A02
00008
00000
00000
0003C
00000
00303
00003
08008
0202C
0008C
20000
00020
08000
08C00
003CC
00F00
00000
00000
00088
0A000
0C282
30000
00300
00000
0000C
00000
00330
00002
00800
02F0F
000C3
00000
00020
20080
00808
20000
08A00
00000
00000
00022
080C0
00000
0A200
00022
00002
08828
0003C
00000
00023
00000
00000
00000
33000
00003
00080
00020
00008
02008
08F00
00000
02000
02808
00002
00000
00000
00030
20080
00000
00088
00000
30000
00000
00030
00000
00C30
0008A
08020
00803
00800
00083
00020
00000
38EBA
3F200
0C88E
23A2C
33CC0
233E8
02888
22A2F
20B8F
0EF3C
38FC8
3B2A8
0F0F0
333CC
0C0FF
2C0BA
28A32
032EA
2BA32
3020E
3AA23
33EAB
20A0A
3CEA8
088AB
238EB
3FC3C
0BAB2
3AF8C
00302
032CA
0F3FC
0ACE0
2CC3F
2B8FE
0CAAA
32FCF
03C8A
23AFE
3E28B
3AAEE
2C3C3
0233F
220A8
3C28B
33E8A
0BE2A
38CF8
2F00C
2F282
32A0A
28ACA
3CF8A
32C3E
3FF2A
0A2A6
3BF00
33AB8
0A2A8
0F8AA
03828
2C8C0
2B2AB
28330
303F2
32EBA
22BC8
0E02C
30FC3
02230
38F8C
238C8
0AA32
2B3E2
08CBC
228F2
2828E
22BA8
33E02
2AAFA
233CF
23023
3BF20
33CE0
03C3B
083E3
2B8B1
2AFE8
2308C
3AAAA
0FB23
02CFF
2A02C
3C232
2B0FE
30288
20A20
080AA
3FFF2
3B2CA
0E0A2
00000
3E3C3
2AA20
0F3FF
2803B
2B3CA
23FE3
3233A
22FAF
0AFFF
0C000
3CCF3
02BA8
3223E
03ABE
3033A
23AEC
2A02E
022BF
282AB
200B0
2203C
0F2C2
330CB
002A2
3C02E
2AF2C
2FA2C
08AFB
33BFA
32F8A
3AEA8
3E0C3
0CBA0
0C3FF
280CA
2CAC2
20FC8
2883E
2323A
3EC00
2822A
03A82
3E032
3FA28
3FC0A
088A8
0CCB2
0E0E2
23888
33288
32FA2
032B3
10880
0E28F
33F0A
00000
38003
38E2B
28830
32FCF
2A833
33C8A
33A8A
22AEB
00E82
3EB2B
3C3FB
288A0
38AEA
23FEB
2A2AE
03028
3EAAA
0E2AF
0B2EB
2A8AB
0FC32
2032C
3F2A8
3FCAA
023FB
3ECEB
202CA
2AAA2
0CA8A
0A2A0
03030
2A2EA
2B2A0
3EC03
28CCA
2300E
2008A
28C0A
32E03
3BEF8
0F08A
2AA82
2BCCB
08C00
03EFF
0C8E3
0ECE3
03CC2
0FB00
0A2B0
000CA
3A8C0
0AA08
3833F
23AFE
02A2F
0FBC8
02EEF
0FCFE
020F3
00A08
2080A
3820B
02230
0BFFB
2A000
0C000
3C0F0
02FEC
2A022
083F3
0C0EF
32003
22ABC
20000
008C0
20A0C
02BC3
3CC80
02CB0
0A008
283C0
00028
2A282
08C2B
000F8
0F3EF
0B0F8
32F3B
228CF
0A380
0E823
08EA2
0230B
088E8
00AAA
0A88E
3A2CC
0200A
2C0B2
22A20
20830
0CE38
08EB0
00F3F
0ACC3
3303E
0802C
32FFE
30F00
2AA8B
2E3C8
3CAE0
038EA
0A3E3
3F30F
08B0B
2A282
308C0
2388E
220CE
2AA2A
0E8FF
0A233
033BF
02FC0
20C28
22AA0
020F2
2A2AA
003A2
28CE8
038E8
38A20
0E0FB
00000
2BAE0
0080A
280C0
030CF
08CFF
23A8A
00F8A
0C230
2A200
00000
2E223
20200
3A2A3
220EA
0002A
3F8C2
2A8A2
28B80
0308E
2A080
08B0A
3AC20
28CCB
08FB3
222F3
2830B
22C0A
03AE8
20000
2A2C8
2AA8A
3822A
20C08
22F02
0B22A
2233B
2000A
03FFF
3AFCE
030F3
22A2A
03E30
2BB2A
3AE80
2220A
2E2E0
00B03
2AC08
08A3F
2AA80
2FFE2
220F3
0AC00
0AA8A
2BFFC
00000
2288F
38A03
3A2AA
08CF2
30F28
2E030
2CCB2
0ACCC
02A33
30BA0
28000
0BA22
38228
20C30
083A2
30230
2AAAA
22EB2
3B0E8
0AB2C
0C028
30F3F
28F20
0BC3B
2F338
3080F
03F3F
3FEAC
2AAA8
000F3
200BF
0FBEA
33EE8
02EB2
2EB0B
08C8A
2AA8A
208A0
00022
08F3F
38CC2
303EF
00228
02CC2
0800B
33A88
333EC
08F3F
03282
3E882
2A8C3
0F3AE
2A002
2AAAA
28823
08003
0AE32
2A8EB
2EBEB
33AE8
2A20C
0A3C0
222AA
3F0CF
3C03C
0EBAA
2ACA2
2F3BF
38C3A
03EA8
20C2B
03823
33FCC
3FA2A
0F02C
3CE33
00B0F
3A2CA
2FF23
020C3
2AAA2
2A882
283C2
0FAFA
3C28C
0A032
300AA
3FC0F
32F0E
3F82A
0FA22
0F8AB
23EF8
22222
2F020
3BCCB
02820
3AFB2
2A2AA
3B030
08A03
3F0BE
23B2A
2AABF
0ACEA
0882C
2BC3C
3F880
0002A
2222B
0ACEA
0F3BB
3CFBC
38C0A
00002
0A8CF
0AF2B
08B0F
3F828
03FCF
3088A
2822B
0CAA2
30C2A
28208
3EFCC
00AE8
3B2FB
0A8C8
0322B
303FF
03223
3FFE0
3F382
3F03C
00000
0ACE0
3F0BE
230CE
2F8A3
08082
230CC
2F00A
3C8BF
0C30F
30300
3CFC3
0EBAF
00EB8
3C0AA
3BA28
0ACEA
0B3FA
3A8BF
22083
2A228
0FBCF
0F32C
3F0FC
00882
0F30C
0F322
3A00B
3EFFC
02EAA
0CF3F
2000B
3C300
3FF30
00FF3
2AF0E
3FA8A
08CBC
02E8A
3FE80
0232C
02808
0F0BE
2ABEA
0C00B
0FF28
238C3
3030F
20F3F
0BA28
2C88B
3282A
3F008
2833F
3B2CB
08E20
0000C
038B3
20038
088BA
0EFF0
20A3E
38F3F
2F83A
2ABAF
3A28A
0CECB
08003
2A02A
0F3C0
2ABAC
22A3F
00322
0F0EA
08C3F
2033F
3F2A8
20BCB
220A2
2A828
0F228
0FB0B
3002A
20CF3
2AA3C
202AA
0FF8A
320BA
2A8FF
2A3A8
3FFFF
2F32E
2E23B
28AB0
2AA00
38C3E
38E88
32EBE
23B23
208C3
3CBF0
0C02C
03A2A
2AEBC
0AE38
328BA
38E33
3FEFC
2A2BA
0A082
28AFF
2BA23
08C3A
02282
000C3
20AE3
2E32E
20A80
0F00F
020FC
3A023
3CF32
3AFBE
2F3E8
0322C
3E2BE
28B2C
3CBA2
2230C
2A0FC
3A00C
33F3F
0B02C
3E3BF
0C0CE
28023
32B0C
0E88A
23BAE
3E30E
0C3B3
2E00B
02EBA
28A2F
23AB2
2AB8C
0CF82
30BA0
0E3CC
0FBEC
3A8A2
02A8A
02A2A
2822B
020B0
22B2E
2F382
02AA2
3A803
3F280
28FC2
3F0E8
3CCC2
3F0CE
23EE0
3EBBC
0ACF0
032FF
3FF3B
0A00C
3FC02
330CE
2CB20
22880
0880F
22BEF
28AE3
0E802
00B00
2E82F
2ACB2
3E0AE
032FF
30F33
28B0A
32F28
22ABC
23088
2A8E2
0CC30
0228A
333FC
00000
3228F
030CC
3ACBD
2FAE8
2A0BE
2000B
0233F
08B8F
283BC
32800
0E02F
20E23
20AEF
2A0BE
03A2A
000FF
3FFEE
20B20
2F8C3
008F0
2CBC2
022BA
3CFBC
2A80A
3332E
03FFF
0FCF3
2BE28
08FE8
2A2C2
2CBA8
3A082
30CBB
2A2BB
2A8CC
3E322
0B2B8
28FA2
3FC8B
03303
3CC82
0E332
00B2A
2A8C8
2CC3E
238A8
0B328
320F0
2CB2A
220A8
0CCAA
3EB33
22283
0288E
2BAEA
00000
0882E
2BAC8
2EB28
02FF8
200C3
2C830
0EF02
2808C
3E302
23AC3
08B2A
23F2C
0C3CE
02BA8
33CF0
2A800
3B882
00E8F
02888
028AC
0C0C2
2A30B
2A20F
00BE8
3B2F3
0B88F
2023B
2B0FF
0AF22
2C30E
08BC3
20AA8
28AC0
0C0E8
28E2A
328B3
08A3F
33288
3FACA
22ABB
28AAE
328BC
02B8F
00FC3
0A202
030CB
33AFA
30823
2AA4A
22003
33CBE
0CAC0
0F3EC
08A32
0F3CF
0C3C2
2A0A2
00FBC
2238F
0FC8E
330F3
0A0B2
30F3E
20A80
22BE0
2A880
20B23
2AAA2
330CB
22883
303FB
3AFB2
330FF
2AAAC
0AFB3
2030C
2AAAA
38F32
2A8BE
22BCC
2ABC0
0EBE0
03023
3AC2F
0ACB8
3FF02
00300
2A808
00808
302EA
3AABF
28AAA
228B3
2A282
0F832
22AB0
00FFF
228E3
2AC00
0F3E3
083AA
3AAA8
2A228
0E2B8
0000B
2A802
3FCCA
0F3EC
22803
3F0EA
2032C
2AAAA
22A28
03F3F
2383B
2CE0C
2A038
22A3E
222AA
0232F
2F0F3
0A230
32CBA
2C0E3
3CB8A
28833
3FF3C
2C3E3
0FFB2
22A00
00EBF
0AAAB
28800
28303
28B88
00000
283E8
3CC03
080FF
0FFA8
0F0B8
2AAA2
26A28
2968A
3AC32
00000
2AB2A
2288A
2A3EC
08020
32FC3
33F2C
33CF8
2E8BB
2E30F
38AA8
3CF2C
23FF0
20AAA
0A22B
2A88A
08C2F
0BFFF
0032A
22B0C
208EB
2A803
2AA2F
3AA6A
20B0C
23A80
30E32
0AEAA
3ACBA
02FCF
220CE
0C0FF
3EFC2
280E3
2AF3F
2E0FF
3F3E0
38FCA
283A3
0A3B8
2AAAE
2E300
2AAA8
3AAAA
2A0FF
2C3CF
00000
0C32B
002EC
2A803
0082A
3FFF2
23320
382A8
0E0AA
2A2E2
2A8E8
2AC22
0AA2A
22F00
0AAA2
33CF8
3EAAC
28AE8
2020F
0BC2F
02F28
0C0AE
0C303
30F30
2A80C
2A8A8
2ACA8
03200
3FF8E
2BAE3
30CC8
2AA4C
2B38F
3ECB0
2A832
2FB0F
2A880
29A82
028AA
33F2C
228E2
2A8A3
38CBC
3A0AA
0F8F0
28BEA
033A8
3FFFF
00022
383C0
3A08F
03ABA
03033
0F0BA
238AA
2A8EA
238AA
0AB88
3F838
29AAA
3F308
3A008
20880
2A0E3
20A2B
0F8CE
03FE2
28C32
3A030
03233
3FEF3
20028
2CBEF
3CCBF
22B20
2020A
2828C
22ABB
2BEEB
0A828
3AFFF
3F0CB
0BA00
0AFB2
30CFF
28A23
3802F
2A828
2AA2C
28032
2E2A8
2F08A
0CBFF
38C80
020BA
23EE3
3CEA0
0C00C
02A23
22822
3A008
22020
022E3
083C8
22080
228AA
2F2EC
0AA82
28820
3E3C2
28BCF
0082A
32823
28F03
000B8
23288
0232A
3F0E3
282A2
000C0
00282
33C33
2B323
28F38
288C8
3FCE8
0CCBF
0CC0B
2A388
03ABA
28BEA
32EA8
0F8C8
2FFCF
2F323
320CF
00000
0038B
32C82
23FEA
2A282
0303C
0EA80
2C8EC
3203C
2AC2E
00C0C
3F382
08CCC
20228
03FFF
3A8A0
0AC80
0320A
3ECB2
00C8B
220AC
3C8EA
3FBCB
0FBC0
2283C
32CFC
0FAF3
2928A
00CA2
3FC32
2A02B
2AE2A
0202A
3AC20
32C33
2CAA2
2A0AA
22A22
20A88
3C3E0
03FC2
2820C
2CAE0
2CB02
2CCF2
2AB02
2AB2C
33FEA
38F83
3F3EB
02E88
38028
3E3E3
0A0B0
22888
2AAAA
00000
300CF
220AA
33A00
0B303
3AC88
0ACB0
20800
222E8
23BCF
0BE83
238EF
0B3CB
0F000
303BC
20A2A
38F0F
2AB22
3AA03
03CC0
3C82F
2BA8A
22282
30E0B
2CBEA
0E8E8
0202A
2A8AA
082E3
20FBC
3A333
3203E
32E80
0A2A8
0ACBA
2AA20
0003E
0F33F
33ECA
222B2
0EAAF
283EF
3FFE0
0FBCE
3C3FC
0832C
2082B
2AAB0
0F23B
28A2A
32CBF
2EFCC
2AAA2
08C8C
28ACE
2AB8E
2AABC
02023
302BF
0F33A
3208A
0AE28
2A820
000FF
0208E
28822
02380
02A0A
3EA80
2A0AE
2A0A2
3EC33
23A0B
00E3E
2ABA0
2AAAC
038EB
220A2
3FEA3
0AA02
2200F
23BFC
22828
0008C
0A02A
2AAAA
28AA2
003CB
2CA80
33F3F
2AAAF
30FFF
23AA8
2C232
0F020
2A0AA
20F08
280B3
2A8A8
0C88F
22B20
2F032
0ABA3
2AA2C
0223A
0A20F
020B3
0C8E8
238C0
0E33C
3FC0F
0BACF
0D0AE
30EE0
2AFBE
2208E
2AAAA
02C8E
0B0FC
22AEB
2EFB2
0A8A2
0F328
20023
288AA
0CFFB
03BFF
0FCCC
2832E
00CBE
02C00
3FE2E
0CFA8
0B20F
08AA0
2208C
00000
0CFEC
203CA
2A288
0C822
0AABE
3C0AA
2AAAB
2E8AA
08C3C
0C000
2A30C
28CAA
28C00
0E0BF
0E8A2
3FC00
0CA28
000EA
22CB2
00F33
0ECA2
0838F
2A880
3F30F
22AA3
2282F
3CFC2
0E82C
2332A
0C000
080BE
3CB3C
21A80
0EF3F
3E200
30FEF
028AE
28A23
0ABAF
28EE0
23B8B
08A22
203CB
23FBF
32B0C
033A0
3C308
3C00F
2A00B
22080
3CC33
2ABA3
330AA
2AF0C
23AC3
00000
2AB8A
2E882
0A030
3C230
3FFC2
3A83F
0C8AF
2F8EC
288AA
2A282
20A0C
2200C
2EA2A
3CCFB
0F0EF
0000E
00F03
08280
2AAAE
20A28
2282F
3B03F
2CCE8
008F3
2A8EC
32A20
08CEF
3FFCF
20330
083A2
0CA6A
3FF3F
22FCA
2A83C
2AAAA
3CFFF
0C2CF
3382A
200A2
0BAE0
228BF
33ECC
3CE30
2AA3F
300BA
3F303
2A8B2
2F3B8
2A8A2
208FF
2A002
2AB8F
0A282
03288
0CEBA
3FF82
3A8A0
223A0
3FFBA
00AA2
02202
2202A
30AC3
2A820
28B22
288EC
3FFCB
02A88
2AA8E
28AB8
3FCC0
0B2E8
20AFC
2A8C0
28A0F
288A8
02AE3
0B0EA
2CA38
2AF2E
28CFF
3F028
33A82
2AAA2
03F03
2A8CE
0CFBA
0FFAE
00EA8
028A0
2AA3F
28A28
22ACF
28B0B
333A2
288CB
30F80
0AAAA
222AF
02892
08BA2
32C80
0ABB0
30A32
33288
2A8BC
23008
302AA
2A0AC
0EAFF
2AA88
2A8EF
20A22
2AFBC
2AAB8
2A002
288F3
0388B
38AEB
3CCB2
2A8A2
288FF
3FE0B
3EFAE
3FBF0
0FFF3
30EF3
2A2A2
0AF0E
3F833
3BCC8
03803
2382F
2C003
2A83F
00000
0CFC8
282FF
2A0AC
3FC8A
2AA82
0AA80
2A62F
2A2B0
3C00B
00002
2FA2A
22F8A
0CEE0
2A38E
2A2A8
0330C
0AAAA
282C0
0EF22
0F8CB
32EAA
2A0B2
22803
330C2
2AB20
0FAC8
03CCC
02280
20830
23838
3C0FF
2300F
2E8A8
20333
0EC82
28333
2AB20
0CA8A
2A823
33CC0
2F3FF
20BEA
2A82C
3002F
2C8FF
0032A
08AEA
20830
0AAC3
2EBAB
3FCEB
2AAA8
08F2A
0A3FF
3FCBA
00000
02BE2
20CAC
030A0
08AC0
233FB
00B23
2AAAE
38A8A
28BEF
2A22B
002A2
32002
38BAF
2AA08
38033
00FFF
0C3FF
02A23
02000
2A8AA
32BA2
33CFC
082C0
08B03
22A2F
32033
20A2A
00B3C
0CC28
2A8A8
0C88A
0CF08
2AEBA
2E8CF
0B230
3000F
3F00A
3F330
0F3CF
3CCF0
20B3F
38EAA
0B2BA
388B3
08C03
3CFFC
2F3F3
32FCF
0FFFF
3E203
33223
0FB03
033FC
3C30F
038F3
3FFFC
0B0FC
0BC3F
002FF
3C82F
323F2
3F3CF
020EA
3F3CC
023B0
02FFC
30AC2
08E3E
33A3F
3FEFF
3F3C8
33CC2
0AFBE
00CC2
2F800
33E38
0BF03
32A3C
3FCC3
3F33C
038E3
30A33
2F2F2
000FB
3CC3C
0FC33
3023F
0B3BC
2C003
3FC33
3F380
330C3
320F0
0C83F
3C2A0
0C0C8
33F3F
0A00B
0FF33
0C333
080CF
3CBB0
3EFC0
0800C
3ACC0
0003B
0328E
3F028
0F3F3
2AAAC
33FC0
32FFF
30F3E
33C33
2F3CF
33CE3
3FCFF
3F30F
0B2EB
0B82F
02EBF
0FFFF
2328A
2CC3E
2EA0B
08220
2CA28
2BC38
0B208
2AA8C
33FC3
0FCCF
303FF
30FF0
3EA00
00000
0FE33
3FA0C
0CB33
3222B
00823
0CCF3
3F0C3
0CA03
202BC
08220
3FFC3
0382C
3F3B0
2830F
333CF
2ACBF
23002
3F3A2
3CAAB
3FF0C
03F02
3F3FF
28ECB
3F3C3
3338E
2CF30
322A8
38C3F
32232
0B0B8
0C2C8
3CFFF
0F0F2
23FFF
0CC33
030FC
0AF30
0A2AA
0FC3B
0F0F3
033C3
0F0F8
3CF3F
3FFCF
33FFE
080CF
38FCF
333FF
3F0E0
0FAC8
2080A
3FA38
0E3F0
0808C
03F0F
00000
23803
30E00
3FBC0
2A880
19A23
3FE3F
33203
2AAC8
33CF8
3FC8C
33CEB
083EF
0FCF0
0F0FF
202A2
30CAC
003CF
0F23F
00C0A
33C33
33003
2A88A
0CAFF
3EFBC
3A0CB
2AF3F
3AFFF
2AEA2
3F3C3
3C88E
30030
0FFFC
032AA
3F23F
208FF
2A302
2A883
2BAA3
082BC
2A282
2E380
23ACA
23FC3
20F03
00CCF
323E2
2AB80
28CBC
2ACBE
2A033
3C30A
0A3B8
0E32A
0F2CA
33B2A
0022F
08A8A
20FCC
23FCB
028C3
00C08
0EBC2
20B2C
233F0
28CBF
2A80F
082CE
222B2
2A320
28820
0A282
2AA23
2A38A
2AA8C
0A282
0C3C0
02E3F
22CFF
080EF
2AA28
2AAA3
22B8F
2AAA2
32800
28AC8
09238
23FF3
23FFC
2ACA8
2A2B8
2B02A
2AA33
28FC3
28AAA
0A82C
2A0BC
3C3E0
2A203
28828
2228A
22282
02CC2
03CF2
0C000
3C00B
02FFC
300EA
023F3
0A80A
08FC2
003F3
220F2
2203F
32328
0EF00
2BC0F
2AB8C
032A2
208FF
208F3
2E320
0EEBC
2AFF2
03E23
2A03C
2303F
200E8
0CE3C
0EFC3
03CFC
2AA03
2A880
322BF
2A303
2A280
00000
28AF3
280E3
302EC
2F3F2
2AB0C
2228F
20BB3
2A288
2A8A8
00003
003CF
0C220
2E20B
0EAAA
22F3C
282A8
003FF
282CC
3EFC0
2838C
2A83B
2E300
28033
28030
0AA2C
28E00
23003
2A3EF
2AC33
283F3
0FCC2
2A800
28030
2AC2B
03CA0
23C8C
2ACBC
28FF8
228B0
2023F
0CE8A
0A280
28280
2AAF8
020AC
02C2A
08CB8
28F3F
2A00F
0A2C0
2FCC3
02002
00A8C
22823
2AF30
00000
0A833
3322A
282C0
23C03
00FE2
22CE0
2208E
2C02C
2828C
22288
280F8
238CF
2A2BC
2A0A0
3C3CA
0828A
0BE0C
28AA0
2AAAE
2A833
2EAA0
2CF03
308F3
2A283
20C30
000F3
2BCB8
3B3E2
2AA3F
0A2B8
02A32
23FE3
0CFC8
0000A
000E0
2ACFF
0AC8F
282BC
0F330
0FCEE
0E02A
0AE30
2AA0B
0CA2A
3FF1B
3CA83
2CAB2
3FA88
00022
3CAA2
2AAA8
2F8BF
2BA3E
28A8A
02A3C
30E02
0AC8A
33028
3E0CF
08CBE
32CAC
2AE2A
08208
0B200
3F000
203FA
20A0E
3FF20
20EB0
2A08F
3A2B0
3233F
22AB0
2EF22
2E8F0
32C80
2F3CF
0A2B2
3ACFF
3A10B
00E80
3322B
00ACE
2CF02
0A0FC
0FE23
3F03F
20880
08E38
3000A
0CF00
3230F
0C8AA
08A83
2AAA2
22BAA
082A0
300EA
3A233
32C83
2A038
3B200
3FFEE
3CF32
332AA
0F330
0AEB8
3C83B
382CF
0E8A2
03808
3F3C2
00FCC
220AA
0F33E
32FCF
38C3C
22B80
0AFA3
3AAFF
00FBF
3CC00
02EEA
0EBBA
022B3
2E820
3F20C
2A82A
0C2B2
2A8A2
02A83
38E00
030AA
3C2A8
02CFE
00000
3FAAA
2AAA0
23B3E
000CB
22BBC
0C228
0FCC3
30E03
0328E
28000
2AAB2
2AA0B
2AAAA
2A8A2
32C30
3E9BB
3B3FA
3E33F
0CC0F
22C0F
3BCF3
332CF
0FCFF
282F0
302C3
3F33F
2AA8A
0A28B
1AA80
3FFA3
20AAC
28B8A
032AA
3EBAA
23EC0
0C828
0FAAA
08A08
3FCCF
0FF3F
3F0FB
3CBB0
23CA2
33EC3
308EA
33ABA
38FB2
038A8
23CBF
26AAA
28A28
38EF0
0B28E
2AB22
02803
00000
0F033
0BAA0
32FF0
20A8A
0A22C
0CA0A
0AC0B
38F3F
3F3E8
028EA
3CCC3
2A22A
03023
020CC
00FAF
3C3CF
0FBE0
2AAAF
23332
280C8
2808A
32A80
2A30E
0303C
002CB
0FE2A
02A0A
23E3F
2032C
0803A
00FCF
2CBA8
03CFF
08A2A
38C2F
00BCC
0BCC3
22000
2A280
03A00
303AA
330C8
0008C
20000
30082
228A8
230AA
222E0
00320
3F0C0
3E300
03228
2AC82
0EE0F
0EA8A
2A800
3CFEE
02A0C
22AAA
30C0A
30C2C
3EF30
32C3A
00082
30208
03822
20BCA
0CF02
0A030
0F2A8
3F80C
3382C
038CB
08288
33C22
0808C
00F33
03828
28033
32CA3
0CAA0
0000C
32C0C
033A8
3C3A2
03033
088EA
0208A
020BA
38A22
0AC3C
0082A
22BE2
30F3F
28082
23B2A
2A8C8
00A8A
220AE
3A2A2
0282A
0BEA8
08800
22F3C
02F3C
22AA8
0ACA0
0023A
00AAB
0AC08
0CF0F
00323
0F3E0
3CFFC
02283
002CA
330EB
2A20C
0E820
20BF0
38EB2
3E8A0
03FFF
03280
0C82F
0B020
30FF0
220A2
0208C
20002
0FA0A
33A00
020A0
00A2A
30308
00000
00820
23A28
2020B
2CBFA
2BE08
2A8EB
30A28
088E8
00308
00000
0002A
3A822
28A2A
0FCCA
38CC2
0080C
0AFBE
02003
088CC
000E8
3C00C
3ACA8
3020B
38233
00228
30CE0
00BC3
0823C
3F8EC
0E0E8
2A82A
003A2
3FC28
083A0
0AAC0
00F3C
08828
3CCBE
30200
2202C
200AA
03C0A
0CB2E
2B80C
03B20
088AA
30082
22803
0F800
22A20
0AA2A
28AAB
380E8
2CC80
22AA2
00000
2A028
2888A
00023
0CC8A
2ACC2
3200C
380AC
30FCA
238E3
020CA
02020
08A00
328EA
0003F
32CB0
0C0FC
22A00
00022
30A3B
2B002
32280
02FFF
32308
022A0
08282
28A22
30C3F
08E32
38080
33C3C
2B0E0
238C8
0FBFC
28800
28A28
00AAA
2F803
3FA2A
00800
3FA2B
022F3
22C8A
02C2A
0220A
3E02A
0ECBE
20A2B
30208
02AAA
203B2
3C208
38A0A
0AEB2
0F0AC
0CCCF
3FCFE
3828A
2AEBA
0BCE3
288A3
0283E
2AA0A
22BE3
003EB
0AA2A
0AA80
0A82C
2E2AB
2AA8A
00EBA
03FFE
2FE32
2382C
00202
2BBB2
3000A
080C0
00E3A
238F3
20AAA
3FA80
3E0F3
32ABA
0E83E
20B3E
00A0A
30C0B
2BFFF
2A8A2
2ACB2
3F8A8
2B8BC
3F282
0282A
2FF33
00A2A
28C0F
3ECF2
0C300
3E0BA
3E28A
28B80
0E33C
2A820
22C2E
38CB2
0FA08
0EC88
0AAAA
022B2
0023B
3AEB0
0AAA8
02882
00AAA
00802
3F2AB
3C8A8
288C3
38E03
2A28A
3CA30
22F0A
203FC
33CAA
02E0B
28A2B
32ABE
0F228
3020B
0008B
0F0AA
00A32
0ACBA
2AAAB
00000
3CCAA
3CB0C
230F0
0AC0B
3CA98
33CCA
0C3CF
08838
203A3
00020
3EC0A
0CBC3
0FE0C
0AABA
2AAAA
388A2
2AA23
30CC8
03303
23A3F
38A8A
3AABA
202AA
0E2A8
2AB8A
02A8A
3F882
22CB2
3C830
2300A
2C32C
2E30F
0AEB8
3BCCE
3F0AA
38AAA
00EBA
32CBB
2A2BA
0A2FC
0E2AA
08A28
0CFCC
2AABA
3F8FF
2080F
2323A
002A8
0B2BA
28ACF
33FAA
282AB
228B6
3C332
3AEBB
00000
2C880
2F3FF
22ABB
08CAF
22E8A
288BA
0AA28
080EB
20233
0FECF
03CF0
0EEB2
2A833
3F008
0EAE3
03FCC
2C3FF
33BC2
0FFC3
00C3A
0223B
080EB
2823A
20AEF
32330
023B2
2AC03
2A228
22B3C
223BC
0A088
38C80
000AA
3FBFC
208BA
32033
203AA
032C0
382C2
02EA2
02A2A
3C0FF
03FEC
0FBCB
2C2B2
28C80
0AB88
02A30
3208E
00C3C
2CB0C
0AA2A
32000
3F2CC
02FB0
2AE0A
0A22F
0C3EB
20B02
00C30
00C8A
03AB8
080AE
3CE02
00282
30A82
2C38C
303AC
3AAAA
02C88
0CC2A
00EBA
0AAB0
22AA2
3AE0F
00323
00A20
3B30C
02080
3F22A
0F283
002F0
0A888
2A288
32F3C
2AAA8
2A8FC
3033E
0B00A
0AA80
300E2
03802
0F03C
3FB28
00EB0
22288
02332
008CF
2A320
0AEA0
33283
08828
32ABA
3F3F0
322AA
0E0FF
3C0FC
0B8FF
2CA03
3F3C0
020EB
38AA2
300AC
228E2
3EF08
32C30
3A2A8
288EA
0C882
2C800
3A0B3
0038A
3C0B0
08F82
002A8
0A0AC
0CCEE
0AC8C
30828
3CFCC
02228
008BA
30303
08E33
3B20A
00000
23282
00FEC
30E8A
200F3
30AAA
08A2C
0AAAA
30AA0
0ACB0
00000
080A8
20002
023BC
028A0
02C23
0F0C0
20A22
2F3C2
0FFBA
00C00
2C0EB
0AC0B
088B0
02308
0FAC0
3C00E
30C2C
2AAA8
0AAA8
02808
3AC32
3A200
02882
220AE
3BA00
202E3
30BBE
0B008
030EB
003EB
20C88
00CCC
0A0B0
0A888
0208A
0F3CB
0CFCA
08000
2220F
2A3BC
008AA
0FA2A
330CC
0ACBC
288FC
00000
30CCB
0CFB8
30C38
20B0A
3E320
002A0
2A2A2
0F3F0
0208A
30FB3
0033A
2002A
38CB0
0F228
0F3E2
3EE3A
08AAA
322A2
3CEB8
28EC3
30A82
3F00A
380A8
0CB30
0F082
08208
08830
2F3EA
02ABA
38208
20AAE
202A3
2033A
03333
08A32
028B0
33FFC
2A83C
3FC02
080F8
30AE0
288A2
2F3FF
2FFFA
22EA8
2A8EA
3FFBF
20AFC
0AEBC
30233
3FFF2
2A030
320A2
0FBC8
23A00
33AC8
0ACBA
0FFFC
2BB03
0CF3C
0A2E3
3FCF2
00C23
3FC2A
02C3E
3223F
28808
20080
3EF88
23E8C
33233
08FEF
02308
2A30C
32800
0C22C
3803F
0F3F3
222EF
2EB2F
0AAAE
28CB2
320A2
3C3E3
28A0F
2AA8A
22A03
0382A
2CB0F
2A8AA
2EBE8
2A822
0CCF2
0E3A2
2A382
0CBFE
2AA0A
2A202
22B3F
28AB8
2EAAA
33C80
3AAEA
20FAA
38222
0CE88
3F230
0C2AA
0C38C
3CC2A
3FAFF
0EAC8
08FB2
0F202
0EFFB
2A8A8
3AFBE
23B2C
0A0AA
2A82C
32FB3
3AA8C
22AAB
2AA2A
02AEC
22BEC
003C3
0ACA0
08FC2
0BE20
2BA38
320B0
3FFB2
2AABF
0F3BC
00000
22BBA
2FF8A
30EFC
2082A
02F3E
00232
3ACF3
0A0B0
20B0A
0C000
0B0C3
28A02
0B038
02BEB
2AEB8
0E82C
3CFA3
228AA
28A03
382E8
3EE2C
28CB8
02220
2A003
023BC
32CE3
23808
3AE0A
0AA0F
20EBC
22A28
02A00
00FB0
03FF3
2AA82
3A08B
22A2A
2820E
0AE8F
3B328
32AAA
0220A
288AC
22C0B
33F33
208B8
3F303
033F2
0FF0C
0200A
22230
0AC8C
3023C
3FF3C
2FAEC
00000
20088
202B8
0CC2F
0CBC0
30F0A
2AA38
020AA
003A2
02FB2
23FF0
003FF
3A20F
2AA8A
0A2AE
00CC2
2223F
0AA8C
0CFCF
0A23C
28BA2
00CBA
2CAC0
03CF0
280C0
002FF
2AA3F
2E303
33BE0
2AAB0
2280B
08A03
2AA82
28AB2
00CF8
0A220
022B0
3ACF3
3333E
2A280
0AF3B
0302B
302A2
0FAA8
232EA
2E823
2E3A2
28EB0
2A33F
3AA22
330EB
20B00
22CBE
32F3F
0BC3F
0E0B3
2AAC3
0082A
2A20E
2CAAB
20F2A
032FF
038AA
303E8
0383E
2A0B2
0A8AE
0880C
3AAA8
0E3A0
2AABE
0CFCC
002A2
382C3
2AA2A
2EA2A
0F8F0
32B22
0C0AA
00B0E
0ABCF
323A2
2833E
32F83
003EA
1F8E3
2E3F3
02ACB
20A28
08330
3FB28
38CB0
088E2
2A8F2
3B3BE
2C8E0
02C0C
0ACFF
22F30
083BF
0F3B3
0EFB3
2000C
28AEF
3BCC2
2BFFF
2002A
32A80
0F032
0E3CC
28CC3
2B0FE
0232A
322A8
30828
0E320
028FF
02F20
280BC
0C22A
0CA2A
2EB2A
0230F
0A3EF
2EA0C
3C33C
3FC3F
33CBE
0BF0F
0AAA2
2BBAE
00C03
0AC0F
3FC88
20C28
3E320
00000
30FAF
08E88
38E8C
2CA00
22C82
30F00
228EF
30002
2B300
00000
23300
02A80
2083C
0A800
3FE3F
33C2A
003EC
2AE22
20082
2AEC2
3CEEF
2E2BF
2A8A2
0EE0F
22AAA
20FE8
33F0E
20828
3F28A
0A8C3
22ACF
08EBE
02320
30330
0C2BC
008A0
203EB
2388A
0C03E
3E08A
0E002
0FABE
003FF
02C03
0A232
000BF
22008
2A8EA
2A882
2CBEE
3AAAA
2A8A2
32FF3
0FECC
2FA38
00000
283AF
23AC0
30322
0FCCB
03FEA
22BBC
2C3A2
3CF3F
2A8AA
3008E
0030C
0CB8C
2FB2E
3E33F
3FCC0
3AA3C
0BAA8
33C0C
3E38C
0C330
20B22
30CFF
2FFEA
2BB3E
030CE
28ACC
22A8B
33CC8
08203
3C32A
33A80
22228
3E8A0
0003C
00000
00200
00000
00030
00000
00000
00000
00020
00003
0E003
00000
00000
08000
00000
088A0
00000
08000
00000
00000
00000
00200
00000
08000
000C3
20000
00000
00000
08000
03000
00000
00000
00000
0020F
00300
00000
00000
20000
00002
02000
00000
08028
00000
00000
00000
00000
00000
00000
00000
00000
30000
00000
00000
00000
00000
00000
08020
00000
30000
02080
00000
00000
02200
3C000
00000
00300
02020
00000
00000
00000
00023
00000
00000
00000
00002
00000
00000
00000
00000
00030
00000
00000
00000
00000
00000
00000
00000
00030
00000
00000
00000
0A000
00003
00000
00000
00000
0000C
02A00
00000
0000F
00000
00000
00000
000C2
0000C
00000
00028
00000
00000
00000
00000
00000
00000
00000
00000
00000
00083
20000
02000
20000
00020
00000
0C000
20000
00000
00000
00000
00200
00000
000C0
00000
00000
00000
00000
00000
00000
00000
00000
0003C
00000
30000
0C000
0000F
00000
00000
00003
30000
00000
00000
00000
02002
00080
00000
00000
00000
00000
0000C
00002
00000
00000
030C0
00000
00003
00000
00003
00000
00000
00000
00000
00000
00000
08000
00000
00200
00000
00000
00000
02002
20002
00000
3C000
0003F
00000
00000
03000
00000
00000
00000
00000
00003
00000
00000
0000F
28B80
328AA
080A8
28A08
3C322
3CFCE
03A80
08A82
20AE3
0B82A
30022
3C208
3CCC2
282CC
2833E
0CC80
03BE2
0F0A2
0A0CA
32238
3FC23
28B30
2B830
3B83A
200A3
20A2B
03AF3
3F8EC
330CA
30220
0003C
3F0E2
30CA0
2F00F
023B2
3E2BA
0F02B
0CB00
2823E
28A28
2023A
3BE0A
0ABAA
3E23A
0FF0F
0C8B2
02C00
23BA3
388F0
233F0
2FABB
0000E
2A803
00EF2
32B82
338B8
00AAA
20F0C
22033
0C02F
0FA38
20AE2
32CB8
028B0
23AE0
2FC38
0A003
20FB0
0C3E0
0B0B0
0BAEB
008A2
0300A
0F02C
32F32
3822A
03830
2A208
0008C
0FAB0
00A08
2E828
0C008
222A0
00B2F
0A08B
2383A
300EE
0280F
3C282
0E822
0AC0E
00A0A
3823B
0AE32
02AAA
28000
0E032
030A2
2B30E
2A82A
00000
020A0
08A8A
33CB2
0FA2B
00B82
083BC
2C823
228AC
0E8EB
00000
00F03
2B83B
3E8C8
222C2
23282
2A238
30223
08A00
0CE2B
022F2
22828
3CBEA
3AFCC
323F8
2288C
28AA8
000A8
0A23C
2020A
0CFE2
0EF82
2B00F
2A238
280C3
2223F
22AB2
0ACBE
3A200
3C0B8
2208F
00032
3303E
0FA23
0E0CA
3FFF0
08E0F
3B2C0
008EE
00382
08EA8
0208A
20CA0
2808E
0BBE8
238EB
00000
003FF
3FF0A
0CAAA
3202B
3AA82
038FF
2088A
08AA3
0C00A
3E883
222AA
380A2
0333C
0AF0C
38A0C
0E388
0C320
30080
2E0BF
3CE30
0F88B
3A220
00003
238AF
0A802
0EC00
22CB3
00E22
30A8A
2CC32
00A80
022B3
020E8
3CFB0
03022
28AB2
22C38
0AC02
08F82
200BC
0003E
300BE
32FFA
20EBE
23ACB
20AA8
382B3
3AF23
2A8EB
3A2B0
3FF88
3008E
03200
3FFF2
2C020
22330
23A28
2A333
02E0A
3F0FF
0BCFB
2AFE2
2B82F
0E282
2332E
23008
322BE
0BF28
2FBE0
3FF22
00FC3
0F32F
3AA88
2F8E8
208A8
30382
3FA33
2C020
3CCFF
03FCC
3C820
2C38F
20FA3
2280C
1AAA3
2A8A0
28FC3
3C0A0
2FFC0
0C3E3
28C8A
0FB2C
32CBE
30F8E
238E3
32E82
2E8E8
0288C
2AF00
388A8
008C8
0F3EA
2EAB0
2A3CC
22F3C
2380C
328E2
0EFA0
2BE3C
0F23C
33C3E
2F32F
0280B
0BA28
2FF82
3F0F0
23A88
0C00A
2380C
2203C
238E3
0C8A8
2C020
2C3A3
0A333
320B8
080AB
2F0CF
03FC8
200C3
3EC80
2C8E0
2A83C
20A0C
33823
00000
020C3
38EB0
0382C
28A2C
0B0A0
2AA8A
2BAE3
33AF2
02A23
00030
2AE8F
2BA3A
22C20
03828
3F0C0
02202
28F2E
0AFBC
0803C
2E2A3
3C88E
2AA30
0F3CC
2C000
03AE8
230A3
3A2BA
20AAA
3A2B8
2A8EF
2C088
38FAA
3C032
3EC33
20828
00AAA
22AA2
28B2C
0F3C2
003B0
0C820
2ACAA
20BF0
0C0CA
2EC8A
2A8E3
0C3A3
3DC3C
2F0FF
02CFB
32EBA
0FBEF
3838A
023FC
3C308
00000
2A022
22AA8
3CEFA
02FBC
3FC82
2883C
2F0EF
2AB22
2F82B
08E22
03323
3208A
2088C
0C338
0A0AA
3F88F
02832
33FCA
2C8E0
00CAE
2F0E0
0E0C2
0223F
2083A
228AA
2A80A
03283
3ECC2
0F3C3
2F328
288CB
3EC33
2AAA2
3AEBE
3C00A
3F03F
0E083
3CF38
0CFE8
0A38F
2AAB3
00F0E
02CBE
0233F
3AA80
0F023
03FE8
22CCC
23033
2A33F
2A3BE
0A003
2F232
0AC3F
3ACA3
2A2A8
0CA88
2A8B3
3AEA3
3FF3F
20A3F
2A8B0
002AA
3F0FC
3C38A
28E2A
03C03
28B3C
2BAC8
0303E
2CF03
0AAAA
3BCF0
2A228
3C20F
02CBE
0800B
32AA2
2A233
0BC0E
28F2E
20AA0
0F2B2
00CB3
3FCCA
0BC3F
3A388
3EEB2
200B0
20AA8
08FF0
3FEEB
2ABFF
2A08B
32EA8
2ACFF
33CCB
2A2A3
3A082
2FA22
08A0E
3EB3C
2AE08
3FF3C
230BC
0B883
2820A
3BAAE
0833E
2080F
3FFCA
00FFC
2F283
3FF3F
0CCBE
0A2B3
2B0BF
0CFEB
3EEB0
0AA88
23AEA
2203F
3AAAE
33C20
3ECA8
200F3
03003
23802
03F38
008C8
0AFFF
00A62
2A3B3
2A808
08BA0
00000
02033
3F2A8
38F8A
382A2
23228
2A883
0220F
2A883
30E0F
00000
2A300
022A0
23328
3FCC0
033E3
000C0
0BACE
3FCC0
0A302
0030F
0380A
28A3F
283CE
0CAA2
0838E
0FBC0
3C003
28A0A
00CCF
20823
322CB
2AFFF
20B0A
220C3
08C22
203FE
22AA8
23AAA
2F8C3
28AB3
02B3F
3FCE2
32FB3
3F030
2A3FF
00A20
0E8A2
0A8FF
03AEA
33A2A
283CF
0832C
080A2
2AE3C
002C2
00000
2BA22
2AAA3
2A3BE
23028
0B0CF
2E0BB
2F83A
2AA22
0AE8F
2AAA3
3C08A
0A0A0
3C8EA
2008C
0F3AA
32A83
2A02F
2AA0B
3AC8C
3F22E
208BB
00F3C
0B02F
3CFE2
0A0AE
32EB8
02820
3CCAA
33022
2AAA8
023AC
30FCF
28AA2
2E0F3
2EFF0
33E88
2AA2E
28AAA
20AAA
2AAE0
290BC
20C33
02FEF
3FFE2
2AAE0
2ECCA
00C22
302F2
23F02
28AFF
30F3C
3F0E8
2A80E
238A8
28A00
3C0BC
2A3BE
3FFE2
2803F
203E3
0AA88
030BC
0BC8C
3F0CB
0E0EE
30C08
38822
28C8E
22AA0
2A0FC
3FBAC
2A0BC
2A30F
2AF8C
2BE30
20CBC
2A8B3
02C2C
3AFBF
28FFC
08F03
02F82
2A280
2BA0A
230C2
20020
030FF
3FCEA
28BA2
2A33E
22AAA
20F03
3A00E
2A2E2
2030E
2A880
2AAEB
2A080
2C8A2
2ACBA
2C20F
20FCC
0AE3A
332AA
3F8A2
3FCCA
0C82C
2288A
23302
02FC8
0A33C
20C30
28FBE
2080C
202EA
2A3BF
228E3
2AAAE
223CC
0A083
0FA2A
22B3C
28A0F
2802E
28C22
2833C
2AFFF
3F302
0FFCE
30EC2
2AACF
0A8EE
0F202
0020C
28F3C
00000
2A3F3
3C00B
0A80A
28BA2
1AAB8
2BC3C
0AFC2
28F0F
2AAAA
0C008
0FCE0
2EFFF
30C03
2A2A2
2CF02
0A0C3
3CF20
2002A
382F0
2A800
0E30E
2CEB2
3CFFC
02C3C
2BFCF
0C0F8
2A03F
3032C
08FF3
28C32
22AA2
2A88C
2FFFC
28302
20A00
3CAAA
0C03C
003C0
2AF2F
0CA28
2AA82
3F3E8
2B82A
08E8E
088B8
0288C
2CF0C
3FEFC
33FC2
00C2E
0FC30
2FFC0
0B02C
02AA8
20882
00000
3AC8E
320A0
28A38
30CAA
000F2
20C3E
203B2
03AA0
22220
0AA3B
0C0CC
20E30
223F3
2B20C
3300A
22AA8
028B2
2AA2C
22A28
2AFFB
2B2FE
2BAA0
30FE2
08028
3FCFC
0A2CC
20F3E
03FE8
1AA88
2AA03
2BC22
0A000
30820
3E32C
0C82A
0AA3C
20AA8
20F32
0AFBE
2B2AA
082AA
33033
02B3F
3AF33
23BC8
3200B
2AE8E
22BEF
0AAE0
330C8
3AAFC
20822
0AC82
0BFBE
0200B
2A000
38AAA
0E8C0
2C802
280CB
0B20C
0A2B2
2AE0C
0308A
2BF0A
2AE3F
3FF2A
08A2A
3BEA2
22AF8
0AA0C
0E8BF
3F00A
2BAEC
3AEA8
0300F
23F2F
203FF
0CCC3
3AFFC
3E228
0A23E
32EEA
2780A
20AAA
08A1A
23BE3
0BF88
303BF
3A0B3
0CCBA
3E8F2
3CFA0
3EFB2
2A88A
0AAA0
38B08
3E2A0
2300E
3B00E
3EC0B
03ACC
2BE38
0AFC0
28300
28F2A
3FF22
3AB00
30F2E
0FF22
32FFF
3BCF0
0B020
30CAA
2AFB0
2CBCB
2AAE3
3AF32
32BA2
20308
2B82A
0222B
2EC2A
2A220
30C20
33FCF
30C0E
2A3C2
32C80
0AA0A
3C338
2F8EC
00FC0
30A8C
0B833
00000
032EB
20EB0
2ABA0
2E4AA
28A22
38080
38AC0
3F323
0A8A8
00030
2A02B
3CF28
0AF2C
2AA2A
0A8CF
3FFCC
3BC22
22A00
0FCBF
2AA8A
2BA3F
08802
2383A
2F00B
30FCC
38CBA
32F3E
0B02E
30820
0FFF8
3EFA8
28280
0BE3F
0AA8F
0F3EC
0222A
2F22C
008AA
2CBE0
3C008
3E0AB
00F2A
0E322
300A2
0EA28
0C8A3
2888F
0FF2B
08A8F
280AA
0F208
380EC
000EF
220C2
2BBF0
00000
300BE
0AFEF
0EC23
3CF0F
3FFEA
32EA0
0BF30
0C3EA
228E2
2FF2B
2CBE2
002E0
008A2
0CC2B
30F2A
2E883
20082
0F3CF
2CBA3
0E083
3AE32
0A280
3C2AA
23B0E
03CE0
3B23C
2F03A
3CFC2
2280B
3FB2E
38223
3CAA8
3CF2C
32F2C
00A33
020AA
2E8A2
0000F
2A282
02CA0
0380A
22A80
03FC8
3FFC2
22A00
0AA8A
2A0CE
08C8A
08EBA
20322
2B202
2C8EA
0033A
08AA2
28A03
00000
38280
3F03C
0800A
02022
00202
0B028
2A8A2
00C03
0A882
22832
3CC22
00A08
08020
2AA2A
20C3F
2AAA2
22FE0
20B00
380AA
0F000
22B00
2A282
0238A
00A00
0CA2C
00A0C
0F200
02B2A
3BE28
0A2E8
3208A
380A8
3F0EF
08C8A
02A2A
02A20
0CC2A
23A82
0CA83
008E2
2FA80
0A082
08E03
08A8A
28000
30000
2AA80
3F083
3FABF
00202
3F20C
08230
00B03
08000
0BFFC
22088
08880
038CA
20AA2
22ABA
22AB2
30A2A
2003E
0CA00
0CC8A
00B2C
0003F
38C00
2AC3F
03FCA
3A0AA
2002A
3F033
2A0AA
230EA
2A080
3C02A
00A82
38003
00000
038AA
22000
02032
33283
2A28C
0FFC8
0A80E
20800
233CA
00000
00802
28820
30082
0C32A
32880
02FF0
33A8F
00ABF
3308A
02833
3C22A
202CA
2B200
228AA
3C8F0
28AB0
0F3EA
0323F
2A33E
02FA3
2AA00
00BE8
0A830
3F2C8
023BA
0A280
28AA8
0A3BC
02A88
300C8
0E2A0
3A200
2300C
28A82
3FA02
3A2A0
3FF33
0CFE2
00880
2A0A8
0F0EA
008FB
0FC30
28282
0A08A
00000
0C2A2
22A8A
2A882
02FC0
2A328
33C32
208A2
38333
0AE82
0AA22
08202
20022
38028
00000
2A080
2AA8A
22000
08E2B
22A28
0A2A0
382BA
3FC3F
3F28A
08082
03000
00000
2A0B0
2803C
2A2A2
0822A
0A888
0FA8A
2808F
3CF02
00000
0000C
02000
0002A
00000
02000
00020
00000
00000
00030
00080
00000
00808
00280
000C0
00000
00000
02080
22000
00000
08082
03320
000C0
00030
08A80
00300
08020
00000
00000
00000
00000
03800
00080
030C0
00000
00082
00000
00008
00000
00008
00300
00000
00000
00000
00082
03200
00000
00000
00200
00088
08000
02880
00080
00000
00000
00000
00020
00000
00000
00022
0C000
00223
00000
30000
00200
30028
00000
00000
00000
00000
00080
02300
00000
00280
00000
00000
00030
02000
0C000
00000
02000
08082
0C000
00000
2000C
00000
00320
0C008
00000
00000
00000
00000
00000
00C00
00000
000CC
00000
0C000
000CC
00000
00000
00000
00000
00000
00300
00000
0C800
00000
02000
22280
00000
00000
03000
20020
00000
03000
02002
00000
02080
00200
00000
08022
00000
0A002
02000
00000
000C0
20000
00000
00000
00008
00000
00000
00800
00A20
08080
00000
300C0
00800
30080
028A2
00000
0C300
00020
00020
20C00
00300
00000
00000
08000
00080
00000
00000
02A00
00000
00800
08200
00000
00000
00000
00000
00000
00000
08200
00000
00000
00300
00080
30000
00000
00300
0C000
20020
00000
00300
00000
00880
08C00
00000
00000
200C0
00302
00000
00000
00000
208A2
00C02
00020
00000
00200
00000
20030
22AA2
0BEFF
3FFEA
2BE33
28FCF
33FE0
200A8
28282
3A28F
0032E
22AEF
0ACBA
0C808
22FC3
2020F
0F0FC
2BE0E
028CA
2B22A
2A88C
2ACB0
00F3E
2CACA
3BC0A
0A2C3
2C88A
0B223
2F20A
0C8AE
382AF
2AAA8
22F32
300F8
2380E
2AA83
3EABA
3F0FF
3F33E
0F83F
32082
22283
00BAA
0AAA2
0CA8A
002BF
2C32F
3B0FF
3B28F
0032F
2FB2F
38E32
2C0C2
2AEF3
3AF32
2FAC0
28E82
283FF
0CBA0
3202A
2CB0B
2E082
332CA
0AC8A
28ABA
2ACCF
280AA
22CAA
0A000
02C2F
3C3EA
0A2AB
2A3CF
2EAAA
2A2B0
20CEE
0AC2A
0BAB2
0AFA8
20AEA
238CF
28F0C
22EA2
30A00
2BFC3
20AB3
2A28F
2C2B2
0F20C
00AA3
3BFFC
3FFFF
3FFFF
0003A
3B0AE
288FA
00828
3FECA
3F233
0C2E0
2FC8A
3AE08
00000
3CC8B
3C8A0
0C2BE
2A2B3
22AB0
02003
0FAB0
0BA02
0CAA8
0C000
2F0EB
2AAAA
30022
2C80A
0AAAA
2F2BF
2A283
0B028
0A8E8
3FFE2
2808A
008EA
2E20F
3BF0B
220A0
3CA00
33280
20208
3F3F3
3FC23
3233B
2C0CB
3C0E3
3F0FF
20F0F
20BC2
2A0E8
2A2B3
2B288
3CF08
0EF8A
08BC2
03E83
3FFE8
3E3CA
32CBA
2CAB0
38FF3
288B0
3F3A0
2AA23
2A288
0ABA2
008BC
3AC33
00000
2A0BC
3A088
003B2
382A0
2AAC8
23FCA
0FAAA
00E88
2EAA2
3AAAA
2AA0C
02C08
2AA8A
0EF0B
02AAA
2EC82
2AFC0
38E03
2AC0E
2AAB8
2880A
088A8
20E0A
2A0E8
2AE32
22CE8
38E38
20382
3F322
0C880
20AAF
32CE2
2A08B
3233E
283EC
0B82A
0B30C
3AEBC
0A28F
28B2F
3A0A2
280BE
28CAA
02F0C
0B02C
2A03C
2A8AC
0CCA3
2F8E4
0F0EB
2C0A0
0C32A
22A28
22FFF
0200A
20A2A
2E820
0CC3C
33FF2
2E8F8
2A222
3FC2B
202CB
000CE
0B3CF
08A2A
2A83E
233CA
328E3
00323
03080
23AEB
0C8EF
0AAAA
0FBE8
282AA
0A20A
2BB2C
0B20A
0033F
233EB
3CCFA
323C0
3A8EB
23BA2
383C3
208AA
2A0EF
08C0B
228CB
0EFFF
28FFF
32C03
0ECBE
0EA00
0CE22
280C2
38308
3CC8B
0EA2B
30FFF
20A03
2AA8E
2A0F0
2A2B2
220C3
3E3E2
020F3
0F0BF
02F0C
0A0BC
2AA03
0EA2A
02820
00FE3
28A22
032A2
0EF3F
33A3A
30CC2
0A02B
33A22
2B3A3
22283
33C2E
302BF
12B0C
002A0
2A8AC
2228A
3CFEA
233CF
0EAAA
2883A
20088
00000
2E00A
0A033
2AA0A
32880
0A8A0
3FFFA
3ECE8
3000B
3F3C3
00000
3C2AA
0B0CC
3828F
0C820
0AAAA
28030
0A003
220FF
08B0F
0BBE3
2AAC2
22AA8
0F0FC
2BFFC
03A8A
2AA3F
0003A
0BCE0
3FCEA
2A0AE
288C2
3002A
0AA83
0EE03
3CFC8
28AFF
03CE3
20C03
0F0AC
20F0A
08A0A
000FF
02F2A
2303E
20808
2B0F8
28A80
3E203
3CC00
30300
23000
08A03
33FC0
03288
20E8C
00000
02283
088A2
2B803
22C80
22C30
2C033
0EA28
32830
03003
2280E
202AF
082EA
008E0
2302A
2A0FF
33CEC
28AAA
0A2A0
2A8A8
32EFF
30C2F
03332
28F32
2AAB3
080EA
0A020
2B3EF
288CA
28AEA
02A2B
0BA38
28CF2
280CF
0F0FC
2B8C3
0E23F
22F3F
2A8BF
0AA8A
08B3A
3333F
23A00
3FF38
22E8A
2BBCB
3FFC0
3E086
33E8A
3CF3A
02E8A
2A2A0
0E8A8
3E08E
2AA82
0EAE2
3ECAA
33F3C
092E0
23B2F
32232
3C3BE
02E2A
0BAE8
080EB
08802
30C3A
2FB0C
3CFCC
3C22A
03EC8
3BA82
0BAE8
32F33
0CF2E
032C2
3B2E3
3FA0E
3BE86
03A08
2A2BC
23008
23A0F
2008A
3EFB2
380F2
3CF8A
20800
2F32A
2A23F
33F0A
2AAB0
03BEC
2AF00
280FF
33E0A
32FCB
20AAC
203FB
28AE3
30CA3
0380B
00280
3FFA2
2AABC
0E23F
2C32A
3F3F0
3F338
3AC38
2A8AA
2A2E3
030EA
00C32
0EF3C
2008A
23A83
28EBA
0230F
2B8EC
28A80
3FE00
0B0BA
332CB
3CFBA
2B838
2FFCE
28A2A
000AA
2A2A2
22002
0A30B
23A22
20A0A
0FCAA
2AE32
00000
08F2E
0A3EA
0AFBA
08A8B
32CBA
08BFF
3B02F
3FE3F
03AFE
00308
2ACAA
0022C
28AAA
0ACF0
3EC80
22ABC
2F8EB
02AAA
3FAE0
0A2AA
20808
3E888
0C330
080B2
2AEAE
22FAA
2ACCF
030EA
32FCF
23328
2C888
30030
222AA
3F320
0AA0F
202BC
0A32A
0FB20
322B3
22002
0FF0A
3C82A
338FC
032E2
3C3B0
2CAF2
28A8A
223AA
2BB00
223A0
233AB
0A2A2
2823A
0238C
3FF2C
00000
3F3CB
23A2B
2BA02
2F2AF
0AC2B
320AE
3822A
2F0EA
003AA
038E8
2BAEB
333F3
33AC8
2B0CC
28A03
3B0C8
03F0C
3EB3C
0083A
3FB0A
2AAA2
2AA3F
32FF2
2AAC2
0BCE2
332E0
2AF8A
2082F
3808A
3F0EA
3F2B2
30BA8
3322A
2BB00
3C8AA
2AFFB
2EFE8
208CF
2E2AA
3F0EA
0FCEA
32F2A
2C83C
33EEA
0F8E2
3FA32
2ECBC
22800
2A00B
0ACF3
3FE0A
0BE8E
28C08
2CA2A
0E328
2FC3C
28AF8
3FCFC
0A8BA
0C0BC
280E8
0FE3A
032E0
33C8B
0C8A2
3CE8E
32CB0
2A82A
0AC8E
0220C
38ABF
0FA0C
22CBF
2AF2C
280E3
0FCEB
2AFEA
3CEBE
3EFCA
02B8F
08ABC
2B00C
28F2B
282AA
2AA0F
2A8F2
22A23
03C2A
2F300
038A0
238AA
28A2A
30EAA
20830
3C08E
002AA
30020
283CE
03A2F
20208
2008A
2C2CB
0C020
33F2A
33280
30E3A
30C80
33F00
0282B
3FEB8
33A3F
208E8
2A8FE
2BA3B
00C0A
3CFA8
0FCCC
202EA
20AE2
28FC3
382BE
0E28A
33A80
282BA
2AFFF
2AFCA
288E3
0B822
33FC8
20F23
2A0CB
0C82C
0F3CC
3F2FF
30FA8
00000
28ACF
0CC80
32CB2
300A8
02F8C
28FFF
3002F
203CE
0ABCF
0C000
2023F
0A828
3F080
0AEB3
28A2A
2AABF
3F8AE
2B32A
3023A
22CCA
2A80F
0CE3C
20220
0C3E8
020A0
0AC2A
228B3
33A3B
2AEBF
08028
3AC0A
03AC0
288E3
083EB
23CEA
02C8C
208E3
0028B
2E202
000C3
2F0B3
0A28A
20A0C
3F0C3
3C288
3CAA8
3F0BC
33FC8
0028C
200EB
0CBB3
308A3
0AEA8
20C2A
23BE8
00000
3B23A
3FA03
3CC8E
333AA
2AA8B
3CBC8
0F28A
0ACEA
0332C
3C3EB
2F8EF
2208E
38A88
203C2
03AB0
323FF
0ECBF
00FCA
322B2
032A8
0F00A
3FC0A
3088A
3C3C2
3CCCB
3FB33
2C308
338BC
020A8
228A8
2A328
00AAB
020A0
30F2A
00000
00000
00000
00000
00000
00000
02000
00000
00000
00000
00000
00000
00C00
30000
00000
00000
00000
00000
00000
00000
00000
00000
00000
03000
00000
00000
00000
00000
00000
00000
00000
00000
00002
00000
02020
0000C
00000
00000
00000
00000
00000
00000
00000
00000
00000
00000
00000
00000
00000
00002
00000
00000
00000
00000
00000
00000
00000
00000
00000
00000
00000
00000
00000
00000
00000
00000
00300
00000
00000
00000
00000
00000
00000
00000
00000
00000
00000
00000
00000
00000
00000
00000
00000
00000
00000
00000
00000
00000
00000
00000
00000
00000
00000
00000
00000
00000
00000
00000
00000
00000
00000
00000
00000
00000
00000
00000
00000
00000
00000
00000
00000
00000
00000
00000
00000
00000
00000
00000
00000
00000
00000
00000
00000
00000
00000
00000
00000
00000
00000
00000
00000
00000
00000
00000
00000
00000
00000
00000
00800
00000
00000
00000
00000
00000
00000
00000
00000
00320
00000
00000
00000
00000
00000
00000
00000
00000
20000
00000
00000
00000
00000
00000
00000
00000
00000
00000
00000
00000
00000
00000
00000
00000
00000
00000
00000
00000
00000
00000
00000
00000
00000
00000
00000
00000
00000
00000
00002
00000
00000
00000
00000
00000
08AE2
028BF
303BF
203F3
2A2BE
20083
33C20
3FECB
3300C
2802B
2AA20
022AF
2B082
2A828
0B82B
3F3EF
00300
0C888
288AC
38AA0
2AAAA
02C2A
328A3
2A08B
2BA2A
0C30C
2BAFF
328F2
3C08A
02AB2
008A2
20C0C
20BE0
283EB
220A0
0208C
3F2C2
3CC00
03C3C
2AB23
3020B
302A3
28C03
3E3A2
30288
2A2B2
3FABC
3F2F3
3A223
3F82B
3C08A
2FA8F
2AA22
2A0A0
3F2B0
30228
0AEB0
3A2CE
2A083
3BCBC
3EF22
0FCFF
2A880
003A3
00A83
03C23
3C00E
228C3
2A228
0C20A
020C3
2A8AA
2032F
3E3B0
2B833
2A0AB
2CF8A
2AC8F
30EC3
30F3A
2CB80
228EC
3F38E
2AF8A
2B02A
28A80
0230A
3F803
3CC0F
0288C
3F23F
0303F
3F002
0ABA2
22C8E
28828
00A3F
3CBB2
3F328
08A0C
380B2
00000
0F003
0EFC0
2FFC8
3E02A
00A88
2BA00
3F3FA
30C80
2F82A
00000
0B882
02AA8
220AA
3F238
238EF
030C2
3EF80
00EC0
0F80C
083FF
2202A
3AC3F
0AA80
0AAB3
2AAB8
32F80
0FFF0
228AA
3F33C
00AE2
0A0B2
238E3
0ACA3
0323C
28B0F
3E0A0
00AAB
0AC83
300FF
00F30
3C88E
2238B
3FBFF
08F3C
3FFFF
0C80F
3F00A
00220
30AA8
2A82A
3F3B0
208A3
30F33
00FCF
2AA82
00000
303A0
2A8B8
00323
2022A
28F3A
3EACF
08823
0CF0F
2A822
008AC
3A22E
0FAA8
220AE
20033
22FBE
000C2
228C8
0F2EC
0A08A
32CA0
0200C
3A023
023A8
2FA28
2A308
3000B
288AF
2CCCA
22BEC
30CE3
03AA8
2AAA8
2E82C
0CEF0
3C22A
2EFFF
3FF82
0E3C2
00203
3FE88
20ABA
22333
22FBA
023C2
3FECA
08A00
2AB2C
22BA3
0A2BB
380E8
3B2A2
20BF8
28B00
3EF0E
088BB
0BF8A
008B0
02BEF
3E28A
288A0
0CE23
3B08A
28802
3C38A
2BAFF
228F0
0280A
082C8
0BAE0
23B0C
2CFC3
3000F
2C308
0BEC3
08CBB
0002C
33CFB
2B32F
3BACB
33EFB
22B22
08CB2
3CA2A
3B2BA
3A02F
08AB8
22AAA
380A0
3CEC3
32AAE
3CCC8
08A3E
38228
3CC0A
0ABA2
2A888
0E8EC
03EFF
32ECF
3AEBC
2B20B
202E8
0CA28
03FEA
3C3A2
08003
0F08A
08E22
08E88
3082A
0ACBA
02028
288B8
30A80
00FCF
3823A
0F0EF
3EFF2
3A28A
02CB2
0A20B
088C2
2B8CC
00208
2FCEF
2EFA8
0030B
2C82F
03CCF
2A8BF
2CB30
0CA28
283BA
2AA0C
28033
00000
20330
20B32
028CB
0AA22
23A28
3FE8A
30F82
3FEF8
2A883
30000
2A038
38AC2
28B22
0CB00
2AA3B
2EFBC
2032E
20F2A
0ACFC
3028A
02CFC
2A00A
0C0C3
3FC0A
082C2
3CF0C
22FB2
008E3
0C3B0
3CCA0
3B0EA
0BEB3
00CE8
0C3C3
30CA8
23BEC
032A3
2C82C
280F0
00BC2
2B0C0
2EB02
3ACFA
3CB00
00A38
2A8CF
2030F
0ECEA
0E33F
0A8A2
2E3B2
0BAEB
22AAA
0BFC0
220A2
00000
2EBBF
2AB20
03ECF
323B2
0AB82
28C0B
38232
202AA
3BA2A
0FAEA
3FF0F
232C8
2A2FC
0FFC0
0C30E
3C0A8
0000A
0CF08
000E3
28B8C
3AC02
3CB80
32FB3
32C3A
33200
2820F
3EC2E
0CBAA
3BA2A
0A022
30E3F
208B3
033E2
3B0E8
2AFAA
00CC2
0AEC8
30088
0CF20
3A8A2
2A3FC
0AB32
00EBE
0A208
3230F
0E020
0FA3B
02F8C
2ACBC
3AC38
2CCB0
3CBCF
0F0EC
2A280
2A2AA
0E2CA
288FC
22300
3AC8E
3332B
2BFEF
3EC3A
23803
2002A
30808
02EBF
30F2A
2A280
0F8C0
2F3FC
2E280
22303
3FAA8
2ACBE
2E330
303A2
2EE8E
3FB8A
2AEB2
2000E
033CF
008E0
03FEA
28EAB
20AA8
03B28
0EFBA
0EF32
00C2C
02280
2AA3B
0282A
3A20F
02823
00AAA
0AF03
2A082
2B00F
2AA8A
2BBEB
2B8A2
32CC2
22C3C
2AA02
2A083
02333
0F0A8
0832A
22E0C
3F8E8
0ABAA
0A2F0
28AB2
30C30
3C002
2ACAA
2CFF0
2AAA8
2A3C0
0A0BE
2F8C3
0A330
0E0C0
2A00A
3F3AA
03EF3
0F83B
032E2
2283C
3ECCB
08F3C
2C2A2
0ECCC
2200C
2C0C8
00000
02288
3CC00
22820
32CE3
3F82B
2A3A8
2AFFC
2ACBC
22A2B
00000
0A0E2
228AA
0B830
003FB
2AAAA
0002F
23ACA
0A22A
02FA0
02E2B
038E8
02B32
3FBCE
0AC22
0833E
30038
3BCB0
00802
02CFC
02CF2
2B30C
2238C
3C202
2A0B2
02C20
2AC38
0A008
0F380
230E2
0A088
300E8
2A0AA
2A223
2AFBE
0A230
0AEAA
08A80
08C3A
22AA8
023A2
33F08
0AE32
200EE
22083
3C3AE
00000
20A28
0A8EC
2A23E
2BC2A
338F2
2A8BE
23C0A
33222
08F00
0AA20
02022
3AC32
00A3A
28BA0
03A2B
220E3
2AABE
28030
28AAA
02AEA
228A2
2AE88
308CA
1A8A8
38FB0
0AF3E
3AFAE
3F0A0
22AA0
22828
20C8E
22AA2
332E3
0A3BE
3BE08
3F83F
03AB2
32AC2
2AA3F
28002
3F8AA
0FA2A
3FBDA
2808F
338A2
3BF0F
2CCF3
3FA18
0BCFF
0203F
3AC23
2A00F
0BEFC
08002
20AAA
038A3
333EA
232A3
3369A
220B0
30FF3
280BF
0ABEE
33CBA
20CAB
3C0C3
0F8A2
08C3A
20BF3
0C02A
023E3
02A0A
2CF3F
3C808
0A8B0
003FE
3C3BF
3E8AF
0FA8A
200B2
3C32A
2F8E8
3A8EF
30CBF
3F2EF
22A0E
3BA20
3FAA3
20088
083FF
0AF32
3CEA8
23823
2B288
0EFA0
20BEB
3F0FF
232BC
30AB2
32002
038EA
38C32
32C0F
38C82
3CFB2
0032F
2BBAA
082AA
22A33
2CCEB
320BE
0BFBF
320C0
2AB28
023C2
200BA
203F0
33A32
3A8A0
2F88E
22C0C
3F0C8
030C0
02AAC
338CB
3CAA8
0AA82
32CFC
03828
280EF
20E08
3FAE0
02080
33C20
2A2BA
00000
03AAA
2AAE3
3ECBF
2A8B2
203C3
28A22
3C20A
2FB28
22032
08800
23AFF
3CAAA
2BB0F
32C33
30FCE
0EB2E
0A2BA
23A2A
0FCB2
232F0
08CB2
32CFC
3A08B
2323A
323B2
0B20A
0F3F0
3CC2C
303E3
3FA2A
288E3
302E8
2820E
0CE82
3B23E
0ACC0
030C3
3FB28
3ECBE
0AAAB
0B2E3
3F8E0
3A23A
282AA
20BE3
38AAA
02EAB
0C0EF
3F320
2830F
3F8E8
233F0
0A2A2
0ACE3
3FB28
00000
2C382
3CE28
2C20F
2B8A2
28C2B
33FEA
00CFC
2A2B8
0ACCF
2F828
3BA3A
0CAA8
22AA8
38208
302BA
33A32
3AE2F
0F322
282CB
2AA2A
2B00E
2F00E
208AA
32C3A
30882
3C222
3FAEA
22B2A
020CF
0AA20
2388B
33028
0FFEB
2082B
2BB3F
1AA28
2A00F
180A0
0A32C
228FF
2AACC
283CC
2AAC2
20003
20BC3
2EB0C
228CF
228EF
22803
2B8E8
22F3F
2283E
2C02F
23EC8
2A8F3
2AB2C
2E8BB
200F3
188FC
0203C
08E8B
32FBA
2A03E
28CCE
32B0F
2880F
2AA8E
280E3
0CFCF
2A880
23FF2
2ABA0
208C3
2B3EF
2882B
2203F
2A22B
2A002
2AB0F
0808B
2AC23
200A3
03323
30FFF
1AA08
0EBEB
2AAE8
288E2
20C02
2A083
0AC8F
22BFF
230FF
28FAA
28F2C
2B83E
20F30
0AA0F
28AF3
2EA2F
003FF
22028
08BEC
2A03F
2A003
0E0EF
0FBEC
2A888
03E03
0CFF3
288AC
0A220
02083
3330F
32C2F
2A2AF
2A880
2A3CF
228A2
28008
2CAAB
023F3
2A0A2
23BE8
0CCF3
2A3AF
0FFFC
23BC0
203FF
03BCF
23FE0
0AFF3
2AA30
2AA2F
2A0B3
00000
2A8CF
2A02F
2AC0C
2B830
2AA0F
333E3
22883
2A82E
2F3F0
00000
2AE0E
28A38
2B2E0
2ACA2
2AB8F
2C8E0
023AF
28FFF
0FCB0
2ACFF
2F823
28A83
08802
2A80F
080AB
2AC20
2002A
03CC0
2AA2A
008E3
22802
2C3CF
280B3
22B0F
0F3C3
08820
0E0F3
22E33
2A8AF
0A002
30F82
0CCF0
0ABF3
2080F
220E3
0280F
0AF32
2F8C3
2A0FA
0C3EC
20AEB
00823
200EA
2330F
2A820
00000
2288E
2280E
2A28C
20ACF
3FFF2
2CBC3
3C0BF
223A2
2B8CF
1A3BC
23AB0
2A0CF
2A38A
03CCF
3EFFE
2A80F
3FBC0
0AF20
2EB8F
2A28E
0C3EF
0B2C3
20FE8
2AACC
0A80B
28A03
02C3F
3FFCA
20B3F
3EFBF
2A8E8
230F3
02F8B
22033
0FACA
2B8B2
22AB2
38288
0B288
303B2
02A80
2828A
3BA2A
0A280
3B3E8
2BE80
3E0F3
33C82
3002B
02FAC
0A2B2
3A08F
2BCFE
0AE38
288AA
00888
0A30A
2FEB3
0BAAA
30380
32CFC
2BBB2
28AA2
2202A
2F0C8
0880F
2AA82
3228A
000F3
3FF20
200A0
2CAA2
3200C
3ECEB
288AE
0222A
22A28
0F220
0028A
3CB82
0F830
0FBE0
2220A
00230
0BAA2
32083
2802A
2BB80
2ABCE
28AA2
20F2A
2FAEA
32FB8
32FBC
3EFCC
32C03
2AC8E
02008
28B02
382AA
28BE8
3CFC3
33CEF
0338E
00FCC
0B330
288BA
082AC
3EBC8
020B8
3A0A2
233CF
0222B
02002
032BA
03B22
0FFCF
2ACA0
00A0A
2AC82
3FFC3
3F02F
28C8A
088A8
20A82
28C80
23A2A
3C3EF
20832
030C8
3AF8A
0F3C2
22A0F
2E0A0
0382A
00000
02C83
3200B
3F3C3
228EE
220BB
2E880
2C2CE
02A32
2AAA0
00000
0EA3A
28AAA
2200C
2A3FF
0FB20
0A088
0F3E0
3AC0A
282BC
20282
3F3F2
30830
3FFCC
2C0F2
003C0
2F3EC
0A382
3CF3C
3AE82
28E23
2AAAA
2A08A
3A8AC
32FBC
2BA8A
0FFC0
2A288
20A2A
3FFFF
0E800
22A80
23AEA
20FCF
20232
0E0B0
288AE
0F02E
02C80
0FBE8
3F200
3BC0A
3FFE3
30080
32E3C
0B3C2
00000
3F02C
2AAA0
22ABA
0AA80
0ECC3
20080
038C0
23A0A
0F8E3
2AA8A
238E2
33C88
0FB02
00F03
2F8E8
288A0
30208
0ACB2
0C338
23A2A
2BA3E
2A032
32C80
0CBAA
3AC0A
0CFCC
0E002
0A8EA
008C0
0BA22
2AA8A
3EF8B
08F0A
2AAB2
282E3
3E32A
33C88
00CFB
2FAA2
3C002
23A20
0EC20
0B2C0
23302
0B2EB
0BCB2
32A20
0ABEF
322A8
3CB2A
2F883
023A0
2FAA0
03C80
00EB0
333B0
0AC2B
2883A
382EF
3FBCF
2AB00
2F802
28A2A
33C0B
0A2A8
0C8E3
23BEC
22E3C
0CAA8
32B0F
383EC
2A030
20E2A
3C820
2ACBE
32F0E
028C2
02B88
28AF8
23A08
2AAA8
22223
0F08A
0F20F
3ACBE
20E82
3B0E8
2AFB2
0F8AA
0CC30
0FAAA
0A2B8
238F0
2C2A8
08238
038CF
08CBE
3228C
08800
0F202
02A30
00ACA
2ABA0
03223
2AEAF
3A28A
23CAA
302AF
2080A
2B302
0F82B
2880A
2A2EB
2F88B
0FAAF
2A822
0E0A3
0B8E2
00A23
0C033
0F3AA
32AA3
2228B
30FBC
0AA20
0C3C2
22822
2220C
234E0
20E23
00B3F
202A0
023EB
00332
02200
00000
30F23
2A08C
3E0B8
02C83
0E22B
3083E
20A33
0EAB2
382A0
00000
2BBF3
008FB
0B03E
2CBF2
3A8CC
28EA8
0F0AB
2B8C0
2330C
2ACB2
32822
383AE
0AA88
08C0B
0C002
22A82
3AC80
020B0
2AABF
02820
3CE0A
02BFF
2CBE8
03BEF
000E2
3CAA8
232BA
28C0F
3AC0A
2E32C
28EAB
080B2
38320
2A3F2
0C338
0AF3F
000CC
08BEC
2AA2A
2FE0F
338E0
2CA00
22C8A
32C33
2AF2F
00000
00E33
2A0BC
2A832
0EFBF
03EB2
2FACA
3FCF3
0EAA8
020B3
0A0CC
23BFC
3FCC2
33E38
3300C
2EEAA
0C0B3
03F00
0C3C8
3E083
22038
2F003
30CCF
2BFF2
32AA8
02B3A
03BEC
0B833
2CA2A
00EB8
2CC8C
3CC20
38EB2
08AC3
2BBFC
3CE2A
03AEC
3C23F
33A8A
2A808
030FF
32FC8
33CC2
2B8B2
0FCBC
32C08
338AA
3FE0B
00AAA
2F8F3
0FFFC
0AA8A
33E83
0ACBC
22C3F
2AC8A
02A8A
288E3
33CB3
08C3C
03000
02380
320B0
2CAAA
0C23C
332EA
383EB
2B80E
20830
20B3F
00B2E
38A88
0B29A
0003C
2EC00
20022
2FFCC
2E280
23282
0A28A
00C82
33000
0C8A2
0022F
220BC
2B82A
00C0C
030EA
2882C
22F30
2A8AA
32FB0
3F3EA
0B008
0AC3E
22203
280C3
03B2B
02C0E
33BAA
228AA
0FBA2
00080
0B0C8
02CBE
3EF3F
3300A
0A2A2
288AA
2C0FF
2FFF0
3003E
208A3
0CA23
02888
3BEB2
0AE8A
3F3E2
3200C
3AC8A
0F02C
03A23
3FCE3
28A8A
2B820
0AA8F
3AAB0
20AB0
32FFF
2AAA8
0B3E2
2BCF3
3FA0B
33E3B
0F0E8
00A22
00000
0F0F0
30820
02000
0EFAA
0B8FF
0CF3F
3C02A
00F3F
02CEA
00000
332E8
03220
338CF
28383
00B2C
2A882
322AA
3C2AA
20030
30AEA
38ABE
0B008
3F3C0
03E00
30C02
3F30B
0A28C
3F32A
38CFF
3F8EC
2AAAB
20B8B
03820
08EC0
00380
3FA2C
2F0C3
23AAA
3CBF0
30CB0
2AEA8
2F823
0FBBC
33E22
2822A
238AA
3CF00
33333
3F020
3F02A
3BCC0
0C2C3
08202
0AB0F
3B88C
00000
2EB28
238AA
2B8BF
3C282
28CC8
208A8
03B20
2AABA
208EB
2AAA8
3AAAA
3AC33
308AA
3FF33
20E02
282A8
0AA28
2AA8C
2AA88
0B8AA
2BAAE
230BF
3320B
3E3F2
30003
3FBF3
3C223
08E8A
200EB
2AA2A
2203C
0FFF8
288AA
2AA82
28ACB
3F8E2
228AA
0382F
0A02A
08BE8
2AAFF
30B20
3FAC8
3BE28
02228
0F30A
02C02
08FEF
2A33F
2AA80
0FBF0
000AA
3FBAC
2AA8A
30EEF
00C8A
2280E
380AA
330EB
3CAA0
0E2AA
0CE02
28A0A
0ACC3
2A0CA
3200A
2B800
0B03F
0E3B2
3EAAA
33EC8
0F28A
03C3C
22AAA
2B00F
3CC80
2AAEA
3E2AA
0F2CF
0F3CF
2A220
2F82B
2E0B0
0FF0A
03B32
20F03
3822A
0BE02
2880C
3F008
2CA83
2F0FB
28EE3
228A3
23AF2
30EFB
2CB82
0080C
2AFC0
03ABA
22B0F
3AB8F
0A0AA
28E08
28EC3
0A3AA
30EBC
3F02F
023EC
2AA8F
088C3
2A8C0
3A38C
32FBC
20CB2
0E3A2
2A22A
0022F
03A1B
2ABE0
0E0B9
2A330
0C803
38F32
0A00A
330CF
2BA28
33F08
300F2
0AAA6
0C0C3
2A2AA
03BE8
0FB3C
28AA3
00000
0080F
0B300
3CF32
3F02B
23022
208E3
28AA3
0ABAF
20828
00000
32CFF
03B23
3308A
3EC3E
38080
208C0
0FE8B
28FEA
2322F
20802
0F820
3CCA8
2A2EA
2C3E2
00B8F
23AAA
3FC28
0A8BC
3A203
2F22A
0383E
32CF3
22BFC
03CF3
2A8EC
0EEB2
2ABCC
22A03
20880
2AFAA
0F23C
0BABE
2AA0F
220AE
0BC3E
23BC3
02FEB
08F02
2A2EA
03228
330EF
0EA0B
0882C
3A83A
002E3
00000
3FF3A
0CB30
0EB2A
3AAE8
02820
0FFB0
3C20A
038AB
0C0B2
3F022
3020A
32E2F
3FCFB
2A3CF
28ABB
2F0E8
3ECFE
33E3F
2B0FF
3F8EA
0FA30
280FC
0BAA8
2A81B
2A832
2A820
2B8C3
2223F
3C2A9
0F230
0A2A2
0B8CC
2B828
3F3FE
22A0B
3B2C2
282AC
2AE3C
0000F
22C0F
2EF23
28E2B
2820A
30E3F
2A03F
003FF
0AA83
23B38
3FBEA
2200F
208AC
32CF3
32398
3FCF3
2338A
333EC
288CC
33E2F
208FA
00883
303EA
2002F
03B3C
2AA2C
2083F
20BEF
300F3
03A23
322A3
00ACC
208B2
2BF32
3E2A0
22822
2C8E2
0FCE8
2AFEA
2AABF
302EA
2CA83
3C028
0C0A2
0C32B
0CBFF
2FBE2
0FEEF
20A32
0F2C3
022A8
2383E
0FEFC
2B830
3F22B
2A238
00A8A
3A008
33C0A
3FC0B
0F8A2
3C0A2
20AEA
0FAC8
0A33F
30F20
30B2A
33C3F
20032
0AB2A
2FABC
08A82
0AB3F
33FF3
0000F
0AE0C
3AC83
3FF3A
2A20F
38E3B
008CA
22C8A
3CFAF
2EABC
3AAAA
20C3C
0022A
3230E
0230C
30F2E
0882B
0BCFF
0000A
2023C
3BC8C
32283
3EAE2
00000
2CABB
3A2C3
3E3E8
3F0E2
020E3
0F08A
2FAFC
30A2A
3B20C
02A0E
30820
2A20A
3CFAF
0AA23
3FB2A
2A8BF
0AE82
2BEC0
22802
38A83
3FF2A
3FF2E
2FCC3
2AA8F
20AAF
280FF
0A3FC
28AAC
002EA
2A0BC
3FCAA
3F3A8
3F8E2
3FF32
2E8BA
00CEF
3CCE8
2880E
3F02E
3BFCF
20A0A
2820F
20AAA
2AA80
303E2
22A2A
08AC2
3B0CF
0303A
3F0FE
2003C
2C22B
00C38
0883F
0C8F2
00000
0303C
38322
32230
3BEFF
2AA28
3F820
28C3C
28AAC
2AE3F
388BC
2CCB3
0F0CA
00C0E
22A8A
08EFF
2B8BC
2AC3E
083CA
3C0A6
33002
22CB2
238EA
0B8CC
2E8BC
2082A
038E8
02228
282E2
0AAFF
28AAC
03A00
082CA
2A2B2
3CEEC
2BFFE
33000
2F0FC
2FF00
02300
03FCA
20A82
208E0
2A08E
30CEF
222FF
382A8
328E2
2CF32
2F0EE
0CABB
0F8FC
228B8
2A8EE
2E8BE
2AAAA
20BAA
203FF
0F8EA
2A28A
228CF
22BAA
2083E
0AA8A
0E828
00FF8
008C8
0ACEA
28A23
22A2F
3022F
00E33
2CCB3
0E8E2
2BAE3
2A38E
3FBEA
222EF
2AECF
0EFC8
2AAE3
002A0
3AABC
3EC20
02AFF
233BC
082EA
2A33A
3EC88
2AAEF
2A3BE
22B80
0BA82
3F2A6
280C8
2A023
02028
328A2
00A33
2BC30
2833F
2A2A8
23003
022B8
0030F
0F8CB
38020
223AA
28A0A
2000B
3CCF2
20883
30A0A
2F8CF
0CBEF
028EF
00F8A
2C3FF
38FCF
2A3C2
0228C
2AA22
208FC
082A0
2A88C
23BCF
3333C
23888
308A3
0FEEF
303EC
0FFEB
2B03C
02BCC
3AABA
03BFC
00000
0A2BA
020AF
22AA8
2C02C
3AB0F
0FC38
23F3E
00CCB
0288F
00220
30CAA
00C28
32A03
0A0C3
0F3C0
333BF
02A20
2CC2E
02E03
3F802
000F3
08BCA
3333B
0BFFC
033CF
3C03C
22308
33003
3FFCE
20CB8
228AA
03CE8
3FB2B
008BA
02CA2
38323
0C0FA
0FBFC
20288
30FFF
22A8A
0EF8E
2A883
0F3C8
0F02A
2A8A8
2C0C8
3FCBA
03A2F
3A2AE
2AE8A
23EC3
08F20
00A03
220A2
00000
0AA8C
30E8B
222CB
2E0C3
200C2
2AA23
28BFF
08EA0
0FA00
3CC33
0003C
0FFF8
2A30A
000C2
38FC2
0CC88
220B2
3FC3B
22B88
2AA00
203FC
00EF0
0F3F0
02FB2
03C0A
280C8
3CFFE
33220
0BA08
2A8AE
0B0C0
38C8A
3CCCF
3CFA8
03A82
0B0FF
3FE2B
20A33
00023
3FE32
3CE22
08E33
08C33
3A288
2323E
0C8FF
2288B
3CF02
080E3
3AC0F
3B22C
0CCBC
3A28C
2EA8F
2BBFA
2BF3C
238E0
33023
20A33
02E03
200C2
08223
2AAAE
00AA2
22A80
33F20
32A38
2BAE2
2822B
3CEB2
00BB2
0B0BE
02082
00322
283C3
03FEE
023EA
2AABA
33FC8
03BA8
2EC3E
0CF30
08ACB
0ABA8
2823C
20FF2
2F0FF
2A8AA
0E088
28A3C
2FAA2
2AA02
30E28
3F2A3
20A82
3C388
0C88C
0ACF2
03A28
2BE88
08ACA
380F0
0A820
0A8AA
08800
02B28
2BEA2
28F32
0C82A
02AAA
2AAA3
20B03
03802
28A0F
0038E
33038
0F808
0C2A3
0BA02
0CE3F
02EB8
0A822
28AB2
003CC
2C0C0
32E02
0A08C
2ACE2
0A2C3
20203
2CEF0
02EFE
283EC
3C8FF
2B23C
00000
288F3
022B3
28020
2080A
30C2F
3FA80
3382C
3FF02
2AAEA
00002
033FF
3AA38
38A8B
0AFE3
33A20
2AC8B
2A8AA
02AA8
38823
30282
3FC02
3F32F
2CF0C
3FF3B
0080F
3A08E
0AA0F
0B200
2C2F3
30AAA
2FEFC
3BB22
33C00
3832A
02A8A
20AE3
03320
2AA8F
0FFC2
000CF
0A0FF
2C8A8
28ACB
33C8B
3C3CC
2AAFF
08C30
30C08
0ECBE
28002
220FB
03CCA
0F320
03828
02A3C
00000
20F30
3FA02
3FC02
2AA8F
2AAAF
3B22B
2002C
08A80
0800F
3FA3A
03882
03CC0
0FCFF
2082A
2AAAE
28E08
2BF3E
33C3C
0F0F2
2E8FE
3B0E8
220BC
08CEF
02288
2302A
0B0CA
33FBA
2A0BE
30A03
282BC
0B8EC
220C3
0C0FC
332EB
00000
00280
20000
00800
00000
00800
00020
00000
00000
00200
02000
20000
08000
00000
00800
20020
00000
00000
00002
00000
0A000
00000
00000
030C0
02080
00000
00000
00000
00F20
00000
000C0
00000
00000
00000
2A020
00002
00000
00F00
28800
00000
00000
00000
00300
00080
28000
00000
00000
00000
00000
000C0
00C00
00000
00000
00000
00000
00000
00000
00800
03800
00020
00030
00082
00000
00000
00000
00300
00000
00000
20320
030C0
30000
00A00
00000
00800
00000
30000
00000
00000
00000
00A00
00000
00002
00002
00300
00003
02000
00000
00300
03030
00000
00028
00000
00000
00200
0F000
00080
22000
00000
00002
00020
00000
00000
00000
2080C
000C0
03030
00000
00080
20000
02828
08000
00000
00000
00000
00000
00080
30000
00000
33000
00000
00030
20000
0000C
03000
00000
00000
00000
00000
20000
00000
00088
0000C
00000
00000
00000
00800
00000
00000
00000
00000
00000
00000
00000
00000
00280
00000
00000
00030
00000
00000
00000
000C8
00200
00020
00000
0030C
00020
00000
00000
30000
00000
00000
00000
00002
00000
00C00
00020
00000
00000
00000
00C00
00080
00088
0030C
000C0
00000
00082
02080
00000
3F0C3
00000
00000
00000
00000
00000
00000
08000
00800
00000
20800
00030
00800
0CB22
23A20
02200
0E82A
3800C
0ACBE
2AFBF
2822A
023B8
3FCBF
20030
323BE
2233C
20283
0F028
0B0FF
00000
2ECBC
000BC
2F3CA
2B08A
2880C
280E3
3FF33
000EB
2828F
2B802
3C8AF
3A03C
2AAAA
0C3BA
08FC0
30A2A
0B2A8
200B2
2BA3E
2080E
02BBC
038B0
33FEA
2B2E8
030E8
03EAA
2AB32
33FC0
3F3F0
2E380
2AF20
2EE80
023BF
0FAEA
2AE32
0F0E3
33022
2E3FF
2A0AA
2C82A
2F3AC
3308C
0202A
2A888
2A88C
320E8
0EABF
3FBC2
28023
2020A
3FCE8
3A082
08B20
0F32A
38C33
2E2AA
2B32A
3F322
0AEF2
0CA28
0F02B
0B3A0
0CC3F
380CC
0F0AA
08FFE
32BA8
0BF2A
2F8E0
2800C
2A00C
320EA
200B2
2A822
0823C
03C8F
20AE2
3FC3B
2A0F0
23A28
08AFE
2A0FF
0C0C0
3FFE3
00000
2800F
0FBAA
00C00
233EA
28EBC
20202
30FFF
3B22A
2A203
0303C
00A0F
3BCEA
30300
2B000
3FC20
2B8C3
0A2AA
208AA
32C20
2AABF
3F0CC
0C80C
3F8E2
0A003
3B2E3
3F080
28A88
33BE2
088E8
0A8BF
230A3
2B38A
3F3C0
0C33F
2AFA0
2C8EA
00F83
23B23
3CC30
003FF
2A203
0C0AA
2082A
2A0E3
20F3F
3BEE8
330F0
3303F
03BB2
0E82B
3C0B3
3F3E8
280A8
08AA0
2C3E8
00000
0A2BA
30FAA
03882
03A8F
28A80
23CC8
200AF
38A2A
0C03F
33280
0F0A2
230EA
3FF0E
08AAA
08A28
00EBF
2AFBF
0800C
2FCB2
0ECBA
3FC03
020AB
28BE3
0F82A
3328A
03BE8
023A8
0A820
2AA7F
03E0E
3B2EA
3FF0B
3CF2A
3F00E
022BB
3FF2A
0FAAA
3FC8A
0AB0C
2C2A0
28A38
003BA
38CC2
2AEBE
0FCC0
0ECFC
0A8A0
3E2BA
3AAAB
02FBC
323E8
0A02C
23A02
20CB0
0BBEF
3B232
30EAA
2AF3E
33FE8
388EF
228C3
223C2
2A88E
033E3
3E3CC
3AA2B
2008A
2AAAB
330E3
0FFFA
2FA22
288FA
00CBE
3BACC
3A30F
00332
000F3
0C80B
28B0F
2A82E
2FBCF
020AC
3F23A
03A0F
32033
0AE80
08CFA
32C33
0A2AE
3B233
2C8A8
0A08C
280C0
2CA08
0A8A3
28CC2
0ACBE
0AFBF
0E8AA
23300
02880
00B23
08A0C
3F82A
22CAF
0ACB0
03CEA
3FB0C
0A8A2
3E888
0A3F8
33CB3
0BA28
0AC82
2A88A
0A20C
0F80B
2C82A
22B0F
3AFB2
2C8EB
3FA88
028AA
0AC32
3FAAA
3CCEB
2C803
03AE0
0A0AA
3B023
2BF3F
2F28A
22022
02C8E
20AEF
00000
22E02
0A83E
28A88
3CF83
2EA90
0CA8B
2FE8B
2AA80
2282E
0000A
2A3F3
028F0
08CC0
3AA00
000C3
238B2
0F8EB
0AEAA
0023A
0CB33
3CC8F
20B00
0BCBC
0A288
028BC
23AAA
38FC8
30FB2
3EFE8
23022
0AFBC
2AAAB
23800
282CF
08032
3FAEB
3ECB8
30CBA
0CFF0
208E8
2AA23
3C2EA
203A8
2A3A0
2823F
2208E
2E00E
0AC33
3CAC8
280C8
0B3C0
0F0AB
02A2A
03BE8
3CCBE
00000
23832
00B3F
0A2BB
38C20
0FC8A
208B2
0F8CB
2AAAA
38233
300BF
330B8
300A0
30F3F
0E888
2CC2A
20BEB
0F8FF
33AFA
32CEF
3ECB2
0CBE8
08CAC
0CC82
3C32F
2A8B2
0AABE
22C8A
0C0AA
2BCFF
230FE
0C8A8
2AF3F
20AAA
20B0C
33E08
2B3F0
2B802
03AC2
1AA0F
2880F
3FAAB
2F00A
33BAA
238CB
3CE8A
0AEAA
202CF
2FAEF
03ACF
2FBEF
2FC3A
2A0FF
2BA3B
22FB8
322AA
028AA
03ACA
0FC38
3F8AA
3E320
3CCFF
2FBFE
0FFE0
3AC0A
22E28
0CBEF
1A8B2
2B8BE
2B0FF
2F88E
3E32B
02A2A
203F3
380A3
2F3EA
30BB8
3CBA8
0FBA2
2CAAA
20FB2
20AEF
20BE3
280CE
32F3C
00B23
20BFF
3F3EB
23692
22BA0
2CBEB
2A3B1
0A0A8
238E3
2808A
3ECA2
20AEB
22208
28F3F
3CF32
232FA
00EEB
23AEF
3ACE3
08C89
3EFB2
2BA20
203FC
3A2EB
0FCB2
038EF
00AB2
0332F
288C0
20A8A
1A428
3AF2A
2FBCF
28A32
3082B
2BB2A
000F0
0FAA3
0C83E
3A8AE
20A03
20AAA
3F3A0
30CB0
2F28A
20AC8
2BBC8
003F3
3F082
0A0C3
0F3E2
00000
3FE88
2BAFF
32F80
2AE0A
2AAF3
00F20
3C00B
20883
308BA
002C8
238E0
30CE8
03EFF
28AC0
3EEE0
28BE0
32EA2
2B0BA
22AA9
28BE2
32C82
0ACF3
30C23
0B0CC
0ABBE
3FCEB
2F8FA
3CFCC
2F8EB
3C728
2AAAA
0BACB
2B0EF
00803
033CC
03CBE
03FEF
3C228
2AFFC
28008
3B2A8
2FAEA
30CB2
23BFC
00A03
32CC3
3ECA2
2FBE0
0F823
2F3F0
38AAA
0C33C
283BF
20238
0F8E3
00000
02F2E
0E8AB
2828A
2F022
3CA28
0FF3C
3F3CA
2A888
0E02F
2322A
3280A
2F8A2
20A2B
33288
0F0BE
2AAB0
3E8A0
0FC2E
2A2AB
2AA2B
2C8B2
2FFB2
2CB2A
3208A
3302F
32F2C
0B023
0AA02
32208
0C82C
208BA
0882A
0CB2B
2A08E
208E0
0A88F
333C0
0023E
3F3EA
2033A
2A3CF
2B22B
02828
3CAAB
3F0CE
2283A
3228A
3E3E0
2B30C
22EA8
332E2
20C3C
02238
33B2E
20823
28AC0
3BAAE
0E8A0
28BA0
02A2C
2B02C
30EE3
202F8
0F3A2
2F3C8
2AF0C
2AA0F
0B38C
3A28A
0CC33
0C3C0
20330
2AB8A
0AB8E
00232
230FC
38BA0
2223A
0CAA3
0F3A2
022B8
0AC8A
082CC
2ACE3
0C830
0CF38
28BCC
088A2
3FB28
3E888
3F02A
0882C
0FB80
0F880
220CB
0A2B0
0BA8A
30288
0FF32
0BE3F
2AC8B
0F203
0F82C
282A0
20388
20A2A
0000E
080FA
0FF03
22AA0
2B08A
0F320
382AE
30028
3C0EA
33A0B
0C332
028AC
0AE00
23AE8
3A03A
003FF
28C88
33C3C
30088
0CA28
33F0A
03FC3
02382
22A0F
0FAE8
220B0
3FE03
00AA8
0F22C
00000
0228F
3FE8A
00EFA
20028
00F3A
3830F
38003
238CF
3803C
3C000
0A823
2882B
0CFB3
2A28F
03F3C
22C2A
02A8A
20AAA
2E0A0
3F0A8
0C82A
0C230
002CC
0C02B
2F8A2
0CB0C
0C8A0
0AAA8
08280
3F33E
00203
00C8C
003A2
2080B
08822
0C0AC
03FAA
28AAA
2F03E
0000B
0E383
2A822
22CFC
3FE08
03802
28233
2EB8B
0C38C
2AB02
00EE8
2280B
0F0EA
008B3
28ABF
2F8E3
00000
380FE
0FC88
0F3B8
22A8A
2A0EA
3C28F
38200
380EA
0FF82
0F030
00302
0ACCF
008C3
2F20B
0C82A
2F80C
23BEC
2832F
33EC3
00E30
3F322
220AA
208BF
00B22
20820
22322
023A0
2AE8A
0320B
0AA03
28828
228A8
2800A
0CE8B
2B2BB
00FEF
2AF2A
2A8A2
282CC
2ACBC
0BFFF
380E8
200CF
00220
33B28
3FAA8
2AAC8
2ACBF
223FC
2ECC0
220E3
23A2A
008EB
2AA88
3C2AA
3C02F
328CA
238AA
32BAE
0FE2A
000F3
2E832
3FA0A
0202B
22AC2
080CA
2AFB8
20BCF
03808
32C2A
2A2C0
3FBF3
28BFF
3B2CA
2F303
3083F
0CE03
3E8E8
08CA0
2AFF0
003C0
00B80
2A23C
2F08A
3F82E
0C828
32AA8
02A0E
00C0E
3F0A0
0AA8C
3F2C3
2AE0B
3A3CC
0FBA2
0BCF3
0FB82
3F32A
2AA8B
33AA8
2283F
22B3C
0BAC8
2803B
300FC
32A2A
3FCC0
3F8EE
2A828
38A82
08B0A
20A8F
2B2EB
0AB3C
0A002
3E0E3
2AC82
2A20C
0FBEC
0A332
0CA2A
02E3A
0FBEF
3F0E2
2A03F
30F8C
3F8C3
3B8CB
30FE0
00A26
2AEFF
0230B
22322
0332A
3FCE3
00000
3E00B
2A800
3EC0A
3F8EB
28FF0
28F3E
0CF28
2880E
2F32A
00200
0AEC3
3C3C0
3208A
02CF3
3FB28
000FF
3F2EB
2A0BC
03EA2
22C80
28883
0B3E8
000BC
3232C
20FFC
0A28C
2BCF3
3EAB2
0CFFF
2C80A
0288E
282CE
020FF
3CCF3
2A03C
0EAB2
3203F
3FCAA
0FA2B
2AAAC
23AB8
3280E
2FAAA
2AFA0
33FC8
3E0A0
3CEC3
2A20C
30830
220BB
3FF8B
2AA08
2A30C
0B0FB
3EA20
00000
0F0C0
0F02A
0A008
2002E
2088F
3303B
0F8AA
28028
0C03A
32E8B
32A30
33088
3F30E
2A38E
038E0
3F3E3
3BC08
0AFFF
2080C
3FAEB
20BCE
23BF0
303AC
0A3E0
0088E
220A8
0E38C
03ABF
3002A
3FF28
088A2
2CA82
200A8
32F88
2A22A
3823F
2A3E0
0AAA3
282AA
23BE2
03A2A
2B2BF
0CCF0
383EA
3FA2B
2A32A
08E2A
2BAAA
33CC3
3F2AA
39AAB
2C8AA
3AEA8
28AA2
32AA2
3CC8C
0A0A3
32BAA
038AE
3A08E
383C0
2AAB0
23BC8
2ACBF
2F0AA
0C330
020BE
3FCC8
082AA
2A2F0
3F00F
3C200
3E3FF
3CFCB
032E8
30BA0
0CFC2
3220F
02EAE
0AA82
200B2
0FA03
28283
3F3A2
3A222
0F0C0
30AAE
33AA2
2A28A
38EAA
032CA
0CBEC
28AAA
3B3C3
3A3BE
0BA83
2BBAA
03CE0
38AEF
38C00
0382C
3F0F3
3F0E3
3FCB3
3CFC3
2E32A
2ABBF
3F8C0
322F3
2A288
3A8BC
0FFEA
23CFC
29AAA
2EAAA
33FAA
3CFFE
30A82
22083
3F8CF
0208E
302BA
303B3
3B288
3FE30
280C2
3CCFA
2032C
3A2AA
2BFCF
0FBCF
3C38F
330C3
008AA
33FF2
00000
3C883
2AB08
0FFBE
3B0E8
0ACBC
002C3
33CFF
03FF0
033EA
00000
0BAA0
0800E
00BCC
0B28C
30FCF
3E288
3BEBF
330BF
238CE
203A2
33F08
38FA2
0FC2A
2A082
330C8
30F3A
023BF
0E00F
08033
2082C
0AA3A
332FF
03803
3F02A
2A328
233E2
3C2EA
320B0
33F0A
33C8C
3FFAA
03EEA
0FF0F
2AAA2
3BA2A
3302A
33C3C
0F82A
2AEA8
2882F
0B0AC
3FFFF
0BCE8
0CFCF
30A2C
00000
0AE8C
288C2
3ACF0
3FCF2
2A2B3
08EAA
0E2AE
0CFC8
3FB22
00A2A
0E2E8
0BE80
00BAA
30200
0EFBF
2002B
3FAE8
283C2
23232
028AA
29A6A
0FFFC
2A07F
3F0E0
0CFC0
0C0F0
3002E
22C8F
023AC
000AA
08FF8
2AAAA
0B0FF
2800A
2E88C
28BE3
28BC0
233F0
3F2EA
028BF
22882
220E8
20F82
2233F
20B0A
2EE22
00EBF
380BA
3ECCF
3838A
000BA
2A2BA
282BA
0F0F0
3CEA2
0CFE2
3A8AE
20FE0
283BA
0CC80
302A2
3F3E2
2AA28
0F880
0CB20
28A08
03F30
3FF3F
08EBC
30CAA
28BAF
0EFB0
0AF0F
3C3AA
083FC
2002F
0E020
028A2
2838A
080E0
32E88
02A82
03B00
00F30
30FFE
0A02F
02BB2
33B0A
08A0A
2C08E
220CB
2C8AE
3ECC3
0FBCA
0FC83
3C8AF
3FF32
22A82
2AAA2
088B2
3A2A0
3C83E
0A8C2
208C0
2CA22
23CC0
330B0
30282
03BEC
28033
333EF
38EEA
02A23
00BCE
20232
028B8
3CB08
2032A
3EC22
2AA0A
23F00
3C882
30EAB
02088
3A300
0B3C3
0E32B
0328E
2832A
2AA2A
3EC3F
0E88E
0FFCA
20E8A
0B30F
00000
32C0A
230EB
2C2A8
00BB2
0ACCC
333C2
2AEBE
0C323
2AA23
0F000
3FCA8
3CC28
00382
0A02C
2AAAE
32BC3
0E20A
0A8E8
3FC0A
28830
30ABE
0328A
0888A
22300
30C0E
2082A
020EF
0208A
3A3FC
230C2
3CCB8
3AAAA
30E22
32F80
003E8
0BA00
0A88A
0228E
0ABB8
2EECA
0C28A
083E2
2ABEA
20320
3B0BA
3CEAA
0280C
33CF3
38A8A
200EA
030CA
3008A
3F8C0
3F2AA
00AA2
00000
3CC80
3CFB0
3CC8A
03328
0002F
28AEA
0F000
00B2F
28E32
30C82
2A802
3AAAA
0C3B0
33C0A
32A20
3FE80
2F32A
33CC0
2AE4B
3EFB2
33CCA
0C0B8
2A0EC
22BAA
3B28A
2880A
0CB3A
028AB
20ABA
0F00E
30C23
3CC3F
0EC83
2223A
0FFAE
0E8EA
0E3AA
208CF
02AAA
232A2
033CE
3BF20
23BCC
288B2
0F30C
3AC82
22288
3FCEA
20CCA
2823F
03EEF
323AB
30ED8
0F82F
3283E
0E02A
2002A
3AE8A
2FB0E
2C2AB
3E208
3E00A
222A2
0B2EB
3E8AB
3CE88
0C8B2
2AFC0
2BAEB
0ACA0
0CE8A
2A06E
2CBC3
3AF3A
020AA
3AF08
3228A
2E0AC
0EBBD
2F33C
082AA
2BBEF
002F3
3FF0B
323C2
0C89A
30002
3E28A
0BA3E
023A2
03AA2
3E082
30ABA
2B3FE
2C02B
00ABA
32C32
3EF82
30302
382A6
383AA
3FCFC
3CCB8
2AA03
028EC
3A28A
00208
203AF
0230C
0A3F3
2FBEF
332BA
2A008
0A228
3AA2C
220B2
20228
2F8FA
2F33E
2ACF2
20AEB
00A28
2AAAA
32E88
08EBA
3CB8E
0EFBE
088EF
388EA
0A823
23CC8
28028
3EB3E
0ACBA
3EC32
00000
0F233
28AB0
3C238
2882F
008FB
2BF32
3FF8E
03F3E
0CB0E
00020
02A0A
20F3A
3CC8A
22AFB
3AE3A
2AEBE
0B8EF
008BF
3E08A
022AA
3ACA2
3E8AA
32CBA
2CEE8
0FFFF
3A082
23BCF
3AEB0
22E2F
08C2B
0A0A2
0003A
30EFB
3F03A
0B28A
23A2B
30C28
08E8E
388A2
0E88E
2AAA8
322AA
0CBEA
2A2A3
3328A
0A38A
3AF3E
2AA88
38BAA
2EAAF
2FA83
3CCFE
0A3CA
3280B
3AA2C
00000
2382B
02C8A
22AA2
28B3F
2AABB
3AEAA
2322A
02208
0FEC3
3FEBA
0CBAE
2330F
23FA2
2BAAA
2080F
22B2E
3FC3A
300B2
0A82E
2A0A2
33222
228B0
2AA8A
233CE
32F80
202CB
08A0E
2ABAC
2A0EB
2A03B
3A33E
3FC8A
0C38C
38AAA
0AF02
2B0CF
0AAB8
0A2FE
2EFAA
0E3AA
023B3
082C0
2AA0C
2A88C
2AA8A
0C0FF
2AAAA
008AA
0888E
0E228
3A8B8
2CC8F
2EBFB
28C33
328C0
0AEC3
08F3C
20A0E
2BAA0
3C082
2F308
32CC3
33A0B
02203
0CFAA
0CFB2
2220A
2302C
02AAA
3CEA3
300B2
0A2E3
2A082
20B0F
33CFF
20B0C
03FC3
320C2
2FB0C
3CA2A
32EA0
03AEB
3C020
0C232
3FFF2
3CCBF
2823E
20338
08A28
0A0C8
30C0F
08228
2AAA8
3F2F3
3E8A2
2AA4A
0C3FB
3C080
0B23A
00ACB
33E08
0B23A
0230A
0E3E8
0C3C8
38C03
3F8E2
0A0EB
3F2C3
2A820
00003
33080
20FBE
2AEFC
0CFF0
0FBE8
2A0AF
082BC
00E3F
2B2EF
30220
32FB2
020E2
0ECB8
3C2CF
32C08
33C03
000CA
0E32C
20E3F
0088C
2E380
02EB3
0AEAB
382FC
00000
3AAAA
20ABE
0C3AA
220EA
0AAAA
3F2BC
2FCFF
3FC8F
0380F
00000
22A33
3C000
0C3C0
0AAAF
23CCA
30E83
2AB2A
28A08
2F2CC
302BF
220CF
2ECCB
32808
2E28A
038C8
303B2
2AAB0
082AA
2AA3C
3AA08
2CFC0
388A0
08AA8
2AAA8
02C02
3C233
00320
2BFE0
0C0AB
2200C
3CC0C
3CFAA
0B02E
0FE3F
022BC
3A2CA
0AC32
088B3
208E3
3303F
2AAA8
0B82C
02288
2EA8F
288C8
00000
2280B
0F02B
0300E
002B0
20AA0
0C2CF
0CCFB
3330C
0CC8A
0FEB2
08B22
32B2C
0CC20
3323C
20BA3
0FA23
023BF
288AB
3CCAA
003C2
32FC3
2A322
2CEF3
00300
33388
2880A
2280A
0B3C2
000FA
330EA
03FCC
23A02
3EEEA
2B2F3
000BC
2C3CA
02F3F
2A33F
08F02
2EE23
0CF3A
0F3BF
0F302
0BF8A
2C3BF
2802A
2A0A0
1BAEB
00B2B
3BFC3
0A3C8
00BC8
222E8
0B2CB
2380A
2FBC0
0E8A3
2A228
228AA
0B8E0
0FAF3
3AE88
0C0B8
3E3AA
00AAA
0FC08
2080B
0C320
2A02B
238EF
2F8C8
3F8CB
2A288
000BC
303CB
2A8EF
00CB2
0FBEB
2C3EA
0C333
030C3
28A82
02B0F
30FA2
288EB
0EA2B
2F028
2A222
3C008
08A20
32C28
200FE
202C0
33200
0822A
2C38F
2AAA8
3BA20
3F832
08AE8
0CAE8
22AA3
03FFC
0E088
002AA
22C0A
3AFFF
008AA
3CFFB
023C8
332E2
3ECCC
3C228
0ACFF
0BCE0
03A22
2F3E3
0AA00
302AA
20A2A
32822
2CB28
0002F
23A2A
23A22
0C8CF
3FFFF
0F88F
3A0AF
0CF30
28A0F
032E3
3B0A8
238CF
3FFBF
00000
238C0
22E8C
3F3A2
0BAAA
220A8
20A0A
08C08
22020
0EC20
03F3C
0BC8C
0E30B
2C8CC
3E0F8
3FAEA
20A08
3BC2C
2A3BF
2B8C0
2AF0F
08A22
300EA
208C3
22A3F
3C00B
3AF3C
38000
2A232
2B333
200CF
230EA
3F8EA
2A03F
2F0C0
22AEE
0FFE8
0222A
0A28F
3FBE0
0FF88
30000
0AF3C
3F822
22FFF
3FFF3
2FB20
2F8CB
33CE8
33AE0
0E3BE
3F8EA
002AA
02F3F
32FBC
2A82A
00000
30AE8
238E8
03823
2228E
2A800
2C0EF
02028
0CF2C
0030F
238E3
0B8CC
03800
282EA
3C2E0
3ACF3
2FAEB
3303C
0CBC3
0FAEB
0C8EA
00C2B
223B2
2E033
00A2A
03AC3
0CE08
02AA0
233F3
0BCEC
3CFC3
02F02
288CF
0B82B
0F38C
3CF8A
0830B
28AA8
20322
00EB0
23ACF
32C08
038FC
3C8EF
0CC22
282AB
0ACCE
2822C
0002E
0F3EF
0B0FF
3F332
2ECBA
2AAAA
0282A
22A6A
020EC
32CBF
0EC3A
22A9A
02000
232F3
3A3B8
0A033
0BC03
3C00B
3CCFC
3AA2A
33C3F
223A2
30F3F
2B0B0
3EBFF
2B008
0F3C3
3F2FF
0223F
03C3C
083CF
20EBF
30E30
32CF0
0AC82
03230
2AEB2
0FFFF
2830A
2089A
3FCC8
2CC82
3E2BE
30C8A
3EC82
38E20
3CCAA
3EF30
03803
2220A
023B2
2C0A2
008AA
2228A
000C0
0B2FB
00AAA
2AEA2
30EF0
002AA
0ABBA
3C3B2
3FCCA
0CFFA
33FE3
033CF
3F0AA
30008
3A2B8
2EFCF
30203
3FCAA
2F30C
220AA
2A0B2
3AC3F
00823
3C30E
3800F
3030F
3F038
0CFE3
22FBA
0B8C0
20282
2C3EB
2203C
3F03F
00000
2C233
2B823
2A2BA
28032
288A0
3C8AE
3CFAE
3CC2A
228F0
0C000
233FF
02232
30CC0
00F00
3E3AA
003E0
02CBE
2B0EF
0883E
2A2BF
3FCBF
3A32A
3FC3B
0A2AA
3F2FF
3FCCB
23AF0
02332
3BFC3
00288
32E22
288E0
3FCFF
08038
28A23
0202A
038EF
023BE
3EF32
2E82A
202F0
33F28
0C88A
0A08A
038FF
22AA2
08B0C
03222
3E3BC
22EB2
088EF
0FFFA
088A2
3C3FB
228AA
00000
023BA
32C0C
000AF
02A8C
33008
002AA
22ABE
2FCA2
22CF3
02820
3F33C
3F23A
0CFBC
02882
033FA
0FF3F
02803
0F3F3
0CFFC
32C8F
0FE2A
0EC82
3C08F
02AAA
3F22B
0C2C0
02082
3F003
2A2B2
200B2
3F0C0
2AAAA
22BEB
33320
2000A
03FFF
3BCF3
2A3FF
00BE0
332CA
3C8AA
2A23F
0A8A0
0C02A
08222
0EAA2
3F8EF
080AA
0B222
3FEBF
300A3
2FEE2
0F3EB
0EFEC
2ABAA
0C3EC
0020C
28AAE
2A8A9
330C3
0E8C2
228EF
0E3BE
0AC03
0BE0A
33ACA
2EAB0
28B28
0FB2A
0A0CA
3A0C8
0203F
3F80C
08C30
002FF
2BB8E
33FE3
283FB
3E3C0
20000
3003E
32FCA
3B828
00222
2023F
3FE0A
0C08A
0008A
0F3E8
02C3E
3E33F
28E82
08AAA
3F3CA
23CFF
3F8A2
203C2
0FF0E
2AA00
02BEA
0A0AA
0F020
2AA2A
022BF
0FFFC
080AA
00033
20C30
2020B
08B8C
02BEF
3EFA2
2880C
322A2
33FE0
02308
032F0
08A22
2B82A
3FF02
2FFEE
3C23A
303FF
0A08F
0CCFB
3F823
0C2CC
3203F
0A32A
0A023
0BB8E
032BA
3F02B
33CEC
20CCC
00000
3FC2E
23A0A
282A0
203C0
0F0CE
0B2EA
3F0BA
230A8
23030
00000
0BB80
220A2
2802A
3FFEF
2ACBE
03280
0A3EC
02ABF
2A82A
0CEB2
0FFA3
0C0A2
3FC02
080CB
28A0C
38ABA
08ABF
3F3C2
0F2B3
00A88
28FC2
08B2A
3F230
3CB2A
2AB2A
333C3
0BAAA
323BC
33CB2
280E2
3EFC8
02E22
3F3F3
33382
3EE2C
2C8AA
2BB30
33082
2A88A
2AA2A
32A82
2332A
00EE8
3F230
2BF0A
00000
3A332
23BCA
30CBF
0FBA2
2EA80
0A02A
220B2
0AF08
28032
22B82
2E3B2
0FA80
0F23A
38C00
222BF
2FBFC
0AAAA
000E2
233C0
22F8A
0A0EA
3C3C0
02AB0
2A8F8
0FCEA
28028
33E0A
23BB3
02CF0
02A80
2BE00
2AA82
208C0
2282A
3A2B3
2AA0A
33FB3
28FF8
28AAA
3FCFF
02AA3
3FEAA
3EEBF
330A9
32BFF
3C0AA
08238
32CFF
20C28
3BFE3
0C22B
28A3C
2B008
28BFB
02282
2A8A8
2BAEB
333FB
3A03F
030E2
2AAAA
2038C
3C028
3FE88
3FC0A
0A2AB
2A238
2AA2A
2323F
28ABE
3AB8E
38F3C
282C3
2A88A
222AA
222AF
08AAA
00CBF
0A28A
0E8A2
28CBF
0B2C3
2BF2B
0C3EB
3C328
2B23F
0203F
00828
0B883
00028
333C0
00E28
023A3
0383B
20DBA
2828E
3FAA2
23AE3
3880F
28BE3
3A022
2A830
28AAA
2A3B3
3B233
3CBAA
228C0
322EF
3EA38
3302C
30880
30A20
2AA8A
00328
333E2
2A2AA
0F83E
033EA
3A2B2
3A88E
232EF
3203E
3F2B0
22AAB
3AFCF
38CCA
0EFCB
202E2
2B028
2AAAA
00882
323FF
12AAA
3CBAA
0F0AA
00000
2AA30
0C0EA
022A2
3023C
2BE3C
0F0C3
32CFF
0F8B0
2BA82
20000
200AA
3228A
2A8EA
2AC0A
0A223
28C03
3F83F
0882A
30332
3F8A8
30FC2
2A88A
0CFC3
38CF3
3022A
0FFEF
0EFAA
3FC22
2A828
30C3A
0A22A
228A0
0F3CF
02023
02ABF
282C0
30FCF
3CA03
383FC
08A0E
02A2A
30BAA
2A82F
0F8E3
2C0A2
3EA08
0A00C
30F3C
30CF0
2AAAA
32CBF
0288F
0322A
0AB2A
20A8F
00000
3FEA3
3FEAA
0FB20
00B8A
228C3
00A2A
2A82F
3EC3F
238A2
33882
30320
2A2BA
3E0AA
3FEF0
22A33
080BE
2AAAA
3FC0A
30EB2
3EE8E
008EB
3FC33
022B8
30A28
020BF
322A8
3F0FF
3B303
288A8
2BA23
2AAAA
3F203
30CF2
003AA
3FC32
332A3
30080
33A8C
28FCC
238CA
3FC38
223F2
32FFF
228EC
2ECC0
02E3F
0B3CA
3FEF2
33A2B
22F83
0A023
3380A
0AC80
0233F
288C0
2B8FC
38EA2
28A82
2C03E
208A2
0CE03
2A82C
2E3AF
03CFC
2B30A
2820B
2B8E2
2B0AA
2B0EB
0F8A8
00A0F
32BFF
238EA
00EC8
0C38F
300B2
30F30
20823
3AE3A
22FC0
3FB28
00F0E
3FA3B
2C002
0CB2F
0BABA
08CF0
2A032
2A822
2AE3E
0A820
3223E
28AE8
2EFEA
3832E
3FBFB
22832
02FBE
3800F
2AA38
32EFC
283AF
2803F
08A20
3CEA2
2A0BE
2B20E
3EE32
20C20
30C22
3CFAA
32F3B
0BC3B
000A3
2A022
0A2F0
20803
3CBEF
3A33E
2AF30
2BC0A
3F833
2EAE8
23E32
0383F
28AAA
2888F
228A3
203AA
08A0E
2C8E3
0FA23
0AA20
32C8C
02F83
00000
32C88
08F3F
2B3C3
2AFA2
0BEE8
02BFC
32EAA
2380E
3A8A2
00000
2A803
3C3C2
2200C
0B202
280A3
3ECA3
2A888
3FFFA
2C88E
022B3
2AAB3
0AA3C
02CB0
3CC08
223A0
20820
3CBCF
2AB82
3F0C0
28A30
0BF3C
08803
02F83
228AA
332C3
22BA3
0FFF3
30C81
22CB0
022E8
3FCE0
3FBE3
08AA2
022C8
3FA80
3CC2E
3F8EF
20A3B
03ABC
2AAB2
2AB0F
2B3A8
30883
38C0B
0EE3E
00000
2388C
03C8F
22E0B
08B23
0CFE8
3CC38
0AABB
08828
3F3E3
23320
208BF
28A8A
2088E
3FA2A
023A2
033EC
3FFCF
230C0
3080A
3A3F0
02F0A
22A22
2A228
3C2A2
2E332
2A02B
2C0AF
32C8A
0803B
2082C
03880
0C2AC
208FA
08E23
0A020
03A3F
2BFC3
38822
08A08
08EA8
02828
0CA80
208AA
08A2A
033CA
0038F
08CAA
20AA2
28AA2
00FCF
2A8AA
2BAAB
088AA
08A28
20B28
28200
22AA2
383AA
2FB22
080F3
3EF03
22020
2C3BC
00AA0
0FCC8
32C00
2C880
022AC
022BB
23ACF
20038
0F3FF
222B0
28B2C
0A88F
0032F
008F0
2C830
380B2
00AAA
33CFF
2F882
0C20B
32C80
0E82F
0803F
2F8BE
28AAE
00A80
238AC
3AAA2
00FFF
2A88A
0AAA2
2AA82
20300
0038B
30C30
0820B
02AA3
02EB3
2A02B
3CFC0
0C238
000A2
2A8AA
00323
0C88A
3008B
2AAA3
282E0
30002
0008C
0A0AA
20A88
08E28
0A300
0AA88
2030E
2333C
30EC3
230CB
2E88A
0223C
03EF3
2A8EA
00FCC
00280
02AA2
2A22C
2F322
030F3
28A22
0300C
0E80E
00000
0032A
2A220
0AAAA
2C8A2
328F0
0E2A8
3823F
0AA0B
20B8C
00000
22820
2E3C3
2E003
2AA28
0F820
08CFF
2FAE8
3FC30
2F300
2CCCF
000FF
3BA8C
0FCE0
0A000
2A8AA
300A0
22300
003CF
3023F
0FBCF
0320A
3CFE3
2E3EC
08208
0C228
238C3
38200
0B882
0B2C3
00A38
33BE0
3F3E2
02A2B
2A2BB
28800
288AA
2A0FC
202B0
032FB
02E00
0F0AA
202A8
3F228
28AC3
2B8A2
00000
088CC
2C8A0
0F8A8
20AEA
32C0C
02AAA
0AA20
20BC2
233F3
2CB3A
3C002
032C0
20A28
38E2B
2000E
20AEC
0B3E0
2280B
2B883
3333F
22AA2
20BAA
3008A
283A0
00000
38C0F
20A00
2C3CF
232CC
23033
2AAAF
2F88A
03BBC
00088
20ABA
3FF20
3FCB0
3F2FF
2AAB8
00B8C
0BC3C
38FFC
0FFAA
08808
0008E
2AF08
3E3E8
2FACF
0FFC3
0C02A
3FC2C
3F323
323BF
22F3F
2AA33
2C0A0
3C383
3F0CC
0FBFE
0FCCC
02288
3F833
0A2E2
0CFFF
2B28E
2383A
2F6AA
2BCFE
3C383
3FE88
0C323
0AAAA
3CF22
32EAA
3F3E8
2C3F2
26A0A
08E0A
33AFF
3AA3C
33EE8
30FFE
0AAB8
03828
2EA28
38CF3
33A02
2B822
2AAA3
02E03
28C3F
27FF8
23AE8
0E033
3FFEC
0F8E8
22F0F
03FF0
3EC00
02FF3
3FCFF
000A2
2AA28
008AA
2AAAA
22BAC
3EC22
0ACF3
2288B
2EE20
302A2
2AA8F
22C82
02A8C
2A30F
29A8A
3F8A0
20A33
3A0FA
2C3CE
00323
3F0FB
2AAAA
202A0
3F0C8
289AA
2AA20
3A0BF
38A8C
28028
23CFA
0FBF0
3CBCF
00FFF
2A02A
00000
0FC00
3080F
200B2
0833A
0F8E2
32CC3
3C28A
28323
2FF32
20222
3F33A
388CF
3CA32
3A82A
0A28C
2082F
0A2A2
300AA
20A2C
08028
3AC8A
2A33F
083A2
02FFC
3CC20
238A2
0F222
3CF3C
3FCE6
2FAAA
2ACCF
0A2BF
3088A
20802
0AE3B
228BF
330FF
322A2
0A082
0AAA0
0BCE3
0FAEF
32CB3
300F3
30228
28FFF
22200
0C8A8
0F0EA
3FFBF
2F3AE
208E3
3F0C3
0C80A
2F80E
00000
23FFC
083EF
08AB0
03BA2
2ACC2
082FF
3003C
2E822
080EF
30A30
08A8A
33C3F
30B33
0FCC8
22B0A
28A03
33083
20AA0
2B82B
0AEF0
0E8BF
2FBCE
228E0
3E2BF
0BA0F
3220F
22302
228AA
2A23F
2AA20
0E3E8
23A2F
20BEC
0F8CF
0ABFF
3F22A
2A8A2
2A03F
2A83F
2AB0C
38FA2
02F0A
0FF20
32288
0FF3E
283FF
32E03
2C380
2FA2A
2CB32
223A0
2E0FE
32233
1AC3F
0FCE0
2300A
2C8AA
328AA
2F382
3203C
220AC
3FC8B
00AA0
22BCF
2E33F
23AEA
2C8AA
2FAEA
3220B
02CF3
33A8E
2A0CC
3F82A
28EEA
3FBE4
2AB00
02228
2A8FC
3E82A
2AEBC
38320
3E020
28A3E
3AA23
23B08
3F208
0FBA2
288C3
0003C
003E3
2AFFF
003CF
0A2FE
2AFBF
3C8EB
083EA
2B3BC
30CCF
28AA2
30E28
3FCF3
0A222
22B28
0C822
2AA8E
2A023
3A2A0
0F833
008F3
2A238
0A8B0
2028F
3C82A
32232
2AFCF
223EA
22BEA
2A03F
3223E
3F002
32EB3
333E0
2AAA3
2BAE3
002AA
08AA0
2A803
0BABF
3E082
2AB88
0F3AE
0338C
2282C
2ACF3
0838C
00000
2F3F0
3AFF3
082A0
23A00
3E02A
302A2
2823F
3ACAA
0CBE8
00808
3C00A
3BACF
0AA33
3C0CA
03A2A
2802E
32AA0
0C000
32A2C
2A8A0
2A8E2
0800B
0ECA0
2A38E
2B02A
0233F
20F0E
3AB08
3F3EA
2A3A0
280FF
28AAA
2AA82
23C3E
0E28A
2AACF
2B2EC
2800E
220AA
0FCE0
00CFF
2BBFF
0E20A
22802
28280
0300C
2080A
30802
3E00C
3E0F3
2BF0A
2CAAC
030F0
2A8BC
2F0A3
00000
3E3C3
2ACC0
2A23C
2880A
223F0
08288
00AEB
328AA
203FC
2923A
2FAFF
33CC2
2FBEF
08A82
0AFF8
233C0
2F02B
0828C
2AAE3
3C2BF
3A8A0
03B02
233AA
2AEBF
308CF
280AA
02BEE
2A02E
20ACF
3C22B
3302A
03C0B
2F200
3222C
203CA
000AE
3CB3C
3F203
0088A
0AF3C
20BFF
00FE2
200B8
0AA8C
3AAB3
3200A
38E0A
3FF08
3CFF0
30A80
0EBC3
3AC88
28A3C
3F238
20023
300A3
0C8FF
03AE2
2AAA8
0F323
02F30
0E3FF
30228
0EFE3
0300A
000EB
00E23
0A23E
202BA
3FF02
2FFFF
0AA1A
200A2
020C0
0FBE2
3CE3E
30B20
00FA0
0CA2B
33008
3F3A2
03CFF
32ABB
2CB3F
0FBAA
08B8A
22009
338A2
02A2F
2CAE8
2BA8B
08A2A
2FA80
08A3F
0002F
08EB3
3F228
0F20B
0FA88
023F2
3FAEA
2C003
28882
3FBFF
03FFF
23AAA
0033F
0BECA
3AA80
0A2CA
3BFCF
08AEA
0002C
2CF0C
30000
203AA
00C3F
3FA23
003EF
3022A
288A2
03FF3
0FCBA
2FC00
3B203
02AFE
03A2A
22C32
3F8BC
0B83C
3B28F
2CF02
38ACF
0EEAA
028E8
00000
00A88
03A88
338EB
202A2
08C00
0C3F3
22BF2
3E0EC
3AE3F
00000
3F02A
030E2
00CBF
0A282
0C3EA
22300
30238
3F022
3E28C
0C8A8
33B2A
228B2
3C80A
0CBEA
3C0CE
30AEA
2B2A3
32E2A
33FEF
088BE
032B3
3F3FB
0CFEA
303B3
32E0A
0F2B8
0332A
0FBCA
208A9
3F83C
08AAA
3F030
00CBC
00A0A
03EB2
2222A
320AC
03AB0
0FEEA
3320F
0228B
33AC2
000F0
38A0F
30E8A
00000
30CFE
32F80
230AA
0B23C
022C0
02A03
228FF
3FA88
0AAAA
30F8C
330AA
0AF2F
02AEA
2F83B
03ECF
28FBC
00E8A
003F3
3CF2A
03296
228F3
3FA23
288FC
0C083
3C8EA
0AC80
003EA
0AE22
38AAA
23A2A
008EC
33E38
30FA2
3C28F
0000B
0303F
3CA82
3F08A
0C3E3
0A0EB
2C3C0
382AA
228CB
030CE
08AA8
00300
023C0
283CC
283E0
28AE3
2B028
3CCFF
3CFEF
3E0FB
300AA
03E3C
2AEB2
20F2A
0888A
0C3EA
3ECAF
232CA
2282A
2AAAA
22C2C
00BCF
2B0BC
0AF3E
020EF
3000C
3EA22
3FAA0
02C8F
0CA2B
0A82C
38C08
022C0
3AAA0
3BE33
038CC
0C020
3AE8A
3FCCF
3F08A
3C8BC
2A3F3
2B03C
322F2
0283C
032EB
023BA
0FCE8
202FB
3E0B0
0FE8A
22200
3ACBA
0223B
388AD
33FA8
083EF
0C3CB
00222
3ACAA
32F20
08C0A
2F23A
320A2
3C8E0
28AAA
2822A
283F0
02C0C
23CC3
02BF8
38C00
02A20
0233C
2380B
288CF
03802
2B3CF
22BB8
30CA0
32A0A
20E32
2EAA8
3FFEB
33220
0E2BA
22ECF
08ACC
33C8C
0CE0F
30ACF
00000
0303F
28A2A
0ECEB
3AF88
02BE3
00BC2
00A0B
003E0
228BA
000C3
08EFC
0800B
08A0C
02C80
0CFCF
2C08C
28BEC
2B2AA
0BEAA
33288
22A02
3FC0F
222FA
02A0F
008CE
2E82A
208AA
2A80C
02A8B
283FC
33E32
2A38C
2F8EB
22832
30E80
20BCA
2A3E3
200CB
2F30C
082A2
3FCF0
00C01
30220
30EBF
03E0A
0038A
3CA28
2303C
0CBAA
28AAA
2FFFC
0E8C3
0FF20
3FE4A
3AFCF
00000
032EA
03C3A
0808A
0020E
2A82A
30F2F
033CF
22A8A
302C3
0B2C3
32FC2
2030F
3FCA8
0C380
28AAA
2BCB8
30C00
3A8AF
38E0F
380E3
3F0B2
3AE82
2C22A
32C8A
28CF0
2880F
228BF
22AAA
3C0E3
208E3
2223B
2A002
2B208
3328C
000C0
30000
00003
03020
00000
00000
20000
02000
00000
00030
00000
00000
00002
0FC00
2200A
00030
08800
30030
08800
00002
00282
00000
00000
00030
0C8AA
0C000
00300
00800
000BE
00000
00000
00000
03822
00000
08020
00300
03300
00F0C
30000
00000
00002
00000
00000
0032C
00000
00000
0C302
08020
00080
00080
03280
08000
03008
00000
00000
00008
00200
00030
2003C
00080
00000
22080
00880
003B0
0C000
00020
0C082
00000
2000C
00000
00020
00030
00000
00288
00000
00000
00082
00000
00000
00000
00030
000F0
020E0
00000
00000
3C003
02030
00000
00320
00000
0CF00
30000
00000
00000
00000
00000
00200
00300
00F00
00000
00002
00000
00023
00020
00000
30C00
00280
00000
00008
00000
30000
00000
00000
00002
00000
00000
00200
30000
02320
00820
00000
00003
0C300
00033
02000
300C0
00020
20000
08000
00030
20F00
00030
00000
0C200
00200
00000
00000
00003
00000
30020
0C0C8
00000
00300
00000
0C038
00033
03300
00282
00300
03A3C
00F20
00000
0000C
00300
00000
08000
08820
00000
00380
00000
0000C
000BC
00C30
00000
00200
00000
00FF0
0C808
0CC00
00000
00000
08C00
0A302
0C000
00000
00200
00000
02202
00008
00C00
08000
20008
00000
000C0
000C0
3208E
00000
00000
00020
00208
00020
0000C
02AA3
3B23A
3F022
22A30
2B888
3F002
0C0A2
0BABE
2320B
33A83
083FC
2A33F
0C08A
23A2A
0B8EE
2A0FF
3FAAA
0CEBA
03283
02228
222AA
0A802
00E30
3FA8F
133CA
020BA
20AA2
3F288
2A88B
0828A
2FA33
22F32
0F0F8
2BBE2
0EC88
3EE8A
28FCA
2A80E
00C38
330E8
28A0C
00E80
08A2A
28B2A
3EAAA
2A8B3
22C30
0ACAB
22032
23C2F
2AAE0
3F03E
20A28
338EA
0ACBF
2A8BF
03008
02A8F
333EA
32AB3
2A828
0A332
2AA30
02FBF
0AC83
32F80
2283B
0FFC8
3FACA
032AB
2AC8A
282BC
0F8CA
3AFA8
30308
30022
0AABF
3CAAA
08C3C
28A82
08283
022AA
3F0E8
32AAA
2AAAA
082CE
32E33
02B0C
2A828
2AAA8
223E0
3F80A
2AE8C
0F2AA
0BA8F
00E38
0303E
3C002
2AABF
2AF3F
0388C
00000
280F3
3F3B3
02302
2ABC8
3FF8A
3002C
33F03
3C0A2
2A80C
00000
08A30
00820
33AEC
2A038
322AA
2ACF3
2AAA3
0332A
3202F
038BE
3A8BF
0A28C
3CC23
23A00
0B8CF
33A2A
2023B
0A8B3
0AFCB
0E88F
2A8F2
3AC80
3FF22
0F33C
2AE03
2282A
0200C
2A0FF
3CEBC
0FCA3
2A33F
2AA2A
2A0B3
222BE
2833C
2AA2F
0B3F2
330F2
3ACBA
33FEA
2B0CB
08328
00AAE
0B88C
0CECA
00000
0C82B
2AABC
0A882
2F88F
2AE03
3B28C
3C283
00B2A
28B3C
38A32
32823
2ACF8
2A2A3
3CC8E
28E0A
220C3
2AB8F
3C22A
02FCB
29AA3
2BA8A
20803
0CEF0
382AA
32AB0
00F3B
3FAB2
30BE8
2A8F2
0A022
330EA
2BAC3
2E2F3
0B88C
3EFA0
3838A
2A0A2
20820
23002
2BFAC
2A23E
22080
2CAC3
33222
3A23F
30E20
2FB2A
0FCFE
3F03E
2CB80
20BEF
20B2A
0AB8C
2AA83
20A03
08200
3AABE
3CAA0
20A0F
020AA
2BFCF
2C802
3288B
030C3
3A380
088F8
03A2A
0F830
3C2BA
3CEE2
08A2F
0A0A0
233EB
0BEBA
3380E
322A0
2ACB3
3AF80
2AEBF
2AEB0
0A82C
3AAA8
2CC3F
3A8BA
3CFC3
2302A
3C02A
3CC83
2A23F
0828E
2AAD8
30CBB
03AEA
2AA3F
2CAA8
2FAEB
33FA0
39CBE
0E2AA
223B8
220B8
00C00
03CC8
3FA23
3202F
32CAA
388C2
3A0BB
2AEBA
3202A
08BCE
32F33
0FFFE
2FB0C
3ABAA
2AFAC
2FC0C
2C80F
30F8E
32C00
02AAA
2AAAA
39C20
03C8A
22A23
2FFE0
02ACB
38EF3
0FAC3
08E2A
288C8
0AEA3
2A80C
0E3B2
32CBB
00000
23BFC
2BA3E
23069
3CFAF
23A8A
2B0BC
33F8A
2ACBC
0CB2C
00300
238E0
0CF32
3AE32
200F0
3AC03
0F8E0
38283
03AA0
0BAC2
0A0B8
0A883
0CBA2
30C83
32FAA
3ACBE
303AA
23BEB
3030F
230C3
3F02A
2AEF8
2C8CA
0FC30
03AE3
2A23B
322BB
323B2
32CA8
328AA
22A8A
2A880
2C8FC
2A820
32C02
1E82A
3E0BA
0A2B3
3FCEA
3A8AE
3ACBF
2F8E0
2AEBA
28ABC
28BC3
3E0A2
00000
3228B
32F8A
2AE0E
088E0
2FBEA
3CFB0
02288
2A3E3
2AE3A
0820E
3ECE3
2B8CC
3AC83
1BABE
3A820
2F3EF
28AF3
20EFF
23B0C
3AC83
2B8BC
00AA3
3300E
2A02E
33E88
320B0
0EF02
3AAA8
2AE28
32FC0
28CB2
0FBE2
2F3EA
3CEC0
28A00
3F02A
3C202
208C3
38A82
3A08E
0C2BF
080E0
2BBCA
008EB
20AF3
2A0BA
32330
2AE0F
23C3E
32C22
2C00C
2AC0E
00A20
22A3F
2C30F
0CB82
208BA
220AA
0F3F0
32032
28A28
3CC00
2EB03
2033F
0AA0C
32C3F
20AAA
23200
3F008
0B83C
3C23A
03F02
3F8EA
020F8
0F032
30FE0
3EEE8
020B0
083EC
32BFC
38CEF
00FC3
2B80A
32C0B
2F222
33A02
2C3BE
238E3
0C02F
088B2
3083F
02CC3
03FCB
28B33
02288
08CE2
2A8A2
3CFEB
2A00C
0A30C
3C33C
22BAF
22A08
2A380
2AABB
22FA0
3C3A8
00BE3
0EB2C
0AFE3
0028B
0203C
00BC0
0CF32
3A38A
3A2AA
0C0BC
0A303
0EA83
0FF2A
03FFF
28E3F
2A0AB
20A82
0EF8E
03222
008C3
232B8
0A02A
2C808
3FEE2
3AC3F
3C0FF
2A38A
2AB00
00000
3FE0A
3F3E8
3AEB2
33A0B
3C0E2
2A3FF
0BB3F
28803
3FF3B
00802
0FFEA
3F80F
22A08
3F2C0
0A8AA
08822
38A33
3CF02
30B2A
3FFE0
300EC
0A3BE
2AE3C
30F2E
2AB32
0F03F
0C820
30F30
33F3C
238C0
28CCF
00CFF
0A080
00CC0
2C03E
22C33
08C3C
288EA
388AA
20B23
2A280
2830C
202CB
0A30A
0BE0A
208AC
2CA83
000E0
3AC3F
32E88
08C30
22AAF
0283E
33E3C
238EB
00000
0AB20
28C02
30088
03BE3
02CC2
2A8B2
00800
2E0CB
22320
030E2
2AA8A
33C00
00AB3
0A00A
2A883
000C2
0F0EA
082AA
0AEA8
3AABB
2AC3F
2A80B
3F02E
282F3
2A0CF
2203C
3088C
2AF00
3C0EE
220B2
2CAAA
0FC02
0CA2B
2A0E3
3FEEA
22283
2FF3A
3F2AA
38E20
3E228
0822A
2A820
08AB0
2830E
3FCCB
0232F
238A0
30220
0AA38
0228A
2A3A2
08CFE
2828E
33A2A
32802
2AAAA
30C08
2A2AE
32383
2A200
330CF
2A03E
283FC
0CCF3
3FEC8
300E3
2882C
2ACFA
23CF8
2B22E
323CB
3CF80
28F32
03B3B
02E80
220FF
00BB2
0230B
20008
080EA
0A0B2
08282
3FC2A
23AFC
3EC8C
2823E
0C303
380B0
0EECA
2A22C
33C2A
3C300
2E0EC
3E896
3830C
380FF
0EA80
2AC3F
3C0CC
3EFFC
0FBB2
2BA8A
333EF
22FCA
3E208
28A0C
2203A
228CF
2B8F8
32FEC
3C2BE
0A002
3FE2B
0A022
2F03E
202FC
30CC0
3CB0A
32C02
22AA0
0BE3E
2F8CB
3AE8A
0BAA8
0088A
3088A
38328
0BB2E
3EAAA
30828
22B03
3FF3A
0ABAA
0A20C
282BB
00000
00823
2AF2F
203BE
323CF
282FA
22A08
3FEC8
28A8A
3AFF3
00000
28000
3003A
2230F
333F0
20ECF
0C882
23A3A
2A0AB
0B302
28AEA
0AEBE
2AC0C
3C2A3
0FEEA
223FE
33E80
2EFCC
28FE0
02F23
0F280
00AB2
2BAA2
23A0B
0A0BE
03E00
08000
3BA88
0AAC8
0A23E
0AB2B
2BA00
0FE88
30CB0
20A2A
20830
02880
2A02A
22A2C
3C222
0AA0A
2AA88
2BAFE
2822A
333FF
30883
00000
0C30C
22E3F
28828
0E002
2A3C0
0A0E0
3BCC0
0823B
2FBF3
023E3
3C3C0
2AAAA
0EC82
30E0B
32F2A
3EC3E
3B8EF
2F002
2283E
0EB3F
0AEAA
3CA23
2AF2A
3CEAA
3FCAA
30800
23FE2
02F2A
2F823
28F0C
282B8
22FE0
02CF3
22028
2AAA2
08B0E
3FC3A
03FF3
0F20F
0020A
282AB
02C0F
20223
0FA3B
220E8
0230A
30EC8
0A3C0
2BF3E
23AE6
33FF2
2082A
2B00E
3FCAC
30FE3
03A32
2F2FC
30C38
0AFE3
33223
23FFF
3FCCA
2CA8A
3C23A
0AAA8
008AA
2032F
2B33F
280BE
3C80A
3C208
302AA
2B28E
032C0
2BE2B
3A8A2
0A88F
0FEBA
300E8
30003
00A26
023B0
2A32E
03AEC
2B23A
2AA0A
22000
03FFC
322A0
32B2A
3EEA2
02AAA
23E28
0E2EF
08EB0
32ACA
223C2
23828
00238
28BB2
2A08E
38EF8
2FB20
00A0A
228BF
28BCB
28C33
20380
0820A
33C00
3FE88
2A000
333C0
23AFA
0BE22
20288
33EBA
3FCCF
03A2B
0A3CF
23EFA
2AA2A
0C0BC
33FB3
0F333
08CE2
2F208
0AC00
330FA
2E0AA
20A20
33EC8
2C3E8
02B2A
23CFB
00000
2A30F
3FAA0
3030F
2B2B8
08000
28F2F
0F228
38B0C
2A0AB
0208C
3F0C3
0B328
3C3EA
28032
0A0B8
3CA0F
3AE33
0BA30
03F0F
33EAA
2A88A
2FBC2
2AAAA
3F0A8
00F3F
23C0A
28A80
20BCA
0F2FF
00B2A
2030C
00CCF
0BEFE
08CFF
3AFEE
3EEB2
2A328
208F3
2AA8A
2033F
22A2A
332FC
0FCF0
3F32A
3C3F0
00303
30E88
2320A
0A8AA
28E88
2AA23
38CB0
0A32C
3CFE0
0AC00
00000
0E2A8
0230A
208BA
302A3
300BC
23CF3
3BACA
33EC0
32EAA
3C328
2A03A
28A08
282E8
3F3C0
3FC3C
0CC2A
3CCA8
3B2E3
20CEB
0228A
33233
0A22F
033FF
20E83
2AAAA
20AE0
2AC38
3CE8E
32AA2
0FC3C
000FC
000FF
03FBB
3F32B
080A8
3FA28
3F3AA
3FFE3
23200
3F820
0C8A8
3FEB2
3E3AB
03F32
2A220
2A2AE
2FEF0
320E3
023CA
3303C
03CA8
032C2
082BB
2EFE3
2AAE2
33F22
30828
2BC8E
2A823
302BF
0A3E2
2E28A
28A8C
00CFF
03A28
0F008
2AA8A
0A82A
283BF
332FF
3BF3C
3F0BE
2AFB0
00BE2
2E00A
02203
3F080
0B8F3
3B028
2CAA2
33E3C
3CFEF
3C3E3
220AE
32ACB
333C0
02A23
3AAA8
28AAA
2AEAF
22B00
022A2
0FA32
0332B
332B0
3F32A
2B032
3338C
280B3
008EA
2382E
3A0C8
00E28
3F3C0
28BFF
0AE80
20E08
2B32F
222AA
2883F
00FFC
328EB
0082A
23EA0
0028A
082AA
30003
3C32A
0B23C
3BA0C
0A23C
3308C
082B3
3AEAA
3FC33
0CC32
08BA3
2ACA2
33EA0
3832A
330C8
33203
02E2B
08A22
2CAE0
00000
3C008
0F32A
02E82
3AA0F
2223F
00CE2
338EC
0FC8A
023E2
00000
3FC0B
30A2A
333C2
080BB
2A803
3EFE0
0A83F
3F202
02A02
03888
330FC
0A2BC
3F828
0B320
02AAA
3F820
02AA8
00BF0
2ACEB
38AA2
0A22A
2F8E2
3FBC0
3CACC
08228
003E2
308EC
280AF
0F8FF
08C28
2BEB0
22ACA
03823
3F0B0
3FF02
0C8F0
0FFBE
0BF3F
3AE33
028A2
22AA8
33EB0
00E2A
30FCA
3AA23
00000
00E2C
03A20
0BAE2
328C8
28028
0C02A
2C082
38202
220A0
0BAE2
280E0
2A22A
302BA
38E38
0F82B
002B2
02F2C
3FCCA
2A0FC
2BAC3
2AAA2
3C808
30AAA
3282B
303E8
02B08
00A8B
238F3
20C8B
2A8A3
30A82
3A003
28AC3
208CA
02880
288BF
3A0C3
3083F
3E30B
0ECFF
088E8
203BC
3F388
3F888
3C0A2
0008E
2F328
00038
22AE3
3F2AA
3FF03
3C38F
20AFC
3FB20
20AF8
0AAA0
322A0
3CE3F
0AA28
028A2
2F0FF
08323
00228
0C8C2
02A82
280A2
2BA23
3E022
222AB
2AA83
38E08
38A0B
28A8C
2AB02
320FB
0083C
0A800
03208
082F8
2988F
2C808
30A83
2AA8C
0CF20
33C3F
20FAF
022B0
0C0BF
08823
3ACB8
32F00
00ACC
0CFFF
0833F
0AB0E
203E8
3CEBF
0380B
28203
2A803
0A3C2
20ABA
0FF02
2FAC8
0C00A
3E0B2
0A283
208BF
2208F
2E3F0
3F30F
230FC
023A0
3C0FE
0C8A8
0BAC8
33C2C
0CBFC
08ACB
0A9FF
00203
0EFBC
08E2A
3FF30
2A9B3
2BA33
33C20
2A0AA
0E20C
0A8A2
0EABF
0882C
0AAA8
02C3C
38032
00000
3CBA8
28003
2F302
00A2B
0AAAF
28A3F
3C2C3
08ABB
000AA
00000
2288F
0AA8A
0302A
2288C
0023B
08AA0
3F288
2083F
303C3
3C3B3
2BA03
2AAAB
20A82
0C0CF
2A8AF
22B3F
0E08E
2A8CB
22ABC
20208
0C03F
0823C
2C2CF
3F3C0
2A080
0A8A8
28A08
0AA8B
0B0F3
23BFF
3CF3F
03203
03C00
32E03
32FCF
33EFC
33030
3F38E
2820F
2AAAA
28AA8
00883
0AABC
2BFCE
2C6B0
00000
00F8C
33CA3
002CB
0C88A
2A203
2A0CF
2AB28
0F2CB
3C3AE
38AE8
0AA3A
0A020
3800B
02CCE
00A02
3A288
3EF3E
3833C
03002
038FF
3220C
2A8E3
32C3F
0FFFF
28ACA
0AEA8
2B0F2
22AEF
223AE
2002A
088EF
3AFFF
08A8C
3B823
2AE38
3B02A
2BA28
28E0A
2CA8C
2B208
0CFFF
0B2EE
2A33C
0B03F
082BC
0F308
08AA0
2B8F2
3CB8E
2800A
2E2AC
3BC3F
308A9
002FA
230CC
3300F
0A23E
0C322
20008
3EFF3
33F0A
20CBF
3BFFF
0E2C0
32ACF
3C0CF
02CEA
2A82C
20823
0E8A2
28088
03FCC
0AAA8
3EB80
2A3AA
30823
20C3A
3832F
0FA2C
00208
0C222
3EABA
30BBE
3FCFF
08BEE
0082F
0AEFE
0BAE3
00E88
0AB0E
22EFF
23EC0
0AAAA
2AA88
023A0
0AA0A
2F3CA
20032
300AA
3C8AC
02A2E
33E28
038FC
33CFF
3C828
380FF
3F33F
328AA
20ACB
0AAC8
08F03
3FFBE
020BE
2C2CC
003C0
0C0B2
3022B
23E0A
28BC2
0A28A
000AF
30C3C
200A8
2A00C
220AB
038EA
3F0F3
30BE2
0CC0A
3FF0E
2622A
32C3A
3BC3E
23E82
3CB20
00000
2AABA
33220
0E82B
22A22
208E3
0F3C2
2CEF0
2C0E0
3AEFF
000CC
3C88C
0AECC
0E3EC
08AA2
3FBEF
2AAAA
00CAA
0EEB2
2EE00
0FE3A
2E088
3F38C
0ABFB
2A288
20288
008C0
0AAA2
28A22
0AA2E
28E30
3FF02
0C00F
02022
0F888
2F0BA
0A320
3FFFF
2AA2E
0F3AC
3B2E0
00E82
2280F
0A203
08A88
33FCC
3C2AA
30C23
2A2AB
2C302
30C0A
02E3F
0A823
33CFC
3F0FC
3A33A
00000
302A2
0C082
22A2F
08CFF
00803
3FF2C
002FC
0C2FC
30C0F
32CBC
323BE
3CFFF
283AE
2A808
08EF3
33F00
30E3F
0FB2A
0F2AA
308AA
202B3
0022A
00220
03CA0
2A3F0
083FF
300AA
0A203
03003
2203F
2A0E3
0A230
0A28C
3F0E0
2AA32
2AAAF
32CA0
3CFCB
20FF2
3EF82
3F80C
3CAAB
022BA
3F3C2
03AAA
0A02A
0CBAA
0A38E
32C2B
3FB20
0BCAF
28BAC
28BC3
02320
222F3
3E203
0A21B
223CC
22233
228C3
3CFBE
02C8B
3322A
00088
280BC
003EF
02A8B
02328
23B28
30EB0
3B0F3
30C02
2082A
00C02
3C02B
28AE3
230CA
33C30
32033
00BCF
300FB
300CF
2320A
00332
02F3F
0C3C3
0A03F
0BF80
088CB
02280
0E0E8
280C2
33CCC
0FAAB
2A2F3
3F8AA
2A8C0
032EB
080F3
28AC3
0BFF3
0BB0F
2C38A
00880
2AA8B
233EA
03E80
0003F
030C8
2A88A
3FC20
223CE
088EB
0C8A8
2C32A
0220C
3F038
0B2AB
32EC3
222CF
2382B
3B202
0A00B
3A00A
082E8
282AA
038E0
23E32
2AAA8
228AA
0A88A
382CC
3022F
02082
2A20B
00000
33A83
3FC3A
033CE
2EEF3
2CBEA
08A2A
3BCCF
3F32B
3F8AA
00000
2AB82
0AA3C
30EB0
00828
2CEB0
000A0
2EAB8
3E28A
2AA23
0EF0A
003CA
28B2C
20FF2
02F8C
00CA0
3FC3E
30AAA
2AB0C
3C31B
3C022
0B8FE
0A0CF
00B0C
3FFBE
2AEB0
300AB
28A8E
2AAAB
2F3EE
32B8F
32A82
02C2C
0BCCB
0A8FE
02C8E
2A23F
38E3F
3FF22
3FFF3
2AAAA
22ABA
2A3F0
30E20
003A2
2820B
00000
20C30
28A3A
3FFF2
03BAC
0002A
2AA23
2AA8A
02838
2F33A
38E30
08A3A
332E8
0E0BE
2BECB
3E88F
3020F
030A2
228A2
0EBBF
38E3F
2A2A3
28AB8
328FF
3AE33
0A3FF
0A28C
0AF3E
2A280
08032
2A2AE
22A9B
2800F
020C0
088FC
232B2
3FBC3
3FF0A
3AFB0
02B82
2A8A3
22AB2
3E303
0AE8E
2A280
2AA82
308B0
32C2A
02A8F
02A88
2AF0E
230BA
2A228
3F008
2A2BA
022A2
0E0AA
2BAAA
002BC
2AAAE
03223
2A23A
2EAC2
032E2
22203
2C88F
2A2BC
0E3C3
2AA82
0BAE0
2FAEE
2EF83
3C288
323E3
22AB2
2B8CF
0308A
0FFC2
0FF20
3F3BE
023CC
2AF0F
038C3
0FACB
22EB3
032CB
0C838
2A002
0FE88
0A3A0
23ACA
008F8
3FCBC
0A2BF
2A3E0
03280
2AE33
330B3
238F0
2C23F
23BE8
2B882
22F02
2C2BF
3F22A
3FCCA
23ABC
2BCE8
23A80
2F8CF
328BF
083CA
0CA32
2A808
2A230
0A0AE
3F2B2
0FFFC
03F08
20A3E
03ACC
0BBE0
2B2B2
3F3EE
2C0C8
0300F
22FF3
0FACB
18AEA
3CCB3
33FC3
28E00
20EBE
02FF3
28A80
22038
00000
2A08A
3202A
2A2A2
03AA2
320E3
2AACF
08F0C
2AA8C
0C32A
00030
20308
22A72
2A0C3
020A2
2AAA2
0A300
0FACA
3E32A
0F8A2
3FF3F
3FFCA
03A3E
28ABF
3FEEA
2AB22
3F80B
2AC3F
0003B
2AC8B
22030
3303F
088BC
22A82
22AB0
28EB0
202E2
2820A
2BAC2
2F8E8
0ECE2
28A83
20A08
282B0
3F2F0
0023F
002AA
22A82
2AE3F
208A8
3F3A2
2A02C
20880
2B22C
2ACB0
2B200
00003
20BC8
228EB
3E083
32FC8
33A83
0E8BC
0FBEA
002E3
220BC
2A3EE
2208C
028A8
03AC0
20A83
330EA
0CA80
23ABB
00300
23AE8
0F8EF
2CB3A
3FBFC
33A8A
23A23
22ABE
020B0
2F2AA
3308F
3FA88
238E8
220AC
2AA80
2B22F
2C2BF
2AAAA
3CCB0
28EEA
03838
332B2
2822A
322A8
3003F
3F332
28A8E
28AA8
2800A
0323F
20CB2
0A2A2
0CC20
00CBC
338A3
3AFF2
03FBF
230C0
30823
38E3C
3AABE
02AE0
23BC0
28E0E
0FCFC
22B3C
03B0C
08CC8
0AAB0
028AA
0A38C
08232
23BCA
3F282
28CFF
03FF0
3AAAA
3020C
0F3CF
32A82
20320
32BEA
3E282
20BCF
028CC
38C32
20AE0
38EBB
2A0A0
0AC0A
00F8C
2A0A2
3A2C3
3F0EA
228E8
0E8AA
22220
2B0EF
3FF80
2AA88
22BE3
0EC8E
0CF3E
22F0F
0A8BC
2BA8A
2AA23
2E303
0B8A8
0BC3C
2FB2F
308E0
28282
2382B
0AEAA
3AC02
00CBE
23F8F
00ECA
08A02
33282
2A8EB
32F3B
3FA00
2AEAA
28B0F
3AA2B
008BF
0A0AC
202CE
383CA
3AEB2
202A8
3EFF3
2AB88
0C2BF
0C088
3A2A0
00000
2EF8C
2F20A
08AAC
0233F
308F0
028B0
2AA80
0AA80
2AE38
00200
3F3AF
323C3
0023A
0FF30
00C02
20C3C
2B3E2
382A0
2AAF3
2A2EA
03FFF
3FFFE
3BF8A
22A2A
3A2BE
230E0
3F83F
3CCBC
3F33F
0C3EA
0002B
2C082
3AC82
32CBA
2AC3C
28C2A
2ABA0
3AA8E
33238
0C3A2
2AAA3
0BE0C
0AA22
3AAA8
382A9
2E8EF
038EF
00FA0
0BBCC
0AAE8
3FF0E
3AA22
3FF8C
3AA8A
0A2BE
00000
238CB
28A08
3082A
2808F
0F83C
3EEB2
2883C
2282E
2AA28
0AEB8
28F3A
02B20
3A003
2AE8E
080E0
0B283
08AAA
0A28A
28CCF
233EC
3CCBE
22A28
3FF02
38A28
0AF80
0E3BE
2200B
2ECC3
08A2A
32FB2
0A20E
3CC80
288CB
3EA08
30C3A
20F3F
3F083
22F28
0A3FE
0A2BB
2AAB3
2A3EB
2A22C
2EA03
2BCE8
2AEAA
12832
2A383
02332
3FAA8
32282
26C32
2A00C
2ACCC
388A3
0BCF0
2ACBC
20AB0
0B022
3233A
20FFF
32C28
0F002
3E208
2AE30
2AF0E
28B28
0F333
38FEA
3B8E8
2A0E8
3FE2A
0EB80
0E8B0
23F3C
0B0C0
3FCC3
0AEAA
2FBE3
0CF3F
02B1A
3AAA2
08828
3C009
2AFB2
2A8BF
00FEA
0A283
0AC2C
2AAF8
3F3CE
3FB08
2C3CF
00BAF
02A2A
2CA82
0BFFA
00F30
2FFFE
0233C
3F3CC
2203B
28A8A
2A3CF
08FC0
02283
228E2
2A28E
3F0FC
0A830
2A883
0BAA8
2EBB0
0A30C
02CC0
3FFF3
2B033
2FBEB
28A2A
23F3E
023E8
0A8F8
3FF2A
2A03C
203EE
2FAA3
03E8B
0280B
3CCAA
02ABF
0F3CC
0CE0A
22CBF
2AA88
2C8B3
00000
23A2B
00EB2
2A008
0AC82
20222
00C8C
0C00A
00BE3
3C080
2AA0C
02AAA
3F322
2BA20
0CB8C
26C3F
032BC
28EE2
2CB2B
2BA2E
3F3EA
220FF
2A80F
0A238
3FCC0
0233B
03C80
288EC
2222A
2233C
0FBE8
208C0
230FB
28AAA
2E03E
3FF0C
28C88
08B00
2BECA
22AB3
0FBCC
0A8A8
0E8BA
2AFCA
3F3C0
03A8A
22A03
2A2A2
3F800
22BCF
3FA03
223A2
3C000
3E888
00880
1AE2E
00000
02AE8
0A28B
330EA
3C883
00FCC
2A0C3
3B2C3
02E2A
3FF8A
3FAEA
0BFCA
0A3CB
2AA30
3C8E0
38238
3FFAA
222BA
2BAC3
2A8F3
0AF3C
32C80
080AC
2CBCC
3AF3F
20AC0
2A202
30ABA
30A00
3FFEA
308C8
2E3BF
2CA0C
30322
030CB
20FBF
3FAA6
208AA
2AFAA
20BE3
2F00B
0AA80
2C22A
0EA82
030EC
0AF30
30238
033EB
0AFF2
2A80F
22AA3
2F0EA
0BCFC
2F2CC
2ACC0
00CB3
22388
28AAA
3FC82
020B2
2CE30
28AA2
2CAAA
0ECAA
3A0A3
2F0FE
00BCF
3CC8A
08C03
0B2FF
00FFC
283E2
0AFAC
282E8
2A883
2AAA8
00CBE
2AAAA
23BE8
0208A
2F030
08000
383C2
08280
2C3EF
2AC2B
0BE0F
3EF88
02A8E
2EBF2
2A3FA
2AB28
02C3C
3C3BE
228AA
0E3EC
0F0CB
0C2B8
02CFC
2ACC0
2AEB2
28030
0E8BF
082F3
0FC22
0CBAA
238EF
300AC
332BE
0CE33
3F3EC
2A028
22A8A
03B23
0C82B
2F3EB
2203C
02AE2
0A20E
22C8A
0EAAA
03CFC
023C0
3CAA2
23003
2232A
02A8E
383C0
3BCEA
3F02A
30828
0FE88
2CF2B
2ABAA
02CB2
2002A
00000
0A082
0CFCA
2ABCF
28ABE
038FF
08ABA
22CA2
02280
222A2
00000
33BA0
0EC38
3C3BA
282F0
0AFB0
2A2A2
3822E
3C2AA
3CFB0
2AAAA
03FFA
2388E
3CCFC
0F3AA
02038
020CE
22ABA
0A288
2A8A8
3CC08
03EB2
2820A
3CEB2
32EFB
20888
3ACA8
28A82
22B2E
08E82
0002A
338C8
20822
2A3CA
0F8EA
3AAA8
3EEBC
283EC
0CAA8
03FC0
3CCBA
02BB2
028FF
0A23E
2A828
0A33A
00000
3AFFF
22BA3
20BF0
2AA8A
3C280
2C0CE
28C3E
0BB2F
2880F
0CF38
30FEF
0AB80
2A030
0A080
000A2
2E0A8
2AFF3
30E38
2800F
3A00C
20B20
3F00A
3CAAA
28B8A
0CC0C
0CB3C
0F8AA
3F082
2CB3E
22B32
2AA8A
3CEBB
02E20
00F8A
28228
28AAA
3FA02
3F22B
3C820
3FAEA
2BAA0
0CA08
338E8
203B2
08228
0AE0A
208AC
3F312
2F8AA
28AA2
2BCBF
2AAA8
282A2
3CFCF
0C8C0
0C3BA
2BAC8
28EB2
3F3E3
200AC
0203E
2BE0A
2AF0E
30FC3
28A26
0080F
20BE3
2E0BC
13AEA
3ACF8
303E2
2AEB0
2B022
0B28C
18BBE
0A3B2
28ABA
0C3E8
23A0A
0F2AA
28AA0
282EB
0FA2A
28CBE
2ACB2
28282
33C88
20F02
23A23
2BC30
3FAA8
2A2BA
03AEA
03C0A
020BC
3FA2C
2AE32
2BA08
0F3CE
2A38A
2B8C0
2B8CC
0A820
00B2B
0A223
0AEAA
2CA0A
22FE3
0F022
2AFB0
2A83F
2B03A
2AAA2
2BA8E
23AAB
2A3AA
0FA2A
3FAEF
23EC3
30C38
2A020
008A8
38C0C
3EFB2
0FBE8
3E023
238C2
2EECB
2FAFC
3FA2F
28A2A
0F020
03A00
28A3C
28CFE
00000
03AAB
3080A
2EE30
3AC0B
0FAA8
3F8EA
2323F
0F80A
28AAF
00000
2F8E8
338CB
02FFF
23BCE
2A30E
083F0
08CEB
3FA8A
033E3
3B2BA
0882A
2AAAA
202AA
332CA
08C33
2E2BA
328A8
2AE30
0FB00
0E08C
0CC08
2088C
23C2A
2BAEC
0FB28
3CAEA
23AAA
00E2B
2AE8A
0033C
2AA8A
20CAA
238CF
2EAF2
3EAB8
28BFC
22302
00A9A
3A32A
00AEF
3BB18
2C2AA
23AAA
3C88C
3EF28
00000
00FF0
203FF
030F8
3A0EF
2200A
2B22E
2A028
3E0AB
222F8
3F3F0
03F02
03323
2AEF0
0C823
02023
2C200
0E33C
3C8F3
2C880
2A0F8
0BE0A
3AF0F
2333E
3E8E8
200E2
2BBCE
38EF8
28320
002AA
2AEC3
2F2AC
3E020
300EF
238FC
33A3A
03FFA
380E8
3A023
28EA8
0828C
3A322
33FB0
32E02
2CC3F
2AA28
2ECBC
28EFF
3232C
3FBE8
380F2
00EBF
282AA
0BE0C
2AACF
28002
02CAE
280C3
0F33F
0A80C
020BC
22E8A
20232
228BE
0AE03
0BA8A
2C88A
0B8C8
33FC2
2AE02
00233
3F23E
0F23F
083F8
330EA
383F3
20E8A
3FF00
238B2
3CF32
33E2A
00B3C
333A3
08FF3
222B2
38F33
02F02
0A8A2
3C2AB
28A8A
00C3C
3202B
0028C
30CE3
32CEB
32232
282C0
288C2
30083
0F202
00C2E
0F302
03CE8
2AABB
3C8AA
28A0B
28EBC
0B00A
2B3CF
3F0AA
30C83
0CE0F
038A8
28B20
23CFF
2B2B2
08CAA
0FB38
32C2A
38FB0
0388E
0AA2A
3FC8C
0AA83
2A22B
3F3F8
0FC3F
20FB3
2223B
08FC3
2AFFF
38830
3FAA8
20C0C
230CF
3FF3F
00000
202C3
030B3
28289
2B33E
28802
338AA
3333F
3FFF0
0EFF0
0C002
2B000
23282
08C03
00CFF
33C0A
0FCBC
2A20F
0F2A2
2AA28
33823
3FFCE
0FCC2
3F288
000AA
3F3E0
3FCB3
3ECBA
2380A
3F8C3
0AA2B
0B8CC
3CABA
3F22B
0E0CF
2AFAA
20A2A
0C80E
2AAAF
3F0C3
0B0AA
3FF3F
2A2EA
3CAAB
3FFE0
0200F
03FC0
33B30
302FF
320B3
0EBA2
02FEF
3FF2A
03302
2C333
2A203
00000
3ACBF
288C0
308A0
2A0AF
0FE2B
38F8A
08CB2
2AAAA
2FA02
28AE3
3CAF3
22082
080BE
30A88
28B2B
00083
000BC
2ACF3
28ACE
2883F
02CE2
2A08B
3F302
338EB
3FAA8
0C08A
3CEB8
38F08
2A228
2A200
3F3C0
28B03
28AE2
3BF3F
2BAEB
2A3FC
3C83F
20A02
2AE02
2C332
00AAF
0AFFC
300C3
0AFA2
2AA2A
2A208
20F20
0E830
32A02
0238C
2A023
230A0
2F02F
232A0
280C0
28FE3
008A8
0ACA3
2A022
20080
08200
0A880
2E38E
00A80
28BEA
2A02A
2A2BC
20A82
00300
32F3E
2282A
28383
038FC
2AA08
00ABC
003CF
28C83
20380
0C33F
232F8
330F8
3B238
2B8C0
02388
32EB2
3F3C0
2AAAA
3A282
208B2
03233
008A2
20383
2AC3F
03A0A
33F3A
0AE3F
2A303
30C23
2882B
2C023
00E38
282FF
0A2AA
08B8E
28BE8
2A382
308F0
032F8
2A008
0AFEA
08CC2
30ACA
0E823
000AB
32CA8
20A2F
033B0
00A82
08E38
22B0F
3CF30
008AA
28EBC
03232
00A02
0AABC
2E332
22F80
0A0A0
2ACA8
20BFF
033B3
002B3
2808F
30032
00000
032B3
2ACB2
22E8A
08CB2
00002
0083C
288E0
0A88F
0AF82
00300
00C3F
0CF3A
28C32
03C3F
2220F
0F0A2
00C80
023C2
00F3C
2AF3F
2FCE3
2AB8F
2A820
0FFCF
080BC
2AEBC
33FFF
203C3
22ABC
00A0B
0803E
3A2E3
2A030
0A20B
0380C
2A3AA
3A2A0
2882A
208C3
02E0B
30EBE
0AABE
03A2E
2EFFF
02A8F
0AF38
20A20
0320F
080E8
30002
00CB0
2AA33
3E838
0A082
2880C
00000
3F330
2A3F0
0A00E
3C008
0FFC2
08AFB
22820
2AC8C
0A03E
2A2BE
0228B
088BA
00F30
30A8B
2AC82
00FFC
282EA
2AB02
02030
2CCBC
2A288
22CC8
33FEB
288EE
0AF20
20AAF
282B0
3EF3E
22F03
3C33F
2A3BF
2230A
2200A
0AF32
283E8
2FFFB
220A0
0A082
28023
2938B
2ABCC
000E2
2A0F2
28300
2008F
2CCFF
0AC83
26BBC
2A083
0ECCE
20B0C
28EE3
3C8E8
0B230
0FAFE
00228
02E0C
3C33F
28FF2
2B2E8
2F380
0C32A
33CCF
3308A
38233
2A8BC
0CF0A
0008C
08CA0
28E2A
2A20A
02222
08C02
2E383
3CCCA
0EC30
2C300
2F2CC
02288
2A26A
2A02F
33AAA
3ACCF
3CCE0
0A2BA
02FEF
28CFB
0A3B3
0AE30
3EC3C
0302F
03A20
2A0B3
22A32
3F228
2A02C
3C0B0
2FA0C
2AA8A
30AAB
338BF
0AFF2
22F3F
0328A
3F3EA
2033C
33CE3
3B288
00E8A
2A0BE
08AA8
3B33F
080CF
0A02A
2AC33
2823B
0A2B8
0A2B0
2CABB
2BCF2
08E2B
2AB3C
0F02A
33AB8
0A002
2A8B8
0E2BC
0F028
3FA0C
2AA0F
2AF0A
0AC8B
028EA
08FCF
32EBA
00000
0E3FF
2A8B3
22EA3
23A82
2A228
2933C
2A22A
2A33B
022A2
00300
3EF3C
3830C
3CA8B
022A8
0A8BC
2AA00
0C08E
2A23F
0CCBA
2E08A
0AA00
0CC2B
2AA03
2AAB3
0AEAA
208AA
00FF2
0BC83
2A3FE
02F00
3C2BA
2AA2C
29FAA
0280E
202AC
02283
2A33F
32802
08E03
2023B
0C33F
3FC0C
2A32E
2FE23
300F0
3B282
00C3B
2E308
38EF2
32A02
003CA
0AAB2
2AA2A
0F08F
203F3
00000
3F00B
00C02
223BB
22AFC
2AAEC
3C2AC
0ECFB
03C0B
223B0
0E082
2803F
2A8EF
3F2CB
0E333
0A08B
08228
28B0E
0208E
2A2C3
3F20F
303EE
038CA
3EEF8
2AB3C
2ABB3
0AC3C
2AF3F
2FBEC
20A2A
3CF80
22F3F
2A3CF
0AEB8
003B8
0FF00
080C8
0000C
00828
2CAAA
3AE8C
2AAB0
0830F
2F032
00280
3C022
28ECF
32288
00228
02C8A
08A3C
2208C
3C0E3
230C0
2228A
323A2
28C0B
2A2B2
28EC3
20AAA
0CBC0
00000
23CFF
0CB00
00308
0C303
02082
2E0AA
0A2B8
2F0EB
303CC
30880
32280
0A2A8
2ACB0
0AF32
0000F
3030C
3FBE8
0AA82
00220
0B800
2A0C2
2F2F2
2B03F
302B0
30030
08A28
00C3B
0380A
2B2C2
02AA3
0CCB8
0C2B3
3E88B
3E000
2AEBA
2A222
20803
330A8
0BFC2
2080A
00000
0EA33
08300
2C328
0EA83
0B0B0
28288
3F008
0C280
0AFA0
3A003
38CB2
200B2
2C8EF
3C022
03332
00008
0F38A
0B800
03FCC
003A0
0F8C8
32CB8
3C822
0233C
03800
3C3EB
20000
0E3E2
0A000
28A2A
3C002
028F3
0080F
00000
008B3
0EC0A
3E82A
233C8
0CFEA
0222A
22EB2
28EB2
2003A
00000
00030
02002
3EC28
282BA
20B0A
30000
030EB
008B3
20302
02003
033CF
3AC3C
2E20F
00808
08000
0C0F3
30032
3233F
022AA
30200
32CA2
2A2A0
3AA03
28AB0
08020
3CBEB
228A0
0B20A
3FFFF
002CB
020A3
0F00A
38FB0
0AC3C
0A038
22AAA
20B22
2A233
23BC0
00FC3
0000C
20008
30000
02830
233C0
00000
0CFC3
02000
0C38C
0AE08
30A08
2AC0C
08FCE
30230
02200
3EC30
33380
0000C
0CCB0
0A08A
20A80
08E30
00EB8
2E0BC
2C028
0FBC3
2000C
20800
0203F
0CCBA
3230C
0E080
03B20
38AB0
0A2AC
20002
2008A
2AA80
23AE8
0CC0C
38FF0
3E3B8
3A3E2
0A3BE
2AC83
28FC0
2AFEA
2CBC3
2A2BF
2C82E
30022
30EE2
28032
300FF
3F3FF
032A9
3E8BE
08E2A
2828C
082BC
000EF
08EF8
322B2
223CA
2A8E0
0BC83
202BC
0AF8A
02F0A
2AAAE
2000A
28280
203A3
3FFFF
08C8A
02028
0A2A0
3FC08
2AABC
0C80A
3C3BA
3F238
3F333
2AC8A
03BCF
3A228
3C3CA
33280
000CF
02F8A
320B0
02B06
0A2E4
3F88F
0AE0A
3A2CA
0F22C
3C0AA
2A82A
38E82
0C0E3
1AA80
23EE8
33CAA
3B200
3C0BC
2F300
30AAA
0C228
2F0FF
2A2AE
3FA0A
00B08
3320E
0802F
30230
1ABBE
0F23A
02BBC
2A8A0
2F80C
0BFEB
03E28
0C3BF
2B28A
2BAC3
3A002
003F2
0CF0A
22CFC
2C3E0
2C3BF
0FCC3
08AAC
0C2BE
2AE88
028CF
00388
3FEB8
08E26
0CF38
00000
0B023
2CC2A
2820F
02002
2AFB0
3FFF0
3CC0A
3F30A
3CFEA
0330C
2802B
203AA
2AE83
0AA32
0C2FF
0288A
2ACAE
223C3
203AF
30B2A
33E0C
3288A
3C008
38308
3320A
0C8A2
288BF
0AAAA
02380
332A8
032AC
308F3
20388
2C00A
082F0
2A0EA
3F3EA
03ACA
3CBA6
230E0
2B2EA
02380
080CC
30C2A
08AA6
28AEB
2AE8A
0CAAA
3FCF3
2A2AA
0AC03
0BA80
0FFC0
2AAAF
222F8
00000
0F02E
20EAB
0B0CB
0B30E
0F082
3A002
3A3F2
300AA
3FE0A
2B3C8
3FFFF
2A3E0
3880A
3FFCF
0AE82
3FF2A
2A22A
20B0F
0F2FF
0FBB3
02CBE
0328E
22228
08EB0
3F3EA
2A28A
338AA
30C8E
3B228
3E08A
0FBFC
2A228
23880
20C2B
3BFCA
3ACC0
228BF
0FA08
0ACBA
2AA03
0AAA8
3FC23
0FBEF
20BE2
02F0C
22CB3
2E3A2
3B228
2A2AF
0A803
220A8
22A8B
02AAA
2A08A
30F3A
32BCA
2A2AA
20B23
3FF30
32F00
2A282
3A0B8
33FF2
22B00
2A022
228CF
2F3F8
3AB03
09AAA
0E3A0
0FA20
330E2
228BF
2A2CF
3BC80
30CF3
2C3EC
0F088
2CB2C
2ACB0
3020C
0008A
0AAA2
0E222
33E8A
2A0A8
08FC0
00CBE
0A032
32EAA
0A2B2
3FF28
2F803
0B0B0
3A009
03B23
003E2
32EAA
32C0C
0E228
080AA
380AF
2AA82
233C2
2CF3F
2A3AA
3EAAA
3F8BB
20CBF
0888C
0C0AA
203EC
2A88A
2AA83
2AA8A
3FCFA
2E883
02A8A
3F000
3FFF3
22CAA
200AF
33F3E
3C2A2
0EBF3
2E3CB
3EBBE
0AAA2
2AAA2
00F0E
3F82F
0C8CF
233FE
3A02F
2A3CE
00000
00323
23822
3A2B2
3FFF0
0AA82
2A803
022BA
0E083
38EBA
00000
2FA28
3A0CC
2C880
238A0
022AB
3080C
3CCB0
0F802
0C30A
00CE0
3C02B
0A32B
2AA03
2CBC3
00033
22A2A
0F3FC
303A3
00A33
208CF
3C308
28223
0A08C
238E3
2A00C
02C32
222E3
3EC02
3AE23
203C2
33EB2
3AE82
0A2A8
020A3
0A20F
233E2
03B0F
28883
33E2B
0E0A0
233CF
2A22F
2028A
2A28C
00E0B
00000
3CCCA
00B30
0028C
2FBE2
03002
0202A
022AE
228BC
2A882
0C3BA
280B2
0A888
3EF2A
022A8
022B2
0BCFA
2AC00
22023
0A28A
08000
2AAAA
03BBF
0882B
3AE8A
2CEEB
2803F
0C2C0
003BE
283CC
30E30
0230F
3C8AB
3033A
2AAA2
3322A
0A323
3F083
3F0C3
2F800
33F3F
2CFFF
2A3EC
32F30
20CCA
08A0A
0AE0A
0F000
3F33F
302FF
08B8C
020A0
3CC80
0A28A
00B02
23023
23F3C
38E3C
20CCA
22E38
0E03B
3230E
32303
2A0AA
20AAC
23ABA
20A08
2EE20
0A830
08A8B
3FCEA
00AE3
288AA
00883
330C0
002E2
020C8
00C33
28EAA
3F80F
03028
33BA8
280EE
0E883
0A033
3CCE0
20C3F
0AA88
0A8B2
02A8A
032EA
2AB2A
03AA8
20F0E
2F20E
30FA2
30F3F
2AC0B
20E82
0A2AA
383EA
28AAA
00FC3
2380A
2C8EC
003EE
2B232
2A83C
0BC22
208A8
2ACCC
32F0C
33000
30030
3C028
28AB8
0F033
33E0F
3C22B
33CFE
2AABA
2A0B2
08ACB
0A09A
233BC
2CA03
0C00E
28AEA
38220
00F2A
233BF
2A83F
33A02
3F8BB
0CEAA
3CBC8
00000
0CA8F
3FE2A
03000
2802A
03083
2E03F
3CE3E
233CF
2A22B
08000
3CEBC
28AA2
2B200
38A82
0F3E0
2A0A8
2AAA9
3EB82
00008
0FA8F
300E2
23330
3FBFA
33E80
030C2
33228
023AC
2AAAA
38F3F
0888B
2BC0F
3A233
0FB02
0C3FF
3CAAB
33803
0303C
28299
3030A
3C8E8
2020A
0F0B3
0A28E
032AA
2F388
3002A
3AA1C
2003F
0FAEA
3FEC0
2E03A
03BC3
2C3FF
23028
3E038
00000
02AA2
28C38
0B230
0FECA
22FCC
32CE8
228EB
2228C
38E88
2BEFC
3FA2A
2023B
032E8
0CACF
03A22
23EA8
00208
033F0
33E2A
23AAA
0E0E8
222A0
0C8C0
3FFBE
008F3
022AB
3B228
2A28A
3820B
2A8EA
2A8C3
32330
0A022
03EE8
2E30A
3AEBF
3FE2A
2FBE8
23CC3
0200E
3CCE8
0A2E3
000A8
38E00
2CABA
038C8
0AC30
2AF0E
283FC
08C38
2B2B2
00228
280CB
2CAA2
3E328
3F32A
2883A
38A2B
0E8AB
032A8
230F3
0B222
0EA28
3032A
2CC3C
33E30
3ACB2
28B8F
2A238
30A22
0CFFF
3382B
28C3E
02C00
2B0CB
0C8EA
0AA8E
2BAAA
3ECE8
00CE3
08F0F
28AB2
08CCF
2FC8C
2AACB
0A2BA
0E82A
0ACFC
220B0
13AAA
2F0EC
2F8EA
3AE28
00F08
20A32
32E80
0AAA2
280FF
3F0EF
28AC2
0FFEB
20F08
3F3CB
3AE80
20B8E
20CE3
3C2BA
2C3E2
083F0
3FEF3
238B9
28820
2BA28
3B030
08C28
3C0E8
00BFA
00CCF
00A28
0AA9B
28CB2
2CCCF
2AA33
33BAB
0AFF3
0AFBF
08C83
030F0
38C30
202B8
00E83
302C0
23326
20A28
238E3
00000
02C88
2CAAB
30FB2
2CA08
3AEB0
0B3EF
2C332
2A238
2AAB3
00C00
08C2A
02B2B
3CB33
28E3A
23BEA
2AC3F
2ABAA
30020
32A2B
00AEA
2A0FC
230E8
0F8EC
3F02F
20C2F
2A0EA
28EB3
3AAA8
08EF0
0280C
02BC2
3CFC3
2A82B
30F3F
088C8
0C838
2A02F
2A8BE
02008
32FA2
0C3E8
3FFCF
2CFFE
3A3AE
3CF22
0F8EB
03888
3ACAA
08023
0FAAA
390A8
0008B
08823
00C3C
3CC0A
00000
03BC3
3AB88
22BB0
323AA
333BF
2A80B
208AA
302CB
38A2B
3EBAA
20A22
0A888
2BA28
22CC0
0CF0A
02BE3
3CFE0
3A2A8
2AB8C
23AEB
2B20B
2A82C
0F22B
3CCAA
22A20
0C82F
233CC
3FF0C
0C8AA
2A088
0AA30
302A3
2A0AB
32FAB
0A23C
02BCF
0F003
2A88B
30ABF
082B3
0A2B0
023EC
0AB02
280BC
00C38
02CBB
2A2B0
2BB0F
2BBA3
3CAAA
22AA0
32FFB
3CFFC
3FE0F
3B38E
283B0
2A202
29082
28BCC
3AAB0
3FCEC
2AC83
3F330
2EC8C
2AA3C
38320
2AB28
2AFC3
2AC2E
0B3E3
0288C
0FFFF
223AE
00382
20C32
33F30
3C0A3
0238C
28BE3
3FFFB
0F32A
0AAA8
000EF
3F2F0
203CE
2C0B8
208EB
288A3
00E0B
220A2
3F3FF
3F23A
2A2FF
0AF00
0823C
2288F
3F3EA
3FC2A
03AA2
3CB23
03082
0300E
0AEF0
2AA0F
3EFA2
0A23F
0280C
0AA8A
300CB
02A38
28C00
3CAF0
22A0B
20C3C
3FCFC
3FFCE
2A323
0FF03
2ABCA
38B0A
0C32E
20C0A
2FEAA
0AAF0
2AF0F
303C0
2F03C
2CCEA
0EC82
2AFBF
033CF
03E08
2AAB8
08CCA
3CBBC
00000
28A2A
2A0AA
30F80
0AA22
0A283
2832F
288F2
3BF2F
3F22A
08300
22AAB
2B802
23B20
2A2BE
28BE0
0B8BC
02B0A
2AA23
22A3F
3F3CC
2230F
00BC3
3ACBA
330EC
08C28
28E03
0622C
22A0A
262AE
332FB
3FBF0
3B8E8
2828A
03AEA
2FBCE
203EA
23028
2AA26
32320
2A82B
2F0E0
2080F
03EAA
03BE0
0FBF8
23CEA
02F3E
28A8B
0232F
3C2E0
08A0F
0AC80
033C0
3FCBF
2A2E0
00000
3FECF
2F080
0833F
0A0CF
2203E
2F3D3
0ACC0
02FF0
3CFF8
2303C
2FF3F
0AE3B
02BB0
0BCC8
3AC82
3FFF2
3803C
0233E
23E80
38FBC
2CFEF
3E082
2AAC8
2AA3E
2AE2A
0B2CA
20AAA
22BBE
3FBC0
3CBA3
2AB0E
22A20
22B2A
28203
0AAEB
2AAFC
2AACF
30E28
3C2AF
00A8E
028EB
333FC
0CF8E
2A08F
3E828
0FFCC
23C00
20C2A
2AA9A
3FFCC
02BA3
232EB
3C3EC
33C20
000C2
200FF
3E88F
0AEBF
2AA8A
3B2C0
3FFCC
0AE8B
3CCB0
00A8E
2AA6B
2A8AA
28888
00320
023A2
0BEC3
2A280
3F2FF
33FCC
023EC
3EF30
03800
028A0
30C02
32202
0A2A2
08E00
32A2B
0E3AA
3A8AA
0AF2C
083E8
3808A
2280B
30EA3
3FF0F
382A2
3AA2B
2AB80
3FA80
00E3A
2FB3F
2EF02
0CAEA
08AAA
02A88
0BA28
32082
3CFEC
2AAB3
022A0
02203
0A30B
0022A
03B8C
2A2A3
0020B
3820A
3230F
2A88C
28AAA
33ECA
382A2
320AA
300CB
030F2
02A2A
2A82C
3CEBA
0FB33
2A230
3F8C8
3FC8F
3A3BE
0AE8C
3A03F
0FFFF
3822A
30A3F
0FFC2
03FCC
00000
0C800
0C8A8
0B022
3023A
3A8A0
2BA2A
08A2B
38CC0
30C80
00000
082BF
3BBFC
0CF33
202BE
03BB2
3A0C0
20EA8
000B3
28B32
2A3FB
28000
30CBF
02E0B
388BC
380A8
0A283
30F3E
00FFE
2A300
33A2A
2F3E8
280BE
2CFE0
2C0EA
0BA8A
3328A
2AAAA
3FC0B
3B820
3FC3F
033F3
38EB3
0CA82
08E8B
2FBEF
03808
08F00
2EBFF
3BE38
3A0FF
0AAEC
0A000
