00000121
FFFFFFFF
0000006A
0000015F
00000069
0000002F
0000002E
00000101
00000004
0000000C
0000010D
FFFFFF66
FFFFFE74
0000004B
00000216
000000D7
FFFFFEC2
0000003B
00000210
FFFFFFFA
FFFFFFEB
00000065
FFFFFFB0
FFFFFF61
FFFFFD87
00000011
00000178
FFFFFF0A
00000013
0000009C
000000D8
FFFFFF91
00000023
FFFFFCEE
00000145
00000057
0000004D
FFFFFEE0
000000D3
000000BD
00000083
000001ED
00000197
0000003F
FFFFFE92
FFFFFDCF
0000002C
00000195
FFFFFDE2
00000050
0000006A
FFFFFFA8
00000044
0000009D
FFFFFEE1
00000077
FFFFFF75
000000CB
00000039
FFFFFFAD
00000128
000000AB
000001AD
FFFFFF2C
FFFFFF60
000001AE
000000C4
FFFFFF13
FFFFFD87
00000025
000000F8
000001B9
0000004F
00000049
FFFFFF81
0000016E
00000053
000000BE
00000133
00000071
00000063
00000140
FFFFFFE9
FFFFFD6E
00000004
FFFFFFE2
FFFFFFCA
FFFFFFF6
00000013
00000155
00000015
0000007D
0000013F
0000017B
FFFFFEF9
000001D9
FFFFFEF9
00000033
0000001F
000001DD
0000000F
00000014
FFFFFF18
000000EE
000000C6
00000089
00000143
000000CE
0000012F
000000E4
FFFFFFB9
FFFFFF79
00000040
0000001A
0000006E
FFFFFFE6
00000031
000000AE
FFFFFFA9
FFFFFF8D
0000004F
FFFFFE9F
00000046
FFFFFFE6
FFFFFFDB
FFFFFF76
FFFFFF32
000000ED
FFFFFE7E
000000CB
FFFFFFDB
FFFFFF0D
0000000A
FFFFFFE9
FFFFFFE6
FFFFFFC1
FFFFFF7E
FFFFFFEC
000000DC
000000DD
00000034
000000D7
000000EF
FFFFFEA2
00000177
FFFFFFD3
00000010
00000041
0000006B
00000059
00000065
00000003
00000000
0000002C
FFFFFF9D
FFFFFFCC
FFFFFFD6
FFFFFD89
FFFFFF6C
FFFFFFFF
