03A03
22A8C
03F3F
2AF30
22A0A
3283C
0F333
0AC28
3A3E2
20C8E
00C20
0A2EF
32EA3
00F80
3EA0B
003C3
0EAA3
28EAC
2B838
2CA0E
3BEEC
002CA
02A23
0C8C0
0FFBA
0E882
0228A
0833F
33838
000C2
020AE
2BCB0
00FE3
300AB
03F00
08802
28E33
0BE8C
203E8
08A00
3CB2F
280B8
22030
00222
02AE8
0FCA0
0F00A
008AA
3AFCE
2CE8B
2C0CC
2ACAE
330A3
22038
00EA8
3FBF2
30FF8
388C2
082CF
33CEC
2ECE0
1923E
3CFFC
2F2B3
3EB23
00BB8
0CBFE
03322
0FA08
3FAA0
2AF2A
0FE3E
22EC2
2EB22
02EFB
0E8E8
00AB2
3AA3E
3F0C0
3FAB3
2BAA2
2B223
00CC0
02F82
3EE30
282E8
2BA82
00322
30A0A
30FC8
3CB08
00AA2
38EEC
20EE0
220CE
0C002
00EA0
0B0AB
003AA
0F230
00B22
3BC32
0FA80
02E2A
3000C
30C3B
2203A
202E3
2B282
003E2
28A0C
00283
0B28E
2BA00
02A02
22003
20E2E
02EC2
0C0E0
2A2CF
000C0
2EFC8
0EEE3
3ABAE
3E2B2
3B3CB
2CF2B
0AAA3
307B8
2FBB0
33CA3
00B28
32B38
30E00
0ABEF
3E2A0
0BB23
233F8
32B2E
0CC03
080B0
3C30A
00ABF
00C22
22B33
0C2C8
0ACC2
2F0E8
32C28
030FC
3B82B
02F88
22CAF
0020C
0800F
22A0F
08000
2AAF3
1FA83
20808
082AA
32E02
28832
0E203
0003C
282AF
2CA0B
0238C
20032
20A0F
30800
030B0
3820E
08322
2B20F
000E0
2BE8B
2822C
2A0E8
2EF30
03833
28A08
3F8EB
0820A
083BE
00330
008F0
082A3
02E03
080B0
2AA00
02AB8
3C0A0
0B23C
0AC32
2C3EF
2B02B
000C0
2802B
2C820
08C30
0A33C
2A0B0
00A32
3B30B
08AF2
08BB2
00C3E
00CC0
3AC32
3AFCB
03ABF
03E23
00E20
22BE0
29E2E
0C0B3
2E2E8
0E8E3
00B80
3A808
3BE0C
0C2EB
08280
0F020
2B8FA
020EE
3CC8B
2228B
20803
0023E
0CFF8
2283F
2ABEC
0ACB0
2080A
2FBF8
3E8BF
3C3A8
2B232
0E80B
002BC
2382E
202B2
28E0E
3CAC2
0EBCE
3ECA3
0BECB
2AEE2
00C20
38AE0
000EC
23320
2E98F
20030
3C832
20800
338BF
3F08B
03222
3B83E
0FECF
00008
0C3F3
00CA3
2CFCB
2BF03
3F282
08C2E
3FCE0
300AF
3D3BC
0EF30
00E03
2CFF0
0B0B3
0A8E2
3EEF3
333CF
0F0F8
0D80F
3F3B3
20CB2
3E0CB
008B8
0022B
3EC03
3CCAF
28A32
02238
0232F
0083C
00E3A
00320
2B3A3
00320
02ACC
3EFA2
3F0BE
2CA22
0C0C2
00F03
302F8
2CAE8
0CC20
2A0A0
002A0
3E0F2
3F3C0
3FA33
332A3
00F2F
3FCCE
29C8E
0F3C3
00EC8
00A2B
000B2
08CA8
2F200
0A022
3EA30
3B233
030E8
02A80
202B3
208B0
3B020
00300
02AE2
022B0
2328C
0AA0C
3A8EA
023A3
2E03A
00AE2
0FB00
223AF
00C80
3AEA0
038CC
0A080
3C02E
3038F
3BF00
0A083
23ABF
0F833
3B82E
003E2
32C32
203C0
0AA2A
3EC32
2B00B
2C0E8
3AA2B
3C8B3
283B0
3C82F
00B0A
0C023
30E00
0FF3F
3F382
0B3FF
30B3C
03FF8
2C0F3
3B33C
30F82
00300
022CC
22A80
03082
082A0
203EA
2FB3B
2CE83
08BE8
0BA8A
02A2F
00232
3028B
33F03
08F8B
32BB2
3EEBF
0A32E
0383F
02EB2
3202C
2B3B2
00328
2BC28
28232
0A3CC
2A000
02833
20B20
00B02
38E32
230B2
0300A
00303
3F288
0330F
3F320
00F02
02F3E
02CAC
332E8
0200E
3CF2F
282B3
00CE0
32338
3B20C
2A8C3
2AA03
2B20C
038F8
0208E
0EF20
0A23A
2E833
00EBA
23C0F
2AA8B
20200
082F3
2FAF8
0282B
202BC
3803A
3A20A
33823
00C3A
23F0C
283AA
2AC2A
2ACF3
232C2
22CEB
20A03
38CE3
23FFB
2E3CF
00A08
0AEAA
3FCB2
0AAC0
09A0A
32A3F
23BF8
3ABC2
2BC82
2FBA0
0AF8A
000AC
088B2
20A8E
02208
28B08
22882
38AB2
3C028
00C20
0A300
2EA08
002FC
283E8
3028E
2AB82
022B2
32A32
20380
338C8
00282
0F3B0
00330
0000C
20FC0
2BAB3
2AE02
3FAF3
2EBFF
32888
22E83
0FFFC
282FA
3C8C3
00BFA
02CFF
3322C
20F23
3E3B0
3C033
38883
33C23
33AF0
0C8CE
3FF3E
003F0
30E88
38300
0AE82
3C2F2
023BC
3E2A0
2A22B
3AEBC
2CB0F
3B0E0
00BFB
03A80
333F0
0B38C
28A02
21EF2
020AF
2FAF0
0A202
030D3
2BE8C
00CE2
3223F
30023
0FC8F
23F08
0E23E
3228C
0FC00
022E3
3C3EC
2AEFF
00E33
3C828
32E88
0AB23
28A23
3BFEF
228E0
2A38C
23F32
2FEB2
3FC88
00BBA
03CA0
2E0EB
3B088
3FE00
00B8B
33EB2
00AA0
3C2BB
3A3CC
0BC13
00BCE
3FB8E
0FFA0
3F0C8
2FAA2
3C082
3BE3E
00EC2
0C8EE
30E2B
28AAA
00220
2C3AB
08230
2A3C8
2A0A8
008B2
2B03E
00300
08EA0
0E83F
02C8B
0003F
22EA0
3E2C3
3C000
22E32
3B00B
2BCC8
2E03E
3C28B
0288A
2BC23
00820
2302C
2E32F
3C8CA
330C8
0E30A
2CCAC
03EDC
03AAA
3280B
00023
00C23
2B083
22A80
0FC3B
00CC0
2E88A
08AB2
3F303
2AE20
3A3E2
0F8F3
002CC
0002A
3EC23
3CA0C
32A82
3F0E8
2FCC0
0EAFE
2C823
03A88
228AB
00280
02BB3
20B02
03AC0
2B080
2BAAA
082F0
030E2
3EC20
222EB
2EAC0
00EBC
28E00
2EACF
322A0
08280
0A2FB
3C0B8
3F02B
38AB8
28BE0
2B3A8
00BFF
0AE88
0CF20
3F08B
3EF8E
20B8B
0830C
0FB2B
23ABF
3ABAC
0BE82
00FE3
08A3C
0CCA2
03ECC
2BE20
002CE
232FB
20E22
0C823
2FAAA
22A0F
00A8E
02C08
3FC30
0AAC0
3E222
0BBEF
200E8
22882
000BF
2B8BB
32828
0030A
0AC2A
3BE83
28808
2A00E
3B20C
2BE2A
2A320
28C3F
338BB
08FB0
000A8
0AF83
38CB2
0A002
00CF0
3BA3C
0A328
2AE00
2A2B3
2CB3B
0030E
0080B
0EA8F
3EC3E
30F0E
0200E
32B0A
30CB3
3F2F8
008E2
2F323
2AC2E
00E23
203C0
2F63F
22ECC
02A08
128C0
0F8B0
300B0
30C3A
042C1
03AFB
0003E
0002F
0D2EF
080C8
03A8B
02F88
2F2BE
00020
008AA
0EA0C
300E3
000F0
00F3B
220AC
0E8E3
02F00
3B822
23CE2
0EAEC
0CCA3
0C03B
0E0B0
00A80
32CFE
0B332
0AA00
3FE23
33CCC
3C3EB
29CE0
0F3BF
203F0
3C0E3
00BBF
00A0B
3CE3F
0ABEF
3E882
2B0B3
23830
3EB23
2CCBA
08BA0
02CBB
00FAC
0302B
3AC80
2A38B
2A800
32EB8
2ACA0
2AAE0
2ACBA
0C3A3
23FA8
00C0B
3821B
2FA0B
03C80
0EFB2
2A2C0
22888
0B0B0
0A2BE
38BA2
2BCBF
003E0
20F2B
202AF
2A3AA
02C3C
33AFF
23028
30A83
28238
080BE
0C0BF
00308
2BFCA
2A8BF
2AA28
02EC0
222FA
28E0B
3C20F
00E8B
3A3BB
2C8EB
00B3C
3B838
3BCBE
28CFB
0BA20
0080C
3A00E
0ACE0
22E8E
22EE8
0E8EA
0008E
08A3C
2A808
0BCB3
3BA03
2E208
32AAC
0BEB0
08C0A
08EEA
0BAA2
000E8
3220C
0A202
3308E
2A800
022C0
028A3
2CEBE
30BE8
2FA2A
2200F
00200
20CBC
22A3E
2B303
2AECF
23A08
0083B
30B80
008AA
2C232
22C2E
0003E
38AE8
0F083
0CFAB
2AAA2
322F8
20023
0A8EC
0AF3E
3C0AF
28EAB
0003F
3A223
3B2B0
23E08
3C328
0FF2C
0320A
2BC2F
230A0
02820
3A032
00280
20303
28280
2B020
2AF30
0BECE
2232B
22082
3802C
208BA
200CF
00288
23220
22A83
0F083
3FB00
2EBCB
028B0
338B3
28B0A
3423A
0BAAC
003CE
00F00
0800A
2AB2A
0C2C3
33EEC
2E3E8
22AEC
00383
2F3BF
3EF00
00BB8
0CFFF
3AEE8
0CFF8
3F880
33308
33C3C
02F22
20BCB
3EF3C
3FC2C
00208
023AA
30E23
228CB
00000
3BF03
28BE3
0AB2C
2033B
0EABE
3FC80
0038A
082A3
30E80
28F00
2A330
0EA32
30B8C
03003
082AA
3CBEC
08FF3
000F3
0B88A
0C330
3F2CC
0E2A2
0EC20
03333
303B2
0FE22
00A28
28A80
00E2E
28F8F
2BBC3
2A002
3ECF3
3F20F
2AB28
022A3
3B2BF
20BB0
300FC
00B38
20E23
2E2EF
2AB2E
3CE30
00BF8
02028
32A83
30A0B
0BB8C
30C20
00308
23020
20A08
08202
0CAF0
2A82F
30B80
0A280
3AC0E
24AFA
3BA00
00802
0FBC3
032C0
2A2CA
3CA83
333CC
03C00
0AA80
0800E
082B0
300E0
008B8
0A020
0B233
228E8
2A880
232A3
2BA08
22B8E
0CC30
2222A
23AB0
00CB2
3A02A
23288
0A002
3E022
33ACE
23C38
02A03
2B0AC
3B8B8
22038
00E83
3A2A2
3FBCB
3F282
0822A
03EEC
20EE0
0BB2A
2C0BC
2BA20
2BA8C
0032A
0FBFB
32CE2
08BEE
03AA0
3BFE3
0C2CC
2A83E
2332A
23E83
330AA
0008A
2C3AA
02CC0
0AB02
2AAFB
002E8
2ECE8
2A8E2
08F8A
0E0BF
32FEC
00888
33E8E
0002B
0003B
3FCCC
0CC83
0820E
08FAE
20EB0
3A0E3
0B88B
00BEA
30888
3EFF3
3F8C3
08F8C
03E23
20BE2
3C3BE
0C0FB
3EE02
23AA8
00C22
2ACEA
23A3F
2AA82
3E882
02830
232B2
30A23
08CB3
0B328
33B8B
0030C
20820
23A2C
0A008
3EA00
223CC
008B3
3F283
28082
088B2
30200
000C2
08EE8
0B2B0
2B0C8
00322
0CA0F
0BE30
0CFCE
23CBC
0C020
2B3BC
00320
233FC
2BABF
2A20C
2C2F3
208C0
02B2B
22E8C
38C02
0820A
3F8EF
00332
238FF
2A283
28F32
2F0F3
3EB3A
32EA3
28EF3
3A2EE
0CFCC
0C0CF
008F8
088CC
2BA03
08280
23B30
28ECF
208A0
202AF
38002
0A83A
00AAF
00802
2BE2B
2CABF
20C00
2AF32
2EAF2
00BB8
3F3BF
00E02
38322
2B2B3
00CCC
332A8
2C8F0
3C2FC
32AAE
2E000
2CC32
33BF8
0023E
0882B
2BA88
003EF
32B33
0B282
2BC38
2B303
0328E
2B2F2
02FA2
2FF20
0A0C8
02030
00E00
00BC2
00082
03AFF
28A20
0A0EE
0FC08
0230A
2C322
23E0A
2E880
002BC
20CAA
0FCBA
0A80E
022C0
320B0
23323
2A832
2BC82
2F3B0
023EE
0022B
2C02B
23A83
2CF03
0EB00
20030
38ABE
330BC
08232
3ACAE
0BC8C
0002E
080EA
0C0B0
3EACF
02FA2
33AE0
3FCF8
3C800
0F2AF
30888
2888B
00EAE
002BC
3A2A3
0C00B
0FF20
23C8B
0880E
20C2C
200BB
3D0F0
3F2F0
00C08
0EEBF
0D0E3
3A828
0F2B0
3808B
2A032
088B2
30A3A
0200C
0BC2B
003C0
28F2B
22A8F
2A320
22FF3
20802
2288B
3F008
38282
20B3E
0CFFC
0088F
2AE2A
33EA3
03880
3E832
3B8F3
28C03
2280F
23083
33BB0
32CBC
00828
320F2
03328
3C230
3FAA0
22FEC
00EC2
08EAE
0CB2E
38208
30A83
00002
28CAA
00EB3
22BA2
3EC02
02830
2CE88
33B0B
080BC
0FBB3
38C88
008C0
23F28
38CB0
2A02B
2A030
032B3
2B20A
2CB8E
23CB3
3A8BE
30008
00300
2C3E2
0E320
3C00E
3C2A0
0C3FA
2C033
0A2C0
2F828
23800
0222F
00280
3CCE2
0F088
380B2
3C820
3E3FF
3308C
082AB
2BABC
038BC
33000
00BC8
02C08
382EF
0A8E0
0E282
3B2EF
200C8
02BB2
3C033
088B0
30F82
00BA8
080F2
3BC0B
2A0BA
3FA00
3CFCF
322A8
2A22C
08F3F
0F208
38323
00B08
2F3BC
2AE0A
08BC2
08EC0
03808
22C28
220C0
3B00B
00F3F
3CC20
00330
23B80
228F3
003EB
2B3C2
2388A
3BC0C
0F33C
32C2E
3AEC0
202A8
000EC
2F3AB
0800C
2BBE2
2A332
3BA30
28300
33BFA
382EA
08FB2
3C3AC
00F20
2F3FF
28A33
28EC0
002F3
2EB32
3C802
3C0B3
380E2
0BCFA
0CAF3
00030
030CF
3AFE3
30C82
03A30
32FFA
2EEA3
28EE3
328EA
0E8AF
0202F
0083B
00A2B
3EE80
00F30
2208A
3A038
0EC80
038E3
28CAE
2E3AF
02F03
00023
3ACBF
38020
00C0B
3EFC3
0C283
0A80E
0F338
20833
0C3FA
0E3C2
00CE0
0FA0B
3CABF
0FF83
0E8AA
203C2
308BC
3300C
2220A
30EE2
28283
00C02
0CCA8
08C33
0B8BE
3C202
3200F
0A0A0
2AA3C
088FE
03083
23C2F
000E8
03EBA
0322B
0AFBA
3F238
3ECBF
3A2AE
2A223
3A2BE
0E3EF
0B828
003CB
08F3E
0832E
282FA
3FECB
03F8F
022EA
22EC8
2F80F
2C038
3C8C0
0088A
00EA3
0F203
0ACBA
3CA08
3E373
38ABE
3BA8B
008BE
0E3EF
0B0E8
003C3
2E38F
3CE80
2A302
02F3B
23B32
03880
03820
38822
0E33E
0EFFE
002BB
2333C
28A80
28202
0CA00
0FBFC
028A8
22208
08C0F
2B23A
30BF3
0000B
0BFCE
2B320
03AC8
0FE02
33023
2FEE3
22E2E
03CFF
338BB
23823
00B82
0E3F2
222C0
2A02A
3CAAB
32308
0F038
02023
0FB0A
00E32
3E8EA
0083E
20F83
002B2
0AC38
002F3
32888
0B082
2A0B0
28230
02033
32322
00000
2B328
2C28C
3002C
08082
22ACA
238BB
3F8C8
33EAA
083AA
2E3B8
00EAF
2AEA8
0CCC0
3380C
3E03E
33BA3
28008
28003
33A3C
238B8
38C0E
000EA
3C2B2
2CB00
0F2BC
03E2E
32FB8
00CB2
2C2F0
2020E
0AFEB
23803
000E3
0AE20
3EEAA
0038C
0EE00
320F8
0202C
002C0
20820
0C888
32F22
00033
08233
30E03
0FCCF
00F3E
23E33
38BCC
33332
200F3
3A3E2
2B0BE
00EEB
0383C
238F0
08EB0
032F3
22A03
3E823
082B8
30C32
2A2EA
338EF
003CA
32EC8
3B2EB
2A0AA
02A3F
3E2FF
2E2A3
2A220
3A3BE
0F82C
2FFF3
00F3B
230AB
3E2EF
38302
0AAB0
3A2BB
03832
3CB30
3203A
2C22C
23CA0
003EC
2833C
08C82
2BC30
08E03
03282
08C28
2EE00
32C03
2F0C0
20BC0
00030
2BC22
12B8C
0C230
0AFF0
328FA
00CB8
3FAEB
3022B
3A30B
203EF
00CCF
0022A
3C32B
3C8B2
3E032
22FCC
0802C
2BA3B
2BA8C
3B8AF
38C22
003E8
0822B
32ECF
2A383
02800
230CB
20433
32B8F
3308A
0EA31
30E33
0000A
38E3A
0B0F3
0A88C
0EAF3
322CF
0EB23
2AA32
38CBE
2F823
033E8
0033B
00000
00000
00000
00000
00000
00000
00000
00000
00000
00000
00000
0088F
3EEBF
23F03
038AC
2B02C
004CC
22FBC
283C2
3C2FD
00EB0
00C32
2FA0E
28B80
03EB0
0FCC2
0EBCE
02EA0
0BEC3
0822E
08FEB
3803F
008E0
328FE
00F02
00AF8
03E28
3FC20
03E3C
2E0E2
0FF80
002EB
2A828
00AB2
3E8FE
333FA
3FAC3
0B2AF
03C23
23CCE
22F0E
0F303
022C8
0EA28
000B2
2C8FC
203A3
0FC0B
2BFE2
20CCE
00C0F
3FE2C
000EC
3A300
0E0FF
00EE0
023F0
3E280
3C800
3CA28
033EA
3FAF8
02AA0
0CB2B
32E3A
3EA2B
00ABE
32038
083EA
3AA02
28C80
0BEAF
223E8
0A002
32833
2C803
038C0
008B2
