000000C6
FFFFFF95
000000CB
FFFFFFAB
00000068
FFFFFFE0
FFFFFEB2
00000028
0000013E
00000086
FFFFFFEE
000000D9
FFFFFE84
00000056
FFFFFFAA
FFFFFFD6
00000020
000001B0
0000008D
FFFFFF2C
FFFFFE70
FFFFFFFA
FFFFFCF5
FFFFFF18
0000011C
FFFFFD2C
FFFFFE9D
FFFFFFCD
FFFFFF4D
000000C4
FFFFFEA1
00000075
FFFFFF83
FFFFFDF7
FFFFFFDF
FFFFFFBB
FFFFFF0F
00000004
FFFFFFBD
FFFFFFD0
FFFFFFDC
00000179
FFFFFFFF
00000001
000000A1
0000011F
0000008D
00000075
FFFFFFD0
FFFFFF53
0000002D
FFFFFFBC
FFFFFF53
00000009
FFFFFE16
00000068
FFFFFEA2
FFFFFF90
FFFFFFBD
FFFFFF88
FFFFFEFD
FFFFFDA0
FFFFFEF8
00000056
FFFFFF95
FFFFFF17
FFFFFFD7
FFFFFF61
000000D3
FFFFFEDA
FFFFFF85
FFFFFF3F
00000011
00000081
FFFFFFF8
00000174
FFFFFF71
FFFFFD98
FFFFFF7A
FFFFFEF7
00000009
000000C0
FFFFFE84
00000190
FFFFFF87
FFFFFFAF
0000012A
000000C8
FFFFFF67
00000031
0000018D
FFFFFFB3
FFFFFFF1
000000B6
000000EE
000000D4
