FFFFFFE8
00000002
00000181
FFFFFFEE
00000563
0000069E
FFFFFFFB
FFFFFFE2
FFFFFFEB
FFFFFFE7
00000000
00000610
00000778
00000000
00000483
FFFFFF8B
00000008
00000664
0000073F
00000249
0000039F
FFFFFAB4
0000000E
0000000A
00000599
0000083B
00000189
FFFFFBBC
FFFFFFCA
000004BC
00000001
000006C3
000006BB
FFFFFFCB
0000049E
00000000
000000EB
FFFFFFB2
0000061F
0000072A
00000190
00000000
0000000D
00000784
000007C7
00000000
00000000
00000462
FFFFFFD6
00000000
00000813
00000000
000007FF
FFFFFFFD
00000003
00000000
000001DA
00000000
FFFFFFFE
FFFFFEF2
00000000
00000006
00000941
00000001
FFFFFFF1
00000001
000006A7
FFFFFFCA
FFFFFF37
000002F2
00000334
FFFFFFCF
00000003
FFFFFB8A
00000000
00000666
FFFFFFDA
FFFFFCF8
FFFFFFE9
FFFFFFFA
00000000
00000012
000002D0
FFFFFFBF
00000237
00000000
FFFFFFFF
00000538
00000000
00000666
00000000
FFFFFFB6
FFFFFFFD
00000000
00000000
FFFFFFF0
FFFFFE61
00000000
FFFFFFFD
FFFFFFBA
000003AC
000008C3
FFFFFFC2
00000348
0000076C
000004D5
FFFFFFFD
00000000
FFFFFFEE
000004A6
FFFFFF40
FFFFFFFD
FFFFFFFC
0000081E
00000610
0000049D
00000510
FFFFFFE4
000003E4
FFFFFFE3
FFFFFFFC
00000A6A
FFFFFFE1
000003B0
0000055F
FFFFFFFD
FFFFFFD0
00000719
00000337
00000001
00000012
0000089C
0000045B
FFFFFFE6
FFFFFFF3
00000000
00000774
00000448
FFFFFFF8
00000651
FFFFFE3D
000003B1
00000000
FFFFFFEA
FFFFFA91
00000987
FFFFFFFB
000004F0
FFFFFFEA
0000099A
FFFFFF5E
00000764
000005B9
000001F4
FFFFFFFB
0000076E
0000028B
0000062E
0000040C
FFFFFFEE
FFFFFFFF
FFFFFFFF
00000004
00000319
0000000E
000001B3
FFFFFFC0
0000044D
00000304
00000000
FFFFFFE5
00000005
FFFFFFFC
FFFFFFCC
00000007
00000011
0000052E
00000000
000003E5
000002D5
00000208
FFFFFFF8
00000005
FFFFFFF5
00000000
00000156
00000150
FFFFFF63
FFFFFFEB
00000664
00000618
000005A3
