A8A86C94
A8E464A4
9894F4E8
BCA85CA8
A8A854A8
54D4F4E8
7CA87CA4
58A47494
54E474A8
7CD4A87C
54D4D46C
54BCD85C
7CD4A8BC
FC54987C
F8FC98BC
D4FC68B4
541468F4
D47C6874
54A8A87C
64F8A8FC
B8A8A8FC
64A8A85C
A8A8A800
FCB8A894
A4A8A8FC
F8B8A8FC
F8A8A8D4
6CA87454
7CA87854
FCA8FC54
5CA8F464
54A8FC74
54A85C64
F4A8FCFC
F4A854FC
D4A854BC
A8FCD4F4
A8D4D464
A8D4D47C
A8FC54BC
A840FC7C
A8FCFC7C
E87C7C7C
E85C581C
E87C7C5C
D4DCACE8
545CFCE8
5C54A8B8
D498A8E8
FC5CECA8
5CFCA8A8
D454E894
F454A8E8
6CD8A8F8
F45CD45C
5414941C
547C5C5C
FCFCF85C
54FC545C
7CFC7C5C
54D4F45C
FCD054FC
FCD46C9C
B8D4E8D8
A4FCA8FC
F4D4E87C
64545454
A4FC9800
A494A8FC
681868E4
58FC58EC
547C58FC
ECE454A8
FCD454A8
54D4FCA8
D4D47CA8
D4F4FCA8
FCD4D4A8
5454D8A8
54F4FCA8
7C94D4A8
5CA4FCFC
54B8FC54
54B85CD0
FC64547C
54A444FC
FC7454D4
D8649414
F464FC7C
FC68FCFC
D4A8A854
FCA8A8FC
74A8AC7C
D4A8E840
54A8A8FC
FCA8A85C
D4A8E8F4
54A8A8FC
54A8A86C
D4A8A8D4
F4A8A8D4
74A8A8DC
54A8A8D4
FCA8A8FC
7CA8A85C
FCA8A8F4
1CA8A87C
5CA8A83C
A8A8D4A8
A4A8D4A8
A8A8FCA8
64A8A4A8
64A8FCA8
A4A844A8
A4A874A8
A4A87CA8
B8A86CA8
D454A8A8
FC94A8A8
7CE8B8A8
F4A4E8A8
00A4A8A8
7CA8ACA8
D4B894A8
FCACE8A8
7C68ECA8
D4A8A8E4
FCA8A8F8
D4A8A8F4
04A8A854
FCA8A8EC
54A8A854
54A8A854
FCA8A894
7CA8A854
A8A8FC54
A8A8B854
A8A8F4BC
A8A8FC94
A8E8FC98
A8E800EC
A8B8FCD4
A8E8FCE8
A8A854AC
A868B4B4
F8687464
B8A874E4
A8A874B4
A8A874F4
A8A874D4
B8A87C74
A8BC7C54
A8AC7854
5C7CDCD4
DC54D4E8
F4DCD4A8
5CFC6C94
541454A8
F454F4A8
7C547C54
5CFC5494
F4F4FC98
94B4A87C
D87CA8FC
D458A874
5454A854
9454A8F4
A454A8D4
6454A8FC
68F4A854
68F8A854
A8BCA858
E8FCA8A8
E87CB8A8
A854A898
647CA8A8
A454B8A8
6854B894
685CB8E8
6854B8E8
A8A864B4
A8A874B8
A8AC74B8
A8A854A4
A8A8FCB4
A8A8FCB4
A8E8DCB4
A8AC44B4
A8AC5CF4
5CA8A854
DCA8A87C
9CA8A87C
D4A8A854
DCA8A8FC
54A8A8FC
F4A8A8FC
FCA8A8D4
54A8A8D4
A854A8A8
A8FCA8F8
A87CA8A4
A854A8B8
A8FCA8A4
A8F4A8B4
A8DCA8B8
A854A8B8
A854A8B8
B8A8A858
A8A8A858
A8A8A8AC
A8A8A858
A468A898
68A8A8AC
68A8A868
58BCA8A8
68BCA8A8
5CA8A854
54A8A8D4
D8A8A894
F8A8A894
D4A8A8D4
54A8B894
F4A8A874
E4A8B8F8
54A8B8FC
E4FCA874
FC54B874
5454B8F8
FCFC647C
545464F4
FC54B874
F454A854
54FCB874
7CFCB864
7CD494A8
1C5498A8
7CF4A8A8
FC74A8A8
54FC98A8
F454A8A8
D47CA8A8
F47CA8A8
F45CA8A8
645C54A8
647C58F8
A45858B8
5454F4A8
A4FCA8E8
E4DC58A8
A4D494A8
F4D4E4A8
F4D454A8
A8FCF4D4
A4FCD054
A850F4FC
A85C7CFC
A454FC54
A4FC547C
A85C5CD4
A8547C54
68FC5C7C
54A49454
54A4D054
FCE8D4A4
D4A46C54
FCA4FCB4
7CE854F8
F4A47CA4
54A47CB4
5CA854F8
A87CE87C
E854A454
A8FCE4FC
ACFCA4FC
A800A454
A8FCA454
BCFC6454
685468FC
68F868D4
5CF8A814
DCB8A854
DCBCB8FC
94A8A87C
DCA86854
DCA8B854
FC94B8FC
44A8B8FC
5CF8B8D4
5CA8FC7C
54A8BC7C
DCA8A8FC
BCA8E85C
44A8A8FC
D4A8A840
FCBCE8D4
FCA8A8FC
E4A8A8D4
94B8B8A8
D4F8A4A8
F4A8F8A8
FCA864A8
D4A8A4A8
D4A8A8A8
7CA864A8
5C6854A8
7CA854A8
7CD4A854
7C54A854
74FCA8FC
54F8A854
FCDCA854
FC5CA8FC
FCE4A8FC
5454A854
D45CA8FC
7CD4A85C
5CDCA85C
58D4A85C
5CDCA87C
7C44A87C
FCFCA87C
546CA86C
545CA81C
E47CA86C
F47CB8E4
D47CE4C0
547CE4FC
D4FC68FC
54FCA4DC
54FCA854
54D46C7C
7440585C
FC40545C
A8F4D8F4
D474FC50
E87C5CFC
68B454FC
947454BC
E8145454
68D4F45C
58FCF45C
547C545C
DC6CA87C
FCFCA804
7CFCA85C
D454A8FC
00FCA8FC
7CD4A8FC
F454F8D4
FC54A8D4
AC54A8F4
E4FCDCA8
F45C54A8
54145CA8
D4FCFCBC
545454A8
FCFCFCA8
5CD4D4A8
54545458
7CFCFCA8
ACA8A86C
ACA8A87C
A8A8BC5C
A8A8A854
A8BCA8FC
A8A868D4
A8A8BCD4
A8BCA8F4
A8A8A8F4
E8BCB454
BCDCB4D4
BCD474FC
E85CA454
A854B454
ACF4B4FC
947CA454
E854A4FC
ACF4A47C
DCA8A8A8
D4A8F868
54A8B8A8
FCA8A8A8
D4A868A8
F8A8A868
58A8B8A8
54A8B8A4
7CA8B8A8
A8A8E8E8
B8A4B8A8
B8A8B8FC
54A4E8A8
A864A8A8
B8B8A8AC
5494A8A8
54B8A8E8
68B8F8E8
5CA87C74
7CA85474
7CA8F8FC
E4A8BC54
54A854FC
FCA85440
D4A854B4
94A8FCFC
D4A8F454
5CA8A8A8
9CA8BCB8
D8A8BCA8
5CA8E868
DCE8A868
4494ACA8
D4A89868
FCE8A854
DCE8AC64
A854DCF4
A854DC7C
A8549C54
A854D464
A8FCDC7C
A8F4445C
A86464F8
A8F8FC68
A8F47C6C
A8FCFCD4
A8D4FCF4
68F454D4
A8FC5454
A80454D4
5854FCF4
AC54547C
68FC547C
68FCFC7C
