00000095
FFFFFFDB
000000A0
000001C2
0000005E
00000053
00000177
00000040
000000F5
000001BA
00000032
0000017C
00000051
000000E8
00000107
00000087
00000018
00000039
FFFFFFC1
0000014B
00000000
00000069
0000000A
000000C4
00000022
00000029
00000068
000000A9
00000036
00000012
00000089
00000051
0000010C
0000011F
000000FC
00000022
000000E9
00000100
00000126
000000A6
0000000A
00000166
000000D2
00000076
00000063
00000047
FFFFFFEE
0000008A
0000014E
000000D7
000000C3
00000110
0000009A
0000005D
0000008C
00000187
00000132
00000128
0000007B
0000014F
0000012E
0000003A
00000049
000000D2
000000B7
000000BC
0000012E
00000185
00000050
00000067
0000005B
00000102
FFFFFFDD
000001B7
00000027
00000268
0000000C
000000E9
00000122
0000014A
0000004E
000000CB
000000A6
00000005
FFFFFF77
000000D0
00000160
00000089
FFFFFFA7
0000001A
00000014
00000025
00000057
00000089
FFFFFFB4
000000FB
FFFFFFE1
0000005B
00000024
00000000
0000005D
00000068
0000005D
00000106
000000D8
000000F6
00000038
FFFFFFE6
FFFFFFBC
00000074
FFFFFF98
00000079
00000031
000001B6
000000F5
FFFFFFDE
000000A5
000000F0
00000181
000000C2
000000D0
0000005B
000000A7
000000F5
00000153
000000EA
0000011A
000000FF
00000000
FFFFFFF7
00000072
00000081
000001B3
0000011D
0000029B
00000092
00000171
0000018C
00000000
000000D0
FFFFFF7E
00000000
000000AC
00000257
00000102
00000062
0000014B
0000001B
00000047
000000CF
000000B3
0000017A
0000015B
00000143
000001B7
000000A8
00000031
00000084
00000058
0000004D
0000005C
00000087
000000B7
FFFFFFD1
00000061
000000A6
FFFFFF8E
0000026E
00000052
00000092
FFFFFFE8
000000CB
FFFFFFE6
00000076
00000038
FFFFFFA2
000000A1
000000EF
FFFFFFDB
000000DE
0000003C
00000035
0000004A
FFFFFFC0
00000081
00000099
00000172
000001AA
FFFFFFAD
0000006A
00000084
000001D6
