06238
0C2CB
30B02
0A38A
0C33B
222AA
0BF3E
3FB0A
0A282
0E238
38EFA
32BB3
228B8
0200E
32000
2A8E4
28EE6
20F0A
3EF3C
0C0C0
00288
2C2FE
3C3AF
2AE0A
3FB86
2F0FB
0B08A
0FB8A
0A8E8
2808A
30EED
0EA00
0A3E0
02808
33EBE
28EAA
00282
00BA8
300B3
00822
3E8B2
08FFB
0003A
0CC3C
0CCC2
23E22
2C8C8
28A8B
0E0EC
08B2B
2008A
0CB28
28220
0FBEE
3BC2B
20030
03832
2CC30
2B8EB
38C3E
2AA8F
00ABB
3A0E8
0002E
3C0AA
2EACC
0E20A
383A0
38203
2ABA0
00E2F
000F8
2820C
2B08E
2AB02
08033
2CAAC
3B0C8
0223A
0C288
3EC88
23282
022CF
3A202
0C088
002FE
080A8
20F23
34BBF
0FB03
30AEC
2888B
0E3B2
028BA
0823B
3E8B3
2B8B8
3FFA2
3AB3C
2AA3B
3BB28
0EA9B
3FFEE
33BCF
08BA8
2FABE
20B3A
2C02F
3BFA2
22E2A
08FAA
22CE8
0FEA0
2CC0C
00CAE
323B0
3B8EE
33380
30BC8
0C20A
0BE82
30CEA
02AFD
0003A
3AC2B
2BA03
0A2E0
32BF8
00EB8
22B0A
0032B
0FB40
0AB80
20FFB
2B0A2
0820A
0238B
0833A
3E2EA
33E80
2C8BC
2A0BC
2EB2A
0CEEB
3AEF8
0202A
0A3F8
32FAA
080F8
32A2E
20B3A
200AC
3FC83
0B0A0
0232B
38BB0
2C0A8
0A00A
0A0C0
30F20
28EC0
2CCE2
0EA3B
23CFB
02008
080EA
02C0E
2803F
2CE82
3F088
00A0A
0028E
27B03
0230F
083FC
32388
3CBA0
0A383
2B83C
22ACC
03C2E
2CE32
2A8A0
360B0
3ECF0
3BF3F
0FB08
23FAC
0E2FB
2B32C
3FEB4
283F2
2C838
222CF
2B2B8
3CB3F
3BECA
22E3E
2EF30
38BFE
0C8FC
22398
3EF8A
2AE30
0FAB2
0EF2F
22088
00FF2
2E233
28C30
208BB
2B2C2
0A3E2
027FC
00AB3
2EA3E
0AB23
3CEAB
2E8CC
3AF3B
09E80
00FBF
2AFC3
30F9E
232EA
328C3
2F8CC
030C8
00A0E
0AEFB
3E2FC
3A2AE
22EE8
0B38F
383B8
3EFEE
323CA
28B30
3A823
2CEB3
20B8E
2BACF
2AABB
0B0B8
0A0C3
223AA
0ACEA
00F8F
2FEBA
22FFA
2E8B7
3BB20
0C8CE
3CCE2
27F3E
0A23F
2CE2F
006E2
0832C
0031B
2CC03
2BB8E
30E03
0ACBF
23B80
22F8B
28BAE
2FACA
007CB
23CA2
3B820
03A8A
32AEB
3888A
3280E
33EC8
3B8AE
080AC
2CF0C
080F3
2ABC8
02EEC
20EAB
22B20
0BAE2
28AC0
02CA3
38383
220A2
0CABA
0BB3E
2CC8E
010CE
2A2E0
08A3E
3E028
33A22
2B202
2AABF
2CA3F
002AA
0ECC0
3FEFF
08808
2EAC2
2028B
0F326
3A2CB
0BBA2
0FBEE
2BC22
0F3E3
3B2EF
0280C
3CA2A
0AEFE
3E3F3
32E3C
0EEAE
30C2B
3BA80
3F38C
3B8BA
08BF3
2E083
2A80F
32F8A
02AEC
3A0E8
00FBF
2B1FF
082B0
300FB
230BB
3FA8A
2CFCB
3F3BB
0CF60
2A8EC
3FEEC
3EF3B
39E38
0BECA
00BFC
28F08
3F8C8
33333
28B83
0C20B
3AE8F
2C02B
3B3CE
380A0
2BF29
0C2AC
3A28C
0282C
0CA32
08A22
02AB3
320E2
2A2FE
2ACE0
2FBBF
303BC
002B8
26BFA
0FE2B
2ACAC
20A8A
08AEB
03A2A
030BF
3F3FB
28AB3
2AABF
0EEBA
00ECA
0AEC2
0B0CF
2A288
0AEA2
0CEEC
28CA8
0E000
3A8EF
000B8
3EE78
08318
3CE8A
00C0E
00CC3
2BC3A
2EC8C
3AE8B
0E33B
3BA22
32ECC
0CF83
03C88
0AAB3
30202
30A8E
0B821
30E3B
3883F
3FCA3
00FEC
38ECA
226A8
28B2E
2FF33
0B2AF
2BE30
2CF8A
028AA
38CAE
0E2BB
333EA
0E3AF
0BCBA
2FA8E
2CAC0
0B8AE
0EA22
2BD24
0BC30
0808C
23B4B
00288
32F88
0FA3B
08028
0E28F
008EA
2E2EB
02A2A
22EC0
38A02
002C8
28A08
2A3A2
3C800
0EA8B
0A0F0
33B20
3383C
3CCE0
2EE33
3002E
08BA0
002B0
0C82A
2EAB8
3AA2A
2C0E2
3A888
0EE83
0282B
0B2AB
08E3B
08A38
2803C
208A0
0EC82
08CFE
23ECA
08BBB
00A20
00AA2
0A0C0
28288
0083A
32EA8
08333
3CEBA
28C8B
32FF0
3BCF2
23E0F
080B3
32CBB
3C88E
022F0
2E3BB
030B8
2AA33
33248
3002C
28CAA
3EFBA
38C00
3BEE0
38FEC
0FCC8
3AA43
08330
0CFFB
3B3AF
20EF3
2FFBA
0E82A
32C39
0E13F
3BF0A
2E32C
03BFA
0FA82
2FA8B
28B22
008BA
28E0B
0280A
3C882
20C8B
00BAA
282EA
0EEFB
30A88
0A882
30028
0FE08
0AFEC
0BF8C
32CAA
2BE0A
24E02
32ACF
02808
28A2E
0A2BF
0C282
02220
2AA8E
22F00
20CFB
2EBAA
3A08A
2A00E
0B8B0
0A8AF
208A0
32AEB
00822
038AF
0F2CA
2028B
02A28
2F823
03B38
2228A
3FA83
0AB0B
02302
28E0F
28FB0
0C32A
0228C
00082
32E0A
0A30B
0CEB8
38EC3
30AB3
0232A
2C82A
2B8AC
00F2B
30ACE
2EE83
0C33A
32488
223BB
0FA88
22E4C
13AE8
0ACF8
0AC2A
28803
2802F
2FF8A
00A02
2BFEA
3AEC2
3A1B8
20CC0
2F30B
0A838
3A00C
0C0BB
0332B
2A022
213C0
3CBCA
20C20
2ACAA
2EEEE
28AF2
33EC0
300BE
30C8B
00A8C
3FABA
08A8E
08E38
2FF00
00FC8
3BBCE
020BB
242AF
0FCB3
32898
0A8C0
20B8B
2BC88
2A223
03AB8
2382E
2AA0B
3238E
3ACB8
08228
2AB80
23E08
3BABA
0CB38
2AFCB
0BA8C
2CCF2
3AA0A
02688
3A20A
3F820
088C2
3AC08
00BBC
22C82
23202
2E02F
3AA38
202E0
30200
2E3BE
2B20C
002B8
38288
02220
232B8
020C8
2CB03
2C2E2
0BAEA
0022E
320B3
38CAA
08E8A
02308
28088
0203A
08E22
2AFC0
2BA22
22080
2ECA0
28A22
002CC
2F028
3CEA8
0AAA3
2FC08
23008
202B0
020A8
0ACC8
3A2F8
38822
20EC8
08EA3
20ACF
3C20E
08282
20888
023AB
2BE30
2E228
0F0B2
20C28
00B2A
0ACE8
02888
282B0
2BAC3
282B2
28C32
0F08A
20B0E
0F2AE
328EE
2EF83
0EAA8
228C8
28882
22A22
020BE
0AEB3
230EF
3ED2A
20083
0A32F
0028F
2AEE0
232CA
0BE28
08E30
008C3
2FBB3
0203C
222BB
28FA8
2822A
02ACA
22E22
3CAC2
2A0AB
0B328
08208
0BCEC
08E8C
002A0
2AC2F
00CF2
28808
08328
2CF80
0200B
00AB3
3ACCA
0E2AC
2BBAE
30B0A
003AA
3EA8F
00800
22808
2AA00
20A82
020CE
220BC
2002B
08280
2AAB0
00AE3
3B220
08AC3
0B22B
0CCAA
2A3AA
0B8E0
00AB2
08882
2A003
028A8
28A03
08B0A
22EC0
202CE
0082A
38A28
2E80C
0BE82
2BE80
08233
3AE0B
00202
0F230
0283E
080A0
22808
002AA
038C0
02002
082E8
00CA0
02282
02800
0AEE0
0E088
00803
3B302
00880
0088A
00CAB
382A0
30288
20000
00020
02B30
000AA
0C020
2802C
03E0B
00302
0088A
2322C
08B82
2AC2C
2832A
03C32
02303
00F02
00008
202C8
03808
00CB2
382BF
00A00
00002
202AC
08C3C
2C283
3F28F
00E8A
00BE0
00ACC
333EA
0E11A
2AF8B
3E220
0FBCE
0B88C
2828E
22BBE
3014A
2F33E
2828F
331CF
0FACF
08FBA
3388B
02EE2
233FD
02CAE
3EE2A
2F8A3
34BCE
008AF
23CCC
28C48
0CB00
3B2BE
03CFC
018A3
03B0A
0F020
3C0CF
20328
2FB3C
0B3C0
03CB8
00C23
00000
00000
00000
00000
00000
00000
00000
00000
00000
00000
00000
00000
00000
00000
00000
00000
00000
00000
00000
00000
00000
00000
00000
00000
00000
00000
00000
00000
00000
00000
00000
00000
00000
00000
00000
00000
00000
00000
00000
00000
00000
00000
00000
000FC
0C0AC
300AE
3AA8A
20008
22F82
0C8A2
0C2AC
32C0E
3ECBB
020B2
292B3
088B8
20FEA
202A2
28FE8
2B8EB
02388
220BC
20AE3
00AC0
202E2
282A0
2BFAE
0F208
23BFB
0E2BE
3C8AC
000F8
2A2CA
02C82
0AA03
3A382
0C28B
33B8F
30EA8
33E3E
28828
2CCBA
023AB
0B282
2A3A2
00C2B
0A0A8
08E00
08F2C
3A303
20E28
0F2E3
000AF
3028A
38008
20222
2B2BC
3F38F
22C08
2E80B
33BAF
08380
332EA
0A20A
02FCE
2A0A8
28A3B
222BB
32CA0
28E2E
3A2A2
28AEA
3CC8B
3CA2A
0BCEA
3602F
3F3C3
0BA00
00E00
2003A
3220A
3B220
208C2
0C26A
2800F
22CA0
3C2F2
32AF3
00AFC
08A00
023E8
3C2F0
30C88
30A8F
0AE80
0FBF2
0803E
3B3DC
3CAEA
0ACA3
32BBA
32808
0A033
3BA80
22EB2
22AA3
280E8
2A883
000AB
0CF2C
232E3
22CB8
233AF
0AE2B
0AC0A
02ECC
03F03
0200E
0AA0B
0C8BE
00F2B
0008E
2383E
0CC30
0EF02
2BB38
0E02E
2C838
0CCA2
228C2
00B0F
00838
2E028
0ABE2
2C02E
2A2C3
0C02B
2AEAE
0A2FE
088EA
28FC8
2B00A
32A80
0022C
22C28
0A2C2
0E20A
282BA
28E0E
02B88
0FC0C
2C832
0CEAB
00382
3C282
3CE2A
0C08E
32A22
38BB2
2A3C2
0888C
0E220
2E8BA
2E83F
08318
023EA
3CBCA
2F8EE
2CE22
0CC2E
2BCAF
03C80
0E0FA
0FAF8
00808
2B8C8
00A2E
2C23B
2AE0A
2C3C3
23E8C
03A0E
2E2A0
0E8A2
282AA
3AF80
2A3FB
20808
30A22
2EAEA
0A8CA
0A828
0A8F8
3328E
0E228
208CC
083FE
222B0
00AA3
0C22A
20B88
3B8A0
0AB8A
028FA
2A2C8
2EEAC
20820
3C0A0
02A28
3C8CF
082E3
08082
0A820
28EB2
0A8AC
2B82A
0E2AA
00A28
28AB0
02228
2C233
0EE03
0C2C0
0388E
0B0E8
28380
0E890
3BEA8
20E28
23AFF
0A8E0
08BA2
380A3
2E8C0
2888E
2AA33
0C280
0EA38
300AE
28322
002EB
2BC3C
0A0AE
00FE3
3A828
383E0
020AB
2222A
2E2BA
00AB8
032AA
22A00
32808
3F80B
3E208
08C88
20308
288B2
0B0A2
0A0BA
00F00
2B7FC
02080
0C3FF
32C8C
3CB80
32BB8
02A30
2A08F
3022E
30AF8
2A3A8
08C08
03C20
08F23
0280F
2FFEC
3023B
2A300
082BA
2AE22
2880C
2832F
232BA
0FF00
3AACA
2A03E
22CF8
303F0
0F0FE
020E0
3E888
2AC38
0A2B1
02B88
3F3F8
3CE33
2CEC3
280F8
208F8
04A82
28BE8
3EBCF
008B0
0FF08
3F228
08BA3
2E002
08ABB
2C3AF
303E8
38EFA
338AC
28202
238FB
3A0C8
3ACF8
0CB28
382CA
0A8C3
32BCC
33CBF
3C02C
030EC
3C0FB
28038
0AF8F
0EEA0
2880B
0F08B
3A03B
0E230
00C08
332E3
203FE
08200
20038
3C2AB
0B3CC
00CC8
02AA0
2AF80
0C0A0
0222B
3E222
0BB88
00A3A
2B880
0E322
0800B
3820B
00280
00B22
0CB0C
0A22E
283AE
2E203
20222
0CA23
3C800
2A303
02A02
2BFAC
20B0B
223B0
30A80
022A2
20E28
2022E
2FA88
28F2F
3320A
20E08
20EA2
3CACF
0ECBC
300AA
0CB30
08383
31282
2EA00
23800
3EE0A
03E33
083AA
0C808
0CB20
3330A
02B2C
00F38
3CCB8
30EF0
38EA2
230CC
0828C
3F0F2
0AE23
3BCAA
0CCAB
28FEF
2FBA2
3FEEF
03CC0
038CE
3BE2E
0AB8C
3882E
3EEB2
0C8B3
0AEF2
28CF2
233B8
383BB
0ECE2
2DB3F
30B82
028CB
0A2F8
032EB
28EF2
0CBBF
33AEB
02373
0F082
2238B
3F0B8
22C2C
03B80
0B2CE
323F3
3EE3D
0328A
003EC
03F88
02C00
3032B
0EA0A
200A3
030E2
02E28
0BA28
0FAEC
38FEF
2FB0C
33220
320C0
30A20
08022
23B0B
38FFC
0EE80
3E003
3A2C8
28A8E
003A8
3EB08
2C83A
2A0C8
3C003
0A828
322C3
0B823
0BEEE
0C00F
22B0C
03EBB
0C80C
32BA8
0F3F2
20003
02000
23ECE
0E8BB
32ECE
08ACC
00ECE
28B3C
03EB3
08BEB
2830E
2C0EA
3CB0F
2EA88
0E28F
3C20A
29A23
2BA3B
3B02A
23CA0
32223
3CAF3
0B4E3
3BBF8
2EFFB
3AB38
38EE2
286B0
002BA
2FCEE
08E72
0AAEA
208FC
30FBA
0CBA8
030EA
382DF
0BC03
208CE
3AAC2
3002B
0200B
0A2EC
0F2EF
2A232
2F62B
2AAA0
002C0
3AACC
00C32
32AA8
280A3
3020A
00A80
28E0E
0A8E8
00F23
3AEBA
3022B
2A20C
388A2
0F38A
38008
0BA00
0BABA
2E863
20A10
2EA2C
3A30A
20E28
2FF33
08008
0AE80
080EE
22EC2
0BEEA
000AA
0E802
08CA0
3A0AA
022EC
08008
02820
2283C
22A8D
0B0B3
08A3C
0CEA4
28C28
080C0
0C032
02F3B
00032
280FC
0A32B
2C28B
2AA83
082B3
28C2E
03AA2
2C8A2
3CBA0
08C00
32E3F
20A38
0A80C
2ABB2
2E0EA
2EE32
2B388
2ABF3
0A0EC
0CB03
00AAF
083BE
202C2
0BE8A
080AC
0BAA2
2BBCC
038EB
088BA
2823F
2A0AA
23A20
0CEE0
02E23
0FBF8
2008C
03CA3
0EACE
0F000
22CA0
0C0A3
032BA
00E0A
32080
0E383
38E23
3388E
3BA0C
0E8CB
0CFB2
2C808
2AAAB
32BCE
00BA0
02F00
3A8C8
08ABA
333AC
02AA8
2F2F2
0BEA8
20EA0
23C80
003F8
0CCCF
388EC
0BBEB
00ECA
3EEC2
32E8A
2CACE
02C22
320A0
32C20
0B208
0B2B3
22BAE
32C82
2C20A
0CAE0
2CF3B
30AE2
32AEA
38A22
2CBBB
008C8
3E2A8
0BF28
20288
2F2C0
0B882
222CA
0E0E0
08E8A
38F2F
0B2AE
38A0E
0CF03
23888
0C2F8
3820A
2E08C
28B0E
00E28
0323B
3B228
30F00
33C28
22BBA
0B0EA
22ECB
38E20
22E3C
2EC28
028BB
080B2
32E8F
03328
00320
0B022
22080
00A33
00802
3EAE8
2822A
2E202
302BC
2B28B
00BA8
03AAC
0232F
2C28E
3320B
00AE0
2A0CB
2C8BA
23800
20A82
00C30
2A08A
22088
30800
2B3B0
2F3A2
32ACA
2C82A
03AC3
3EAA2
03E00
20ECB
20CEF
282E0
0A022
3BFAA
2E3E2
3AE28
20EEE
02C8E
2A008
2AEA0
20A32
3B38A
2AAAE
3BA82
2AEA0
00008
2ACA8
382B8
03A22
0822A
2E33C
00C2C
3A0B8
00EFF
28C20
2220C
2CEC0
0B083
0EC8E
08C80
0AE0B
2202A
2BEEC
2208E
2BC8C
202B3
03020
20A02
0CEE2
30F8A
32CE8
1C820
2EB88
0A2FB
3BBA2
230CA
00BAF
0BAFC
3E0BB
03B0A
000E8
320B2
2EA0B
30AA3
3B8AC
233F8
00EA2
2F202
02AE2
0E0A8
08E28
2BB02
2CB03
00CF2
00A3A
0E2E8
02F2C
08C38
0FACB
3BA8B
38E30
00F0A
33FCC
0832F
20002
3C833
3FA80
0A880
0B232
28AAA
3ACBE
2C83F
0B833
0B2A0
3B88B
3EF3F
300A3
280F0
0B18B
28E3B
0AF3E
3FAE2
08ECF
038A0
220F3
3ABA8
00820
23FBA
2EEF0
0E8C0
32B0B
3FB20
2C00C
38E8C
03E83
0A030
332BF
0080A
288C0
00380
08228
2EC0A
08AAF
0A0C0
00F08
0023C
38BA0
20ABB
3E08F
0A8A2
03088
2080A
232AE
023FC
28C32
2CAAB
20A00
2388A
2C82C
00020
00238
2AEA3
0BF2B
0AAF2
02002
038A3
0883A
28038
02B80
3CE08
280B8
3A20A
200C3
3C3AA
0F308
0EAFC
33203
0AC8A
022BF
0A003
0008C
22F00
2CE83
28008
0AA83
2098A
23CE0
028E3
0B8A2
0E2AB
2ACA3
2023C
3BA0E
2AF8C
32322
2202F
2028A
30322
2108C
2AEC8
22B3C
386AA
388BE
2E820
03CB2
06A2E
3B0A8
0284C
322E3
038A8
03E2E
28CB8
20B03
3E2E3
232FF
0380B
3F882
0FA18
08A8E
2F0CB
2E38C
0F30C
3BEBA
00C33
28A88
0A283
38C8E
3A38E
280AC
008A3
033FC
30C22
08B32
2EA3A
28A30
3B300
0BCC4
32BC8
3088C
282A3
038DA
2EAE8
20F8E
13CA8
28E3A
2C2F8
0CC8E
06C0E
3A128
2ACFE
332AA
02A80
0303E
0A3AE
2FBEE
3AA04
2AAEC
12228
2ED8A
2CE38
089FC
00E40
280A3
2BBAE
2C8CA
3A8CC
002BE
2812C
0C380
0F08C
22B80
0CC0B
3AE02
0A9F8
2ABEE
28BBA
0CF2B
000B3
3AA80
2200C
2C288
23EA8
28FFC
22EBB
08BA0
22CB0
20A8A
2F8E3
0B3A2
3B2BB
322A3
23BA3
3EBBA
08BFF
3F088
0A02B
2E0F4
2A8EB
22EB8
02C8A
3EAC8
3FFC0
3CF08
2C3EB
0A22C
003FE
2CE82
0E230
2BAFB
0060C
28B28
00200
08ACE
20B08
382A3
3280F
0B3BC
0A20A
0A8EB
20AAE
23A83
3336A
3E3A8
00A30
00C02
28BA8
230FA
2AE20
003AC
2BAE2
088BF
002BB
30CEC
082C0
3A28A
0AC0A
0F3CB
0822C
008A8
283AE
33FEE
2CA20
080C2
2CC0E
32E8E
028CA
22230
0CEAF
20A3F
038C8
3C202
3A0FB
002FE
2BAEF
2A8EF
380FE
3C80B
0C8AC
020A8
0B8CE
2A08E
08AEC
032FE
2288A
0AFB8
3E8C8
3B303
00B00
0CFAA
3CEA3
2380F
23A08
2E380
20C38
230E3
02228
2EB0C
3BE39
2AEFA
32EAE
0888C
0EC3E
2CBA8
20C80
0EA2B
23A8D
12880
3308A
32FFA
2A030
00CB8
382F0
00A23
023EA
02BBC
00883
33FCF
32CE0
2023C
3880B
0F80C
0AFA2
03AEE
00BAE
333EF
3F3B0
22E82
3A033
324CC
38FE3
22A08
3CF28
20C03
2AB2F
230C8
2E3AF
20FE0
2B83E
2EA8C
23F82
33A3A
38EF0
22EAE
320FF
0F33F
023FC
0E280
0E8EB
2FAE2
228FB
2F3C2
32F32
08EBB
08A2E
3083E
0E3A3
02FE2
3832E
0033F
3EE84
000C8
302B2
0AEFB
33A33
08AE2
002CF
3BE8A
322C3
32E8E
0FCAC
0C3BE
230C8
02A33
0F388
3A30E
283BD
32ACF
2AE28
23B83
383FF
2CEB2
32288
033CE
3220F
38EAB
2ECAA
0FFEA
02828
02032
3E8B3
0B3CF
0ECAF
230F2
3F0C0
230BA
2E022
20AA3
28222
2E82A
0EFBA
0BF78
003AA
2ABA8
03A2B
200FB
3388C
0C2BC
2A28F
0E3BE
2B023
029E7
22C0E
2CEAA
28CAE
0B800
2EEB2
08EC8
33AA8
3EBEE
30FFE
33E2E
20BA0
2FF0B
380FF
39BAC
2FAC0
20EAE
2EE00
3CB88
28AF8
0A8A2
3E0AB
1AAA0
32A3C
0AEAE
2FE2A
0E08E
22FEC
22200
2F280
20AAA
3BA0E
020F3
288CA
00C08
230A8
0BAEB
3CAE8
20881
2CFE0
23009
2FFEC
002AB
30C8A
3A83A
0ACC2
28EF3
300F0
2C0EE
322C8
33EEA
08A20
0CEF8
3323E
0EE82
2EFEE
08FCE
20B68
2A28E
2F308
2BB2F
20A0F
22B8A
00802
0B2AE
12AAE
3232A
3CA2C
33F0A
2F28C
229C3
0B02E
30AAA
2BE06
28882
033EF
28BA2
002AB
2AACE
2EFEB
23C88
0F7C8
30BC3
38C30
0FAF2
2E8CF
03B32
3F3CB
30F08
08B0B
3A88C
3CA3A
2F0BA
0A3F8
22E80
2B8E3
3C8A2
308BE
3C0EF
2F0EF
230F3
0EA2F
2FFAB
2E38B
338FE
20CBB
0A080
0ACFB
3A3E2
2AE3C
08338
0C2EF
3BFCB
0D0BB
0C308
32FF0
30C0E
2A2FB
2B288
2C083
008C1
28B00
0C08B
08BAC
20308
2C3FB
2F0AF
0F003
3C8BA
3C2B8
3EBBB
0FE3B
08F03
2A8AC
2E320
008EB
0ACEB
0BBEA
0BFFB
32BAE
38208
30ABB
100B2
3FFAC
2FEAE
3F8AA
2C3E7
37C8C
2F3AB
0A0EA
383F0
2BCCE
08A00
0A2E0
3A2EB
33E8C
3AEEC
3BEF8
0AE3B
0CC8B
2AA6A
23A03
3EFE4
00E3C
300A8
02B8B
0CC88
0AB8E
00CCF
2A222
088FE
008EA
2CF8A
0C2F0
3BAEC
3A02E
0A820
00A2A
308FA
3B2FB
0A2EA
2CE08
23F8C
00EB2
00C8A
200F8
20F8A
0AE03
03F8B
2FBE3
08B8A
2E2AA
0ACE8
0B222
2AB2A
28228
2202E
0308A
22CC2
0A2E2
2B082
32EA0
0028C
2CE80
3FA28
2C028
00A3A
3E2A8
00CA8
300BB
22FCE
38AB8
3A0F3
22C80
0AC0E
3BFAF
0CA22
3CACE
02C0F
30000
2E88B
30208
3AABE
2A8E0
3ACF8
000AE
2BBAC
28FEE
20EFA
2A382
2FEEB
2A20F
200A2
2A0C8
20E88
0A02A
3C2B8
2E88B
030EB
22FBF
03034
2EC0A
0E08F
3A802
022AE
0C0E0
03CA3
0E0BF
23A8B
008A8
30EFC
00C0B
00EA8
0CE00
08ABA
032EC
0CA20
222A2
3FEEB
2AA73
200E0
33300
2FB08
2A023
2E20E
20002
2BB0A
220BB
38A0C
3AB2B
382E8
30C0D
2EECE
2BF8A
3AA02
338EF
22C63
30F2B
0E804
0302E
3ECBE
0FA3A
38E63
2CC43
0F88B
3E8B2
3FAAB
2C83C
2C8B8
02BAE
03363
00EAA
00E28
18BE0
0F233
30F0E
3AB8A
2C0EE
2BA9F
0FFEC
30C0C
382BA
22E7B
08E3A
08FBC
30000
20C32
2EB03
2FE28
0C2C0
3FB3C
283EE
1EFEF
20CAB
088FF
0CF22
2BF0E
3FBAE
2FAF3
30A6E
003CE
033FE
0338C
13CE3
3E883
32AEC
2AFF8
03A80
3B0CE
0023C
30288
3E38B
2BB8E
2FBCB
32BBE
00E0B
220E8
0283A
33EB2
28283
2838A
30CFE
0A200
3B3EA
203EA
0BFEA
22CA0
381CE
0AF00
22832
0AA8C
380B3
2AE80
32BFE
0CEE2
2E33F
0288F
3823C
3A3F0
03A2B
3A2AE
3A029
0BBE2
080CE
0BBBC
2C2FB
28A83
2E23B
02882
382FA
220C2
0FB83
22828
28B9E
032CC
2CEA0
2C0F0
330BF
00088
20AF0
02AA0
0B0C8
0A308
3823B
0AC02
0E03B
22ABC
0AB82
30828
0AECF
0A8B0
2288C
20808
032AA
0BBCC
28080
2AACA
3E082
02A2A
20BEE
23022
088BA
02EA3
2E004
20BB8
32AC0
23BAB
02000
2A238
02A02
2AE00
0A308
33ACB
0BC00
00CC0
3BE0A
38BA0
00F8E
2A0A2
000B3
2AC2F
00032
2B4CF
0AA80
28CCE
3A380
3CFAC
32B48
08B82
2A22F
20EEE
0CA8A
2AB88
3A3BA
0FCC8
2BF3F
0C233
2FCEC
022C7
08B2E
302BA
2AC00
28B02
0021F
23A8A
0CF80
3B8CA
2AAFE
22C32
008FE
008FE
29012
2C302
2AA3B
00AA1
0EBB3
02088
3EECE
0EAF3
000B8
00AB8
0A2EC
2ABEC
3ABCF
00ABB
0C83C
032AC
3CC0C
0C38E
3EC3E
0AAFE
00F8B
0ACFF
0EDA2
002CA
2A6EA
008A3
3BF08
03EAF
3FE38
3CAAE
3A028
0EF3E
333B3
0AC22
32FAC
0BFE8
2B83A
02AE2
000BB
280AE
230F3
0A832
0FC0E
2BC02
2CFAE
3A3C0
3FBAE
2FFFE
21082
22ACF
0FEDC
2FAF8
282C8
3B8FC
0803F
2CEFC
00A0A
2B3A8
033B0
0008B
00B82
02028
0820C
02308
08B2B
3A83A
20ECA
00A0A
32088
0A0AC
2C00E
2C8E3
2A238
20ACA
0FB2B
02CAF
230A2
20002
032F3
3BB22
2E0BB
3BEA0
2C8C8
3B802
0008C
0AC22
0800B
023C2
2E330
202E2
02E0A
30802
0A22E
2223E
3AA22
30FBF
220BC
33AE0
3E03B
00028
30CB0
000C2
300C8
08EC0
0030E
30CCA
0820F
0308C
0B22B
02ABF
0C2E3
0F8C3
20C88
28C00
308C0
38F8F
0B8CF
20F3F
02EB3
3A0A0
00E22
3C08C
20A8B
283E8
2E2C0
30C3C
0200F
2CE00
0C003
00023
3EA3F
03B3B
2AE33
30B3C
33082
0FCF0
2F0FF
3C222
0C3FC
3E0A3
3233C
30ECC
00F33
2B8C0
0E328
30C0C
03803
3C0B3
32F8A
0E802
2A2AE
3FBEE
23288
2E8B3
382C0
30828
30BCE
00A0A
0FC0E
00C83
228C3
2B030
23283
20FEF
3B0A0
08ABC
23C28
3CA3A
0233A
0B2EE
2003F
0C8BC
0238B
2EE28
2A02B
03832
322EB
230CA
3EE33
2BEA0
0EAEC
281F8
08382
0ABF8
0CF2F
00A30
30F88
0FC23
00FB3
2A300
0CF3E
0220C
3CC82
02CB8
0BFBB
3EB0C
330BB
3EF88
23C88
2E833
3BAE8
00A23
3B8EA
08C08
32F2C
232A0
3A8F8
2CE3A
3C36E
0CEEE
2C006
0BAE3
3AE38
2CF8B
3A2EA
3A0FA
388F3
3B204
2A3C0
238E3
3CC8C
2FECC
38232
00E8B
0C83A
32B22
0C030
3FEC7
008B0
28A00
08823
08C02
32208
3C8AA
0A800
0BFCA
0003C
0CA02
0C23A
22882
0A3AA
32808
0B833
0FAFB
2CF2E
0EE00
33BE2
02AA8
22EAB
2C333
2722F
2A088
22B2C
3820A
28EF2
32AAE
0AA0E
0E02E
023A8
3C38C
30800
382AA
22830
22082
32FC3
28E22
008A8
08E8A
2B2EF
3A000
0288C
0080A
3AB0C
0AF0A
38E20
02C80
3828E
09CCE
0BBCA
20A2E
0CB28
02283
22BAB
0C38A
0E8C0
0A238
20200
3A0AA
03B3E
0FA83
0A980
38AEB
0FBEF
3C0A3
0CAC8
23C0C
3A8A8
3AFE0
0ACE2
3B02F
00CF2
2B02E
3EF8B
0CA88
3AFB2
2EC03
3228B
22B8A
3F22F
2E238
088C8
38AC8
28220
0228B
00800
22FEC
00808
0C88B
22C80
202B8
08C0F
23828
00BAE
30B23
32E28
3E22C
2E0FE
09880
28C08
22AFA
02EBE
3F480
080FB
22D28
08B03
3A0AF
38ABC
2A3E8
2FC02
2ACAF
3E2AB
2A3E8
38B23
02880
382F3
00F4B
2C2AB
00E8E
02C2F
2E8CB
00823
03EAB
2C2EE
0CB32
22CB0
2CBB3
2BEBB
00E33
2B0A8
3BE3B
20233
3FB82
2A26E
0AA20
020CC
0BC0B
32928
2AC03
0A8C2
082B2
3B82C
2C2C2
283C0
0F8AA
2EEFC
33AFE
20E2C
2EF32
2BB3C
0CF33
39812
0EACE
2A04F
3C220
2CAAB
0AAFE
03C4C
2C38C
22882
3C3BE
0822E
00C0A
0228E
2F882
28AEE
2F88A
208AA
3FB3F
2A0FC
2F0B8
0002A
20BCC
0B203
2C320
2EB0E
3030C
2280A
02B2B
28882
332EB
2A0F2
3BA2E
3B833
30828
02A2A
20AE0
02030
3BA3E
02ECB
0B8EC
3B8E0
0808C
0C32A
0E222
28238
28280
32FE0
3A80A
22A8B
02828
0820E
20C82
0C820
28E2F
08CA0
0C003
2BE8C
02A0E
0E338
08202
20A22
3E00B
08E23
00A02
08B83
033F0
303AB
2C388
0CAA8
220A3
0B302
388F8
08C00
0CACB
082C2
328A2
02028
20830
3B2F2
282BB
303FA
3CFA8
303A8
2B0B0
28880
0CA38
30F83
2DEC2
33F20
23ACB
0BE8A
0C8AA
00C28
08308
0A3F8
00A23
28003
0E00B
2AEF8
323E8
00CBA
32E80
3C8AC
00FA3
3C20B
020C8
008BA
32E88
08003
0CEBE
0AE03
28B88
2CAE1
08203
3B08A
3820B
00C8E
00FAC
3C8BE
00C88
2A03B
0C288
2AFA3
2800E
0A230
02E02
2CA8F
0A32B
23E32
320AF
2BEEE
0AEEE
33E20
22FA0
00FE2
00802
0E03A
30ABB
0F80F
3E2A3
0C30A
3F30F
2F38A
2EC28
23BAE
280BC
2E8E2
0E03E
3BF8A
00022
3AA30
3000C
003AC
3308E
00A82
22A2C
0082B
0A2A8
3022A
22A8B
02BA2
0F8A2
38800
2AA38
2CBBE
382AA
2FCF8
032B3
232A3
2BCE2
2800A
03023
22EEA
2A0CA
20C02
2EABE
20EA0
08E3F
0280A
2B3AE
00E82
2A822
3BE3A
2302E
23B82
3AAA2
03E00
3000A
00828
22800
083A8
22B8F
008E0
2F880
202EC
2C38C
0A30A
2C32B
2BBA2
03AFE
28000
088FE
3FCBB
00EBE
02BEC
2B88C
2830A
0C238
323CB
22220
3EFB8
3EC38
2FE23
2B020
288BE
08AAB
0A322
0FB0F
3B8EB
20F2C
3CF0C
00B03
200FA
02ACE
3C20B
28E00
0EAA3
3CE8F
20ABA
00C2E
3A88E
000BA
3C0AB
0E0BA
23FF8
003FB
22A8C
08320
30EB8
33B8E
38823
322EF
20F3C
00CCC
00A8A
2032A
328B8
0E2A2
080A8
0B1CA
028BC
0EAB2
0E222
03ACC
380FC
2FC3F
0C30C
3C0E3
2223A
3A6CB
0FF4B
0EAAD
0FA0A
289FE
008AC
203A0
0206E
3AE39
033BA
23EFA
228EC
12BE8
0F82C
2FFFE
30AA8
0BCFD
0723F
2E6BB
00882
022CC
0882C
2820A
2A8CC
20EB0
302B8
00FBF
2808F
0A2AE
002EE
2E8C0
0C032
08E00
3F232
0A22B
320BE
3A00F
2BEEB
0BEBE
3AA8F
02FAE
2C20A
0803A
2CECA
082CB
28BA2
0BACE
00023
0C0BE
08033
2A0A0
22CAA
082B0
223AA
28FC0
2A833
3BE0A
30AE8
3F8A0
3AEA2
3AAC0
022CF
00AEA
2A3F0
0C33B
03070
3830B
3CFB3
2828F
0F33A
33BFA
08B0A
3C038
0F2B3
03FBE
2980C
2EC2A
000AB
2A2BB
0FBCA
3B3C0
0AFEA
23BB3
22AB3
2E23F
3CFEC
23E0F
3BE9E
0EEC6
33FC6
03A20
08CE2
3F30F
23FEB
2E8BF
028F2
02EBA
0BE08
2B2EC
0CEFA
0AEBE
0CBB3
2F8FE
0FBC3
323FB
00EB2
282B8
0FB0C
0B080
0280E
20380
38CF2
0BA2C
28A80
3ABC0
28332
30F83
00ACF
2CABC
3083A
2F002
3ABFE
2BBC0
28803
00222
338A2
3C028
3B28A
3200B
0BA22
2FCBA
23A03
0B0FE
2E03B
0800A
30283
3A3C8
23E08
2AFE8
23AEB
32CC2
3EB30
3C3A8
02822
23BF3
28F8B
02A0A
032C8
00A8B
3B383
2202C
080FC
33F80
3F82F
3AB03
0B0BC
0AE3C
0CE23
0E00E
2A8AC
02BB8
30008
07F23
03BBA
0BFAC
2CAAB
2AFA0
3CE7B
00FF3
08B3B
2C2EF
2BABA
003FC
3BEEA
3AEFC
2EEB2
333FE
00A3E
0D0AA
3EBB8
08EFB
0ECA1
0230F
2888C
0CE02
1E233
2E0EC
2063F
092E0
220C1
0ABFC
00083
28AFE
2E203
20888
2C8A0
08FFB
2BFFE
0F88A
2E88C
3FA3E
303FB
32CC3
03B0B
0A08C
28022
2EE38
022FA
1B0A8
0888B
38B83
32ACB
3C82C
0BB2E
2FEF0
280A3
3F08B
13B27
3BACE
0838B
0A08A
2A2F0
0ACE2
22F2E
38ECE
30E0F
33BC3
3ACAB
33C28
32AFB
30F3E
28EA2
2B2BB
00EAB
00E80
2BACE
00302
08F8E
3B80F
3C8EC
3ABB3
02B30
2AEC0
032AA
2C0C2
2AB40
38F7A
3CC08
2B3CF
0F3E0
2AE23
2C233
0B30C
302BA
2CBCE
2B03B
20AEF
28C0A
20B00
33ECA
2EE3E
0CCF0
338FE
0C0FC
022AB
2AFA2
02280
00282
2C28F
3204A
3A0CE
0C23F
2BFFB
30A33
080EE
28328
02BFC
00F08
2B88B
02A8C
080AC
30B00
0C022
3A822
0E008
2822F
0AC2A
2A238
2A083
3A0A3
03C08
0AF2F
2FAB0
082BF
0C20A
0E2E2
28AA8
2C3A2
2808A
282A3
382BA
0CF0A
00AC2
2823E
2CCFE
03A3A
0F8FE
0282A
2C20A
2AE03
0F82E
02B3B
30C02
0300C
22E3E
0800C
28A33
30C22
0A0C2
3ABCC
00ABA
08BF0
0383C
20E20
3228F
0CA80
2E882
23BAA
3A22C
3E2EF
220B3
20AC2
0CA80
228C0
08E2F
2E82C
28EC0
03B30
2C0B8
0AA2C
028AA
00CBB
082AE
0F2B2
2802E
320E2
00880
2EE8F
2FB3B
0C0EC
03080
0EC83
2E8A8
38CAE
03F38
2088F
3F880
0F8AB
002C2
2FCF8
222A2
23323
383EC
00C20
30EA4
08CE0
082B0
30C03
3BA03
3C8CF
008F3
3323A
23E2B
3FA0E
28308
3C00E
20C28
08A8F
0BB88
08B6F
20BA2
3A2A2
3CE88
0BBE0
08C03
2CEFF
02ABC
08CCB
2AE0C
30ECC
3EFE8
23F20
3A2AA
322B2
3E3BE
3BC33
02EE8
0830E
0C0AE
33BB2
2EBF0
2CC22
2B233
223E2
0CE8E
33E3B
00328
0AC8C
00EEE
28B0A
0F8CF
0B8CA
0EAC3
00A02
2CBCA
028A0
20FF0
283E2
008E0
28880
080C8
23FA2
02320
200F0
0CA2C
0E18A
032FC
02E33
2822F
3A00B
2AAC3
00E08
0EB30
002EB
3A238
0A000
2E38A
288AC
3830C
38F0B
000AC
3038E
0238A
0AF3A
32BB3
3B20E
032C3
3ACA8
0E2F0
00BF2
0C0B0
03EEE
080E0
0C3CA
00E20
0C22B
2900B
280A8
3FE82
28CE0
23BEB
38AE3
0CCC0
3F2CE
0AFCA
33BFF
3A3BC
2ACAC
00EB3
38ECA
3CAC2
03BAA
2B804
0E288
22BFE
30B30
21BFB
32ABA
038FB
1AEC2
30BBE
38EC2
22CBB
3EBAC
08FC8
0C088
2FFCF
03BF3
2B2FE
30823
31EFA
0B2C2
00BCF
28C38
0C0BF
3BF23
0208F
20C8A
3BA02
02A3B
2B0EF
2222A
08CA8
280AC
3BAEC
28F80
0A230
0F83C
03480
2ACB8
32382
0EC08
0C8FE
28AA2
32882
3BA82
30238
0A8EC
3BA8C
203F8
388CA
0380F
2C2C0
22A82
2E230
3E280
32FFF
22B2B
23080
2C82F
20BCE
2FBEC
223F0
3E8FE
082FE
00C0A
38A8B
28E23
20CB0
33C0B
302EE
0AA03
0CF00
02EF3
0B223
3083E
00802
38F8A
388C8
00C0F
233A0
2C0AC
23AE2
0F020
3BA28
20CA8
02F33
03E2F
2A2AB
28FEC
33ECA
00E00
0CEAE
2EFB2
0208E
323AA
3EC8F
28C03
0B3AE
10382
02C4E
20E30
2A838
0C0AA
28E3A
2820E
0033E
00B3C
00B20
28B30
0303F
280EB
2E80F
0FC8A
2E302
09E3B
2B0E3
2EE2A
0AEEB
2820B
24AAE
2FCB8
0E2A0
30ECC
33BCF
32088
3AFAE
0CC02
080F2
288A2
38CA2
3B6EC
002BA
0A8EE
328B2
220FB
3A8CA
0F833
2C00E
2AAA2
3E0BB
2008C
33802
2EC8A
0FAAC
0C0AC
08ACC
2F80F
02C3C
3EA0C
3A1FE
000B2
3FF80
33EEE
00B82
0F2C3
08A02
0C0E8
380CB
3CECA
03303
00F0C
03B32
330C8
0E0C0
30032
0BC02
20330
2323E
02EBC
3E28B
03AE0
3CCF0
0C300
00B8B
3EFC3
0AA30
30000
2280A
0CEB8
030E8
2A08A
3388F
30BF3
3AE33
20AAC
0E382
300BA
2838A
0230B
3B2EE
30FEB
32C02
0BE86
003CC
2820C
00F22
008FF
20A02
30080
00BA3
02883
02FC0
2FA22
00CEA
283E2
38CCC
08000
00300
2B30E
3B2C2
0EEB8
22ABC
00CAC
2C0B8
3C082
2C02F
2B032
02EFB
2808F
38B0B
208CB
0BBF2
0C8AB
202EB
2302E
22E33
2C8BA
0EA82
3E3CA
0EBBB
00FE2
283FC
0F030
320CC
3000A
23F33
00BF8
20008
33EE2
08F20
3E2C2
2CAC8
3FE2E
32ACA
0E10A
28EF2
3FCAE
200C2
3BFCF
0E080
02308
2F0CE
2A330
0AA03
2CCEF
2EEAA
0CCE2
30A2A
002BE
0C3AB
3E823
3A8AE
022C8
0830E
3FF22
0A8F3
2C2E2
20830
2E03B
32A38
3AAFF
3B88C
23C8E
22CC2
3834B
2BE0F
02AB3
3323E
08AB2
00BEF
22F88
0F2CE
0038C
00A08
28A3A
288CF
08EF0
303CB
3A2EC
2B88E
2EECE
0222E
3AC0C
3E802
2EB28
20CFB
00CC0
3E8FE
23E23
22CB8
38883
0823C
3A083
0E2A3
0A8AE
3EAAA
02B2A
32B0C
038BB
0F20B
08AAF
3F03F
0BA20
33EE8
30B80
2C3B2
028EA
2F8A3
2388A
2FACA
0E28F
038AC
00BCC
320AC
03223
00F2C
03E8A
202CC
2BB0F
3F3AB
0F88A
3CACA
28E8B
28EA2
28BEE
28B0C
2AB28
2E3FC
03800
03B3E
2CAB3
0C1AC
00AE2
3200A
0838B
23EE0
2BF3E
3ABCE
3CAFC
2ECAF
288C2
098EE
27280
0ECB2
23232
3008B
28BFF
2048B
3E000
0322A
0E22E
22BFB
32BB3
033AE
0F032
00E00
33A28
0232B
28038
0F882
380A2
02A8C
0332A
2EA0B
38220
2E8EA
2AC0B
00383
28C08
382FB
03288
2CAB2
2F0EA
3AC8C
082AC
088EC
2CCC3
2C0EB
0280A
0B822
0BC20
0AE00
22C32
0F08A
088B8
0800A
0C00E
020F0
3B08A
323E0
0BC02
0A220
30823
003A8
28B08
0A222
30082
2C380
00308
000C0
00002
0000B
00000
0C800
03002
0C000
00000
00000
30282
000C0
02300
00000
00000
20002
00000
00000
000C0
0C0C0
00280
20000
00000
00000
00008
0C000
08000
00000
00000
02800
00220
302C2
03000
20202
00003
00B00
00008
00000
00020
20000
02020
00080
00000
00800
0AAA0
2B800
28EB2
3BB8B
3E0E3
28283
032F0
233CB
222F8
3FF0B
0008A
020AC
3A88C
0E202
2CB0A
0BA28
2E28E
33B20
3CCB0
2C0F0
0A3E8
200CF
38E2B
0AAC3
3FFA2
2CE0B
3BB80
03A0E
0A0AC
0E238
2A202
0223F
0A80E
328FC
3BA8E
232AE
002CA
33CAB
30C8A
2FA3A
3388B
2CCB8
00328
383C8
0ABE0
302EC
30ECB
00AB8
2C3E2
0C8AA
080A2
33BCA
23A0C
12223
3AF00
0E8B8
2EB33
2122B
0CBB8
3B030
0A220
0BE2C
083CB
28300
2028A
0EA0E
033E8
3BE2E
3BBF8
08E0F
3F38A
0A00B
32220
3C3BF
0FF0A
02BAE
22330
3300F
0FEC0
303AB
3CEEA
20AB2
0EE22
382F0
0A328
00322
2B8CC
0AAF0
30C80
32088
0088E
220A1
008EE
38BB2
200EC
0CE32
22E82
0ACF0
3E808
083E3
023A8
22CA8
23A8B
2E820
2B808
0002B
00C2A
2822E
2C882
2BF8E
30202
28E0A
2CEAE
0200C
0C3BC
00082
202C3
2E02B
0CA22
2283B
2308A
32CFE
0A23B
088A2
20EF8
22FA3
0EBCA
0A30E
00083
2AA28
0A23E
203A2
2AF0F
3CCCA
038F2
3A233
280C2
0ACFA
2ACEB
2020A
088E0
20C08
0CA22
02A8E
2E888
22A22
3A083
3CCA2
0EE3B
02A20
382BC
302A2
20FE8
0A8CF
388B3
22BE8
30B8A
0B8CC
0E20F
2E2CB
0E00C
3A200
32B82
2A2CA
23A30
20A2A
338C2
282BF
28EFE
0C8B2
0C8FE
00A0E
00000
00000
00000
00000
00000
00000
00000
00000
00000
00000
00000
00000
00000
00000
00000
00000
00000
00000
00000
00000
00000
00000
00000
00000
00000
00000
00000
00000
00000
00000
00000
00000
00000
00000
00000
00000
00000
00000
00000
00000
00000
00000
00000
033C8
0EA08
0CBBC
3AACF
00E3B
0AC3B
3CA07
2AC7C
3AE2F
308CA
208A3
20280
3E8F0
2C888
2A228
32C22
322C3
33E0A
2023B
220A0
08BEC
280BB
288F2
2FE2C
02AE8
23382
38EF3
0C023
000BE
3A1FF
22EAF
0A2BA
23A80
20A2A
0FF0A
30E0F
3AEA3
2800A
0CA0E
0A808
0EAB0
2EAAF
00E2E
20B08
00222
38E02
3AC02
0222C
220A2
0FF2A
008BC
080A2
0F2BB
2A802
0ABC3
32888
3B330
2A238
0CCA3
0EACB
3CEF2
2BABB
0C0EA
2CFA2
2B3C2
20038
2A30D
088E2
2A8FA
2E2AE
320CC
0E03C
0A0A2
2FABC
22B0B
3EA12
2E2B3
0008A
32EF0
08EB0
2EAA2
08C08
080AC
2B0CA
28B0C
00203
2823C
0B308
2C030
30F0F
38080
3EC0B
0EAB8
2B0EE
0C388
3CAE8
3222F
2BFAE
2F088
0AAF3
22AA3
30AC2
2AE38
0A8A8
0A0B2
0B802
28A3C
2822A
2BAB2
3AAE3
28C2B
202CA
2ACFA
20B0A
02C0C
22228
2E03B
2B30E
32A8E
33FB2
0F0F0
3C228
0BCAA
2E2FC
030F2
08CAE
3AE33
3E8FF
00AB2
3ECA8
088EB
30E88
2BC08
0B2BE
2003A
0AF28
0883B
3CE88
28A83
3C2FE
3320B
23880
22AE3
00EE0
3E28C
23BBA
3EC3B
0A023
0EAAA
02F2A
38C3A
2E02C
22F0E
01E3C
30028
22EA3
0AC2B
0E08A
3B08E
2EE43
3FB28
08CA0
2F080
0E888
3C882
3B803
0CAFA
2C808
2C0BE
0338C
2B088
00020
3282C
000FF
00E30
3BE00
08A20
032E3
0B3CA
200EB
02AE4
1ACB8
0AC8E
03BAE
22880
20E0B
1C38C
2E08A
2F882
082BC
0ED03
20BC8
2A8B8
3F02F
32EE0
3A33E
3ACAE
3EEE2
2C0A0
3880F
00C20
03320
3EE40
0F830
3A282
030F3
02B83
03B8E
0CA2B
2CE30
3882B
22832
03328
00F88
00FE2
20388
0FEEC
30023
2E302
2C0E3
2C0AE
032C0
00A88
02AB2
33C8F
0ACC2
38EC3
000AC
3EACA
2CB2A
220CA
3AC2E
33C80
323AC
08A00
3EAF8
282A2
380AB
08FAC
3F8A2
0B2C8
38A83
323AE
00BC3
2B2FE
2B032
2030B
3A0E3
332CC
3803F
03EE0
003CA
08FAB
2CC0B
0EBB0
0F882
0003A
000CA
30208
3832A
30CBC
3AE0B
382CF
3AC8A
0C2B8
28A0C
30F0A
23CA2
3CE28
0BB3E
02800
28A3F
02880
2832E
2A283
222E8
20E22
2F80B
2202C
00E32
388FA
0B22B
0220E
32C8A
08FCF
03FC8
0083C
2E30B
2CAB8
02B3B
00B02
028FA
00080
2F8CA
20A22
2C29E
00EFC
20AAA
0202F
3A3B3
00328
2AB88
0C2A3
380E0
2F200
382B3
3CBCE
08BAA
28220
3C2B8
3AC03
2B00C
030F3
0C00C
0F80A
26238
0AB20
2BB33
3DBBF
028A8
3AE22
082A2
200AE
2C2EB
0BC82
3AA8A
00F03
0088C
32E03
030C0
200C0
33ABF
3ABE0
02EC0
00E23
308C8
30A88
3FEEF
0000B
2382F
2282B
0A032
30888
00332
003A0
0C3E2
08020
38CC8
0BA00
0CACF
082C3
008CA
00B83
2C0EA
2800E
3280C
20008
28033
3303E
38303
0AC0C
00FA0
020B8
082A0
08BCA
200B8
08883
000FF
0EB32
28E80
22CAC
0202A
0080A
002A0
3CB30
3BECF
00C03
3E0FE
32C0C
3008A
0AC3E
30B22
28A30
3E020
3C0A2
03230
00E2A
02030
0F88C
0003A
0CAC2
0CCCB
2EAAA
0AE02
2C0B3
03AAA
2AAFA
00F00
3AECB
3C080
0C000
0CECA
2EBE8
0B800
3BA88
0EDBE
3EAEA
3C8F3
200F0
00AA8
2A08E
0F2E8
23B33
22AF8
00B88
0ACC3
0A2FA
2AA8A
08220
0A3BB
32A2C
0BA8C
38EAF
08FA2
38BAB
18E8B
0E3AB
0FCF2
08C22
003E2
3FCAB
3CCE2
0C830
2EEC3
086BC
2E2EA
0A0BB
2FEF8
3BFAB
2BC2E
0FBE3
0F2C3
0CBC8
3FBCC
03EF2
0333E
2203C
3C22F
00E0B
0F2A3
30CF0
0F328
0BABB
2E0CE
2200A
33382
0E82A
2AECB
3C0C3
2A228
3BBFF
330CF
223BB
03A9E
3CFCF
083BA
2CFA2
3FB2F
2B98E
3C0C3
3ACBE
0BC84
00BCE
02A28
33A8B
3C0A0
22B8E
28CC2
2828A
0EF3C
30F02
3E2BD
20AF0
022E8
2F238
380C8
28022
30888
02A2B
230E9
2EC88
000FC
20E00
20C08
082CA
088AE
3A22E
2C38B
238E0
0BA22
2CBAA
0BC2A
3B3A2
20EEE
3CB22
01AEC
02C8A
0FA88
2BA03
0B8CE
3CC8A
38EA8
0B3AE
0C80E
00C2B
002B8
00AFC
00C0C
28A22
0F00C
2B2FC
022E3
0FB38
22BA0
28822
282B3
2A3EA
03022
0088C
0B3AA
0F002
0C3B8
03B2C
238BA
30AB3
0B8A8
28CBA
2C0DF
2BEEA
30F02
0BF8A
2CB03
0E2AA
23E0F
02CC0
2C2A8
3CE80
00A0A
38E88
288F0
0388B
0020A
3F80F
20CB8
380CB
0AA00
0AFA8
0EC8B
00F2B
22A08
0B3CC
2B238
3F802
3C0E3
0000B
00BB3
2EECB
23980
033CA
2032A
0A2A0
08888
0F23A
28FAA
3B0CA
02E00
3BAFF
3CE8C
2F80C
0C3F0
2ECEF
28AA7
0A8AF
3FEAA
2E330
0F038
2BA3D
0AC0C
000EA
0A3AE
08E3E
3BBF8
0FAFE
33282
1AFA0
2C3F2
383AB
08E08
0CAC0
0B20E
223BB
00BEA
08A80
0ABB3
002AA
08B88
2CFC8
08E2E
0323C
2E383
0C8B8
3EFB3
38CE0
39A3F
008BC
3003C
2C03A
0ACC8
2AE2A
33B83
3238C
3EEB0
03F22
2F3EE
0BA62
0A8AB
0F3B7
1BAB3
282BC
0FBBA
0A82A
300F6
0AA22
0AA03
3AB28
30A2B
0BB8C
03E2F
3BF3A
3038B
30CBA
3A828
3B083
280A8
000E8
2BB20
0800C
383CE
3A20A
0C32E
38FA2
0AA2C
080AC
0BCEE
2FCB3
2928A
0A233
3E8F0
3BF2F
30800
00FAC
2C2EB
2CBAC
2B338
00F22
2BEAA
28800
2C8B8
2FFB2
382F0
222BC
2EEBC
3E3FE
0FBFF
003E2
2CE8F
0E8EB
0C00A
02BB3
2F20A
30F8E
2BE33
3BAAC
00230
203A3
3A3CA
3ABCE
0083F
0AB00
0BE3B
0032B
2088E
0C880
00CC0
30FAC
0AABC
3AEB2
2A802
28A30
2B038
080E0
3E2EE
3A2EB
0E2AC
30BEC
0EE3B
23B3C
0BE2A
20302
380BA
0E330
2AE8A
0AA28
233C3
088EF
02AAB
0FCAE
080AC
10C22
3CB2A
202CC
232F2
0FCB8
0E22A
0820E
2A0B2
0B228
2CABE
02023
3A0E3
00A33
20AEE
0A328
3FEBB
03B8E
302CF
09CF3
23FBF
2A33C
02CA9
3C2C2
32BCB
2C3A0
384C8
0FAAA
0803B
3CE32
2EAA0
0F2E8
33F8C
3FCB0
0EF3F
30FEF
2A3F8
228D3
0FFAB
2C0A0
0BAEF
288BE
0E88E
000B8
2239E
0AC3A
0B37E
0FE82
00CCE
228C3
383CC
3F2C3
3CECA
0BCFE
0A220
2C03F
00A2A
2A3A8
0BE8B
38383
3BB8C
38EA2
28823
0F30A
3880A
02A8B
2800A
2B082
3B0AE
0A820
2F82A
0C303
3CAA8
3FBCA
032F0
3C32C
238A3
2AEBB
322BB
32FEC
2F030
08D62
2ECE8
388A8
30A20
0A09A
0032F
2BFA0
03BBE
08CCC
0CE08
3EA4C
00AEE
00ACC
22E3A
20AAB
23B3C
0FAE3
3AA3B
00C32
200BC
030CF
38322
08F8C
20C08
03A3A
02808
202AF
3E038
22A83
2AC30
00BAE
28C88
0AE0F
0FAB0
08A2C
2330B
0ABB2
32EBC
028EA
1228A
0C2A0
3B28A
3A000
0A8EE
0BAE8
02FB8
02A0B
0E82A
280AE
0CAA2
2BA30
02E02
00B0E
2C088
0C282
2E203
2EC38
2FA08
0A88E
02022
3AEFC
00C38
3F8B0
3ECEE
38E82
0800A
30200
2E0E8
3222B
2AE28
3B08A
0832F
00808
332E0
3C0F0
00BCF
0ACFA
2C300
0CAA0
0AE83
333B3
0BEE8
30B0A
08FCF
22288
2E322
22CF0
0BAB3
2AE8A
323F0
0CB8B
2AC00
3EF22
00E2B
02BB0
00883
00302
20E38
20382
3F8BE
20A0A
3AF03
230BC
20C02
00BCE
280BC
00388
2CA02
0E000
088BF
28CFE
03A0A
20BA3
3CBAE
3E2FF
0C3A0
0C3F2
32A38
0AC0A
2CEA3
0AFF2
2B3B3
2883B
0A88C
3AE20
0FAAF
0B3EE
0F2EF
08E0E
2A8AB
0AA2A
38B88
0A8BF
08CB6
2802B
2AC80
2823B
00CAC
2FAAB
0FBF0
3A0BA
0F02B
228FC
3CBCC
2AC2F
0B0AA
2CE80
000AC
2B8AC
0A3EB
2C00E
3AA02
2030F
28CAE
0020C
0A3EE
00302
2CAC0
0A802
22233
38800
22028
30208
0CFB2
220AB
022A3
008C0
3F082
2ECAE
088FA
22AA0
2BCA2
030CF
2AA3A
002AE
2280C
0C0BE
0B088
2A300
2A32B
322AC
208B8
232FA
0EEB3
28F20
202EE
3A0E8
20CA8
2E3CA
2F08C
00ACB
2BBEF
02A2F
380FF
32388
0C220
3A3AF
0B3FA
0A28E
24222
1C9C9
28AB0
06CBE
3ECC8
2BCCF
300B0
2BEAB
3EAEB
200EE
0C088
283AA
20ABB
20AB3
08CA2
0EF0F
08201
2A23A
32F3A
0BACE
0FCFE
393AA
2CCC2
2213B
22AA1
00823
2028A
3ACEE
22A33
20EAB
00A33
2A8EA
2C3E2
017FC
00033
02020
038BF
0083E
2B00C
08BA8
3EAE8
3AA3A
3AE23
08928
2ACBB
2AB22
2B0AC
20C00
0AEBE
2FB02
0BAA8
2F0BE
3380F
02EC0
2A333
28AE8
3E20F
232B3
0A2BA
2A82E
32E0A
2CFB8
38AB2
03C2E
3C3AF
2A0B8
2EA0F
28E82
3AC0A
22B80
20BAE
2E8E3
038FC
2088C
328EA
020FB
30EFE
0020A
32E2C
00E20
208BC
3C38A
3C2A2
28A0F
3F2E8
20A38
302BB
328B2
20F3A
0BF8C
38B88
00233
2838A
022E8
2C08A
3FC2E
00080
282A8
28CE3
33CCF
2A0A8
0AA2E
0CFAA
2A023
0AEAB
2B8B2
02028
0B08E
0208E
0A802
3020E
23088
2288E
12A2E
308F2
3FA3A
28AAA
082F2
00C83
2ECA8
00828
08A0C
0ABAB
2C2BB
220CC
3803B
3A0BE
3820A
202EF
20F8F
300E8
0208B
20B2A
20C80
2AAB0
03208
2E0CE
28CAB
0A3B8
0A030
0B088
00A2C
28220
0AEA0
0BA2E
26303
2A28E
022C0
3AB28
0808A
092E8
3A82E
28E28
300A2
00B80
082C2
238AF
00008
2EA00
2F82F
0B20A
020B0
2EE3C
0020A
2ABCF
03B00
002BE
3FAC8
288AE
2A023
0BBCE
3A0CC
2BAE2
22088
26032
02BAE
0E8E0
08F02
00BA2
2AF82
20333
2AB2E
2EECA
2833F
20E8B
2C82F
00220
2A3CF
0888E
0AEC2
2C0A0
3AC2F
0A8BE
2E3AA
220A8
0CA3F
32EA2
0C0FE
20B8A
30BB2
2F2AB
0B3AE
2A8B8
2C8E2
02BE8
3A3BE
00B08
00000
00000
00000
00000
00000
00000
00000
00000
00000
00000
00000
00000
00000
00000
00000
00000
00000
00000
00000
00000
00000
00000
00000
00000
00000
00000
00000
00000
00000
00000
00000
00000
00000
00000
00000
00000
00000
00000
00000
00000
00000
00000
00000
32CA8
0C30A
0803A
222CB
00208
0E2C8
00E2F
230EA
0A3CB
2332A
00C0C
28EF8
2EC00
02B02
2820E
0B80B
0220E
0AA82
02E2A
2E002
3000C
0033A
0ACAB
3C22B
22280
2AF20
0AB8C
302B8
0C8C0
0C2CA
303EB
0CAAB
2820B
3E2CB
00CCA
0F30A
2C382
203A0
3F02F
02202
0AE20
0EE0B
008C2
20C38
08023
3FE88
0AA82
30FC3
2AEB2
0CEBE
088AC
00B82
0A288
30E23
0203B
00000
2E8A2
32239
3AEF2
2AE8A
2CCAB
3FCFC
3CEB8
1CCEC
38CE2
28EB0
280A0
2F8B8
2B6AB
3BAF3
18BB0
0C88A
28C83
2ABAA
2A0EA
0233B
300AA
03BCE
0E2C0
0B322
0C22C
08E8A
38FBA
3223F
2EBA3
00A0A
20ACC
0A008
30200
00B0B
00220
3283B
02208
220A0
3CA23
02EC2
2230A
02EA2
0C808
0AC3B
2F800
02828
3FECC
2300F
202C0
08000
20332
0C223
2202B
22300
0BF8E
0EAE2
0C020
08080
080E0
2A280
0088A
2F208
0828E
2000A
0F882
032A2
0E800
00230
38A0B
0CA00
0200B
0EBB0
00020
3BFB8
0880C
0CFFE
30F03
0E03E
3000E
20283
38EAF
30F23
2EE82
20922
2E3BC
3FFC0
28F2F
3BA08
23CAC
00B2B
3EF8E
3BCB8
20FE3
24C22
20E0A
2BAB2
3FFF2
00EF3
382BE
2EEB3
3CBBE
0F43E
22221
3FABC
3B82B
3E39E
2CB33
22A8A
3FE00
2A18F
2FAAA
201F0
00FE0
0A3C2
383FC
002BB
2002A
02BEB
3C2AB
2A88E
30033
22EA2
02FB8
002CE
00FA2
0AAC9
3CAAF
0ABA0
2B824
0A23E
33A03
20CBC
28AEE
2EC0B
2BC2C
03380
0CF8C
203F2
3CFBE
0A22A
2BE8B
2A2E2
3B3CA
2EAAA
08CA3
0A3AF
22B2E
3AC2A
2203C
02C8A
02CC2
3EAEB
2A032
0EEEC
202C8
2BFAA
3CA0C
3CBCB
00A8A
3E22C
0ABBB
2FEBB
0BE8F
38B03
28EFA
2F3F8
2F0F0
0E023
08ECE
22CA0
0C78E
068BC
2BA3A
2328C
3AC32
238AE
002E3
0AE08
2F3CB
0EFEF
3FCEF
20EF2
2B20F
3FFAE
0ACAA
0F8E8
0B3EB
0A882
2E303
22FB2
23C32
3ECB2
03EF2
0C8FF
23B8B
2FAA8
3E2EE
08FEC
22C3E
03880
2FC7B
00E2C
0F20C
0A323
2CAB8
228C3
38083
02E32
0FA3A
28B0C
00BBE
330E2
3C023
0E308
02800
228B2
2CA00
383FE
2AEBF
02AE8
0A3B2
032B3
0FACC
230E2
23A83
3FA2F
2BFEB
0033A
0A8E0
0288B
0A03A
0AEE8
28BF8
20E28
20F23
0F328
03FC9
32388
28B2A
30ACC
2BB0E
3BC02
0A0BA
2C202
00AA2
3EA2A
033B3
3CEA8
20A3C
38CC2
2C0F8
02FCC
0BF08
3E282
28CEF
0BAE2
0020C
3B808
2E2EA
0ACC3
3E2B2
32B2E
3DC3A
033CF
0CC3E
2EFAA
383FC
0A80E
2AB8A
2E83F
2B4AC
006E3
2823A
0F883
2F2BE
13283
3C3EA
0C38C
032FA
22032
3FA38
0BA2E
23802
38ED0
283B3
0E33B
2F2A8
00B0A
203CA
02383
3C88B
08A0F
3AEBB
0FEFF
08FC4
3BBB0
3EB82
220E9
0C2BF
2330A
26808
2EA2A
02EAF
0E2B0
0F8CA
2AAF3
2ACEE
2BBAF
2AA0C
28BF3
32CF2
2FEB3
2ADAF
0A3EA
32A20
38AE3
08CA0
30323
2B008
22322
2FE3C
03D3A
0ECC3
3BBC3
03202
2CE3C
2000F
2BFBC
2EAC0
322E3
002BE
00000
00000
00000
00000
00000
00000
00000
00000
00000
00000
00000
00000
00000
00000
00000
00000
00000
00000
00000
00000
00000
00000
00000
00000
00000
00000
00000
00000
00000
00000
00000
00000
00000
00000
00000
00000
00000
00000
00000
00000
00000
00000
00000
38CA8
02380
00E3A
3BC00
388AB
00FF2
03AE0
22022
3B033
30880
3BEB0
0A330
23888
3AAE3
3B8AC
2A808
28A82
2F8AC
0EC30
0BA20
083E3
0CE23
3A86C
28AF2
0CE30
3BEEB
22E0F
0C3AA
0A82A
3C0B9
3CCCB
08C0A
2A0A2
023B3
2288C
2328A
0080A
322AA
0833E
2A32A
2E032
0AFAB
0088A
2E288
03022
0C000
0C2CB
00088
00002
008E0
022B0
088C8
02080
00C00
000CC
20000
0A000
0AA02
00008
0220E
0E880
2EE2C
0002E
08C02
20000
0000A
22EAC
0822C
0E200
02330
0A382
02000
22000
08882
03C00
0A000
00820
00B02
0C00A
08000
08200
28220
00000
0E38E
038B0
00020
00000
00000
00000
00000
00000
00000
00000
00000
00000
00000
00000
00000
00000
00000
00000
00000
00000
00000
00000
00000
00000
00000
00000
00000
00000
00000
00000
00000
00000
00000
00000
00000
00000
00000
00000
00000
00000
00000
00000
00000
00000
00000
00000
3FE3C
30FC0
3CEB8
2E2C0
3080F
08EFA
3FE0F
2AE88
03B3F
3B22F
3E0AF
0E38B
0C0F8
0E830
38EF2
3033E
2ACBE
2C223
0FF0F
33A2B
3CFC0
03C2A
2A2BB
00FE2
2FFFB
330AB
232EF
2EF38
00BCB
022B8
303CF
3BFEB
20BBB
03BAA
00FCE
003B8
203AA
3FAE8
08E2A
3EC2B
3ECBC
23EA4
00BE0
22A80
02033
230B8
0888B
230A8
28E82
38BCA
08A30
3FA3A
20C0B
2CEBA
2A88C
2888C
0808A
12AC0
28E0A
2E082
08B80
02223
2EB30
22820
080AF
322C0
08AB8
0C3AE
0E82A
288AE
03823
02808
22303
2A0BA
2280C
3A3CA
0223A
0FA80
2CAA8
2C028
38202
38080
22A8A
03882
202BB
0032A
238A0
2BA13
0CE08
02882
0002D
2A3A2
0EFE3
0AEBF
0ACAE
08AFA
2AA02
0AFF3
338C8
2332F
38A8B
0CEAE
32A9B
0C0E8
38B30
28FAA
20F2A
073C8
220BA
2A382
0A83B
28EB2
2EEAF
218BE
0C8BC
0A0AE
1C2AE
0AAAB
0C8AC
2B288
2ECB2
3AE20
3803C
0FAA0
20ECA
28BB0
02B33
023AE
00A00
0BCA0
30E20
20B2B
33202
2C2EE
22B22
00F0C
23038
03AAA
380CE
0E2C2
02C30
3BCC0
2020E
08CFA
0CE88
2E8A8
3CF83
0330F
080A0
2CF02
0B0C3
22800
2232D
020A0
038E3
28220
2ACAA
0C888
00CB2
2C28C
30FEA
0030C
0302A
2028E
28232
28F32
3CA98
2828B
3B3E3
30F3F
20888
00320
2B830
0BA23
0FFC0
0A33E
3EF0E
3AC40
0EF3F
3AC0F
28FEE
2EAE9
3AAF8
0AF33
0FCF8
03CEF
339F3
3FCBF
326EB
3EE00
0B3BC
03F08
23C8E
383FA
0F3B2
3BF3C
3C2FB
182FE
3BFF3
3FBBC
0FCFE
3AF22
2F8C2
3A2B8
0F22E
33F8B
2CCC0
2CEFF
2083F
0F20E
0FE2B
37F82
203FE
32BEF
002B3
3CCA8
30CFE
2CC30
03B02
00A20
0E3A0
02AEE
03CE0
0B83F
330EC
2C0FF
0F2E2
3BC80
0C00A
2A332
3CCBB
3A00C
3E3AA
3E820
3BCBC
08F8F
20033
3230B
30023
0C38B
3EFAB
28203
00EE2
0C003
230CA
03BC3
00C23
08EB0
232CC
3E003
3F338
20F82
3AFE8
0382A
33E08
38CA2
02000
00BEA
2BBEB
0FE23
3832F
0C30E
2CE02
020AF
303AA
38E80
0B0CE
22AC2
2BA38
3BCCA
3ECE8
0EAE0
320C8
2EA23
32BEE
3EEF8
2332F
032A8
28032
000B4
3EF3F
2FEAE
02A88
2FFE8
3B080
002AA
0BCC0
3B223
28F2E
02E04
03AFF
33028
32E08
23EFF
38A3E
28E2E
232AB
2B3A3
031FC
3CAC3
00E3C
2A220
0CF22
0082F
0F3CA
009C3
2CB2B
02AEA
1E32A
28A82
2F3E3
28B38
33AA0
32480
33B38
08FA9
02FC0
0EEBC
028AC
3C2A8
0FE32
382CF
2F3A3
208EA
02A28
2BC0A
3EEFA
03AC0
282FE
0EC8B
022B3
388CC
0AE0F
0B3B0
2EA3E
3F00E
0232E
02320
30303
382CA
3B8C8
0A2A8
2C80A
008C0
2BBC0
0FCAB
0833B
3A880
20833
2AFAF
0FA0E
230A2
08220
02AB2
2BEAC
080B0
0A8F0
02F00
028CA
2ACA0
30A20
0FE88
22020
22890
282C8
082BA
00B88
2EE8A
2328A
2880B
30E80
328AC
0C0BC
00220
2320E
2230B
2CEEC
2EAE8
2B282
3AEC2
2A23A
2ACAB
002F0
2AEA8
3E0E2
0ABFE
00F38
303A8
0CFA8
28248
2A8CC
30EBB
2F8EF
0FB8B
37E8A
2B08B
2A28F
23BB0
330B2
20C00
0E8FB
3BAA2
2AB80
3BBE8
38EBB
3AAA8
23E28
08C37
2ACBB
22EAA
23F2E
0AE0A
00CC0
3A28A
0CE0B
08A22
333AC
3F823
3BB2B
3ACE8
0232F
33A88
00E0C
3F223
2CCAA
208AF
2A8EA
0F07C
3BCAB
00EB0
2B22C
0A80B
3C2B8
38380
0E3CB
28CAE
0CE02
08FFC
0833C
3C0C8
3AAF2
09038
3B8B0
2B003
3F288
2BCB8
22220
30BA8
0832A
3FE8B
2C32C
2B3F2
2AABA
2282C
0BFE7
2098A
222F0
30B0C
0C3B8
0820A
02BC2
32E0B
00C1E
02AB8
03C0E
32F0B
08F30
3E22C
0CFF2
0FC08
0203A
22B8C
0082A
22E08
22A0B
2FA88
0A008
00FFB
23C21
3CAF2
2E8AE
3C8CE
3BFB8
00E0F
3373C
2A0BC
280B2
1E23C
22BFA
1BF83
3ABBB
2838E
2C0F3
3302F
203BD
33283
20FB0
08BAF
3BB2B
0AB00
0B3E8
030B3
23EEA
0AA80
20F23
320A0
30EBB
3FBC8
3308B
00C2A
0AA3C
23CF8
20CBE
333B2
0BE0A
00FFF
0AB88
0A033
0FEAA
03A8F
080A2
20EF2
082FF
38E08
0AA80
20C82
0A2E2
3FB28
2FF88
2020A
008BE
30002
1EA29
3B380
08E3C
2E2CA
0C0E8
22C3F
3AAA8
0822C
0FCBE
20A2A
2CA0B
080AE
0EA8A
0EE32
3A88C
23FC2
32CAF
3B0F2
2CA8E
23080
0382E
3F0AA
28E08
000FE
3030A
0E38B
0022A
08AB8
032EC
0CC23
20C03
0ECCE
3B3B2
0200C
2B3C3
0EA2A
0A32A
12FE2
2A8AE
2BC00
08E8E
2FE3F
3FACC
0AF02
3ECB1
02E0F
3E80A
2A30A
383BC
3B820
32CCB
028FC
38A8C
2E33B
28802
0E88C
0CAB0
2E988
2FBBB
0FCAC
23B3A
0EF8A
2E82F
20AA2
3A42E
2CAEF
33BC0
0CBE3
33ECE
002B3
2A883
0CAA2
38CCA
2CB08
203A2
3A3A2
02C2E
08A22
030EB
2E822
2A008
08F80
308C8
08323
0F008
23C32
0ECEB
02AA0
3BB28
2FB3A
20EA2
3820A
0EEB2
02F8E
0F203
28AF8
2FAAE
3A03C
0E83E
0A3A2
22300
22D23
3C022
082CB
28FC2
3E0B8
283BE
23EEE
28208
2F388
230CA
00B0C
00800
23ACA
03A3C
083AE
2A38E
0CFE0
3F822
20EB8
2CE2F
03E7A
0CFFB
2A032
3A8C0
0CC3C
2BE8C
30AB8
200E3
2AC84
32B8C
0F33C
22EC2
002E2
2BC82
0AABB
223AA
2FBC0
1087C
2FCF2
3E4AA
038F2
2ACFA
2AA2A
3A23E
2AAE3
0200C
2BA83
002AC
2EC03
38B83
3C003
0AA80
308A2
2AA2C
00338
228A0
0CEC0
00C38
3A088
202A0
3B8A2
0AA22
0802E
000C8
2CE8A
0AA8A
0288C
32888
0A300
0EA00
0238A
2C82B
2E880
2BE0C
02C08
38020
00082
32A22
28FA2
020FE
38088
2EAA0
008EC
0B80E
28222
3E8B0
23A28
0F2A2
22AC8
0F0C8
03C3A
2820B
2AAAF
20A32
22B00
0238A
0888C
00030
2BB2C
2A8EC
0C00E
38B0A
2002E
0A088
0022E
08FAE
0A32E
2CE3A
228B0
028CC
3E8C0
30F23
08328
02F80
2E08B
2C420
2BBC8
00380
28C22
0B82A
22A82
20F82
33232
2ACBA
221AF
3AB3C
0CBBC
20283
2CE8E
2282F
0F22E
22A88
00282
3AC32
28EB3
38AA0
20230
0A3BB
02BC0
0A33E
00833
3ACC0
2B2A3
0C8C3
2EE0F
38BB2
0FCF8
02CCB
20BBE
2EA2C
330E0
2CFC3
2F222
200F8
23BA8
2AA8B
0BCEC
083BC
2A2C2
0EEB8
0B8E0
23B0E
2B2A0
0BAF2
3E2FA
3A8EE
23BBA
0A0C0
0AF83
00CB0
22EC3
232E3
28BB2
282FC
3E82A
30FC0
322BB
0A200
28AFB
23AEF
3A6A2
02038
3CECF
0020C
3AAF0
2B223
043AC
0BB0B
2CFCB
03BAF
0FA20
280A0
082B2
3E3B8
232BA
2088F
3A0BC
02238
0C8CE
2AAE8
2CC28
3B3F0
0EB3E
2820F
2802B
2322B
3BF20
22CAA
2FFEA
2C803
0F08A
0E083
008E0
0ACB8
00AEA
223C0
280C8
2EF28
03A82
282EE
2FECA
0A03B
3AA8B
28A2A
0E8A3
28CBB
00C3A
0B328
00803
383B3
2838E
3CE00
088A3
0CB88
3CAE2
30EA0
032F2
28A88
3FCBA
0A820
032C8
00AE2
3AE08
3BBEA
30E0B
3A800
0A0A8
203BF
0A20A
323C2
000AF
3BE2A
2CF28
328EA
2FAA8
0CC28
380AA
2008E
2E020
08EFA
32263
03280
2EECE
3B2F3
2AE2A
00A3B
0A2A2
302AC
0ECEB
00280
0830B
0FCC0
38BAB
2EBC3
33EB3
0232F
0AA2B
38308
04B2E
2FAA2
3F883
32EC0
328FC
0CB00
2A0F2
2ABFF
323E3
30E3A
0E22C
03BB3
3223F
0C0BA
3833B
2FEEB
2F2B3
23BBA
082E0
0CEE8
03883
322C3
2BBAF
02D0B
2CFBB
32D28
02FC3
003CC
0EF32
000AF
0F10F
33F23
3E23C
2B808
00202
02CAA
00138
0C222
22008
28CC2
03022
022EA
30383
08EC0
28288
08C8C
0E8EE
22C88
28202
0FA0E
28AB8
282C0
32AAB
3CE0C
0E000
28A8B
38020
3888A
302FA
220EC
30A82
200A8
3BBC0
0F80A
0E020
2C80A
22A38
0A2AA
3E382
338C0
2330E
20628
0082E
0803A
02082
3E032
0BE0E
00C22
3FF28
0A0EC
202BE
3CECB
2FA8E
3E8EA
388E3
08E3D
3BCCF
3CE8F
230AA
3FFCB
3CA38
223F3
3B3CA
38F3F
23A03
3838C
28288
2B2AA
30FCB
2CA08
02A86
2A3EC
0B2FA
33E33
0EE5C
3EFBF
0F03F
098F2
3C83F
333C3
0CCAA
0EBB3
2CB0E
33C3A
08F88
2C02B
2BAFC
3EEE0
3E3B2
28FA3
00B0B
00880
0000E
0C000
000C2
00020
20000
00200
22238
00000
00020
00000
00000
020C0
0C000
30002
00808
00000
0C830
02280
020A2
30000
00300
00000
00C08
00002
20300
00000
00200
020E0
00000
00000
32000
08000
00000
0C800
00000
0000C
02000
00000
30200
00380
00088
00002
1A0EC
00B3B
238B0
08B03
08E37
2BCEF
0F8F6
3EBC0
023F2
3FF32
0FCBF
0832E
2588C
2EA0A
2000F
06EF8
000F0
3B8C8
2232A
0FBFF
08AFF
22E3B
3CCCF
232BF
3BF9F
0EFE6
383C8
330E3
00CC0
30FC3
2AFE0
2EEBC
00FE8
3220F
330CB
0332C
0CFC6
2ACFC
30B0C
13FB2
0F8A3
3F0FB
00E02
2C080
0A3E8
00220
2F802
30A23
0A003
08B02
0A00A
20322
2F02A
0888B
3EEAC
3A00C
3B2C2
03A3E
382B8
3EAA2
03A83
0028A
28200
28028
3802B
200F0
2220C
0FFA8
0CAE2
0FA3E
2BCEC
02883
2B00C
20BA8
22A2A
38BB8
22FFA
08ACA
222C2
08B2C
00A2E
30E30
20C8A
0802F
02EB3
0088A
03880
0832C
08030
3380A
3CAE2
2EB8B
0E3FC
22A0E
28AA8
000C0
2AB8A
0AC8A
38808
3B333
20FB2
0CF23
0EA08
038C0
002AA
0C0B0
00838
2C0EF
2FAA8
2A80C
3BC0A
2EEF8
0AE82
028FC
0C03C
02220
2802F
2A020
330C2
20AA0
03F8A
32ECB
20230
2033B
0AA38
08AE2
0A0CA
0EB3F
0002A
222A8
0AB28
2C238
220C2
30A33
3BE08
0E28B
08220
0EF22
2A08A
3008F
0A2AE
2C808
2F222
2E88A
2AFF2
0BCBC
2E0A8
2BF8E
2B83C
2C22F
002EA
23070
0EA28
2B0AB
2A8AE
0A32E
03A38
0A8B0
2200B
3A02A
2AF2B
0333A
3E038
2C3C3
32333
2330A
0E2CF
0320E
2BCAA
022B8
0BB2B
00AA3
0B8A8
08888
0C288
2808E
0C2C3
028B2
02FB8
32E2F
02CA2
2A888
38833
0A8A0
08C88
0AEA0
33A00
23ABE
0A2A8
08302
28B32
22F88
20F0F
20208
2A0BA
30FAB
2FC88
28A80
0B2FB
2B80A
08802
30022
28AA2
2A20A
28220
03F32
22003
202CC
20200
00002
03E8B
28C02
002BB
22ACF
00A3A
0F8CC
0BFCE
3022B
2800B
20AE0
3200C
0C822
00AB8
08F8A
0FCBF
20AC0
02002
0A8A0
03023
08028
3CF08
288A2
32BA8
0222C
0800A
00002
230E2
022AF
2A8A8
30380
23282
2223C
3FCA3
0E830
082CA
3000E
00008
23828
03A00
0B28B
08EA2
380FB
32BAB
30323
20200
0B2AC
0EC28
00C20
20F28
0C20A
28308
02880
2C8E8
02CEE
02DFB
0AAC0
33023
0B3A8
2222A
0E3E8
32CB0
00802
22BF2
3CA8A
32A22
0BE33
2E2A0
22A33
002AB
082BE
32A20
0C028
2A82E
200AA
3ABB0
3AB22
0B88B
0F20F
28FB0
23A0C
03E82
020C2
2280B
0C0E0
2EA02
0288A
0F2CA
0AA3B
000B8
28E80
0022A
08200
02E2C
0C28E
0FFC8
080B2
33ABB
0C00A
20300
3F22F
330EC
22F8B
0FEF0
3ACC8
00BA8
22288
02EC8
2B820
2A23B
08A80
38EC8
302CC
283A8
2EEE2
0B3CE
06AA2
2E32B
2A3CF
08BAF
08082
28223
0E28C
0320A
3AA8A
2FAA3
02F80
30A8B
3BCA0
388EB
23A0A
0AA80
0B28A
222FC
00E0C
28008
00EFE
00B20
23380
080AA
202AA
02EAB
2030A
0BC33
3FCB3
0C802
3EEA8
0383C
38AC8
3F330
38208
02E22
0BFAA
03B08
32230
38EA2
2B0A8
388B0
0282B
28380
2E20A
2FCCC
3CAAC
028BB
0A3B0
30AEF
3303C
230CE
2200F
22008
2022A
000FE
30BCA
3C820
2AA32
30C80
223A8
008CA
2022C
02BE8
2CA38
3B000
3880F
0AE23
002BA
223CC
28BAE
320C8
00B0A
08302
32808
0A832
2C0AA
08CFA
02EBC
38A80
00828
20A80
00282
2C2E0
2E22B
08BEC
2BFEB
0223A
32BFA
3AA83
008A0
2222A
0A322
22E00
3EF82
2C02E
22CC8
022A8
0FB0B
02000
00B30
2BE30
02208
2EBF2
0032A
2BB08
0FA2F
38BEF
2030E
2CFC8
0EAAC
0CEB3
0233F
27279
3E808
08CFA
3A8A8
2BF08
0CA32
3FBFC
204EF
38CC4
0B33E
3E3B0
2320E
30AF0
2CABA
33F8B
02288
3FB8B
23AF3
2B038
3388A
08CC8
3A3FA
068E8
38132
08F30
32ACF
0BE8E
232E2
30C3E
34CBB
2C33B
32BAA
3E2F2
328FC
00032
33A08
0AFC8
30022
0AA08
30333
3CACC
00088
0BEAE
08F22
2E02A
02E20
0E000
03C88
2A00A
030AC
0A3AB
23BB2
3E0B2
22E08
0A88C
08AE0
200BA
38A2C
330C2
020E2
38A22
3AA08
03FFB
0A8C0
3200C
3EA23
0032B
0C882
220AC
00008
3FFCE
20FE3
2CEAA
2C2B8
0ECC2
02332
033F8
0003A
3C330
0C00E
3CF28
0200C
3CC3A
20038
2AFE8
2A083
32C8A
0208B
2203A
3382A
2BC88
2132B
0E200
0E8AE
0832A
2EEB8
3E208
0AC28
2A88A
080FE
2EA32
0A38A
2AAEE
3CA0C
2E0B8
2A838
0288A
382A0
0C8A8
23A28
383AA
233A8
22382
0EAA2
2F2A3
28A0A
20AEB
0802E
003A3
03EC2
0000A
0FEEC
0AB33
0C888
32B0B
2033B
282BD
0F20A
28BFE
3333C
3CFC3
3CAF3
028B8
3A0AC
22B32
030A8
28EB3
2AEBC
30F2B
0ABC8
330B3
038AC
232FE
2082F
288AA
27B2B
0A63A
2A2FC
3E42F
0A83A
0ACF8
3A0F8
08E23
08FD2
02AAB
333C8
3AFA3
23FC8
32EFC
3CBEE
28EBE
3AC83
20C82
00A8A
30AB2
02008
082A8
2E30A
0CEFA
38002
0AFFF
3AEFB
08E8A
08E88
008C2
222E0
2CC00
0BA80
2BABC
0EB82
22A2B
3FC82
3AB86
00EA3
20B02
28CE8
2AA38
203E8
0A0E8
03FB0
282F2
3AB3A
038A0
0A0EA
2E322
2AEE0
0E8EB
0023B
0A28A
23A2C
02A80
00E88
00CE8
0B33E
03BB0
22A0C
00BCA
0B808
03E03
38C23
20803
08828
3FB8E
0C83B
0028F
38238
32FBF
23A84
032AE
2B08C
22200
338CA
2CA22
00FEE
38F83
0ABB8
08E8E
08A88
2320C
3F3A2
3BBAA
36B8A
222E0
3BEB0
3EFAA
0F8AA
28030
3B0CC
08300
323EB
302C3
22A38
00E1E
3C23C
08AFA
3F78B
0AA82
0C283
02CCA
002F2
0BC0C
0E08C
23AC0
0E30A
0C8EB
2E8A2
0B902
283AC
0323E
3FE00
00332
320EF
2C88C
0AB00
3B0CA
0AFFF
22E00
0A0AF
3F0BF
30828
3B2E2
203AE
08CAB
0E08B
0FB0A
3BCBB
20AEF
38BB0
0CBFB
2A2FA
3EECE
30AEB
2833A
3E800
2F3CC
33F8A
2AF3E
32BA0
2A832
30B80
3EF32
2B0A0
003CC
30880
0EC0B
0C28A
2320A
38A3A
300E0
0F02A
20EA0
002AB
3AA8F
0AB83
0F302
20888
0AC03
2BAAA
2A0C8
03821
22E88
32A70
38A2A
3080C
0CCE8
2EDCA
3BEEE
38EE0
32F00
232AA
3CF6B
0A0EA
2B320
3CE80
03A38
38E7A
22323
3C303
08EA8
3F003
230C8
20AC8
3AAAE
03C82
2BCA8
000EC
28838
0CA0C
203AC
3E208
283E8
00081
0810A
22AA3
00ABA
0FEC8
32EC0
022EB
00088
2A20B
2C2EA
0B0EA
2A22B
0EBAA
2EC3A
022E2
288E2
2B2AE
2BAA2
0AEA3
0C380
03A28
2AC00
3CB82
02022
2E2F3
2A2C2
02A2C
0A200
32BF0
33A80
00AA0
2B00A
0AB00
003F2
0E880
0F002
0002A
00802
28303
0B283
38C2C
32880
22E08
2B4A2
22220
00230
32FF8
2A282
0820E
3B280
28C08
0230F
2F00A
2CEA0
033EA
3EA38
0AF10
2C320
28AA8
382BC
33882
2AC3E
3C82C
0883B
2AC80
203B3
0FCB2
3C0AE
2FE0A
0E388
0AAEE
2AF84
33282
0320E
0A10D
00E48
23E83
283B2
0E3C0
380CE
000BA
3B8C0
2A00B
0C283
3AF08
003B0
08EB2
2C0B1
3240E
3AFFC
3EB32
30EBF
3A3B2
0A808
0A3EF
0AA23
20CBA
2FACA
3AB3B
28FE8
2330B
282EC
38EF1
3C0BE
2BF80
38A2F
308C8
0AEEC
0F3BF
000FE
303A0
2C8FB
0C883
03CEE
0A037
3FEFB
3EE38
3BEFB
22ACE
02F30
22FAE
083C0
32F2F
00C03
08E08
080A0
082A0
00008
00B00
3B0BA
0800E
20820
08023
38AB8
2CC0A
0F20F
2A000
2AC00
0080A
0AB22
3082C
00A8C
00000
3AEA2
20002
0C2A0
0C22A
0828A
0808A
23000
200C3
02E22
02C00
20232
388A0
00B0E
2CE23
032A0
380C0
02020
20223
2AB08
20A02
0A083
022A8
0AC0C
00208
20ACE
0CC30
28E00
2B3C2
00CCA
338EE
0EABB
28E0F
08EAB
3AAAB
3EAAF
0F0AC
2FC88
282B3
3F2CF
22BC3
0B8F8
2ABBB
3AAF8
34E2B
38AAF
00218
2CACA
2008A
0AE2A
08CEF
2AF3A
3FCAB
0EABA
082EC
3E3BF
3FA32
3ACA2
02CA3
3B20B
302A0
2CC2F
28220
20800
02002
0CF80
0B22F
00A02
008AE
0C322
3CF3A
2038E
2CCF8
0A000
0C8BE
22CAC
02C8B
32AA3
28BCC
03A23
2BF80
0A0AF
3380E
20ACF
2B30A
2BABA
38EA0
28A2B
3AA32
28CAC
282BA
00F0E
28CCC
08EBF
2ECB2
03C83
0E20A
0E22A
3E32A
282A8
3A2A8
203AB
30802
02AAC
3303F
02E28
0C8EB
0A0A2
30BA2
0BECC
00E8A
322A0
2A300
20E7A
3B383
38B23
28E00
03C3C
2B8F3
02ABB
328F0
2A0BA
0EBAB
3B830
23ABB
0C02A
322CE
22EAD
3338F
33F28
2F2CC
20FCF
2FCC3
0A20A
2A2F2
0FF38
02A83
23203
33B80
0A8AA
00238
22802
333CE
3E082
233FC
3388D
20AA8
2F8C2
3C208
38032
33ECA
32030
2CCB8
008AA
