2E3C3
0AB08
03300
2FA3D
3EC2A
0CBC8
202F8
22A0A
32388
0CE20
00B8E
3BEA8
2ACA3
0FB12
20CA3
08230
30380
0AF0C
30088
2BC33
307C3
00FAE
08B3B
3A0BC
088A0
083BE
0BBEE
2ECF3
002F0
22F8F
0FF32
00AC8
008AC
33C8C
22E88
23A6C
08003
0AACE
208AB
3B203
20888
023C8
0F0CB
00BE3
0E0AA
32EC0
2BD3A
3C823
02238
200A8
0FA2C
320B2
06230
0BA38
00ECA
2F02C
00BEC
02D00
300C2
2382F
32003
28032
2CEAC
2008E
0CA3C
008FA
08800
2022C
2C00B
288CF
2832E
20E00
00028
03282
08282
33FAC
003FC
0B932
23CC0
0B2C2
2A00B
08C8B
0BB20
00320
2FEFF
082A8
320CA
00E2A
0A82F
0EA83
3AFAC
0FEB0
08833
32AC0
2E8B8
2BBCB
3FF3C
20AA8
00E33
0A80B
0ACCA
2E0CC
38EAB
38A30
22CB8
0FAF2
3122C
0CEA2
3BA32
00E29
2F2B2
2FA08
2DE38
3BFFC
3EA3F
208CF
26A0A
38C20
22C22
030AF
0033F
08380
2AA2C
002FB
00800
32803
2E8C2
28A82
288B2
0A0EE
3000E
003CC
22308
3282B
2CBC0
0E22C
02EFA
380C8
3F288
32A88
2028F
20B03
00A32
3E8F0
20F20
0A222
23BB2
2788F
32BCE
2C030
28802
0A3B0
0C3C8
00A20
2C328
2A80C
2BA0B
30322
2CCBE
0083E
0FCCC
0E042
03A8A
2E28B
002A8
20C82
3E220
02EC8
2CAE0
028AF
0B2A0
32CAA
00A3C
0B32A
2E030
0020A
2CFCA
00F8E
2A23C
3003C
208C0
3A002
0024A
283A8
0B382
2BC2F
00B33
20B2B
383FB
0C2B0
3CA06
020B2
2B68A
30CE0
0A082
0307A
2BF0B
00323
0BF0D
0BC23
0000C
0AA3E
2B302
3088C
228C3
23C83
02E2B
20380
00023
23128
233CB
22D32
38B32
380F2
2B8C3
20A3F
22223
0E048
00A23
00F20
2C0F2
2A0F0
20FAA
2B380
0280B
22328
288B0
32A0E
203CF
33A8A
002EE
3A8CE
0000C
3A230
00F3C
2A0EC
032EF
0CCA8
12CA3
0200C
0BB88
000BB
0BA00
20200
28003
31A8B
3320E
2032E
3B02F
22BFB
0230A
02808
00EC3
3CCA0
000F8
0C0EA
22E08
0E02C
0CCEA
0CAA0
038AA
3A03B
00BA0
008CE
00A3B
0AAB3
288B0
008BE
2EE0D
3C280
0F8C2
2A22E
3A3FF
222B8
00BC8
0AA2F
20FEF
2C923
2FB2B
28CA8
3030E
2CFFC
2FE3C
30CAE
0AAFA
00E2A
3AFAA
0083C
232E2
3102F
031CE
3208C
238EC
020B3
0A20B
20BC3
00EA0
30B3B
3E0BC
2A820
2E2B3
0880E
20FFB
02F02
0EA28
003E2
3213A
00208
02B08
38A28
38FF3
3ABB2
0EECA
0CAFA
2C890
283C0
0C0CF
0320E
00282
2820B
0A380
0EB22
08B23
380FA
288AA
38E00
222C8
00CBA
33E38
00F82
0232F
348E0
38CAF
0003C
28E0E
3C38A
08F2F
3EF2B
02003
2BAC9
00FA3
2AA00
00EA8
2FBB8
0BFAF
2F800
222C0
23202
00F43
0FCF2
30C00
0033F
2CAA8
228C8
028A2
3BEAB
2CB0B
31838
2C0FE
3302E
2AEB0
3B203
008A1
3F808
02330
3BA3B
328B1
20CE2
0FA0A
22BEE
0B308
0E0CC
30B82
00AB0
362FF
3F0B3
02803
023FC
080DA
28EAF
0E0A8
2EB83
3C02C
20238
003E2
33C38
30280
0AE02
28B3E
2ACEC
0ECB0
2003A
2AEB8
283C3
028CB
008B3
0A2C0
0EA38
3BA0C
2E82B
0CF2A
0B288
00008
2AAFC
3A232
2EFF0
00FAA
00000
00000
00000
00000
00000
00000
00000
00000
00000
00000
00000
20883
00C08
0EC80
233AB
2F8CA
02800
02008
38C8A
0A00A
380EE
00B8C
302CE
0CECC
200B3
002AF
0A2B3
2C2A3
00328
022AF
02F0A
2B030
00CCC
23AA8
02BC8
2CFC3
3E0B3
10A2C
08BBC
38F83
0F3AB
003BE
23A8A
00003
32002
2208F
3AA3E
32AA1
2BFCE
3ADC2
1F8F2
28ACA
2228F
0DBC3
0083A
00B0B
2A2AA
2FB62
08E8B
1FCE2
30302
02A30
00CBC
20330
32E88
00C8C
3EFF2
2A3F2
26888
3E222
3CB03
02000
22288
323EC
083C8
0BF29
00AE0
30223
223AC
3DEF2
083F3
238C0
2F0FB
0A03B
0E828
0ECA2
080E0
00FAC
0ECB0
0BA88
08282
23322
318BA
2880A
02EEC
3820C
080C0
0AA82
00020
2082F
002C8
2CCBE
03C80
0E2BB
00008
328C2
3A8EA
30030
28AA2
00AB0
00000
00000
00000
00000
00000
00000
00000
00000
00000
00000
00000
00000
02020
28000
2C883
0282B
3AF28
20C82
02888
20000
208C2
008E0
3A3B2
3820C
2CFBF
0103F
2E382
0ACBB
33C2B
02F3C
0E0E3
0AC3E
0002E
3BEF2
328FF
380F0
32C30
002DF
0CF8E
380A3
0AF80
3FEBE
38322
00CB3
28A08
3F82A
2ECB2
333FF
2AE2C
0BC80
2E2AB
3E3EF
32028
28A00
000F3
0EB33
0EAEE
208A3
2BB8A
22C2D
2C088
223F2
0CA08
063F2
2E18A
00B02
34228
0C220
2082F
02B03
20BA3
300AB
2C880
20AFF
080B3
03FCC
00E0A
0002C
02BF8
38EAA
3C282
2C8CB
0BA30
32A80
03B28
3208E
2F2E0
00F2C
3B0B8
2EF3C
02A82
2BA7E
383F2
0EE30
208E8
283A4
0EFFC
32381
00AF2
0E088
0EAEC
2EEF3
2080A
2EC2C
0CCAE
23B02
2E28F
272C2
00AB2
0020E
02F2C
288E3
2F02C
03C0C
2FAC0
2B023
303A8
2F2A3
30C08
2A002
00133
0FF3E
22C40
2E72B
38022
33828
02C80
38BCA
0B833
2E0CE
0E02B
0082E
3B920
0FE88
280A3
2EF33
0A38A
00B8E
02FAF
03C3F
2B383
30FC8
0020B
00F82
28AA0
03CCA
2E3E8
3C232
0FCC0
308AB
2823C
0B3CB
22C02
00080
083C0
28088
28B03
2A80B
3CAAA
0B388
2200C
224FC
292F3
3EFCA
00C08
3C23A
00230
0B0EE
2EA0C
002F0
02FC0
20CEE
0AA34
29E28
0A8CF
0000A
0E233
3CBE8
008E0
0BF00
2ACE2
00CB0
22C82
38A38
322AA
0A223
003AB
2A01E
0A3EC
22FB0
2CF82
2F3AC
00EAF
080EF
00F8C
0322E
0C33A
002C3
0F3B0
3AAC0
0C23B
20FC8
2E00C
2EB3B
2ABEB
3338A
290C8
0FA82
00B3C
0E83C
2808B
07A4A
0BB2B
38C0A
0EBAA
23AC0
28EFE
2A0BB
32A38
0002A
22028
2A00C
2BC28
308A3
2E0BC
0088C
0BCE3
082C0
280FA
2CEBC
002C2
3B2FE
0F220
00B3C
0A3FE
0A020
0CF03
00033
28CE0
28E23
0BF2E
00B3C
330AB
3E28A
208EA
2B08B
0EF2B
00B00
2008E
2A9B0
0230C
3CBB3
00CEA
30A3B
3A2FC
0C8EB
2F080
080AE
3EC8C
22FA2
00C88
062F2
23FFA
002A0
02C3B
2AB88
3A0EA
32BE8
3323E
004C0
20CA3
2BAF8
02208
20EAA
00CAB
0FCA8
0D8A8
3FBC8
2EEFB
3C38B
20BC8
0ABA0
0B8F0
3A208
33EAC
00F2C
00E3A
000F8
300DA
2DDE2
03F38
0AC3A
3BAE2
3C28A
2F303
2A20E
00A2A
202AC
322CC
02008
33883
20BE8
0A20B
30EBB
3D860
0008A
230CF
00CCE
2CC0F
120C2
3E882
10A00
28EC2
33A32
3232B
2BAB8
01382
21083
000C8
23200
31300
0E08B
0AAF2
38E00
38E88
33F08
300CC
2EC88
20083
0000A
0AAAA
00238
30E00
0220B
038BA
22288
3A0AC
03023
380CE
3283E
009CA
2CC8E
33308
0AACE
0A0CA
2200B
28CAB
0C2C2
3EEBE
282EB
2B2AC
00E08
02338
30F20
0CBCA
0B680
3030A
2E080
2CAFA
3E38A
3A2E8
03AA0
0082C
2EAE0
2F2E0
0EEBA
3C322
2F28B
33ACE
2E822
2B8B3
3AE80
02AA3
00A08
2EF2E
20EA0
00CF2
2E3E2
332B8
0323F
3CA93
2230F
2B2CB
20F82
00EBB
2A820
0E0C2
0B38F
0388A
2E38E
022AF
2F3EE
3388B
0A0F0
2327E
00A20
2C088
08232
3008A
2BF0E
0EBF3
22CF0
3A00B
3ACA0
02383
2BA2C
0038E
20A98
3CA20
2AF08
38FD2
0A0AF
0BE2C
3EE8B
322BE
3B00A
2F82A
00FC0
22A08
2E0C0
238B2
00F43
200A0
308EE
3CB2F
2BEF8
282BB
2F38B
00E3A
3CC28
0228C
22A0E
00230
023C0
020A0
0AAB8
2A0AE
2B023
22328
0033C
380A8
2F022
0F3CC
3308B
223A3
003AC
0B2C0
03830
3A23A
022AC
00FAC
0A882
3C21E
2ECCB
328C0
2CCC2
33CAC
200FA
3C28B
22E8E
0E8FE
002B0
20B0B
22FB0
2FA08
3022B
38F02
20B36
13BCA
2C828
1A23A
388B3
002EE
00EFC
3E30F
0F2F3
3E6B3
280E0
323C0
2E088
0CBAA
222A2
28000
0088E
2C380
2009E
0E802
00A3F
120FE
03EAB
382B7
0BA2A
3A308
22AAC
000FB
00A2A
0E0E2
0B838
2308A
22F2F
3C881
3B0C2
28EFE
3A3BA
2AA82
00F24
202F2
0B2AB
1AA2A
200EF
33F8A
36E0A
2F282
0280C
0F00B
33C3C
00BE2
208AF
231AB
0CEB9
2AFEB
12CBF
3C8EE
22A30
0ACFC
1A0C3
08223
000B2
3C20C
232A0
29A0B
0AB8E
281F2
38E88
23A2B
2A00C
3CFFF
0EBAC
002F8
2FCEE
0CA2C
108BF
00CBE
1800C
23F8F
28BF0
2A0AE
283CF
288A2
0033C
0CF8A
0C8C3
2A030
3AC80
2EF88
22C0B
2FAE8
320CC
3A0CB
2B2AE
00CC1
203C0
39BEC
3CCFC
2C2B2
2F70B
3A38A
30B2B
03B88
0FF8E
08CF2
00AB0
09FFF
2B280
3B88F
2BB6A
2008A
3A0A8
2D6F8
2B33C
02CBF
32FC2
00083
3BCAA
0AAC8
0E3E3
3AEC3
03EAE
0EC7C
2B800
30028
0B202
0F0BC
00F2C
303A8
0A830
32E0A
22838
008CE
0E00A
3208E
03024
02300
20BBB
002EA
00C32
30CB0
0ACB0
30AEC
288FE
30002
330E0
3AF6B
0CCF8
2BE0B
002AF
2BF30
0888B
2FFC0
228CB
32C2C
3C338
0F083
0EBBC
032FA
00A82
00EBC
302A2
08CCB
3F2B1
02AB2
3CAF2
23033
28BCE
3EF00
20C00
30BE8
0088E
0C0B0
20B2B
2E3C8
0D0E0
0BAE8
23FE2
0E0A3
23BBB
0F0C2
22C23
00820
00218
2B0EB
2E200
0C023
0F0B7
38AAA
080FA
0C2CE
0C3AC
3F33E
00FCA
3F3AB
0AE80
0C8B8
2B223
0C33D
002B0
3B2CE
3228A
2B00F
0EBC8
00ABA
3BA3A
2088B
0A8EB
0BAF2
20EE8
38033
2838A
008EB
3E3BE
2EBEF
000EA
00A02
0F010
0802A
0E8A2
28300
3BB02
28C02
0C2E8
28333
2EBFC
00A2C
383EF
02203
0F3A3
22E2F
20A0E
238CE
30323
0B38B
3FC38
02FA8
00E3F
23AEF
2A022
3A83E
28E8D
0FAC0
3A2FB
00AF2
2220A
228AC
32020
004F8
0C38F
032A8
0BCB0
23FAE
0EA88
002EA
0202B
0BBB3
3CC2B
20C82
003F3
00C10
3BA30
03CCA
33280
00A23
0CB8B
2BAA0
2CB3A
320CC
0EA00
003EC
0208A
0A08C
2E0E8
2FA30
2A30F
0ECA0
0BEC2
0AE70
2B08C
2EF08
000A2
0AE02
33000
2EE32
0E8E3
0B080
082A0
0B8CB
0C02C
3C0A2
2B032
00CCB
22FCC
02E0C
00E73
30AEC
0C2E2
0BE83
0C82B
03B0F
0E23C
2C002
00E0B
0C83B
2A2A2
2E0E0
2C2E3
20CA2
0EC28
2C83B
2F23C
2A80A
33CB8
00E2E
2CA30
0BFB4
2B3CF
39006
329A0
23B3A
20FFE
2C8CE
2A808
0C228
00B22
0BAEC
3EA2C
030EB
038B3
22C20
2B38F
22BAA
2F0A3
3C2CE
2CA8F
0032F
3FEAB
3A808
2ACE0
00ECB
02ABE
0EFAB
3BFCE
0BECA
2BCB8
0CA0A
00C0A
0BC2F
38BB0
0BBA8
38B22
202A3
03083
2B0C3
28B3C
0A2FB
23C8B
00B90
20AFB
080E0
30B8C
0BEBB
08FCE
3ACCF
00A02
2828A
3A07B
022A0
00820
0E202
2F320
0FB80
0FB8A
0608C
30080
2CB2C
0F0BF
3A04B
08AA3
0080F
2AFC3
0A0B8
388AB
23B2A
32B28
28AA3
28E0A
020FC
3A304
2FEBB
00B23
2FF02
2EB8C
2A326
30BC2
0832F
082AF
20F22
0038A
2A2CA
2F3B3
000CC
003CB
3C0F0
38CA3
0300C
30A22
2CC80
22F28
03BB8
0828A
032B0
000BF
0AB20
2A00B
080AF
38C63
0BB0E
3EEAE
1F80F
283CC
0E23C
32A8A
00DE2
3AAC3
3A2C0
3308C
28B88
2E3A2
3F0AC
02B2F
0330F
3A23F
33B82
00E82
32200
020B0
03AEA
0E0A0
08B80
2A800
302E0
0A848
08000
2AF00
002E3
2FA0F
38AE2
2AEBF
03B8A
2C08C
28E00
00F3B
0E2EE
0A380
23230
0000A
02208
0EA28
0AC3B
2CBF0
2282B
30082
02848
22BCC
3803E
02CC2
00C38
3B30E
0229F
20FC3
022CC
0C200
3C022
288A8
0FBAF
3FE3F
00FEE
00E03
00AFB
028A0
20B3C
2A28B
00E3A
2AC38
23F3A
2BAC0
2E32C
38E2E
0080A
3380C
28280
2022B
00BFE
322E8
233F3
2AAB3
22288
0F0EF
3282C
00F30
3FCBA
38CF8
0FAB3
2F2AB
3EA23
28028
380EA
3E3A4
380CA
0FF33
00FEC
02F30
3208C
3082F
0EACA
223EA
0CC88
02F88
3B030
2ACE0
2822E
0028A
0BA20
22B20
2EF88
03023
080AE
0028C
2CCAB
008B8
283BA
2F333
0030F
2F00E
20338
2E8A0
3EEE2
032F8
0B8A0
208CE
3CB8C
2E3AC
2CA23
00A23
0B8E8
28C33
32BCB
23238
2FBCB
20BFE
20882
0C8A0
2A302
0FFC0
00AAE
320F0
00B23
2AABC
2220F
00A88
3200C
23AAA
02200
283A0
20F02
00238
2EF8F
2C28C
0E8B3
288FF
2E22C
2FFA3
3A30A
20EBC
282C8
03288
000F0
0030B
2ABF0
3F0BE
383B2
2220E
20A00
0CB22
28C2B
3D3BC
0A888
00ABB
03EC0
0AA32
0CC33
20BCB
0222A
2F88C
3039F
0CF0C
08EEA
2388A
00E8B
0A2CF
0EC23
02E38
2CAEA
3B383
202EC
2CA38
283A0
3F03A
0EF22
003CE
0A2AC
28A23
00D08
30BEB
0B22B
332A2
23A3A
282FE
3828E
00C80
00F2B
002AE
23CC8
0C900
228EE
2CECA
2FB0E
08B3C
3CEAC
272A0
003CE
008AB
2E0E3
3EFEA
2C90E
0CA07
00232
0F0FA
328C0
0E828
380A2
2A8C0
00C0A
0C8F0
20F28
03922
2C002
08EBA
037C6
3BFCE
2BE0A
2037F
0EF02
00A38
0FA00
23A8B
28BE0
08EBE
203CF
08C3B
00083
08A28
2C883
30AAF
00B22
22A33
3E0F0
38AC8
2F002
0AFC2
0C2EC
2C882
022A2
380B2
00A3E
008CA
22ACE
030C8
08FAE
3A0BA
3481F
2CF2F
3CFBC
0EFCC
0B088
08408
00AAC
080AC
3020E
38E7E
3BCBC
2A8EC
0CC8F
02083
0A0A0
080E0
2B0A2
0033F
28AD3
038C8
23002
33F2F
3CEA2
20ABE
03B2F
30F0F
3F2B3
30F2A
00C83
0B388
223B8
00888
000C2
02280
380AE
3082B
2F3B8
2032A
20233
008B3
0BA8C
20E20
2AE88
0C8EE
2A0FB
08B00
28C3A
0E3B0
0F300
2E3FC
00B38
23A02
303F8
0B280
0328B
320A0
23302
303AE
3EF88
33FEA
008F2
00E0C
3C83A
3CB0B
38A00
22202
3E380
22802
20022
3A028
3E003
00222
0088A
3BEA8
0203C
3A8C8
2A0BE
28BCC
02020
32883
00C6B
08BAE
20F23
00A33
2FCEE
3A013
22CC0
2EA00
2B8AB
388B0
3EE00
233B3
0C08F
2C0A0
00AFB
20C2E
33FCF
2C28E
3CA10
2088B
0B02B
3BFAA
0C233
2C82C
2C00C
00EF3
0C083
0E2A0
252A8
38BAA
28C3E
00EA0
2CBB2
07222
260F0
2CABB
000CA
02338
20020
0E0FE
308E2
2CE0A
0A23A
3EBA0
0B002
2A0A0
322AE
00A83
3C02B
01E38
38EAA
02F02
33ACA
08238
3FAAC
0BA88
303B3
0C280
00CE2
0C0C8
2EEB2
3AAAA
3B389
2A3B2
0B800
3C02C
2B8CB
380C0
0CAAB
0002A
08A2E
23A2A
3C3FE
02080
20220
0CE00
2C83A
02CF2
2AEA0
380EC
0002E
34AA2
230EE
28AA2
0C0A3
283AB
3A328
22C0C
0C2FC
033BF
30332
00EFB
2230B
28020
0FC8C
308CF
2EE2C
0F03C
23AF0
2138E
00200
00E80
000A0
020A0
020B0
21032
22EE0
02F8E
22E0A
0C882
0E8AB
0E3EA
0CAB0
00AC2
0CF28
0033C
0E1C2
00409
0CE88
30808
28381
2BEE2
2A0CE
3EABC
00A32
2F32B
32AF8
20BCB
003AC
0EFA8
30B0C
3B0AE
02C83
2F2EC
0CEAA
0010F
02323
3A0E8
06EAE
0E0BB
2A2A2
3C220
0CEB3
28C3A
383B3
2A8F0
00AC8
38F2A
038EF
0CC83
000FF
3ABE3
2E080
083C3
3FF8F
3FEEC
238E2
00F8C
03000
020B0
03CFA
0E802
2CE0B
30B8E
038AE
2EC38
20020
2C8E3
00E88
20323
3EAFC
00203
2C000
2E828
0BCA3
38F82
30088
0802C
00E82
002E0
0C02E
02E28
2CE8A
2BCAB
2320C
33000
332FF
2AB80
2A3B3
0E303
00CC2
08C2C
33EB8
06E20
2B0EA
028EB
2FC23
20E3A
02EBE
273CB
0CBFB
00CCA
2822B
0EE88
332AB
203CF
02EAE
2B0AC
380EF
203B8
3B0A8
0E0BB
0032B
28000
032AA
30023
082EE
282AC
20822
0AA30
20AA0
3A000
02CC8
008AB
0C00C
20BFE
0A1AE
200BA
2B023
0EB00
00B8A
00CC2
203C0
0BA83
00AEA
0331E
300E0
2E32B
2A8F2
2C38F
2CF8F
28038
2208E
283CE
3E8EA
00F2D
3CABC
0FE8C
33AB8
28BE0
2ACE0
3B00C
2CBA2
0203C
3A0C4
200F3
00B0B
0A380
00A0E
2E3FC
38C30
0C885
2AEBB
028AA
338EC
0A20C
3ACAE
008BB
22ACA
30B33
2B2C8
0CC83
3A348
2A82A
03082
00E28
3B3E0
00C30
00AE2
0EFEE
06EC8
03882
33C8B
03ACA
2CE8C
0EA8E
3208C
0A020
32A0A
000C2
3C028
0EACB
20CB8
0CC22
02883
0BAA0
3ECA0
32B00
3AC88
2F000
003F0
38C22
2CF2F
3C2B0
3C2A0
23803
3BA8F
38C0A
3CF00
08030
2330C
00E8F
28A28
3ACE8
0EA3C
0833A
0E200
2BEB3
3EA3F
02A0E
2028E
02A22
00F42
2CC0F
08E03
282A3
082AA
38AB0
03C0B
3380B
22A02
3C33F
2C2A0
00CCB
202CC
0FF03
388A2
3C86E
38708
0A8BE
0E200
0F800
0CEBE
3F823
0022F
00C80
3A238
24380
232A8
288A3
0EFAA
280BE
0A08C
23383
30308
00AEA
3B00C
0C220
23FAC
1CECF
2A82C
2F88F
3A3AB
033AB
3CFF8
2330A
00CC3
