2FE3A
1FE3A
2FE3A
082BF
2A2BF
2AC3F
303A3
0A8A3
3AF8F
3F288
0C2A0
2038F
0032E
30B2E
08B0E
220F0
0CAC8
0CAF8
0800C
03202
38200
20F38
20C88
0CF0A
2A38B
3CFB3
038A8
02CFC
00128
3FE0A
2F0AA
2C300
0C30A
3AF20
0AFE0
0BB2B
2238C
228A2
0FB0C
0EB8C
2EBAE
0CB8C
0AF80
32F72
3EF7A
22B82
0CF3F
33AA8
2C2BB
2CA08
0F03B
2CB8C
0EF4E
0C34C
003AB
02F80
00B8B
30AA0
2288E
0CFCC
00220
300C0
0000C
3FACA
0CAF8
0CA38
3EF80
0208A
22880
08000
08CFC
3822A
3F5BC
3F5BF
0C9BF
00200
028AE
0E30C
00A88
3C082
0F882
3A08F
3A08C
3A3AC
20308
20008
20F38
00F0B
28227
03ECB
32230
30EF3
00203
2BDF4
0BEFB
00EF8
0ACC3
08CCB
08208
2CF02
28F0C
2AF0C
29F3C
382E0
3FAE8
2AB3F
0060C
3CB2E
0080C
308AC
3C02C
23A88
0FC30
232B0
08F0C
28A2A
3B0C0
02A88
0C8BC
0C30C
20332
203C2
283C2
2CB0E
2CB8E
2CB8C
20FA8
20F08
28F07
3230C
38A20
3022C
0EF3E
28A28
0F8C3
3B10B
38E03
3AEE3
2FF00
2888A
00FBE
38CEA
08FE8
0AFE0
0C28B
0CC8B
0C28B
22F00
28308
00FE8
2EBCE
0E8C0
0C4C0
3C8CA
0E8FA
0E8F8
0AA8A
003C8
0FFC0
00CC0
08CEB
2B2CB
08200
08000
30320
233AB
20F80
00F80
00A88
20800
3FFFF
238E0
2B8EF
208EC
28F0B
00FB8
00E88
28320
2AF0F
2AF00
2BAEC
3B2EC
38222
002C8
3020A
0C200
3C2A8
3C2AB
3CC8B
22F0B
3E0AB
3C22B
2AA8E
0C3FF
00A02
02F3C
03228
03928
23A08
003BE
0EFBE
280A8
0CF3C
0AF80
2203A
0FFF3
20A2A
20008
00F3B
00C38
3FBAA
3C3A0
2A38F
3AF30
0AAAA
03CC3
00BAC
2BB2F
23B20
32F0C
08AAA
33C03
2ACFC
28238
08CC0
38310
3832F
3AB2F
280C3
23AEB
032EB
00C3C
2003C
2A2BF
08982
30AFF
032FC
3AC3E
38E82
38EB2
022BF
3F183
3F183
0B2CC
08AEA
38CFE
08133
0A233
0AE03
3BDE0
38DCF
3ADC0
0A30C
0A00F
0882C
0E8CB
2C8EB
0C7E3
20E32
23E38
03EB8
0223C
3EA2C
3C9EC
37228
06CCF
2AFCF
2A3FC
2BA3E
03A3E
022FE
309F0
30ACC
0C328
3C32A
30B28
0BF22
04300
08FC2
222FC
3F908
0F100
2E3BF
0FAA8
3FA80
20AFE
2C8FC
20ACE
