0000000B
FFFFFFD8
0000002B
FFFFFFB9
FFFFFFF8
FFFFFFF3
FFFFFFDF
FFFFFFF4
0000004F
00000021
FFFFFF1B
00000090
0000002C
00000044
00000043
FFFFFFF5
0000003D
0000001F
FFFFFFDD
FFFFFFE0
00000008
00000057
000000A1
FFFFFFD2
00000054
00000075
FFFFFF8A
FFFFFFF1
FFFFFFD0
FFFFFEF4
0000001A
FFFFFF90
00000046
00000020
FFFFFFE6
0000003C
00000037
FFFFFFC7
FFFFFFF1
0000004F
FFFFFFF7
0000002D
FFFFFFE3
FFFFFFE7
0000000C
00000000
FFFFFFFE
FFFFFFB8
00000006
FFFFFFC7
FFFFFFF0
00000043
00000017
0000002C
00000088
FFFFFFC9
0000005F
FFFFFFFB
0000001D
FFFFFFFC
FFFFFFE4
0000007A
00000022
0000001C
000000B6
00000021
00000094
FFFFFFC2
FFFFFFDE
0000004E
0000009A
00000013
FFFFFFCC
0000005B
00000063
0000012E
FFFFFFBE
FFFFFFA8
0000003F
00000056
0000000B
00000056
000000D2
FFFFFF8B
000000A2
00000053
0000006B
00000050
000000B8
0000007F
000000C1
00000042
FFFFFFDF
00000062
FFFFFF94
0000001A
000000A8
0000000A
00000073
000000A8
FFFFFF88
00000049
00000025
FFFFFFFF
FFFFFFBA
0000011C
FFFFFFFF
00000009
0000009A
FFFFFFC5
00000057
0000000C
FFFFFF7D
0000001B
00000089
00000039
00000020
FFFFFFAA
FFFFFF9D
00000070
00000044
0000005C
FFFFFFCA
0000001C
FFFFFF92
000000E5
00000032
00000090
FFFFFFD5
0000002D
00000037
00000055
00000010
00000019
000000E9
000000AB
000000B1
0000015B
FFFFFFD2
FFFFFFC0
00000047
000000F2
00000024
00000059
00000001
00000012
00000000
FFFFFFF9
00000036
FFFFFFB4
FFFFFF89
00000098
00000038
FFFFFF56
0000004C
0000001F
FFFFFFF8
00000013
00000002
000000DE
00000039
0000014D
0000000C
FFFFFFCA
FFFFFFEB
FFFFFFF0
00000049
FFFFFFFC
00000015
00000015
000000A2
00000008
FFFFFFF6
FFFFFFEE
00000050
00000026
000000CC
00000044
00000037
0000000A
FFFFFFEE
0000009C
00000007
FFFFFFC0
00000067
00000029
000000F8
FFFFFF3A
00000042
FFFFFFEB
00000061
0000003C
