2CBE3
303A8
22083
23F20
3EE08
2E0F2
0AB88
0080B
2AACA
0B82B
0002C
0BE8A
2832C
18C2A
2F0A8
33CA8
3E200
28B8C
000DA
20338
0BAAB
003E2
2A3C2
08E38
3E283
0AF02
00EEB
222F0
32B0E
2E38E
32832
0B028
0088C
280EC
0AE0C
3C2B2
0A38B
00B0B
022A0
3F3E8
0ECA8
088CB
0EEBC
00322
2EEC2
24CC8
34C0A
0E8C0
00EC8
08F32
0890F
3A032
28300
03BF7
000E0
33038
20020
08CFA
082FE
282D0
332FC
0C98E
003A3
0F02C
02AE2
0003A
000C3
23AC0
30BA3
0B0F0
280EE
08E2C
00333
00282
0828A
238A2
00832
0F2B8
2AC08
083FA
0823E
28CA0
338CB
2C930
0B033
0C2CF
022C0
001BA
3023F
2A228
383C2
03E3C
0822C
3FB33
2F930
3B8B0
0F0BF
22AE8
00230
2728B
28EF8
20A32
2AEBA
30222
2FAF8
20A32
20BC8
0E083
382BA
008CE
3CF8A
0FAA8
01CCA
080C8
0CAC3
23FEC
3AFA3
0EC0C
03FE2
33EEF
003FA
2B882
20080
2CC3B
32BE0
3E8CB
228FA
0AB0E
2A3AC
3AE2C
388E2
003C3
080FF
00228
0DBFE
22F3E
22AC0
3B222
30B3B
20003
00AA0
233EA
00030
2E8CB
0B3E8
308A3
33302
08C0F
003FE
2B083
3B232
28BB0
2C8CB
002EB
02FCC
0280C
3F00F
3F00C
2233C
008A0
33333
02EBC
03008
2C002
00EBB
2E080
3E3A0
2AE8B
3F320
222C0
00CA0
3AC2A
30A82
3B3CE
0C383
00FE2
0CF02
330A8
3EFEC
08BFE
202C3
033FE
3E283
2CF8F
308A8
22CE2
002B7
38AFB
2BEF8
2A3AC
10EF8
30CEE
33208
202BC
02638
2208A
333B8
008EE
0B32E
0CC08
002BC
3203C
08BB2
3FA32
0F8C0
0BF2B
3AEA3
02C0E
000B3
03A8A
33B38
1280C
28B0B
3BB0E
33C3C
1E20E
0FBDB
2E383
2EC02
00B03
08E03
28A0C
2E8AC
08FAB
3C00B
02E13
2C303
0E8EE
0AF00
30843
003EE
2808C
0A2B0
0EC02
0A3FF
0E0C3
22A23
0E3EB
2EC3A
38E22
30C80
0080E
038E3
3E03C
0F8F3
0000C
0030F
20BF8
38F3A
0020B
22AE0
20832
00EF3
0E0CB
2002C
02308
02E02
028E2
03EC8
2F828
38AB2
0C83F
32303
00A0E
0B28B
28A00
1A832
2238B
38092
3FEA3
1C1C8
2CBE8
2DF8C
2228B
00BC2
33A2B
303F0
20A10
2BBA8
08F8F
30EA3
2CFB2
0CBAA
283B0
2AABB
00BDA
08F49
00B20
00C81
3AA0F
0C280
32CAF
0302F
03CC8
3BF33
0EEEC
00CA2
0EB0B
3C33C
0082C
0C023
0003F
28323
0AF82
0EA33
083EA
2BA8F
003C8
02F82
202A8
32FCE
323FE
0EDCB
00E00
02313
22F3C
3F320
03CEC
00202
0EF04
383BC
00CAE
0F8EB
3C03F
2A028
3AF60
2E2FC
3BC09
3BE43
00BE2
00206
0CFF0
2832B
2AB28
30CC0
003F8
2AF8C
0AB88
2AA32
348AA
003EB
2A88A
2B300
2C080
00383
3FABB
02C22
23EE3
2C322
08C08
02C8C
00FAE
2E3AB
0EBE0
000A3
3FCA0
03FB0
028A8
0BFAE
3BA82
08BFA
0BB03
00FDA
03BEA
0CF00
03E3A
32ACE
000BE
3BAFB
3823E
0AC33
0F0FF
3000E
002B3
3AF3C
23A28
3CBAC
32FBF
302E8
2CEEC
3CB03
2EC00
308A2
20C08
00F0C
002E0
3E22C
08EFA
08A30
2802E
302AB
2FEF2
00F80
0C38F
32C30
00832
208EF
308B0
308BF
00300
0E30C
20820
30F0A
22830
0A202
0A0B8
000E0
0C33E
02BAC
33C03
0B9C8
2E838
20382
30FE3
02C3E
33CCE
0C380
00CA3
3C3BC
3EFF0
3002E
2F280
00330
2A80B
3A331
082BB
082CA
3B080
00003
3BE83
20288
2A3CF
03CA8
02C2A
0CA9B
0C888
20B0B
3CF8A
230BB
00BEC
0FBA8
3CB08
00FEC
033B0
033CF
043AF
0AF4E
03200
0BBFA
2BEC0
000C8
08EA0
260E0
33A3A
3A0BE
08C22
0E22A
2FAEA
0B382
3C27F
3E3CB
00002
38C80
28000
03CA2
32A2B
0FCA8
0E8AA
22A80
2ECC2
30C3A
382B8
0032E
2CF08
28330
3828A
0E2EB
3C0CB
0223A
08AA3
3E20E
023C2
3B328
000E2
02283
08AA0
3DF83
38FCB
0E8FB
2CEF0
02B83
02C00
00EE2
033C3
0032E
00000
00000
00000
00000
00000
00000
00000
00000
00000
00000
00000
00BBF
0E338
3088C
0F280
023BF
2C4A3
02FFA
2B0CB
30E00
2AABA
00C0C
2C7CC
0B0FC
38823
2AFAC
0FB00
220FE
3AE0C
3E28D
2A828
0E30A
00C0C
03E48
0EBA8
12F00
0F3A8
0C22A
02023
200A2
08BAA
3338C
000AF
003E2
28BC2
30CBC
0FBBF
2A003
03BBB
202F2
30FC3
02823
0EAEB
00B32
00C83
03C33
22280
38FCA
02EFE
02DFB
30C28
0028B
2A03C
3F0BE
33388
002F0
038C2
3FAA0
0D33C
08B3E
0BAC0
33FFE
32A0F
0FB8F
3282A
2EEE1
000B7
020AB
280E8
0C2BB
3BF88
22CA2
020A3
0F2EA
3F0EA
0ACB3
0EC00
00820
0BAAE
2CC00
23E3A
0AA28
308AE
3CA28
2203E
22328
068BB
32A3D
00832
30C8A
3C888
01C22
0A08E
0E2B3
002E3
023A2
22328
3FF2E
08EEC
00332
0B233
28E08
280F9
2ACB0
0ACDA
3F2F0
1C900
2330A
0E08F
32B0A
008FE
2EC0F
0EAA0
39EB8
3003B
2E2C8
020A8
3030B
0EE8A
3BCEE
03B83
000EE
0CC0C
0A8A0
30FEF
3300E
220F3
003A3
303A3
23EFE
3C03A
220E0
001BB
3F828
3CE0C
2EA32
0EB80
288AB
0BE20
30009
0E083
0CBEE
0FCCC
008FA
20E20
0A028
08C07
3C2C3
0CC0B
0ABA3
3C2AE
08C82
0330C
303CB
00AE2
2EF0E
0AA28
33CCC
300FE
2E2F8
0232C
3F32F
3AE3D
3303F
323C8
001B2
0C0CF
02E08
30FC0
020FE
000CA
2B22B
3A333
2AABF
3CE0E
300F3
002F0
3E2FB
00E30
0AFC2
282CC
030E3
0B0C3
2A23B
3263B
0ECE2
33833
000FC
2EBFB
0FCC0
320EC
28F20
32CC0
2AFFE
3B3BC
38AB2
004CA
00AC8
00C02
22E0C
022D8
3E0F3
30F3E
20800
0330E
3FBF3
3BC02
0F28F
3EFE0
00DBF
202CA
28E00
2823A
2A0C0
00E28
0CEFA
229C2
02B0A
228A3
3C888
008CE
228C3
24FFC
2BAA0
0EB1B
3FF88
022B6
230CE
028CE
2A0B8
3BBB3
003DE
203AB
0BB3C
33AA0
3C823
3F3BF
0A802
28FA3
0CECE
0AECA
38C80
000E2
3B2F3
0B0B0
0FBFE
28A3E
30C0E
3CA23
02EBC
2883F
3CB82
280B2
00838
00A0F
3B23C
2ABAC
10BAB
0B383
030EE
233C2
2CA08
2A8E8
0A8B3
00BC2
3390B
08E0C
2AC2A
2B02A
03C2C
3BC23
10FBE
02628
2A3B2
03AA3
00BEA
08A3F
28E00
3ABCC
0ACFE
3CAE8
2FBF2
0833F
0AAF3
22280
3C88A
002FC
2EF8A
0F8A0
22C88
32028
0C900
22CCE
22AEC
3C83A
38B20
3FC9E
00F2C
202E3
22C3C
08E06
022E2
0EC2B
0AE0A
23AC8
02A82
28030
3B0B3
000C2
28803
2B03C
20080
0F8EB
0B38B
38E28
230CA
0EA28
2ACC8
30830
00002
0E2CF
0022C
3288B
2B230
283E0
3B2A2
3C0CB
0E2BB
000AE
0283B
000F3
0328B
30030
222AC
2A808
088C3
3BEAF
1CF8A
0C8D8
2AFBB
00E8C
00BEA
020B8
0B80C
0A2AA
20233
3C803
08E22
2BC2C
3CEC1
203F8
00C2F
0000A
2EBCA
3FB00
2EAB0
3CC80
08800
0038E
30CC2
30EBB
08AE3
0FF2C
00C03
2E8EB
2BFC0
28A88
03020
08F08
08C2A
08AC2
3EA8A
2A4E0
30B83
003D0
228A8
20A0C
0EEBA
383FF
20003
008AE
20F22
0C004
3AEC8
32ECC
00002
2CF3E
082A8
3F0FC
323FC
200F8
0003E
33023
03CCE
33203
20CC2
00E78
0A023
003C8
2B8A3
3F282
0838E
30BAB
0CF82
0300A
003B0
0B033
008E8
0023A
23C3C
02C29
0A2CA
3C0C3
02ECE
2AC8F
02822
2E38A
3B2AE
0080A
2DACC
338C0
2880B
30F00
088C8
23FFE
332CB
3E280
2A4E2
0EBA0
00FC3
28E2C
280E0
332B8
3AEBC
000AA
02208
3FAE0
0BC02
03273
320CB
0000E
02C8C
30ABC
30008
008FB
0ECC3
000A0
21FAB
2E00E
03CAC
030B8
0000F
08883
38300
33BAF
3F2A3
28F8E
2880C
082C8
03AC8
08E28
2A23A
0008B
0AA3C
3F02C
18223
23A20
2832E
333B0
2C1FA
3F8A3
2ACAF
2E8FA
00B03
20ACB
08FF0
188A8
23CE7
38FE0
3223B
2B08A
0C40A
2A83A
3B83B
008D0
0F2FF
36A3C
3B0C0
0A83B
02323
00320
2CC28
0F02D
0FECE
02A38
0080C
3300F
282A0
3ABCC
0FEF0
2202C
0F22B
2C9C8
0B03C
0F0A0
01208
00033
3CBE4
3E33C
23280
2F0A0
003BF
08088
0AF81
222F0
083CA
08EAC
00328
20D88
288A0
2AE86
103EB
33028
38C02
229A3
3CA2E
20F80
0F883
00BEA
28BE0
0B800
0C88F
28FC3
0F3CF
2A0FE
2BFB0
0C2C0
1A2CA
002EA
00CB0
3F230
2B228
22BFA
2ACBC
382E2
3FC3C
2F903
08F8F
0CFAC
008E8
00AF8
200EC
02228
3E8FF
02FBC
20A08
0FF0E
3FBC3
2CCA2
0B28F
02FC8
00E3F
208A0
2800C
00883
02C2B
0C383
2A20A
00F2B
0E2C2
0A2CB
30080
00EEC
02CCC
3E800
32C33
3C0B0
1E083
0A0AB
3F32B
28C80
0300E
2C0C0
00A3B
282EF
2A2E0
3F2B3
38CB3
0C08A
00AA8
0FAEB
38C02
30EBF
3EF00
00C2C
2CFAA
3C82C
02EAA
00033
0F083
0AFAE
2B38E
02E0A
0BBCA
00E0F
00FEA
3CBCA
3C030
22202
22802
0083E
3303C
0223E
0F82B
28808
08EFE
00038
32CB0
02008
38F02
002FC
022CC
00288
001C8
303BB
3C3BC
0032B
0023A
38F30
0CF38
2332C
0C9C0
30F0C
028B3
22E4A
080FE
03CB0
0823A
00AA0
0EF0A
0EFB0
33E89
0CAE8
3CA30
220F8
3A3BC
02033
3F33A
3B3AC
00802
0C00F
3CAA8
0E0FF
3C33C
22ACC
0BF2C
0CC2B
0FC4C
3FBEE
2CFE3
0003B
2E32B
203CC
2AAA8
0C023
0033B
02AAA
0B8EA
3CA02
080CC
33B33
00C22
08BF0
2FFF0
0BA2C
2FAC0
33FB2
0FA30
3B230
3B3CB
08833
02832
00EB3
02ACB
08200
0B024
2B8E8
022E0
0BF30
20EB8
30A3C
2A38C
0F80B
008E8
22108
3B22C
2ACA2
10B97
3B323
30E28
2A382
0E822
2A3F8
08AB3
00BEA
00AE3
32ABC
0F303
2BF23
220CF
2A023
3CFA8
20A8C
00C3E
0BC37
00BE0
03AC3
3CE2C
28ACA
2B202
0802E
3B03C
0C23E
038AB
2CBB3
0EACE
00BF8
3BBB0
23B88
1CB3C
203A3
30838
0C2FC
02BA0
20BEC
3C028
2AE0A
00333
3BCA0
0A828
23FC8
3C08F
0CCA8
0D82F
2C9A2
2330D
3F38C
0EC08
000EE
2E282
008A0
3E283
3FA88
2A80E
03FA0
3F2E8
33088
0808C
0C303
002EB
3EE08
3CC00
20E22
23A2A
080EE
300A3
003BA
00883
03380
03280
00BE8
00B0A
0F08C
220B3
2AB8F
33A08
0BCFE
0A3C2
0CBAB
0A820
0E02E
00FBB
0CC3C
2A20C
333CC
32EFC
222BB
2C000
0F32B
28C3C
3F883
02F88
00EAC
00288
2808C
0AC08
0AFE8
3C20B
0CCF8
28320
00AC2
000F2
30AA3
00022
082EF
002EC
3CB0B
03FB0
22088
28220
2C3FB
02228
22A0E
32A88
000FF
3C886
3CB2C
18A28
2F2A8
0BB8E
30F80
08CED
037AB
28738
2CB2E
003E8
08F08
3E0B0
22FAA
2A8EC
30203
033B7
32038
3CBFB
00EC0
030AF
000A3
2B9BB
0B030
18B20
1B08B
3B3A2
3320C
10002
20BE8
22388
222BA
00BE0
3BFAC
03388
0F38C
3E283
2204E
3E8AF
2C02B
2FFCC
38F80
02E80
0002E
0332B
330B0
3CB2F
2CF20
3CB3F
082EC
2AFB0
2C2FE
09C0A
28D88
00B08
2EB0B
3EB0C
20883
0F3A0
283FF
083A3
38FEA
3308A
280E8
2F3B3
00CEB
2B20B
0BC3C
280AE
22823
3BFA0
000A8
12FBE
2C8CA
2ACC8
382BC
008EC
0B923
28008
20438
28FB0
0B8A2
0F2F2
2FA02
00B20
0E88F
328E8
00230
22ACA
032EC
08C82
06BA8
0C823
08EEE
28FEC
0208E
388CB
3ECAE
00B0E
2232C
02228
3C8FF
32F3C
22033
2080E
3F3EB
08E3C
08EAF
00FC0
00E8F
20AA2
243E0
2B0B8
0F828
3338A
0028A
03A28
308DA
28FBF
308F8
00F21
0EC80
30AA8
32E0A
0ABF3
222C3
0AC8C
322A3
3E022
3BF0C
0BFE3
000C2
02F0E
0A2E0
3FFC0
3AACC
03CF3
02032
333E3
32CBE
3F03F
32FF0
00EA3
380FB
08C3C
03800
21AC8
3C080
00038
2AF8C
2EAFC
2E382
3B082
00408
0C22C
0C2E0
02EFA
2083E
28AE2
03F0E
0C2C3
3CC4A
2FB8F
0EBE0
000FA
38222
0EFCC
231B8
0FA02
20B80
0388A
082F2
0BCAB
0A8C3
3CCBE
00003
2E2CF
3C00C
3002F
030C2
220EE
2BF00
3AFB3
332BF
0A8C2
2F8EE
0003B
2EAE3
0A82C
30A0B
3FCB8
2AB0C
23FA0
0FE2B
33AA8
2088E
2EBFB
002E3
30C4A
2AB28
28ECA
3F22B
00A02
00CAC
22920
33BA2
0FF8C
0C023
00322
0C30B
3E280
32FC8
002F2
222CB
2832C
30388
02A3F
3FFE2
3FBCF
008CA
3BE80
0EB80
2800E
0C0A8
00BE0
2E2C0
3C832
2388B
3A82C
38FB3
002FA
218EF
0C20C
3E883
0CFB3
20BC3
233A2
333C4
2C22B
0AAE0
2C3B8
00CFF
0333C
0A008
3F3FC
3B83E
28C8C
0380F
0CE80
0BC0C
3C830
02ECA
00EBB
0CF00
30880
3C0C3
033F0
222F0
0B33C
00F8B
0FEFF
000E8
1CCE0
00EBB
3BA3F
03E88
22BFE
1BE32
043AE
3FAFC
2E2B0
2B323
0EC8C
220CA
00BF2
283A0
3003C
2E2BC
32B8B
0C80F
00290
32FC2
2CF28
32C80
02C80
00F2E
28220
080E0
3C9B2
0AB8C
033AA
032C8
3F8C3
00FAB
0828F
32C0E
00832
2E38A
3C3A0
2AAA8
3F220
03032
003BD
3A2C2
33B00
0BBE0
0F32F
00C2B
0C030
2E3E8
3B00A
03AFE
03E80
00B38
33A3F
34C08
0F83F
0EAE2
00A38
380F8
23E80
223E0
28CCE
0220F
33CFC
2A38F
208C3
0EA0A
032A2
00B00
0BE3C
20EB0
083CA
2ACFC
3CE20
0C2C0
2EA03
22BFE
3E280
38082
0023E
0B8CF
0E030
33BCF
3F23C
2BF8C
2CB33
32C30
080FF
08228
2AA3A
00EBB
026CF
3CECC
2200F
23C88
0880E
3BF2C
303F0
3287B
0A408
2C88E
003FF
0B838
2BFF8
23302
2BC20
3FE82
3CAF0
2303F
08BFC
3C3BB
08A82
003B2
2EB88
30BA8
2280B
233AF
338EB
2830E
0222A
0F0A8
208E2
208CB
0033B
0F0F0
2EEC0
3BEFA
0AACE
08EC8
383F8
089B2
0283F
0FC3C
3CB3E
00AF8
0282B
303FC
188AC
230A8
0B30C
03320
0AF31
0E48B
288EA
288BC
003E3
3C38A
2FBEC
2A820
20EA8
3CA8A
0E3EE
208EC
088AA
3F7C8
3E8AE
00C2E
030EC
30020
3C233
383BE
28B00
300EE
3320B
00C83
08A23
22CC2
00EBB
30820
3A000
0E2BC
0B8BB
28B80
33AAF
0FEEA
2F3AB
3A08F
2ECC0
00808
308EA
3FFFC
20AAE
00AE2
03082
0B303
0AC8E
02A33
08B2A
0F00C
0000B
0EAE3
0E0CC
28AA8
0B8A8
2A32E
003AB
3F301
38888
2BB80
08BBB
00BE0
02FFE
08200
3F3C0
30AFE
202F2
0AF00
3CB2F
38C3C
33800
3C3C0
002A3
0820B
28280
2AE86
0ACC8
32E28
08E38
239A3
038CA
0CF8F
3C888
000EE
00BBB
332B8
2E08C
230F8
2008F
088AF
03C2A
2F0CA
3ACC8
08EC0
00322
3B20F
20200
30FFA
28E00
08E20
03222
2F98B
00000
0CC8C
000CB
008E2
3B00A
0003C
28EFA
02428
00B73
3832A
22FBE
22820
2BC8E
38AB2
00BFB
2B0B0
08CA8
2C03E
20A0B
030A2
3FA0C
2C2F2
2C3E3
32C8B
2AEBE
00002
38C0F
2F280
0232F
23C00
0C808
23220
00B83
0A00B
2E2EA
0F280
000F0
0E3A8
3C30C
0AEAA
00A2A
0C023
080A2
08F82
00208
283F2
03A2F
000EA
2F0E3
3E0CC
0CBC3
3C33E
20F02
00BE3
30230
3A28B
0CA02
02008
002FB
303A8
3F8A8
2E38C
0038B
20A30
0FE1C
2CC2B
2FC82
3AF28
23E20
003E2
3AF00
03808
0E08C
0CA33
00200
0E2AF
0ECE3
2F3C2
38C88
2AC0E
00CAE
203CE
3F088
3C3F2
0083E
2023F
330FE
30F3F
03CFC
088CB
2CCEA
00E7B
0CBB8
3C3A8
1CE80
0CA2B
20038
003B2
0ACC9
3FB28
38CEC
03F0F
00323
28288
27328
1CAB8
23FA7
3B0AA
30238
2F5E2
30BEA
2EBBF
0EB0B
00022
002CB
33EA0
28E2A
1B02A
08822
0BCA3
2F232
0EA8F
10B82
3F080
00BCA
02CCC
0023C
3F22A
0A2E8
3ECEE
02CAB
32FAF
2EC3E
33B40
0BC38
008E2
0FBE0
0CCF8
33003
00CEE
00EAC
20BF2
38032
0AA8B
02830
03A8A
002F3
220B8
22B00
2A88C
0F0A8
2A33B
2EA2A
0882A
2F0E6
02CCC
3B0BB
00CE2
0CF28
3E3B0
38C0C
03A30
0CCFF
2A3AB
3AC8A
200B0
33FCD
080AB
000EA
0C8CF
3FE8C
08800
0A000
2032F
0B30C
08220
3CA33
0AA2A
02CC2
00833
2EC22
000EC
08CAA
332C0
0388A
08088
03800
3BF33
0B0F3
338AC
000E3
00BBB
2BBC8
03BEF
0FE8C
38340
20ABB
2B882
3B3C0
00F30
22AF7
00222
20A00
230CC
2A08A
283AB
0300B
03EC2
220CF
0E8AC
2A820
3C880
00BFC
32C80
0E2A8
0EF00
23F0C
0E203
2A0A3
32F8B
220B3
303A2
2B0E3
008C2
0EF2C
0EBC0
3FABB
3FEBF
23BF3
28BB2
3B3EB
33E30
032F3
3FFCC
00EA3
2BBC2
0B330
0F8CF
0C333
0C8F0
20032
09FBF
000CC
08202
220FA
00FB3
0BA23
28028
1E83C
2BFBB
088AA
0F223
2F9E8
00B28
3E08F
22008
00B32
12CAE
2B308
382BA
3EA23
3F008
2EE0A
0C1E3
300E1
08CBC
30B03
00C2E
028B8
3BB00
28828
2F81B
0B303
003B8
22228
3F0AB
028CF
033CB
00C2B
33BBF
3FFB0
203CC
2F2FE
2083C
33B3F
02CB8
2B3CF
3CCF8
222CA
0023B
