FFFFFFFF
FFFFFFDE
00000019
0000000C
FFFFFFE9
00000019
FFFFFFF3
00000036
00000015
FFFFFF85
FFFFFFFB
00000044
FFFFFFEF
0000002C
FFFFFFB8
FFFFFFE3
FFFFFFA9
FFFFFFE7
FFFFFFC8
0000004B
FFFFFFDE
00000030
FFFFFFA8
FFFFFFE5
FFFFFFE7
0000003A
FFFFFFAE
FFFFFFE5
00000008
FFFFFFD7
FFFFFFD8
00000010
FFFFFFEC
FFFFFFF4
FFFFFFF7
00000004
FFFFFFCA
FFFFFFB4
FFFFFFEC
FFFFFFEB
0000000A
FFFFFFF5
0000000D
FFFFFFD3
FFFFFFB7
0000002E
0000000D
FFFFFFDF
00000047
FFFFFFF2
00000033
FFFFFFC4
FFFFFFDC
FFFFFFF8
00000005
FFFFFFD3
00000022
FFFFFFEB
00000009
0000000C
000000AC
FFFFFFBC
00000025
00000011
0000001D
FFFFFFFF
00000069
0000001F
FFFFFFFA
0000006C
FFFFFFE7
00000025
00000001
FFFFFFEF
FFFFFFB4
FFFFFFE1
FFFFFFF7
00000018
FFFFFFE4
00000018
0000002C
FFFFFFD7
FFFFFFB5
0000000D
0000001B
FFFFFFBC
FFFFFFD6
FFFFFFD2
00000005
0000000B
FFFFFF96
00000001
00000040
00000002
FFFFFFBF
FFFFFFF6
0000001E
FFFFFFA2
0000002A
0000004E
FFFFFFF5
FFFFFFFB
00000007
FFFFFFDF
FFFFFFBA
FFFFFFFB
0000003C
FFFFFFE7
FFFFFFA3
00000046
00000000
FFFFFFDD
FFFFFFFA
00000025
00000016
FFFFFFDF
0000000D
FFFFFFD7
00000000
FFFFFFCA
FFFFFFED
00000028
0000000C
FFFFFFDD
FFFFFFF3
00000018
FFFFFFDC
FFFFFF81
00000021
FFFFFFFF
FFFFFFD3
FFFFFFBC
FFFFFFFA
FFFFFFE1
FFFFFFD2
00000009
00000031
FFFFFFEE
00000054
0000002D
FFFFFFD5
FFFFFFF7
FFFFFFF1
FFFFFFD3
FFFFFFDB
FFFFFFEA
00000064
00000028
FFFFFFA7
00000023
FFFFFFDF
FFFFFFB6
FFFFFFB6
00000024
00000014
00000004
FFFFFFD9
FFFFFFD0
FFFFFFF9
0000007E
FFFFFFFD
FFFFFFCA
FFFFFFFF
FFFFFFC8
FFFFFFEB
FFFFFFF6
FFFFFFE0
FFFFFFF7
FFFFFFEC
FFFFFFF9
00000022
0000000D
0000002B
00000007
00000000
FFFFFFC0
FFFFFFD0
FFFFFFA4
0000000C
0000000D
00000088
FFFFFFAF
FFFFFFC0
0000000F
FFFFFF9E
00000008
FFFFFFC8
00000008
FFFFFFD7
FFFFFFE5
FFFFFFEA
0000000D
00000008
0000001A
FFFFFFE7
FFFFFFFF
FFFFFFCE
FFFFFFFE
00000017
00000053
FFFFFFFF
FFFFFFDE
00000008
00000032
00000008
FFFFFF83
FFFFFFD1
0000005B
00000080
00000014
FFFFFFE5
FFFFFFFA
FFFFFFC3
00000000
0000001B
FFFFFF8B
00000006
0000001E
00000017
00000025
00000020
FFFFFFFC
FFFFFFE5
0000002D
00000049
FFFFFFED
FFFFFFEC
00000014
FFFFFFA6
FFFFFF9C
FFFFFFCA
FFFFFFEA
00000026
FFFFFFE3
0000001E
FFFFFFE3
FFFFFFF0
FFFFFF9E
FFFFFFE6
0000001D
00000025
00000016
FFFFFFAF
FFFFFF86
FFFFFFD1
00000021
0000000A
00000001
00000030
00000043
FFFFFFA5
00000009
00000022
FFFFFFDB
FFFFFFE1
00000016
00000035
FFFFFFA5
FFFFFFF9
00000050
FFFFFFC7
FFFFFFEA
FFFFFFF9
FFFFFFE3
00000015
FFFFFFAE
FFFFFFF0
FFFFFFEA
00000067
0000000D
FFFFFFB8
FFFFFFCD
0000001D
FFFFFFF3
FFFFFFEC
FFFFFFD2
FFFFFFB9
FFFFFFEB
FFFFFFBB
00000032
00000024
FFFFFFE9
FFFFFFF9
00000029
00000019
00000086
00000067
FFFFFFD9
FFFFFFE0
FFFFFFD1
00000018
0000004D
00000015
FFFFFFCE
00000001
FFFFFF96
00000002
FFFFFFD9
FFFFFFDF
00000016
00000007
FFFFFFF6
FFFFFFD6
00000020
FFFFFFE7
00000038
FFFFFFA2
0000003B
FFFFFFBA
FFFFFFAE
FFFFFFFD
FFFFFFAE
00000016
FFFFFF96
FFFFFFB8
FFFFFFCE
0000001E
FFFFFFFA
00000026
00000023
00000009
00000007
FFFFFF90
0000000E
FFFFFFCA
FFFFFFFC
FFFFFFB3
FFFFFFA0
FFFFFFF0
0000002D
00000067
FFFFFFD6
FFFFFFDB
FFFFFFED
00000025
0000002E
0000001F
0000003C
FFFFFFE6
FFFFFFEC
FFFFFFB8
FFFFFFF4
FFFFFFA9
00000001
FFFFFFF3
00000018
0000002A
00000016
FFFFFFE9
00000017
000000C3
0000001E
FFFFFFBE
FFFFFFE0
FFFFFFFA
FFFFFFFE
FFFFFFE4
FFFFFF75
0000000D
FFFFFFDE
FFFFFFEE
FFFFFFF4
FFFFFFCE
FFFFFFF2
00000034
FFFFFFE2
FFFFFFF0
0000002B
FFFFFFF9
FFFFFFCE
FFFFFFA8
0000001E
FFFFFFA0
00000007
0000000E
FFFFFFFE
FFFFFFA3
FFFFFFB0
FFFFFFF5
FFFFFFD4
FFFFFFF2
FFFFFFF4
FFFFFFDF
FFFFFFDE
