22AA8
3C028
0003F
3E030
33A00
2AA8F
20AA2
28A8B
220BF
00033
330FB
03AA6
0CC33
2AC0C
0FAA0
280FC
000CC
32003
28FF8
2C88C
0800C
00000
38AAA
03AAA
08CFC
3CFFF
03200
00000
30C00
00000
3FCB8
3FAEC
3EC8F
0833F
33A28
0BAAA
0C38A
00C3E
023CF
2AC33
00AAA
00000
3FA2C
3023F
28AAA
30A28
28208
02288
2BA00
0BAAA
0CFF8
00000
3F2AA
3F833
333FF
2B228
0BA8A
0B2AA
3A23F
0A5AA
3FE02
3BAAA
3000B
3B8C3
2A0B0
08ABC
00000
08ABA
2AA80
20A0C
08238
2AE30
2CFCF
0AEEB
3E28A
3FAAA
00000
2AABF
22FFF
3FFF3
2B23F
2A54A
2ACF3
30AA2
3F296
200B0
3FA2A
33E30
082CB
0FABC
00E82
08AA3
030AA
30CBA
00000
382BF
030FF
22CF2
0082A
3E3FC
2CA0A
2A200
00EC0
00008
22A30
0A20A
3FA80
03E3F
08308
030FF
08ABA
00000
20330
303EA
0F82A
30E3F
28ABB
3BA08
2A2AB
2820B
00000
33FFF
02FCA
22FC0
3F222
0BA23
2820F
00C30
00FF0
30FB0
300B0
3C3F2
2C2FF
20FCF
28082
32ABF
2AAA0
00000
2A0BF
28E3B
0A0BB
0AFFF
28A20
28C0C
00000
03AB8
00000
200F2
3C2CA
3823C
00000
2AA82
3FF03
33EA8
00303
2AAF3
338EA
3FAA0
00CC8
2AAA8
2AABF
032F3
003E0
2AA8A
080F3
2ACCF
3BA33
28AAA
28A83
23F3F
2AABC
08AF3
00AF8
30EBF
00F3A
2AABC
33082
00000
3FCC0
3BA8C
00000
08FC0
3F033
00008
3FC3F
3FF2A
2A9A8
2A2C8
2AAA8
33E2A
3C0BF
0FA0A
2A8EF
0A228
02EB2
3ECBE
08AB2
23B2C
3A2BA
02A22
2FBA8
32FB2
00822
3F2EA
0A8AF
308E3
2083F
00808
02C02
2AAAC
28BDF
2BAE8
300B8
00000
2E3BE
2AA3C
3C22B
32CC0
33000
00000
3A082
00000
2BA00
2BBEF
0B0EB
2F8F8
2BAEF
2FCBA
32C82
30CBE
0B0CF
0F8EB
32CBE
00000
2AAAF
2A80F
2BAB2
2BAEB
0FC0E
0B8E3
2380E
2F8E0
2B8EF
00000
2BE08
2A22F
03BE3
0FFFA
30FBC
0F0BA
3220A
0AA8B
00832
28BEB
282A3
2B8C3
3C0BA
22EB2
00000
0F3EF
0B830
32EBF
3BCBA
238C0
3FCE3
238E3
20AEB
2AA2B
00000
23880
0F3E8
228E3
3320F
23A3E
33082
28A08
2BCF3
03FE8
2B8C3
2BBDF
03CB2
2FBEA
2BAE8
288E3
2A823
02CB2
00000
3AE8A
0CE2A
0C3E8
3EFBE
2B8EF
088EB
2BAE3
02BEB
0E0BA
3C80B
33CB2
0EB8A
2BAE8
32388
3000B
033C0
00000
0AE8B
3AAEB
0AA2A
2BAEA
30882
0BAE3
2F3FC
3CCBC
00000
02FC3
3EC23
2C8C3
0B8EF
02AAA
3C38A
00FB0
30BE3
288EF
32B03
0AB03
0B02C
338EF
0ECB2
2AAA8
0E881
00000
322BA
3ECB2
2AAE8
238E3
23000
0EBE3
00000
2AA69
00000
0B0AE
00EBE
30C82
00000
3BEB2
32CA0
28823
282EB
3C00A
3A8EF
0AB3C
33CB2
32CBE
238EF
28228
3AC88
2302E
3300A
02AEB
30C8F
2F03E
2F0B2
0FF03
3CE3A
2BE0A
0CEBE
23BEF
3E2BE
3F0C8
038EF
00000
2C0E3
0E8B0
33CC3
0AC80
288E3
238EF
2B8EF
20AE3
23032
30CBE
33EB2
2F0E8
2AAA8
0ECB2
3EE3A
0CC2E
3FFFE
02EFA
08CEB
0820A
3FF3F
3AEB3
23A2A
0A2AA
0CE8A
00FCF
0BEFA
3EC82
20B2A
320B0
32E82
03A2A
0A00A
3F8C0
0238E
00000
3FF30
2EFCC
02ABE
2A0BE
0CBA2
00000
3F03E
00000
28AAA
23BEE
3C28A
3238E
22F22
22CE0
3ACBA
2EC8E
32CB2
0EB2A
02F0E
00000
030E2
3B2BA
0B3EA
30FBF
08FC8
32EB8
2B3CA
33FE2
0238E
00000
2A8A8
0BBE8
3ACB2
0AFFE
3E382
0A088
020AE
3F3CF
288A2
223BE
30FB2
3AE08
3EF02
28802
00000
3CFBE
3ECBE
0AE8A
3AEBA
0A08A
28AEA
0AF0C
020E2
3EFEC
00000
000AA
3C8EA
00002
28A29
2AF8E
3E38A
3FBE0
2A0AA
288E3
020EB
28322
38E88
2AAA6
08302
02382
02F8E
0AF82
00000
3FFFF
322AA
2C022
32F30
0AC32
3CFBE
3CF02
3C08E
0C022
02FBE
0A0A9
0F0CC
3F8FF
3CF0A
03302
30C8B
00000
3FCFA
0E38A
003CC
000E8
0A089
322B2
2B2EA
0AE8A
00000
30BAA
2A332
2322A
2A8E2
0AC22
3EFBE
0EF8E
3ECA2
3820C
3C382
0E002
2A2AA
2AAAA
20C2A
03AAA
3FEFB
00000
3F3CE
32EB2
3ECAA
28AEA
08F3A
20202
00000
302AA
00000
32F22
0A28A
3CFB2
00000
0CFBE
0C02A
3ECFA
3ECB2
02CBE
32382
23B0A
0ACBA
30F0E
2BAAA
38E8A
3EFB2
0CFB2
2388A
02EBA
02FB2
00FF0
0A03A
08A26
3AFBE
3AFB2
38CAA
0C0BE
02C02
0EFBE
2A83E
00000
02A20
0288A
0003E
0AAA9
28AEA
0B0EA
2AAE0
2C0A2
03CEA
30ECA
00F83
023E0
03A2A
3CF3E
3AEBA
2BAE3
28F33
0A2AA
0ACB2
303BF
0BA22
0A8AA
20E02
28AAA
20028
088E3
3E088
3ACBC
0CAAC
30CBA
2AAA8
0F02F
3AEB2
0F30E
28820
00000
02EEC
038E3
00FC8
08A38
00ACA
00000
28200
00000
2CAA3
008AA
3AC2A
2A33F
3AEB8
22033
238E0
02AA2
30ECB
030B2
223EF
00000
000C2
2AA30
20080
32E38
0AAE0
3AFBC
23003
030CF
3EFBE
00000
28802
3F0E3
38FCB
30003
2BA20
3E3E3
2F2C0
08A28
2F8EF
330CF
3AC8A
3AEBA
2A0CF
22BAF
00000
230E8
2A00E
2A880
323E0
30FE3
0EFB0
3E0B2
0CFB2
2F8C3
00000
0FB0E
3EFBE
3ECB1
088C3
023CF
0A088
08BC0
3EEB8
2CFBE
300BC
3AEBA
32CE8
200AE
332FF
0C0E8
302F8
0AAA0
00000
23828
08C20
32CB2
28A20
38C08
22EB2
3AEBE
32E3A
0A2A2
2E30C
2A82F
233CF
08A2A
20AA8
0F8CF
30F20
00000
28A23
2AE88
00CBE
00EBA
30AB0
3ACCB
0AE3A
3AC80
00000
08E3A
0803F
2ACB8
3320E
23BEC
2030C
0C38E
28C38
32C0A
03E00
0FCB2
3CFC3
32F3F
02880
0F0EB
3AC82
00000
03CF0
23BEF
30EBC
0A03E
20BC3
3EF32
00000
0CA28
00000
000F3
20BEF
23AE3
00000
22803
3CEB0
0E0B2
00C3B
200EC
02E38
2882C
0A80F
3A02B
22883
080C8
23A0F
28880
2CB8C
28833
320A0
3C0C3
28A8F
0FBA0
0AFE3
3A30A
0AAA8
00C2A
28A2A
08F80
3BAC0
00000
32F3C
0F030
203FB
088CF
020BA
082BA
0AE8A
28EF3
02C3F
0ACA0
3AEAB
3C8CF
0FA2A
0F0E0
32CBC
28EB2
2B238
32800
322B2
02FAE
0AFF0
30E88
2BAAA
30AEA
20ACB
0AC2B
233CC
3ACFF
3EF82
28ACA
33ACA
03CFA
0A083
0BC3C
23803
00000
2FACA
2AFFF
208EF
3C033
2F8E3
00000
00AC8
00000
32FAB
38FC3
2FACA
000AC
2228A
3A8A2
3F82A
0C3FF
20ACC
08282
2EB2B
00000
0FF2E
03C03
22FA2
0200C
0288A
3FB0C
0E3A3
33FA8
208FF
00000
3ACB8
33E00
1BBEF
3C022
23AEB
0EBE0
23E8A
0AA38
0BEBB
282EA
238EF
2A880
2CAC0
22BAE
00000
2B8C3
233A2
2A8F0
0E828
023C3
3EA82
2ECEC
3B208
08AFB
00000
22FB2
0B232
33A3C
3ACE3
2CB20
22232
2380C
0E0A0
0BA2A
2AAAA
28BE3
2EBE8
222AA
32C82
232C0
238EB
0EBE8
00000
2A2BA
2F8C8
338C0
32AC8
22A2F
2BA32
38CBE
038B3
30808
2BF0C
2EAE8
2BA0A
2B2C8
33C3C
08C8E
302B2
00000
0F002
032C0
3BC22
3AFBE
09FBE
238C3
3CCBE
30BE0
00000
33E3A
2ABCF
32CBA
30F80
380FA
2F800
2B0FB
23AC8
23AEF
2BC00
3BE28
02C8F
2A8EF
00B3C
13AC8
3CBFC
00000
2BA8A
22B28
39CBE
3C0BA
3CCA8
33BCE
00000
0FFFE
00000
23803
3A82B
200EB
00000
2CB28
322BA
32FBA
0F8EA
0EB20
3ACCC
32FBC
32823
30BE8
0E3AA
3000A
33FBC
0FF82
3E3A0
38F8E
02F8C
0C823
02F8E
00AB9
22F8E
2EBAC
208C8
2B2EB
338CB
28F8F
20ACB
00000
30000
0BE3A
23AF3
208E3
33C02
000A2
2F0E8
2B2CB
02FAA
2E888
3CBE8
23F2A
23EFA
0E20B
2BAE8
2AAA0
0082C
30208
20A28
20AAB
0E3BE
0280C
2AAA8
23800
2032C
003BE
0F8EC
0F8EB
2BA28
0E02F
000CE
2F8E3
0BAA2
3E08A
0F3EF
00000
3C302
3EC82
0F3EC
2CBEF
020B2
00000
2002E
00000
2A0AA
3FC02
2380C
238EC
0A808
2AA8F
2F8E3
2880F
00828
228AF
3F00A
00000
2B8EA
038E3
2AA28
0203E
23AE8
0208C
23AA8
02F0E
3C020
00000
2AA82
30382
3FF22
232CE
0C3CC
2AA8C
20B2F
0EFBE
2F8EF
2C82F
0F0E8
28AE8
0FF2C
20F8A
00000
3E3EC
208E3
28A0C
23803
2A3FF
2A62B
28AEF
22823
3230C
00000
2AA2B
2AA2B
0CBEC
3FB2A
1AA20
2ABE3
3E0BE
2CBEC
2AA28
2A23C
28A2A
23AEB
2AAA8
2FBE0
2CBAF
0C3EC
2A8AC
00000
22080
03A2C
228EF
2020C
0FB2C
2FBE0
1BA2B
238EC
3F800
28823
238A2
2E382
32AA2
2BA28
20828
3A0BC
00000
20822
2CB20
28A8A
28823
28BEB
080AE
2B8EB
0C88E
00000
28820
3FAAE
2B8EB
00300
28AAF
2CB2F
2CB2F
2B3AE
3FBAE
2FB2C
2CBEF
208A2
3F3E0
30282
23822
0800E
00000
3EFB0
23A28
2AA2F
23A2A
220CC
3F8E3
00000
28828
00000
3EB0E
0330A
2B3EF
00000
208CC
2282F
2AB23
3A82F
203E3
0B0E3
0802A
20AA0
03A8C
28AA8
0F8EB
20822
238E3
2AAA2
238E3
282E0
28AE8
28AE3
2AAA3
2A8E3
2F8EA
08BC2
3FF0F
2FBC8
23AEF
3FF0F
00000
0022E
2FBE3
0AF3F
30822
2B828
28020
2380C
2FBAC
2BAE3
00800
3003E
0B00F
23828
20BEF
230E3
0A28A
0A2AA
2A820
33208
0320A
08CFF
0C3CF
33C8A
2A822
2AA28
0CF0F
038E3
03AE8
0823B
26AAA
2AA82
2AAA8
3B22F
3FCE8
0282A
00000
0EB8E
38A3F
28AAA
2AAAA
2A008
00000
2A208
00000
30033
2B0C3
0F0EA
0CA88
00283
0E08E
2A2A0
0E322
3CC28
302A0
0E303
00000
2B2EB
0B003
08823
2F3E8
0FFE0
08028
283CF
000FC
28A2B
00000
3C380
0A883
08228
0CCF0
22BFC
2200C
28C8A
3F0F0
28A82
2AAA8
3F820
000E3
3EBAA
0CFFF
00000
2A2F8
0382A
00BEF
0EAAA
228AA
30C8A
0F322
0A2BC
28A03
00000
3FE2B
3322A
2AA88
20A2B
38FCB
3FF32
3E02A
3F30F
0800A
2288C
08AE3
2C3F8
0F2AA
08E80
28A83
2AA03
20300
00000
222FF
2A8AA
022BA
2830C
08003
288C3
2B2EF
08A8A
223AE
232E3
2AB0E
3E032
0A22A
3F32A
3020F
0AA2A
00000
2AA8A
0AAAA
0322A
0822F
33BC3
2A003
3FCCA
22380
00000
0A2AA
3F82A
330EA
08AB0
3AE8A
00C02
30CB3
2AAAA
00A2B
28AE8
0AA8A
322A8
2FAEB
00FFF
28A2A
3EF8E
00000
3FFFF
2AAAA
32C28
3F22A
2B00C
2EA88
00000
3A28A
00000
32B8E
02FC0
28BAA
00000
322B3
0A2B0
2A0CC
202BC
08AEA
330CF
3030F
0228A
203FF
3F23B
333EA
3FC8A
33CCA
0B0F0
0FAEA
038CF
3BC33
2F0CC
30CBA
002E8
3FB82
2EBAE
08030
22BA2
0BAE8
28AE3
00000
03AA0
2AEAA
32F00
0E3C0
0A228
03288
0B20B
2AAAA
0F33F
0E8A2
0030F
0E28E
2AAAA
00F8A
288E2
3E202
3F082
3FCC8
3008A
2A8A0
2AAA8
2A0EF
2A002
3C303
2B00F
300EA
0AC8F
2B8EA
2BA2A
080C3
3FEC0
2A000
28A9A
2C8AA
3C002
00000
0FA8A
2AA8A
0300A
3FFC8
3FC28
00000
0A20F
00000
00AAA
2AAAA
2A200
3C80E
3FFEA
00C3A
22FC3
3F230
2FCE2
3FCAA
3002A
00000
3EF3F
32FAC
30CC8
0322C
0B8FF
2203F
020C3
2A2C0
3FFE8
00000
3FCEA
2A2BF
33CC0
33FFF
33C22
03E0B
33EBA
2AA8C
08C32
03F33
2A3E8
3FFEC
3FA0A
0C02A
00000
0AC00
2A222
3FFEA
30000
3F00A
02322
3FFF0
03FC2
00283
00000
2AA9A
3FFCC
03FCE
2C02A
33EFA
332AA
030AA
3F0E8
2AC8C
0AB0C
3FA2A
2330F
2AE8A
0C208
088FF
00FFC
3382A
00000
3A23F
0FCCF
3FFAA
3F0F0
080EA
2B22F
3082A
20CE2
2C3C3
03A2A
303E0
00288
0A0A0
2AA28
3F2AA
00CFF
00000
2A30F
282E8
2AC82
3FAA2
02A99
00003
2A3E0
0F3EB
00000
300AA
00AAA
2A020
2AAAA
338C0
3FA2A
3FAAA
00FC0
00022
2B02A
3308A
3FF0A
238A9
0E0AA
2AF0F
2A803
00000
30AAA
200CB
0AAAA
2ACE2
0CF3B
2A0AA
00000
2A802
00000
3F32A
003AA
03CC3
00000
3C2BA
0CE08
2AAAA
1A8AF
0B32A
28A2A
28AAA
00380
000C8
2AA2A
2A0C0
200AA
2A8AA
030A2
288AA
08AAA
0AE30
288FC
3FFFC
0ECF2
33FCA
232E3
03C08
3F00A
23AAA
0F02A
00000
03FCF
3B033
0FCEA
3FA2A
00BEC
2AA2A
2A320
2A300
00FFF
33028
00A20
0FFF3
22FFC
38030
20A8A
00B2A
02200
00022
0AB2A
20AAA
2EAA2
0F8EE
00C22
00030
38CF8
00C80
28302
0F82A
008AA
302FF
3C000
2808C
23A95
0203F
3F0C8
00000
30AA0
0EAB0
0F002
02303
3C0C0
00000
380F3
00000
223E3
0AAA8
28FFF
3FFFF
28E8A
283AA
02F02
3F0E2
3F2EA
3F02A
3C280
00000
0A300
2A2AA
2038A
0833F
022AA
02E8F
0A2B0
022BF
3FFE8
00000
08303
0A08F
0BCCA
2A2B0
3803C
00E08
33203
28B30
030A3
3C3C0
0A02A
0800A
3F203
002A0
00000
00CC0
3FF2A
3FA82
33C0A
3FFC2
028AA
32AB0
3C002
2AA03
00000
0FAAA
3FFE8
00F0F
23E08
00CEA
0F8AA
0033F
08380
080AA
2AA80
30AAA
3020A
328AA
3FAAA
2A000
3FCF3
30C82
00000
2AABF
3BE0A
00800
3F03C
20ACA
00CEA
3BAAA
3CFEA
38002
2FA2A
33CCA
2A003
08203
3B2EA
300C2
3F3F3
00000
20033
2ACA8
0F820
30B2A
3FB2A
38F2A
2AA8A
33FF0
00000
3F208
332EA
2A28A
2AA82
3BA8A
3FAC8
3FAAA
30CCC
2800E
338AA
3FC38
002E8
0F8EA
20000
2AFF3
02080
00000
2AAA0
3F32A
338AA
223E0
28E08
0228A
00000
333FF
00000
3F0C8
30CFE
33C0A
00000
0038A
00C20
20AA2
2AA88
30FCE
2BAAA
02028
30FC2
20082
2C8AA
2A082
3F8EA
2AF20
0AAFC
03AAA
3FBEA
2A28A
0FF02
308AA
0B02A
0A32A
33E88
00FF3
3CFFF
3302A
32B2A
00000
3FFFC
3BA08
3FC30
0A03B
2AAA2
2AAAA
2AA82
2A000
22A88
3F0BA
00082
0E2B0
2A33F
3FCC8
2A003
30EAA
080B2
03F30
0FBC2
2A23C
0A02A
3AEAA
080C3
3A08A
3208C
30C32
23BFF
2A02C
23B02
32A8A
32088
0C08A
2802F
28BEC
0382A
00000
3A3E2
2A2CF
2AA2C
0CFBF
3E88F
00000
0E302
00000
2FBC2
2ABFC
0AA02
282C0
23BC0
3FAEB
02A23
03A2A
2883C
2A220
3F3C2
00000
03BCC
0A0F3
0FBC2
238E8
203FF
08A20
0FFF0
230F0
2A8CF
00000
2FBE8
0FBEC
2AB83
033FC
0E0AE
330EA
022AA
0AA2A
3EF28
3E0AA
2A0EF
23BC0
2B8AA
2CBCC
00000
0A0C0
08CCF
0A0AA
283EB
288CB
0F20F
0382F
320EB
320A0
00000
2AAAF
30CCC
030F3
233C2
238E3
2BAA0
03BEC
2FBE0
0AA23
2CA2B
2BBEC
200CF
2AAEB
3CAA8
32220
3E080
23CCB
00000
22AA9
0288C
000CB
300C3
2ABCF
3CAE3
2BB2E
2A2BF
0E082
0E828
323E3
0A8AA
3002A
3F008
2ABCE
2AAAA
00000
33EBA
0C22F
2A2CF
2BB22
2FBCE
2AAA0
2B8EF
0C8A2
00000
0A08A
332AC
2A83F
28A8C
3FAAA
2F02A
0C0B0
32AA8
03BEC
3AF0A
3E0B8
20BE0
2A82F
330E8
02283
3FC0A
00000
238A2
0AC22
20A2B
0C003
280F0
28BCF
00000
30C8A
00000
28022
3F3EA
3E300
00000
2F8EA
0F0BF
23882
2E208
0A223
2830F
2CBE8
203E3
32ECA
2ABEF
2A00F
30EBA
282C3
00003
28B3C
2F3FA
33F02
2FBC0
232CB
0F0C0
23BCC
2EEAA
3E0A8
3C32B
22208
3C022
00000
2B8E0
3E2AA
02A82
3F8E0
23880
2A83F
03BCF
02CA3
2FBF2
3082A
32E8A
2F3F2
300A3
32A8A
283CC
288B0
30088
0B2F3
3FF20
2A233
2C3F0
0AA82
0AFFF
08CB3
302F0
2AA8A
3CF23
2800C
2EFF2
0AAAA
3C808
02F08
2A8CE
0C220
0802A
00000
30C0A
0280C
0A3CF
3F3C0
00220
00000
0FAAA
00000
28022
22EB3
08299
28083
32028
0882A
3F03F
280E8
0C0AA
2A00C
28AAA
00000
3CCCB
3223F
0002A
2A82A
2AAAA
2AAAA
0A2AA
3AA8A
2AA28
00000
0A8AA
0CFF0
0CFAB
2AAAA
3FEFF
2AAAA
2820B
0BA8A
3F3CB
0C23F
00303
3CF2B
003E8
032C8
00000
3F3CF
00FFF
000AA
22280
2CB20
288FC
32AAA
2A3FC
33B3F
00000
283FE
0BCFC
0A02B
02E8C
0FCAA
283FC
3F02A
3C8AA
2AFFC
0F3C0
3CC0F
2AAAA
2AFFF
2AA3F
2AA83
3F0CB
00A30
00000
3F33C
2A2F3
2A88A
33AF0
0E0AB
00A3F
28FE0
2AA00
0BFEF
0A23E
2828A
3FF2A
0CA23
22A83
08F20
088A2
00000
3F3E8
23A3F
0ACFF
303EE
3EFCE
02AAA
2083F
0A228
00000
2A00A
0AA8B
280BF
20FFF
2080C
2A228
28200
00288
32F2B
2AC80
2AA08
22300
2ACAF
2B8C3
08FFB
33F22
00000
20FEA
28208
203CE
2003F
0AAAA
2AA80
00000
3FFC2
00000
0ECE8
032BB
3F0FF
00000
3A02A
2883C
3C3E0
2B8FE
0223F
2A82A
222AA
28A88
3AA8A
2AE3C
0AC3F
20A0E
0323F
0023E
00C0F
20F20
22AA6
0CCCA
2BBFE
0AF0E
3CB2B
22A08
3CC03
3B2CB
2800F
3CE3F
00000
2AA2A
2AC3F
30A00
3FECF
00F03
30C00
2A333
33AB3
0E0AA
0A838
0AA8A
0BABA
3FFF8
33000
288E3
28ACF
3FAAA
2A82E
03AAA
2FFCF
32EAA
3E008
2002A
22A8A
3FF02
3ECBA
30A8A
0B223
23BEC
022BA
20A8A
0F0BA
230C8
3EC0A
0AA2F
00000
2AAAA
3FFEA
0BAE0
3F320
0FCF2
00000
30082
00000
2CA22
2AAAA
2883A
280A3
202AA
2C0A2
2AA2A
2A88F
0C28A
2E32F
3E2BA
00000
23A00
03FFC
22823
302AA
2E0EA
2002B
20A3C
3C380
03FFA
00000
022AA
3C08A
202AA
20828
282AA
3EF32
3F203
00322
0FFFF
3008E
2B828
0282A
3C28A
028A3
00000
2803E
283EF
2AA38
30008
00CBA
0CC8A
0AB0A
3B302
0A322
00000
2F3CF
02F22
0C3BC
2033C
2AACF
223EF
0002A
2AAA8
080A0
2E320
2CA20
2A2E8
2CB22
0C8F3
222AA
03A02
2AAAA
00000
30C22
28A3A
2A0AE
20880
2A280
3F002
28A23
3F22A
22A82
2B0CF
22A8A
02AAA
332AA
0F030
2BAE3
32238
00000
220BA
20A08
2A02A
23A28
238C3
020BA
28BE0
2A0B2
00000
3C0C3
08020
2F3CF
20802
2083F
03233
00AAB
0B0BA
3808A
23020
3F0C3
0FE20
2B8CB
0032C
0F00A
002AA
00000
00A08
2A822
2C3CF
280E8
28CF3
2EB30
00000
0FC82
00000
3FEBA
3228A
3B002
00000
2AAAC
283FF
23BF3
0FFC2
288C3
20B28
03AA0
0F8A8
0CBBA
2FCEC
28AC8
00CCF
03FC3
22003
2F3FF
28A23
2880C
203CF
2EF20
2AAEF
28AFB
22AAA
3F082
0082A
28AE3
03EBA
00000
03F3A
3F03F
3028A
28A8A
30AAB
0FF20
02088
03C30
28B2C
0AABA
3E3BA
0CB8A
33008
3FC3E
382EA
3003F
00C0A
3303F
30E2A
2A8EA
2B28A
0FFFF
02C82
0CFCF
03002
03A2A
33A28
2ACE2
2AAAA
0CFCC
3030C
308E8
28ECA
08AAA
3C822
00000
0F323
2AA00
00080
0FC0A
0CC03
00000
0C038
00000
2889A
28AAA
0FFE0
0088A
0AAAA
3BEAA
2822C
3F820
003C8
000AA
03CAA
00000
0B8AA
203C0
28AAA
3CFEC
2A0AE
0F3CF
03A23
2BA20
30028
00000
3002A
08AAA
203A2
08AA2
22FEC
333E2
0C330
03FFF
0B8BE
00300
0882A
38A2A
2FFCC
2A8AA
00000
2A20A
00B2A
2033F
20300
2CB20
3EEA2
3A222
202F3
00E8A
00000
2AAAA
3228A
30F30
2AAAA
0AAAA
022AA
2C202
3322A
32E3A
388A2
2AAAA
20FFC
30EAA
003FF
30200
33E02
028AE
00000
0FF3C
0FFCE
0FA00
00000
28AAA
2222B
38C2A
3C3CC
33CC0
2AAE8
28B2A
22200
0882A
0C203
2A8AA
3FFFF
00000
3CA8A
0E202
28A30
0A2AA
2AAAA
203C0
0AA02
2CFFF
00000
0FC00
08FEF
0E008
2AAAA
2A0FF
0C0C3
3C082
3C3F8
0AA2B
02B00
3FC33
0282A
28E2A
0C00C
338A0
0C20F
00000
08A28
2AF0F
2AA2A
20CA8
28AA2
0C03E
00000
300EA
00000
2C320
2AAAA
208A0
00000
2AAAA
3EF03
28A22
3008C
20AAA
3FCCA
208AA
02020
083B0
2AAAA
20B02
0000C
2A820
2AAAA
08A8A
2AAAA
3AAAA
2AAAA
0A2AA
0AAAA
000A2
2F3EC
008AF
0F800
3CFE2
20A08
00000
00FF8
2008C
0230F
2082A
28AAA
2AA28
2A8AA
00A8E
0AAAA
0030F
28FCF
0BAAA
30A22
3FF03
2380A
2802A
0F08C
03F32
03238
0822B
300C0
30C38
3CFE2
33C00
3F800
0A8CE
3F8CB
3CAE8
3CBEB
00A80
3F200
030C8
0FC0A
3FAE3
3FA28
00000
33A8A
32C20
00A2B
0F8CB
3082F
00000
0F0C3
00000
00A28
3ECE3
3AAE8
3FA2F
3220A
20A0E
0800A
2F2A2
3E0A3
3F0EA
2AB82
00000
3820A
2A2EA
0CA08
30ABA
2AA82
2AAAA
3EC83
32030
0880C
00000
02A3E
02C00
33BEB
0208A
32FA0
282B2
0F22A
0A003
00C0A
28BEB
28AE8
00A0A
3CAAA
3CAA8
00000
038AA
0F020
30C3C
0202E
00C8C
02FCC
2AABA
3F3EC
0A00F
00000
003EA
3F33C
0F8CF
3E823
038EA
0F0AE
3E8AA
2AAB2
3FFFE
3EE31
3FAE8
2ACAA
300FE
00FE8
2ACC3
002CF
0A0B2
00000
08E88
3C02B
3F8E3
00C32
3A028
2A02F
3F0E2
2F22A
3F030
0882B
3AF3C
3F288
33C3A
2CFEF
33A28
30C8A
00000
2AFF3
2ABE3
3FFCC
3FA0A
3F8E8
3AAA0
28882
3F00C
00000
2FAE2
3CB20
2A322
3FA2B
0F0AA
3FAA8
0F2A8
0080F
3C8FF
3F8E3
2F8CF
0E8A3
3E81B
00882
280C0
0FEB2
00000
0FBAA
30FB0
0FFF2
388E3
02C0A
23AE2
00000
3F038
00000
3C08C
32F8B
000A8
00000
0FA0A
3ACC0
2828A
2A3B2
02828
00CEA
02823
02F80
2008E
02328
2A2AA
22320
2A8AA
020E8
008E8
030CB
232CC
2BAFC
2AC0C
03880
38A28
3008C
3CCFC
0FB2A
3FBE0
303EF
00000
22A8C
2B2C8
32C3F
02023
3F8EA
30F2A
3C828
0BBE3
28032
0008C
08CBC
2ACB2
20808
0002A
32FBC
0AAAA
2388C
080E8
08A3E
2AC2C
02A8A
2AAAA
2F8E0
208EB
3EC0F
08C8E
2F82A
0CAB0
283BC
00008
28FE3
23A2A
3ACBC
33E32
0F8E3
00000
0F8EB
2AAAA
0F828
3A8AA
2AA8A
00000
3AFFF
00000
2AC3E
0F8F0
22898
0208C
33F3E
2F232
2B028
03A23
2BAC8
32CBE
28A03
00000
28A0C
2A882
28ABF
3C38C
3FC80
28A00
288F3
28003
3FAA2
00000
3ECB2
2BA82
0FAE8
33AAA
032E3
2F820
0E282
2AAAA
02E2B
0E2A0
030CC
38C3C
238E3
08233
00000
3F8EA
3FA2A
080C3
03028
23AEB
20A28
03002
03A08
2AAAA
00000
2ACBC
3F0C0
2AA02
23BEB
23A03
3AE83
28AE8
3FCB2
0FF03
3AFBF
33B32
3C038
030C0
220BA
3FAA8
3EC00
38C28
00000
0A0B2
33CE3
28AEA
28828
03AC8
3C0B2
32FBE
332BE
08F20
2388C
2B02A
202E3
3F20A
3F8E8
0ACBC
2A8A8
00000
28AEB
3208A
03A28
0AFBE
2A0BC
23AEB
3E032
2BAE8
00000
3208E
0FAE8
08E02
0B03F
2EAAA
3FAE3
30CE8
3AF23
0FAE6
008AA
32ABE
23AEA
0F8F2
02AA8
0EA1B
0082F
00000
0AABB
03F08
3AFBC
2B8C3
28288
2AEBC
00000
22A28
00000
2BAEB
23CC2
3BFEB
00000
23AEB
28BCC
0ACBF
2A203
2FA2B
3AF3C
2823E
0FF2B
2AA88
23008
00C3A
3E0EA
2AC80
0AB23
030BA
2B3BC
33A0B
30038
2802B
0FA80
3F22A
030E8
3FA2A
23AE8
00A8E
3FA38
00000
03A00
3A0BE
3BCEB
28230
32CBE
300F8
3F0AA
3CF2A
0F0B0
30A28
22A8A
032AF
02AAA
3CBE3
2AABF
2A033
3F802
2AAA8
2A8FF
288FF
3AE0F
080C0
0CF08
0FAAA
3F02A
0A802
2AAB0
0C0C2
2AE3F
3FEFF
38AAE
2A8F0
2A888
08FFF
30228
00000
22AA0
0003F
3FB00
333FF
0FFF0
00000
30EA8
00000
2AF33
2AA80
33A00
3FFC8
2A033
2AE3C
3C88A
3BFE0
0F8AA
30FE0
3CF0A
00000
2A2FF
2A02A
2AEFF
22A2A
2C32A
3CFFF
0A00C
22833
3FFFF
00000
2220B
2A8C0
3F88A
20300
0C88A
203FC
082CC
3CA80
08A0C
33AF2
3C3EA
2A2F0
0C3BB
0AFFB
00000
3FAAA
3FFEA
3F230
3CFEA
3F322
38A2A
0F03C
03F3C
082B0
00000
2AA3F
03FFF
0CCFF
2A030
00CF8
28082
03F3F
2AA33
0C3FC
2AABF
2AA80
0C0C8
2A03C
2A2FF
208FC
03800
3FFEA
00000
3B288
3F230
0AF08
3FB82
3FA02
3FFC0
30C0F
3F3CA
2828A
2BCFF
3CF2A
2A8FF
0FA0A
2A8C0
22CF0
3CCF0
00000
280EA
0000A
33003
2ABC3
2A033
3FAB0
2228F
0CA8C
00000
33CE8
22282
2B0AA
2AC30
2A0FF
302F0
38F20
3F0F8
2AAAA
08AAB
00F0C
2C028
2288A
228AA
3BA00
2A288
00000
08330
3F32A
0AABF
28A2A
30FEA
0EFFF
00000
2A3F3
00000
0F8BA
3CBAA
3F8AE
00000
0A030
08288
2AC3C
0AAA8
3F02A
02AA2
2AA3B
0C32A
2200A
2A8B0
0E8AA
28BC0
08A2A
002CA
2A8A2
2A23F
22FC2
2ACFF
2AAAA
3C008
0CF22
0C8AA
3FA2A
238AA
3FCA8
2AABF
00000
3FFFF
02222
3FAAA
3F3CE
2A0CB
2AABF
2A82A
33800
2A2FF
0C30A
3C020
2A20C
2A8C0
3CEAA
3808F
3CC00
0200C
0FA22
2A0AF
32C8A
302B8
032FF
2CFFC
0F82A
0C820
22A00
32EB3
3A2B0
3AEB2
208AF
0C883
22E8F
3A0BF
0AABC
2C803
00000
30AFC
3AAA2
32A88
2AA2A
0CA30
00000
3CB28
00000
0A8BC
3EFB2
283CF
08AA2
0A38C
28A8E
22020
2FAAA
32282
3FCCA
2222A
00000
0A800
0AA28
2A88A
08BFF
00B2E
082BC
38CAA
00F28
22A82
00000
2A803
3ACBA
2AA82
2A8A0
20AB0
0080C
30AC3
0823C
3F0E2
3EA23
0A280
2A2BC
22A0F
3F088
00000
22CCC
0322A
0F002
2AEBC
28AA0
0F8E3
0AABE
2EAEC
03A3F
00000
3FCC8
0203C
0CAA0
2AF82
0002A
3F0E8
28A3F
2A8A2
3A33F
2283F
32C8E
0230F
2E38F
3E28A
3E08B
0CABE
03082
00000
382BC
0CBAF
20AE3
28A8E
2A0A8
32A2C
3CC8C
0A8AC
0F802
32CBA
238F0
2C82F
3AC8C
02BC3
3AEB3
28A3F
00000
2E308
2082B
32F0E
3A880
3ACB2
2AAAF
2B82C
0CAAE
00000
0080F
3EFB3
20A2B
023B2
3EE83
3CEAB
0F3E3
028AC
0CFB3
3EEB0
33820
3AE0C
32CB2
33AB0
2FBCC
2FAF0
00000
02030
2F8E8
3FC3E
228E3
2A228
0CA8C
00000
20E38
00000
2AA8F
08FBF
0EBCC
00000
00222
2BAEA
0E030
02830
0AEB2
300B0
2C380
280A2
2FA8A
3FF02
20828
0CFC8
0B0EA
2FF08
02CB8
0228A
08AAA
002AA
0FBEB
23AAA
2A000
0FBAC
0C8FE
0FA88
38EAA
3EF8C
00000
32F0C
0CA03
22002
0AA83
00CBC
32300
0E3BF
0C8E3
2BAAA
230E3
0BABF
22820
02A8F
3CBE0
220A2
0A28A
03AAA
000B3
20CB2
0E0BA
203C3
3802E
0233F
3228F
3C22B
3FC02
3AE88
0EF3C
02B8C
00AE8
382A2
32EBA
2A2B2
28A28
00282
00000
3000B
00FC3
3C33F
3EFAA
380EB
00000
0B0CB
00000
020BE
02C03
23A2A
30302
0E300
2330C
38FE8
2AAB0
022BE
2A0FE
2C320
00000
3EF88
3CF02
2E38C
2CA0A
00CCF
0AA0A
3C0C8
0EFB0
0AA8E
00000
30CBC
3ECBA
0EA83
32E82
0E820
23330
3A2A8
30303
32E8B
3AE23
323FC
02CB0
0F83A
203BC
00000
0AAAB
0C8AA
0CA28
30C80
00000
2AA8E
2A83A
3AA2A
38228
00000
22B0E
0AA0E
3882A
3EC8C
2A88C
2A8BE
0322A
02088
2A03F
22BC0
02880
033CC
2A3BC
0A202
0A208
00A28
00B2C
00000
338EA
0FA08
3B02A
0208A
3CB00
22A30
220AE
02CC2
0080C
3EFBA
02FA3
08A28
30EA8
2ACBE
0A2BE
0288A
00000
32EB2
3A282
08A28
0AFBA
32CB2
020E8
22882
3C802
00000
32E8A
3EC3F
3EF0A
2EE3A
3AE8A
3ECBE
30B82
3EA28
322BF
39EBA
3AAE8
0E0B2
3EC30
23333
3CE2A
03B20
00000
0AEB2
38AAF
1A8BE
0CCE0
30C22
33EE8
00000
22AA2
00000
0F300
0F32C
2C0AE
00000
230BC
2AAAA
223AE
2A2BA
0CAA2
2ACBE
3ECBE
22322
233CF
0E2A8
3F3FC
022B2
3F00A
2CB3F
3EF8E
02FB0
2232C
2A08E
1A8BE
2A282
302B2
2CAC3
32C03
303E0
3E382
32E00
00000
3320A
32CAA
3FA2A
0CB2C
3ECBA
2EE00
3EE8A
30E03
2238E
22000
3C320
22C02
3AEAA
0F828
28382
0FB02
00C28
238E3
3AE23
3CFB2
382B8
388AE
3EEB2
238EF
288AA
3AAA8
0C032
23002
3ACBC
23CBC
208E2
3CEB2
20CB9
322CB
0F3E0
00000
23B2C
2AA33
2BF3A
23BAA
208F2
00000
23B2A
00000
32AF8
3AEBA
30FFC
3CC28
3AEB0
32E88
23A2B
0C820
0A03E
03EFA
28AEB
00000
3A888
32032
3AEAB
3AEB3
3202F
33F3C
32E33
02088
30CB2
00000
0A828
020C8
3AC00
323A3
2A8EB
3EEAF
2F8CA
28A0F
0CA2A
0FBAA
330C0
3A2B0
0CAE0
2C0E3
00000
32EAA
0EFE3
2B82B
388E3
3A02B
0F3B2
32E82
0CFBE
08233
00000
0FC3A
302B2
0FFBE
082FF
32EA8
23203
22080
3A2BF
32EB8
322B8
3AEBA
3AB2F
3EEB2
03C3A
00382
223B2
03AEF
00000
23A88
28B20
0C082
238EF
3ACFC
203A2
20CAA
00FA8
23AC3
3F80A
388EF
208AA
382BA
23A2A
0FC0A
3E3C3
00000
03FBE
2F3BE
00C08
0EC08
20C3C
3A033
320A3
3C223
00000
2FC8A
2B832
0CB32
3ACB2
0333A
03BC2
0F8AA
2E3B2
002BA
20089
2CCBA
3AC2A
08CBE
238FF
32AAA
0EAA8
00000
230C0
0BAEB
0F00A
3ECBC
3202F
3FF3E
00000
0E0AC
00000
3AA28
3AAEB
30AEB
00000
30E2B
23B3C
08EBC
23EBE
0B033
2333A
0A0C0
38AEF
08AE3
32EBA
080EB
23032
3E0B0
2C880
2B8B0
002CB
32AAF
22A23
03A3E
38023
3AE23
0A8EF
028AA
2E828
32F0A
3CEB2
00000
3CCBF
03A2A
0232A
2BAE0
2AABA
3EEBA
3EFB2
2C2A9
3AAA3
38A23
3AA2F
3D2AC
3E8AA
2F0EB
0A80F
28AA2
0F3C8
28282
3233C
2AA23
3BE32
0B0C8
03A2A
03E82
3C2AA
2ABC3
0AA33
0A2A0
220E8
33F0A
3FE8A
2AAA8
0AC03
30FF2
2C30C
00000
2A2BA
3FCF8
2AAB2
3FCFF
3FFFC
00000
3FFC0
00000
30E0A
0FCC3
2CA2A
30C82
00C0A
0FF3A
3FFCF
3F3B0
0AAAA
0322A
0A0C8
00000
2A83F
03FFF
0EFB2
00CE8
2A82E
00F00
280EF
22FCF
32F3C
00000
082B0
00FFF
2AABF
2ABC0
0803F
0A028
32A82
33CC3
303FF
00022
2AA8A
0A280
0A288
30C88
00000
00F3F
2AA8E
2A200
2AA8C
2A03F
008CC
0EC38
3FCCA
3FCFF
00000
208AA
330EA
3FCEA
2AFFF
2E03C
332B0
3F3F0
3CCF0
3028A
3FFCF
2AA08
2AAAA
03C3A
2AB2A
3F8BF
3FFFF
22CFF
00000
03CEA
0AAAA
3322A
0CFFF
2A03F
02FC0
2AAA0
3A822
30EB3
2AA80
2A3CF
30C32
2A0B0
2AAAA
08A3A
00F20
00000
02AAB
03028
00282
2AA83
3A20B
2003C
22880
3AA8A
00000
3ECA8
2AAA3
2A8BF
020E8
2A82C
2AAAA
282AA
0A3A2
003FF
2AAA8
3F3EA
2A233
0A2B8
3003A
2AAA0
03C32
00000
30828
22F0F
2000C
233EC
2A3FF
3CE0A
00000
2AAA8
00000
0ACC8
08FFC
2AABF
00000
0228A
0380B
33FCF
3F3CB
2A33F
00333
30CC0
2A000
20308
2A2CA
2AAB2
2AAAB
28BFC
00FFF
2AAA8
00A08
2E3E2
3CF3C
202B3
3E030
2AA88
2AAAA
023FF
3F080
288AA
0FFFF
00000
30308
2AAA2
2A000
0EFFC
2AAAB
0A000
2AE3F
0EA82
0CF3F
2A0A0
0B3C8
203C8
2AAAF
3E08C
3A20B
3F02A
2A0BF
20AB3
3FC08
38AAA
0AAAA
228AA
0A2BA
22BBF
020F0
3F22A
28C8F
2AFFF
3F2AA
22AA8
23B3E
2BA28
2A2FF
0AFE2
030A8
00000
3F82A
2AAAA
2CF3F
222BF
300BC
00000
00E02
00000
33FFB
0FBCA
28E08
28CF3
3B2C8
3FE0A
0F300
00288
2AE3F
0AEC3
0F2AA
00000
3B238
3FA0A
3820A
3BE03
2A280
22AA8
0FAAA
0C82A
2ACFF
00000
3FFC8
33020
28CF3
23AAA
3F32A
3FEEA
3FB3E
2AA95
3FFEA
33E28
0ACF3
32E03
0800E
0CEAA
00000
3F3E2
2A2B8
00F0E
28080
2BF20
3E23B
300BF
0E03A
2CAAA
00000
3228A
0EFB3
22ABF
2F0E2
0AAA6
30EB0
02AAA
3FCCA
3A008
3FCCA
0ACFF
2AA22
33FE8
3F028
0BA2A
00FCB
23ABA
00000
0AAAA
2A03F
02ABC
3002A
28FF3
08200
08E3F
2A2BF
00AA0
3332A
208AA
0FE2A
008A0
3ACC0
38C03
0E82A
00000
0382A
0E2CB
32F3E
000FC
3BCEF
2A0CA
3A23F
202B8
00000
2A20F
23833
3303F
0B0CE
3F2E0
33CA8
00A00
0A033
33038
0AC03
2CBB8
302F3
28F3F
38AAA
3322B
2AAAA
00000
382C8
238C8
3C2C0
3C23B
28A8A
0C233
00000
3B2A8
00000
20802
0FA2A
3F3FC
00000
33EAA
228BF
3B828
2A83B
0F0E0
0AC3C
3FFEA
28232
082AA
2AAAA
233FF
330E8
28AAA
3E0BA
2ABFF
33E2C
0CAA6
3CE8A
3EF83
30E8A
08EBF
2382A
3F233
0C88E
2A03B
0F002
00000
3FF3F
000C0
30FCC
03BCA
0A0C3
3E288
3320F
3F0FB
3F2AA
033CA
08AAA
3F2AA
03A23
20CF3
2AABF
08283
283CC
2203F
2A0F3
2AAA0
0AF3F
08A83
2A80F
0F00F
022CF
0ACF8
082B0
2ACCC
2A080
08ABF
3003F
03A88
2AA8C
0CFC3
28FFC
00000
2833F
0F030
2AFCC
22CFF
00C20
00000
28E8C
00000
2AAAC
2A00B
3F80F
2AFCF
2AAB3
2A230
3F8A0
2AFFC
2AAB3
2A3FF
08FF0
00000
28333
3CAA0
2AC8B
280C3
2A0A3
2AA83
2ACB2
2A0C0
2A800
00000
2AAAA
33CC0
2A88F
2A302
030C8
2B28B
2A002
3F0CA
0F33C
00A80
2A83F
2A883
22FFF
2AFFC
00000
2A820
2AFCF
03A03
0F32C
3F030
1A820
2AA8B
2AA3E
0C3CF
00000
1A3FF
2AF3F
2AFFF
0AC38
2AFC0
1ABCF
223BC
2AA80
2AAB3
3828B
2AA3B
2AABF
2AAAA
2AA00
0CBA2
22003
2AF0E
00000
00FFC
2AA3F
2A03F
3F22C
2AF0F
0830C
2A3CF
2AB3F
0CC3F
2AFFE
03B80
22F33
20FFC
2AACC
2A33F
2AAA8
00000
0FACF
0283C
00AA3
2A0BC
1AC3F
0AAA8
2AA80
2AABF
00000
2A83F
2ABC3
2AA80
2AA80
2AA88
2AFCC
2A3FF
28ABF
3F323
2ABB8
2AC3C
22FC2
29C03
2AFFF
2833C
2EFFF
00000
2A000
203EF
1A33F
2AA83
0AC82
2A03F
00000
28E08
00000
02F0C
00CEC
2ECFF
00000
2AFEE
20A3C
2A0B3
03828
22FC0
2AA30
0A880
22202
2AC3C
2A800
2A08F
2AABC
2230E
2A382
2AA8F
2AECC
2AEEA
2A0C0
1A0E0
20FE0
2F3FF
2023F
3E330
223FF
2AFEF
0AC20
00000
2AA80
2A08F
30C02
38C20
0AA80
2AA83
3CAAA
2AA8C
2A2C8
2AAF0
2023C
2A208
00AB0
2FFCC
2AA33
3AE8F
3C0B2
038C0
20BAC
08CB2
28A02
3EC3A
23BFF
3822A
03CB2
30F28
2A8A2
20B3F
2ABEC
3ECBA
30232
0EEAA
23230
28AAA
0AA28
00000
00C02
0AAB2
3FBFC
03A8A
3CEBE
00000
02EB2
00000
2BBEF
2AC3C
0A0AA
22AE0
28BEF
20BE3
08B20
0CAEF
2383C
2BAEB
2ABEF
00000
28BAC
0A8B2
228CC
20822
02AA0
00E0A
0AF3E
28302
030B3
00000
23BEF
0338E
03BA3
2A02C
0C002
08BE3
3AEBA
02282
32FBE
3ECB2
0880F
228AC
22822
23BEF
00000
02202
22AEB
02C32
28B2C
0FAE3
008E3
0B8E0
30FB0
32CB2
00000
233EB
2A2B8
08CB0
2A32C
28AEF
03BE3
08ABA
2BBEF
20FFB
28BE8
288C3
22822
2B3EF
08C32
02E8E
30CBE
00BE3
00000
0208A
3F0CA
30833
32CB2
2AA2C
3F003
23833
032B8
20288
3AFBA
208EC
0ACB2
3C382
2AA03
2AB2F
3A2AA
00000
22CAA
00E8F
28FCF
28822
28BCF
00CA2
288A0
2F8C8
00000
082BA
0FC33
28283
2A022
30F00
00FF2
330E8
32EB2
0EFAE
02C82
30EBA
2AB2F
2A38C
0F3EF
3C08A
0C02A
00000
23AE0
0EB0E
2F3EB
08E3E
2A8AE
3FFFF
00000
22A0A
00000
22A82
23B2F
0C830
00000
2BB2F
0FA2B
2E80A
202CF
22CE2
288BF
28BEF
3AA20
3EFC0
2A82F
2AB2F
00C3A
0000F
230C3
28808
20BE3
2B323
2FBEF
2F8E3
288E3
22BCF
33002
3EE8A
0BAC2
0C3C2
32FBE
00000
03F30
3FC32
3ECBE
20A0E
2A822
2A03B
0CBC0
30EB0
20BE3
3080E
3EB08
288E0
0200A
32F32
320B0
00AB3
0883F
302F3
3F3AF
0AB8F
22020
3CFBE
3AFE2
3F3FB
0FEFA
2AA8A
28E00
02FB3
3A32F
3FCF3
030FB
2AAAF
2A3FF
0CAAA
00A2A
00000
2322A
2082A
28E03
0FA3F
0F838
00000
03230
00000
0C0A2
0A02F
3FFFA
00328
0F8EA
0E22A
3FAA8
2CAEA
00CC0
0B3F3
22AAA
00000
3C082
322B2
3C8AA
0A08C
2A0EA
38F0C
0A0B8
2AA88
22338
00000
2F8AA
08A80
2FCF8
2AAAA
3FE33
33CC8
038C3
00020
3F02A
002AA
2ACCB
3A320
00A22
28AAA
00000
3FCEA
0002A
3C0FF
303C8
0FCFF
2A23A
0A300
2A08A
03AAA
00000
0E30F
08F02
0B0BF
38AA3
3CAAA
2F803
0FAAA
3C02A
02FC0
2AB02
32E20
0AFE2
22FE2
0A3BF
28A8A
0F808
2AAAA
00000
28AA3
23CFB
2B000
33AAA
28ECA
20AB0
3C3AF
0AE30
0023A
3C3CF
28008
3F82A
0AA82
2AAB0
3C30F
00FFF
00000
2AAA0
2AA3C
02FCF
3C38F
3EFEF
20FC8
0AAA8
3C3C0
00000
22A3F
0800F
2AA88
22B0F
283BF
33C00
3B08A
0FA3B
08A08
33E8E
33C0F
3C800
3CF23
20AAA
03AAA
23822
00000
2F0CF
0B0CA
3CFC3
2A80F
08AAA
2A0C0
00000
32B8B
00000
00302
2CA2A
0FECA
00000
0F8AA
28E3F
2E30F
2A2FF
30080
0A800
0CA2A
2802A
22A8A
30C2F
2ACEB
2AAB3
3FFC2
282A0
2A0AF
3C323
2AAAA
3E8EB
2A888
3CB20
00CE8
23CEA
3F802
03A8A
3CFCF
0B820
00000
32FC0
3F03F
0F0FF
0FAAA
2AB0F
0A30C
2AA02
0CA38
0EAAA
28FC0
03030
28AA8
0AAA2
3F0CA
0AFC3
02ABF
3003F
03AA8
2203F
38AE8
3FAAA
38222
3300E
2AAAA
2AA8A
23300
2ACF0
2A2BF
332B8
3FAAC
0BA80
2AABC
38A3F
3BAB0
288BF
00000
282B0
3FAA2
2AABC
2383F
03ABC
00000
3FA0E
00000
20AB3
3F20A
3AC0A
08F3F
2A0C0
38083
0203C
28A03
28CC3
0BAC3
2CFC2
00000
3E0C2
22332
30B0B
33C02
2AF3F
3FFE2
3F028
03F28
20ABC
00000
2A23F
03833
0820C
0CFFF
03288
00CC3
22AA2
33A2A
2CABA
02A80
2AE80
2AFEF
2A2BF
3F228
00000
3F802
2A083
2AAA2
0AF3F
08FFF
33ACF
000A0
3FA0C
3FAAA
00000
33A38
3FA8E
3F0BF
0AC0B
0FF0A
3BACF
330BE
2A80C
3F23C
080A8
3CC30
2AF0E
3B22F
3CA8A
00AB0
3FA8E
00CF0
00000
3F023
2AA8C
0FA0C
22CBF
02CFC
0AAA0
0E00C
2A2BC
3CAAA
0C0AA
2AFCF
3FA0C
0C03C
2AA83
302BF
3FFCC
00000
0A03F
2AAAC
3FCFC
002BF
30C00
302AA
2A30F
002B2
00000
20ABF
2A23F
0A0BF
22A80
2AABC
2AA8C
08ABA
2AA8E
2AEBF
2AABC
2CA8E
0AFFC
2AEBA
0F0C3
2A8B0
3FC3C
00000
2AABF
3C332
3BCCF
3B03F
0CFFC
3FFFF
00000
2A0FF
00000
28232
3BF30
2AABE
00000
3EAB8
03ACF
0A233
03CCF
320BA
002E2
0AA88
20FFF
3CC2A
303E2
2A2BC
2AA3B
30CEA
3F0E8
2A23F
0CCF0
3EC02
2C3C3
0B8E3
02F30
2AFC2
2AAA8
28ABF
3BAB3
20880
3F2B0
00000
0803E
22882
28A8C
3FE33
22CBE
00E08
22A32
2A56E
2CCC0
082E0
02AAA
0F32C
2A2BE
28AA2
2A88F
000AA
3FCEA
0AE3F
2A282
03FFF
2A08C
38C3F
2A08E
0FFCC
0FFCF
2A2A2
0830A
28FC0
2A2BF
33000
2A33F
02FC0
28080
00FFF
2A03F
00000
2AA0A
03000
003C0
33F3F
08203
00000
382AC
00000
20CBC
22800
30FFF
28FF0
2AABF
1AAB8
2A03C
2AF3E
030EB
22F3E
2AFCF
00000
2AA80
20B0C
15ABF
30B83
2AA33
33803
2A83F
2AA8F
03CFC
00000
22AA2
3A003
23C2A
26A80
2A82A
2AAA8
0EC0B
0C333
2A020
33C0A
2AC8F
2A2B8
0ACFF
2A38C
00000
2A2AA
22F3F
02A00
0AC38
2A0C0
0200C
2A803
23882
08B2A
00000
22FFF
22000
28CFF
0AF82
1AF3C
2AC00
0AFCB
2AAA3
2A2BF
2AABF
2AEFF
088B3
2AABF
002C0
3CCAA
30B8A
2A00E
00000
33330
0823F
22C3C
003E2
28ECA
0338F
2AFF3
2238F
02FFF
22F0C
08A08
2A028
02020
0A08A
0CFFC
00088
00000
2FCE8
3332C
2AA8C
2A383
2ABB0
2BA80
262BF
280BB
00000
0AABF
3FF2A
2AA0F
2AABF
20088
2A338
0AC32
300CC
3CCE2
22F0A
0A283
3AFCB
3CFF2
2A0B2
3F3CF
00FF0
00000
02280
00CC0
2ACC3
033FF
2AAB3
2A83F
00000
23202
00000
30CFA
2A300
28FF3
00000
2AF00
320FF
2AA3F
3CCE3
2A3FC
30028
200BC
283FC
0A003
2AFFF
2A2BC
0A208
2AFFF
2800F
2AF3F
2A08C
16A80
2AABF
02FE8
2A83E
2A088
32C33
3CF0A
2AFFC
22FCF
30CEA
00000
00CFF
283FC
08200
38FFF
2AAB0
2ACFF
000A8
20882
15ABF
0082A
0A02F
2AAA3
08F30
280C0
238EA
0CB2C
28A82
2AAA0
3F22A
233EA
2FAA0
2AABE
0BFE3
2A3EF
03B0F
02F02
3CEBA
32E38
3F0EA
2A003
2A800
3F22A
208E2
23AA8
0A23F
00000
2A0C0
28ABC
32FFE
2088A
2ABC2
00000
2A800
00000
0F28A
08A00
2AAA2
3FA2B
30A0A
30F32
2AF0F
08AEB
2A2EF
0FAE8
2A2B2
00000
32EBA
03FBE
33C8A
0EE02
32F00
0803C
0AA0A
08308
2803C
00000
2FA82
0FAAA
08C33
38302
22BE2
28F32
0EAAA
2228C
2CA3E
2230C
38CF2
33282
2A2F8
00A2A
00000
2AA0F
0028A
3C3E8
3ACB2
28002
3FFE3
02FFC
00AA0
2A880
00000
3F0E8
0BAEA
223E8
3BF0A
002BA
230E0
2AAC2
20882
3F0EC
0F3E0
302BA
08F30
038E3
033EA
00333
2AB0C
2AC80
00000
2C28A
28B00
203C0
2AAA0
0AF3E
28FFF
3FAA6
22800
22823
3FCBA
2A32C
2AAA2
3FCAA
000EB
3FAB8
0A283
00000
23FFF
20FCF
2BA0B
3FAAA
3F22A
2A080
08FEA
2A8E3
00000
00A2A
2AFFC
0FFF0
0FAEA
0FBEA
2A20A
28BEA
288B0
3FE3A
0C28A
2AB22
3A23A
32C32
03023
3CAAA
28200
00000
2BAEA
2AB8F
3F828
03FCC
28082
30FC0
00000
0FAE8
00000
2820A
2AAA2
02ABC
00000
33CCA
20323
0F8EA
23B0F
38CB0
2322A
00E08
0AFA2
3AFBC
0302B
0AFBE
288EB
00CB0
2A0E0
03EEA
30EFA
00F32
3BE08
03FEB
3328A
38FBA
2AA23
0C802
2AB28
3C28A
2AF30
00000
0AEBF
0FBAA
202B0
2AE82
3FAA9
033E8
0FC0A
2A3FC
0303A
2A8EF
2A000
2BFC2
3F2AA
0E882
0FFEA
2ACFF
2A20F
2CA8A
08F3F
33BAA
3FAB3
2AAA8
3F02A
222B8
288CB
20A03
02FC8
38E2A
3CF8A
2A0CF
2A2BF
30FCF
08FE2
00FB0
0C2FF
00000
0BCFF
2AE03
02FAA
0082A
2AFFC
00000
28ACF
00000
3082A
3FC2B
30F3F
08C22
0F222
3000A
3F280
28A0F
0ACB0
2A0A2
3CAA2
00000
33300
3FC8A
3F888
3CABF
2300A
02A0C
0FCA8
3F023
0AF28
00000
2208A
33F0F
3A0BF
0C080
0AE3F
2AA82
2A880
2AA3F
0AEA0
2AA08
0F0EA
0AC08
0A20F
0CAAA
00000
3FABF
3F09A
2AE8E
3EA88
2AA23
28FEA
33A0A
20FC0
2A0BC
00000
2F8EA
20082
0032A
30FA8
3FAAA
20B0A
08FC3
33CFC
00C2A
0F3F0
30228
02883
3F82A
2802A
2800C
2A80F
0CAAA
00000
2AA80
2AFFF
003FC
228C3
3A2AA
28BE8
030AA
0AFE2
08A00
3C2A6
02A8C
0B203
2AACC
0A0EF
032A8
2A2BC
00000
0FFFF
2BFC0
3FF8F
20020
0222A
2A2B3
0C3EA
2A2A8
00000
3802E
2A0C8
3F32A
00F0F
2A0FE
2A28C
2A00C
2A3CF
2AFCC
2AB80
2A88C
322AA
0AE2A
2F8EA
08FCF
33CFF
00000
2B3CF
3FA83
203CA
02FEA
3FC28
3CFEA
00000
0CFCC
00000
2AA30
302A8
002FF
00000
2EAA2
2BBE8
03FFF
03FE2
3CEAA
33FEA
0F3A8
3EAAA
3FA82
3F22A
3FF2A
2AFEC
3F826
0CAAA
3FFEA
03F2A
3C2AA
3CA2A
2FBE9
0C82A
3CE20
2A2B3
2AFC2
2A28C
0C0AA
2A00C
00000
00FEA
0BA22
2ACC3
2AE0A
3BECC
03F22
30FE2
2AB0F
3F038
022BF
2CABC
338E8
30FFC
008BF
2A023
3CFFF
0CF00
0CC0F
3F02A
0AA80
0AEC8
0A023
2A0E8
0023B
3F008
3FA8A
2ACB2
2AE30
2B028
0EC08
000B3
0BF02
2AFFF
28FFF
3F0E8
00000
3F828
02030
2ACBC
0F0BF
2EFBC
00000
0CC0A
00000
000CA
2AC3C
20003
30FCF
0BCE2
33E2A
3CA88
002AA
2B000
2AEFF
3FE28
00000
202AA
02A03
030AA
0B8E2
08AAA
2A00C
3F2AA
20AAA
2AFF0
00000
33FEA
0333A
23FFA
03AAA
3F082
0F8AA
08088
2AAAA
3F32A
3FF80
2AAA8
00CEA
3F220
03A08
00000
3FC0A
0A0A2
00283
3F8C8
3320A
0083F
03023
02FF3
3C0B3
00000
2AA3C
2A3FF
2AFFF
23AAA
330AA
2BA0F
00200
3FC2A
2AFF0
3BCE0
2AC32
3BA28
00FC3
2023F
00F3C
3CF30
33828
00000
22FAA
00003
2A33F
30A03
3F28A
3FF3F
0AC3C
220CC
0CC03
0002A
3FC3B
3F02A
20F00
0B28F
0B2F8
0AAAA
00000
030A8
3E03F
2AFF3
08EA3
2BAEA
0A08A
2AAA0
038A0
00000
2AC3F
2BF3C
0AABC
22F0C
3FFFF
0F022
02B00
3C388
0FFF0
0CC3C
08FFF
03FCA
2AE3C
330CB
03388
2A22B
00000
000C0
3FCC3
0AEF0
00ABF
0CAA8
02FB3
00000
030E8
00000
3F80A
0FA08
3FF28
00000
3FCEB
0033F
3802F
0B3CF
3CE8A
283C0
3302A
338CB
3328B
2AA82
2AA8F
33022
02AA0
3F200
2A200
3B82A
0FA2A
03822
3380F
3CA2A
33A28
3F88B
3FF30
02AA8
28E30
0FCBC
00000
02FE0
0A000
3F30A
0FAB2
08FF8
2ABC3
2BC33
0FFB0
00AAA
3FFC3
3F8CB
3F820
00388
3FFC8
0C3FF
0FC0B
0AAAA
3B020
2AA8A
3CF3C
2AA8A
2AAAA
0A28C
3C02B
3F02A
28AA2
3F02A
3CE32
28A33
038E3
3F228
02A8A
030C3
28A00
3E28C
00000
2BA2B
0A808
330BA
302AA
0C228
00000
3C0EA
00000
0BA30
2AA3A
282C3
22ABE
28A23
28A0F
00820
32283
33EE8
03003
08A23
00000
2A880
22FFF
2AAA3
28822
28E33
030E3
208BC
28A3F
0B8CF
00000
2AA8E
0AAA8
33AEA
2B3BF
0C82B
3F0CF
322AA
2AA2A
3CFEC
3F3CB
2AC33
2823A
3FA28
38A3B
00000
30FFF
2A0BE
2A333
2BAE8
3FBEB
032E3
23BFF
0C8E3
08CEA
00000
3CFCF
0FAAF
3F0CC
00030
2AAB0
30033
2222A
2880F
3BB3F
2A60F
32208
03030
2BACF
3CC0A
233C8
3F3E8
2BAE8
00000
2AAAA
3CC2B
300A0
0BAEB
232FC
30CE3
0AC8E
000A2
00828
3CFB2
0BAC3
08AE8
33AAA
3CC88
32CB2
2BAEB
00000
2AA88
2880B
00ABC
3A2AA
3FEB8
28AEB
2AF3C
3F3EF
00000
3F280
33E0A
2A0B3
2AAB3
0F83B
30080
3388A
332E8
032EA
3CC2A
000A0
33E32
38F32
08A2B
0BAA8
22AAA
00000
23A3B
020A0
3FFC3
22E0C
28AFC
20FFF
00000
0C28B
00000
08A2B
3B8F3
3FA88
00000
0AA8B
02223
23ACF
282CB
3C030
020C8
2AAB0
2BAE8
08A0B
3EC32
2AC30
3F2A8
2EF30
33208
32F30
33E30
28A3F
0803F
3FAC3
020BE
0B0CA
02A28
3FBEB
3F0A8
32FB2
330CA
00000
030FF
3202E
3FA28
2B8E0
2AAAA
2200F
2AAAA
3FC8A
282FF
03AEB
28AA8
2B8FC
00AAA
320AA
3B2AA
02880
000BF
2AB0C
30ABC
2AC83
3088F
2800A
2AA0F
2AFE0
2AFFA
0F002
3FA00
03AFB
3BA80
02FC3
2AFF0
08888
032A3
30AA8
00F0E
00000
2A3E2
33ABF
23CE8
2AC3F
00F3A
00000
30F02
00000
3FA8C
00082
03FEA
0820F
3CA80
32AB3
00FFC
0E3FF
3F030
0AA83
02AAA
00000
30AA8
0A328
3EAA8
3CAAA
3F82A
3C033
32282
00AAA
3FFF3
00000
3FB0C
03A80
3FCF8
0FAAA
00FEA
3FAA2
2AAAA
2BF32
23222
0CC2A
3F0E8
3FAA0
2832C
02F80
00000
233EA
303E3
003E2
3F8EA
3F320
3F0C3
32A8A
08C33
03FF0
00000
22A83
0A2B3
2AC3C
3F8AA
3CAA0
3F828
2832A
3C882
30A8F
32AA8
3F28F
2FF2A
3EA8F
2A283
032AA
0CCC8
283EC
00000
00883
2A0C0
2A0B0
20A2A
3FCEA
0CFEA
302A8
03CF0
2A3CC
0FFE8
2002A
30C00
0FAA2
0C30A
30A8F
20802
00000
00082
20CCA
02AA8
38AB0
3CA2F
0FFC8
208AA
2ACCC
00000
2A208
280C8
30FE8
33A00
2AAA8
200C2
2AB80
20CFA
03230
2022A
030C0
3FA3C
0F0C3
02FEF
0388A
2033E
00000
28A8B
2AFEA
32AB0
2AC0C
0C2AA
23FFB
00000
2A8BF
00000
0FBCF
00322
08022
00000
02A82
223FF
3C2A3
0FA88
3CFE0
0FA8C
3F80C
0332A
2AA3A
2A3BF
2FCEA
2AA80
020C0
083FC
0C203
33A28
00AAA
3F0AA
3F8E3
3C0AF
3FA08
2AFE2
3CA8A
2AFF3
302E0
082BA
00000
3CE80
0A028
2AF3C
33CEA
0A80F
302A8
38328
20CCA
3CAAA
23F20
28022
3CAAA
03AA2
2AC3E
2AEBC
228A2
00FFC
0A0CC
0AF0C
2AAB8
2A2B2
3F20F
2AABF
303E0
30C02
0A28E
2A38E
22330
29ABB
000CC
0ACFE
2AAAA
0A3BE
280CA
00808
00000
0E0C0
2A02A
2AF82
00B0E
000CF
00000
00330
00000
2A238
0AA8A
300EB
003C8
2AEBF
2AF3F
02828
00FCF
30C08
2A283
0A0A0
00000
2AAB0
2AAA8
2AC33
02F0C
0AA80
00C3F
0AA8A
2AAAA
32F8E
00000
0A28A
2AA82
02EE3
3AABC
33FEB
2A0BC
0AF8C
0C002
0A32C
0A382
2AC3F
2AF3C
2A322
0A0A8
00000
22FEA
22EFF
03FC3
0A880
2A80F
2AAA0
0AF3F
2AAA2
00002
00000
2ACFF
28A88
220BC
29A82
0AC3F
22FCC
00CF8
3AFFF
2AEBC
0AEBF
2A0BE
2A2B3
2A2BF
2A0A0
0C8AA
30382
3E020
00000
0200F
2220C
20C32
08033
2A0BF
0FF8E
0AF3C
22FBE
08FC0
0200C
02A2B
28FFC
0A302
08F2E
2A232
3FA03
00000
00AAA
028AE
00232
2A0A2
0A23B
23AA0
2A030
2AEB3
00000
220BC
0ACAE
22AB8
2AAB0
2A8A8
0E3E2
2CF0E
0A3A2
022AA
023A2
0E38E
2AA82
2ACBC
0ACC3
00000
02FFF
00000
0CFA0
2C823
08FF3
2AABA
2A9AA
2AABF
00000
0088A
00000
382E0
0AAAA
02EC0
00000
3030C
028AC
0A8FF
3208C
22E82
38082
08A88
0AA88
32F0F
2A2BF
2A2B0
2A8A2
2A2BB
0AA8A
2AABE
0A002
2283C
3230F
20FEF
28EFF
2AEBE
3002C
3AEA2
023CE
0CF3C
0A8AA
00000
0803C
023BF
32083
02208
2AAAA
2AABF
0AAAA
22BA2
0AEFF
003E3
3CC0F
0AA80
22A82
3F3E2
283E3
0C00A
00C30
30F02
2882F
2A8AA
3CCCA
2AB2C
2A882
30A2A
33038
32BEC
2FAF3
2CC3F
3B23C
20C08
2F28A
2F3C0
00E80
2B2F0
22A80
00000
03FC3
3C00A
00E3F
008AA
3C3C8
00000
03ABA
00000
33A30
3820A
20AA3
2A2B2
308EC
3A8EF
2AF80
2A080
3F02C
22ABA
223FF
00000
038C3
080B3
03AC3
2A32F
0802E
2A0AE
033CB
03FFF
208B2
00000
3BB2B
0CCE3
2820F
003CF
0BFC3
0ABEC
3323E
33CAA
00FBA
08FBC
2A200
2880F
200B0
0A033
00000
0AC3C
2AA80
3F3E8
2A8A3
20BC3
09A4A
2AB2C
2AABE
3CCB2
00000
02A82
2AABA
2AABA
282F0
2A803
2A0BA
0800A
388EF
2A08A
32CE3
0088B
2A82C
3AE8A
0F88A
3FEB0
032BA
3AC3F
00000
0CE03
083EA
0EA8A
0208E
2800F
20AB8
2083F
020B3
3CC02
03AF3
0A320
3323A
088B3
20AF0
03A00
2E8A0
00000
0F030
2AAB3
003FC
08A28
3BAAA
22B20
22BEF
0A02A
00000
20233
2FCF0
2AA80
3F22A
0F00A
03CF0
00CF8
03082
0BC0B
0FEF2
0C2B2
0BBCF
3CA08
3AE32
023BC
20CE8
00000
33C08
02F22
23002
2AA8A
00FC3
2AA82
00000
2CB2A
00000
02FCF
0ACFF
083F0
00000
2A00F
0288A
3A22A
0CC8E
288EB
00C0C
33A88
22AA2
3AFCF
00A30
2A22B
2F3FA
282A2
3ACB2
2B0C0
3BAEB
3A3EF
08FFF
39E7A
2AAB8
2882F
02028
3FC00
2A002
2380A
03E3C
00000
0A0BE
0FEBC
0FFF8
02FF3
332E0
3AA0F
0800F
00EBC
30A2F
2232F
0A32C
3AFEF
0323F
30FFC
2F8E3
22B82
30CBC
300B2
0CA0A
2A80C
2BAEF
3AEBA
0AF3C
38EB2
03FFE
3AAAF
3F2B2
20A28
28AFF
02EB2
3BFF2
22CBE
0FACB
2B8EB
33EB2
00000
3CF32
20803
3EC82
030E8
0AA38
00000
38FFC
00000
238EB
0F03F
00AB2
2382B
0F83F
0A203
38F8A
3E0BA
002B0
2F8EB
3A3BC
00000
2AABF
22A8C
002AF
33A8A
3E3C0
222F8
02ABC
32CBF
28A0A
00000
23A28
22230
00FBA
3E0CF
30F32
32E83
28F3C
20A8A
0AF32
28FFC
03BE3
3FAC3
00EB2
023C3
30000
02CBE
222A0
30FFE
3C38A
3ACB2
323A2
33CEB
20A38
00AC8
00000
20BE3
0AAB0
0A0B2
32CBC
2A080
2C0AA
0AE8A
3F02F
038C0
0F8EF
3FA0F
3FFCB
0CFCF
23AE8
30C0E
28C32
32CB2
00000
33CF3
3AE3A
0A283
30C08
3EFBC
20B2A
2FBE3
23AE8
0800A
2AA0F
32CB2
30F3C
0F2BE
2AA8A
2F8E3
3AEBA
00000
020BC
2882A
0F800
03ACB
238EF
0A28A
030E3
3ACB2
00000
200EA
0822E
0A0AA
0CA83
228AA
3BC32
0BA8A
2B3CA
3CFBE
200BE
00A0A
028BE
30EC2
0228A
20CBD
3CC3E
00000
0F0F8
3338A
2F82B
2A23C
32CBC
3AFFF
00000
2A28A
00000
3AEB2
32CB3
33FF2
00000
3ACB2
323CB
0FAE3
3C0F3
0AE8E
3F82B
0302F
3CC3A
3AEA2
22B2F
08002
2200A
22B2F
2E03E
08A0B
08803
322A3
02220
3DFAE
002A0
3F002
33EB9
33CBE
3BEB2
23AEC
3AEB0
00000
08C02
223EF
30FB2
0AC3A
2FACB
2F003
0FA8A
28FCA
3C80F
38E32
3A2AA
32F8F
20CB2
33CB2
303B2
22A02
22CB2
2302B
00382
00C3A
33AE2
20FCF
089AA
2820B
2823A
2CBE3
00C0E
00C2E
0C8A2
000C8
20E08
20E8E
0023A
03CAE
0F3CC
00000
20200
330F8
0BF32
30CBA
0CFC3
00000
0AE30
00000
03F2A
233EC
0AEB3
3CC8A
2CB22
32FBA
00C30
3A0AA
33FFE
3FEAA
2C320
00000
2C8AC
3C3AA
22BAC
3BC03
080A0
03028
00382
20B00
2CA82
00000
0330C
0008E
32C00
2238C
00000
2CB20
30EBC
38C03
20EF2
2A232
08FBA
0ABAE
00302
208EE
00C00
0E288
3A00A
0C0FF
2232C
223E8
38A2A
28382
0FA82
33230
00000
322AA
33A8A
3C20A
3EFAE
0232F
3CF0A
22F0E
0CBA2
33A82
022BA
00B22
0A323
332AA
0FC33
08E32
00230
2B0AA
00000
3003F
2AECB
08A8A
00238
32FAE
02A0A
0C0B2
082BE
28AE8
2F38E
00C33
28CFC
0288A
38EE8
0F32E
2F3C3
00000
33EC0
2AAEA
33B20
0C38E
3FBA2
2AAC3
3AF3F
200C8
00000
32EB2
03FE2
0BCF0
0382A
33C3E
00F8A
220A2
0AE2A
08C0E
00232
30E3E
2232E
2F38E
00282
2AA82
2A8A2
00000
3F0AA
28E03
32CAA
2A2BA
3CFB0
0CAAA
00000
0F08E
00000
228E3
22322
2AC38
00000
22B2A
3AA0A
3C0A8
3BFC0
0330E
38CC2
03800
228AE
2AACB
2AAAA
332C3
3FFE2
30CBA
28208
33F3E
3FBAE
22300
30C82
38EE8
3EF8E
0F32C
2A0C3
0AE3A
2802A
023BA
2CC82
00000
23A22
32EB2
20FC0
2ACE2
0CA8A
20000
20E82
0AE3A
00B8E
22E08
228C8
208AA
0A2B2
0CF30
0E8C0
28883
3C3FF
28A2B
0320C
333FE
3FC30
28203
2B02A
2A9AA
2AAAA
0303F
2FBC0
2C83C
3F00A
2AA8F
2A9AA
3080E
2C0CF
3CF3F
2ABAC
00000
2AA20
00C02
18A22
38228
20AA2
00000
2AABF
00000
0C03F
32082
0C8AE
2A8BF
3003C
00C3F
03A80
2AA00
2C30F
2A28C
00FFF
00000
2BCC0
3C032
2B000
30F8C
20082
20B8C
038E0
0BCF0
0A80F
00000
0CC3F
3C3E0
2A8A2
28808
2AAA8
000B2
20B83
3FF82
00A82
28A80
0032C
003C3
2030F
230C3
00000
00F3C
288EF
2AAAA
2ACF3
38C3C
033B8
003B3
288A3
3F38A
00000
28A8F
22880
2AAAF
20A22
2B3CC
2A38F
2EFCF
020BF
2AA8A
00082
333CC
2AAA8
008B8
0C888
2002A
28883
2AAE3
00000
0FFFF
2AAAA
2880C
080EB
2A002
2A2A0
2033F
2A80F
2AAAA
23BCF
2AAAA
0CFFF
3FFCF
002A0
2C8FC
3BC0F
00000
20A32
282A8
2AAAA
303FC
0033F
3AEBE
02828
2AA80
00000
2AA80
2F800
0AAAA
3FC8A
22A2C
2ABAC
22BCF
2A6AC
0CA2E
0CAA0
2A8B3
28E3C
00CC8
2B3FF
0FC82
2AA28
00000
0EFCF
2AAAA
22E3F
2CB00
28AE0
20A83
00000
0C002
00000
30FFF
00FCF
2AAAA
00000
220E3
0003F
0203C
0E3B2
2AA2C
00020
3F300
2A0FC
2AA2A
0FC00
00A80
20A3F
03FE0
0330A
0300E
23C0F
282FA
28AA3
030FC
188CF
2A00F
1AAAA
230AA
2AA80
23B03
0C382
00000
2AA80
0C0CC
2AAA2
22F3F
3F008
33C02
3C0EA
2AAAA
2AAF2
2AA82
2A2A8
2EFBC
3F0CA
2AAA2
003EE
28ABF
00C80
0CA38
38A0F
33202
0BF3E
38EBA
28032
2C0BB
0F8A8
0B03F
0FA2F
3FF2C
3BE82
2E3A0
2C8A8
28A80
282BC
0AA8C
28FFF
00000
30A2A
00823
2FAE8
238A8
3F8AB
00000
0F3C2
00000
3B23F
08E8C
20ABF
303CF
0B88F
38880
28A28
0A080
0F20A
03B2F
0BA2A
00000
38EC3
22A8A
0B2F3
2A883
38A8B
2AC32
2020A
38EC0
2A0C8
00000
2B8BF
2AEB0
2302A
028C3
2A228
08833
3FB83
2AA8A
3FAAA
0F8B3
3FC00
0000C
2AAAA
3BE22
00000
2A208
22BA2
2CF00
0822B
2A2FB
2AAAE
2AF3F
2A2EB
28A88
00000
3320C
028C0
0E22B
3F2A3
28A08
3F00C
2AAAA
08AC0
33FF0
2BBF2
3BE8F
3F2FB
0B3FE
2AA8C
20ABC
0C083
3822A
00000
2AF22
0C308
0C82B
3C2CB
20238
20033
08F0C
0CF23
0C288
3C08A
3BEFB
0EA8A
2A03F
3F003
38083
08EB8
00000
28A8A
2A803
00F3F
3BF3C
3B20C
2AE8B
2EB0F
2B208
00000
0CF0E
33A22
0C800
3823C
28ABF
0CBAE
0C8AE
0E3A8
2FAAF
038BF
22ABF
3B288
0F082
082B0
3FA8F
02C0A
00000
2A8A0
0000A
330C0
22AAA
00CFB
00FCB
00000
2AABE
00000
2A0A8
382A8
0F82A
00000
3B208
2AA8C
0BAC0
20AAA
00F20
00CE0
3BE2A
3B2CB
322B8
38282
3F088
3FA30
22A2A
3C022
3F000
3BE0A
0A2C3
030CF
3BA82
380E0
23A8B
00E36
0FAB3
2BAA8
2E30E
28AAF
00000
30C0B
0C800
28A2A
08AA8
2803F
2BE0C
2AA83
3F800
38EC3
032F8
3F238
0AEBC
03A3F
28AAA
3EEB3
30820
32033
33E08
00B03
0822F
0A3E8
3C3C8
2AB20
30AA8
0028A
0CB28
3CC8B
32CB0
3F20F
08EBE
33A8A
03A8C
0ECBC
2AF3F
2F8C8
00000
032EA
08330
0ACBE
3FEB2
3CC82
00000
3C2BE
00000
30823
0AF23
08AAA
3F8C8
2FBCF
02BE0
38A88
330C8
0E00C
002A0
0F3E8
00000
2F80C
30AB2
2F8EB
0A08B
00AEA
0A3BC
2FBEF
2FBEC
0AC8E
00000
3E3EF
28033
0238E
03BE8
00A8A
00BE8
322B2
28A22
3EEBE
3EFBC
3A38B
323CF
03BE8
00A2A
00000
0F08A
3328A
3F2E8
3E3E0
303C2
3AEAA
28008
2AEB2
2AEB2
00000
00AA8
08282
30EBA
30FFF
20BE3
3CCAA
0003C
2282B
32F8C
08A20
33BEF
308E8
3A32B
2A08C
0ACB2
0CEB2
33EC8
00000
38E82
28A8A
00E88
30C00
3C3CC
3CEB2
3030F
020B0
33A0A
0CF0F
3CBEA
3BA02
0B00F
3E0A2
008AF
020CA
00000
03C02
0EEBE
20FFF
0F8AB
3082F
2A882
0020B
02002
00000
38EB2
3ACBF
30EBA
00880
2FC23
00C0A
3C028
33EBE
0A082
3CC8C
3EEBE
0E003
3AFBF
38228
32002
03A2A
00000
03228
00A2A
3C828
0ACB2
0F0EB
0AF3B
00000
33222
00000
0F3CA
3E3AA
0C88A
00000
0FFE8
3C2AA
008AA
02AA2
3A3BC
3C0B0
3C88F
223E8
2322A
0802F
3AEBC
2008E
0F20A
382AA
32C8C
3FBEF
208E8
28208
38AA6
088A8
0C3C3
282EA
32F0A
032B0
0A080
2AEB0
00000
38F3E
30CBE
3F0CA
02CBA
03820
3CBEF
033CF
30EBE
228E8
3FFEA
308EA
0FBE8
0A03A
0C0C0
3FAB2
3FA0F
2C30C
2C0AA
20A3F
0E82A
2AA08
0AA88
080E8
2AAA3
22A2F
2AA3C
0FABC
00A80
3BEF3
0AAAF
20A20
3FAAB
30AAC
0AABF
332EA
00000
0BA00
08AAA
2AAA2
28AAC
0FA80
00000
20AFF
00000
2A00F
388C0
28A88
33023
0A8BF
228FF
28A80
0FC2A
2BA0C
3CAA3
2ACF3
00000
3F2FC
2A0A0
30CFF
2C8BF
20CFF
00808
00FF0
02FC3
00B00
00000
028BF
0F88C
28AF3
0A0FB
23823
2AEF3
3F8AF
2AAAA
28AEC
208FF
2C2BB
00ABF
383C3
0B3F0
00000
2AA0F
0EF2A
003CB
28EFB
28FEF
000C0
0023F
03B0C
22AAC
00000
33CE2
3A0FF
0038F
28AC3
33FE8
33C22
30A33
22ABF
328EA
0E0BC
3F8A8
28EFB
0ABBC
338BC
238E3
2C82F
0BFEA
00000
22BBC
2AAE3
0BAAC
2F328
28AFB
2A0BF
3CA8C
22A8C
2AA28
3C3E2
28CFB
0FBCF
3C8CF
28A8F
33BBF
022E8
00000
2AA80
2AABF
0088F
3F8BF
3F080
2AAE0
32CB0
0AE28
00000
0E8BF
28ABC
2AC83
3CA2E
3FA3F
3380E
30AA8
2AA2F
3F80F
3CAAF
2C82F
0B2F0
3C2BB
02A82
2BAC3
38228
00000
3C3BF
288F8
3C8BE
2A0BC
20CFB
00E32
00000
032FC
00000
080FF
2ACFB
28A2A
00000
3BEEB
288CC
3FAB0
0028A
2BBEA
3C083
000FC
0BCC8
2AC3B
08CEA
2A238
3AA20
2AF8A
0AFC3
3F8B8
0F0F0
2BFFB
30FF3
00EE0
3FFEA
282FB
28A08
2C8C8
00AAC
03AAA
23A0F
00000
082B3
0E0BC
08028
2A2BF
3FABF
3F2AA
3FA2F
1AABF
33FF3
2B2C8
2A23A
2AA8B
3F0BF
220A2
00308
00C33
2A30F
222AC
08AA0
0CEA2
2AF00
08FC3
28A23
02003
3CE0B
0AAAA
00030
3BF3A
038FA
0CC03
0CC00
33CF8
033FF
00FF0
008AA
00000
3E2A8
02C0A
00008
0AFFF
3CFC3
00000
3F3E3
00000
30F0A
0F28E
2AC33
3FF00
3B2AA
0AA2A
2803F
0A0AA
0F00C
3F332
2AAAA
00000
2AAAA
22AAA
0AAAA
20CFE
22AA0
2BCCC
00AAA
03AAA
330CF
00000
33E2A
3FC32
3A280
2AA69
33A0A
28AAA
0FE0B
22CC0
3C22A
30080
332AA
3B228
22322
22A8A
00000
0F8EA
2AAAA
0FFC3
0A020
2AA02
0388A
2B8EA
030CF
20080
00000
3000A
08CF3
00CC3
23AAA
2A96A
030E8
3238A
30A2A
0F0C8
333E2
383F0
3A020
03EC3
0F00A
3C83F
3C20B
02A8F
00000
22FFF
0CF08
3A20F
2AA8F
2B282
3CEF3
3AF38
0FCC0
328AB
202AA
0AAA8
3CFC3
2A233
3F822
33F32
288E2
00000
3F020
0C080
2AC30
33FC0
30B0A
08208
08AAA
00228
00000
33FF3
03822
32AAA
3FCFC
33FFF
02808
08083
3C333
3F0BE
30FF2
083F2
380AA
3BCA2
22AAA
2A2B0
2EB2A
00000
20FFC
2AE03
3FFC2
08A8F
2AAAA
08E2F
00000
00A3C
00000
220AA
08A8A
0AAA8
00000
2AAAA
00FE0
0CFCC
33CF0
2AAAA
333F2
022AA
28AA3
0AAA8
2EAB2
082E3
3F3C0
02AAC
00080
33022
022A2
2A5A6
0AAAA
3FBE3
0AAAA
28AAA
02A20
0308F
32880
0A82A
0CC00
00000
30CC2
0A028
3FFFC
0E282
00FFF
3C88A
00CCF
3CE28
2A6AA
2AAAA
08828
08A9A
2AAB0
2A2AA
28ABC
0AC30
2F2B0
20F08
0ACB8
223FE
2AAA3
22BEA
22CBC
30028
0CAEF
28228
30FC8
0F0CA
09FFC
0C288
0002A
3AF30
2AA82
2A3CC
03C0A
00000
0002B
2AAA8
3F03A
2AF28
0C828
00000
032F3
00000
2AF80
290B0
0CA22
2B808
2AEBB
2A203
3CFEB
00F23
22A3A
2A880
2AC03
00000
2AC88
3FEBA
2AF33
2AAB2
00C20
0803C
2AA22
2A3FF
23AB2
00000
28FFC
2A30C
2CA3E
2AFB3
3C880
28C33
280F2
08A08
08200
000CF
0F8CE
280BA
28C30
2AFCF
00000
20ABC
0F02A
22AA8
230CB
2AAB0
2984A
2A2B0
2A2B8
30033
00000
29BAC
2A23A
08AA6
223EA
2AF8C
2AABC
38C33
0AFAB
2A2BC
2AA00
2ACB2
230E0
2A0BF
023FC
333FF
2BAC0
0CFE0
00000
3C820
03A2A
2A02A
3CF80
00230
03832
28030
2BABA
2232B
3CC3A
2C0E0
3A0FF
23A82
2A382
0AF3F
2A0BA
00000
02F2A
002AA
00CBF
2AC03
0AF30
0CABC
22AA3
2C0C8
00000
28A0A
3FFF2
0C82A
3AFF3
0AFF0
30C38
0EE28
3AA00
3AF00
38CFE
288CA
02C02
3FFFA
0202F
208FC
002E8
00000
0A030
0F3E8
2AAB3
0AFC2
2E0C0
22038
00000
0ABC3
00000
02C30
2E822
0FA3C
00000
2AC8C
2ACAA
2AC3F
2ACBA
3FCEA
3F03C
3AF3F
283C0
00FEB
2A0BC
0F8EA
3AC0A
2CA82
2A3CC
32FE0
3AF00
2A3AF
0ACAF
2988E
2A3C2
23FFA
00AEA
0200F
0CFEA
3FF0A
0A302
00000
0FC3C
00EF0
20A88
0EFE0
0AFF2
2A0B3
3A33E
0B2E0
250A0
20CFC
28AE8
2A3BF
2AFCF
3FFC0
3083C
033FC
032E8
0CAAA
00A6A
2AE3F
022AA
0F032
2AF3F
0AA8A
2B230
20AAA
0F0FB
30F02
25AAF
30000
0AAA2
02233
32FFC
2AAA8
2A800
00000
03A20
02EAA
000B3
3F220
2BCC2
00000
00C0F
00000
2A6AA
2ACB0
0CB3F
2203F
2AAAA
2AAAA
20AA8
2AA82
0022A
0AB3F
2A82A
00000
2AAAA
0A000
2A56A
08AAA
2AAAA
3FCC3
2A08A
2AAAA
08C3A
00000
22AAA
2AA8A
08803
30AAA
03C2A
322AA
38FF3
03EBC
2AABF
33F03
22A8C
22AAA
280C8
2AAA8
00000
2A0C3
080FF
3F30F
0A280
30FCB
0328F
22AAA
000EA
300E0
00000
2A8FF
08CFF
00230
0830E
25AAA
22BFF
0CCC0
2AAAA
2ACBF
2AAAB
2A882
20A82
2AAAF
02FCF
3FCFF
38CFC
0A0EA
00000
03C00
28233
3AAAA
3F0E0
2A802
03CF0
2230C
080E3
2CAA0
2ACFF
0AB88
080CC
20A82
03F0A
2ABBA
3FECA
00000
03030
3300A
2A282
30AAA
2AA8C
3A28A
008E0
30288
00000
3CFFF
33020
333CF
2AA80
00CB0
2ACFF
30002
380F3
330FF
300F3
00FCF
2AE0A
2A30C
00022
33F33
2C822
00000
20AE0
2AA8F
0A3FF
0C303
3A02A
22A83
00000
03080
00000
000C0
2ACE8
2ACF3
00000
2AAAA
0F8CA
2AA03
030C8
2B0FF
32FC0
2AAAA
00008
2AAA2
2AF0F
2AAA0
2FE0C
0A2FF
020EF
008F3
2AABC
2AAAA
0AAEF
323FF
2AC0F
088A8
2803C
03C33
28202
28C3F
0AF00
00000
200C0
0FF30
03CFF
38F2A
00A8A
2A0FF
2AA8C
0A3C3
2AAAA
2AA8A
00AA2
3202A
0FCFF
2A033
2BAE3
2CA2F
23230
3323C
2BAE8
00AE3
0822B
3EFCF
08AEB
00CBE
2E30E
2328A
0B08A
03820
088EF
3F32E
2C3BE
030EB
28AEC
3EAAA
2830E
00000
20CB2
022A8
208A8
202B2
0F302
00000
0332C
00000
2AA2B
3E0AF
30F8A
28823
2AA2B
2B2CB
008B2
02382
0C30E
028EF
0BE8A
00000
3B828
0F8AA
27AEB
0ACAA
28AFC
0F3C3
332EB
002A2
0F828
00000
28A88
02082
0C002
23AAA
02FB2
3B3CC
238CC
38F0A
2B3FE
230EE
23B0C
28AA8
2003E
2A88A
00000
32000
20B2C
0A8BE
220B2
3E33E
28A2F
0AA8A
23AEB
3A800
00000
2AAE3
00A23
2F8EA
3A8AC
2BAEA
2A82F
0EBBA
00828
2AAEB
08A28
08A23
20332
2A9EB
03BE3
00320
0F020
082B2
00000
30208
2E332
0082E
38EBE
0A8AA
3F00C
2BAE3
2382A
228BC
033EF
000BE
20322
082BA
23230
00BE3
3CFCE
00000
000A3
2C802
0AAAB
28AE3
2A8EF
023BE
2BAE3
3F332
00000
23320
3FFFF
23A2F
3BBEF
228E3
2C33E
0EF8F
0C302
38232
030E0
038EC
228A2
3C8E3
00ABE
0082A
03A0E
00000
2C33C
32FB2
08EFF
23AA3
08AA2
2F8E3
00000
33FEB
00000
0E33E
322B2
3CFB2
00000
232E8
22ABC
2BAE3
0AACF
23B20
002EF
0A200
08ABE
3B2F2
00A23
208CE
2A80F
3C002
082A0
20823
2BCE3
2BAE8
2BAEB
289CF
288EF
2F8AA
00CBE
0038F
0C0B2
2F3EF
3C30F
00000
2AA28
203EF
0CC3C
0E882
2882B
3AAEF
0A2EB
20882
27928
008B2
30C3C
2BA8C
20828
0333E
28CA2
2F0FC
3FFCF
0FBEF
3A2AA
2ACBC
322BA
3CFFC
320BA
2FBCF
2FBC3
30A8A
2030E
2B200
2AA8A
033EF
208E3
2A282
23BFC
2924A
280AA
00000
2E828
3C2AA
3820F
203C3
2FBCF
00000
308E8
00000
2AAA6
2A28A
0F8E8
30E8A
228AA
3A28A
2C2CF
0220A
0FBEF
0CCBA
2AAA8
00000
3A2AA
2A28A
39E69
03BA2
0282F
03BE2
08AA0
028A8
2C00A
00000
2AAAA
0AAAA
088EF
3A2A8
20A23
3C3AA
30C08
3F0B8
2AA88
00820
2A828
02AAA
00BAA
222AA
00000
2AAA8
32C88
02A3F
00823
02AEF
2E232
008AA
2A2BA
28EBA
00000
0FFB2
0AE7A
0EC22
0AAAC
3A2AA
3F3C2
0CBA2
322AA
0ECBA
2AC8A
0A38A
0E8EF
222BA
20CB0
0F0C3
2F023
20AEF
00000
3F000
0C3CF
00A0A
0F8CF
3A8A0
2C80F
03F30
288A0
0380F
00C3F
008EF
3C0A2
322A2
33B3E
0008A
3C32F
00000
0FEFF
20B2A
0CF30
02CB2
022AA
038AB
292AA
3C303
00000
2CC3B
230CC
2A0BC
2AE32
2CFF3
2F3C3
2F008
0F8E3
00BE0
0033F
3C3BC
2AAAA
2ACBC
03802
0EAAA
02FA0
00000
2FB20
2FBEF
3FFB2
3ACBE
0A823
0CF2A
00000
0888E
00000
3F2E2
0AAEB
2A8E3
00000
3CC28
0FBCB
0FB3C
2F3E8
3A080
2FFF0
22AAA
38A2F
3F02F
3AC7A
28A2C
2303C
3EF82
32EB8
28C3C
3EAAA
32EAB
02EAA
08ABA
33CAA
3A8A2
0F8E3
2CBEF
22B23
3FFFC
2A2BC
00000
0CE02
3EC38
23BCF
28A28
2AEBA
22FBE
2A33A
20883
3926A
0CA2F
032EF
3AAA8
322AA
33028
2BA3A
0A0E8
30EBA
02EBE
2BB32
238EB
23AF2
23A0B
30AAA
3EE80
3ECB0
2C300
3800F
3E288
308E0
3EFB3
320AB
3AA2F
088C8
28EBA
330AB
00000
32CB2
203FF
0228B
32F8B
32F80
00000
32CB2
00000
2CA2A
233E3
3EF00
03AAA
08A2A
2F0BA
3AE8A
03030
32CB2
2BAE8
0ACB2
00000
0ABE3
2AAEB
2FB02
000EA
2F02E
3ACA0
08220
08820
0ACBB
00000
28A2A
2AAC3
32CB2
2F3FE
3EC83
20EBE
33288
03AEB
0AA88
02EBA
3ACB0
28A82
3ECBA
0AE8A
00000
31EBB
2FAC0
02A8C
22E8A
0A283
230E0
2F0B2
03BEB
008C3
00000
23AE8
2BBE8
3F3E3
0288C
0F282
2F83A
30F32
2E3B2
23AE6
23ACA
33BE0
33CB2
2FA2A
288E3
3EEC0
32FB0
2BE3E
00000
0BAAA
3AC8B
33BC3
32FB2
32C80
32C3C
23AE3
2A2BA
0E30C
33A23
38CB2
0E0AA
3B228
00F8C
33AA8
2FC03
00000
3208C
3AF00
203EB
228E0
3CA2E
02C83
2FBFC
0AE88
00000
0E828
32FBF
2FBEC
333E3
0A8E8
302B8
30303
31C88
32A8F
3AEA3
223C0
3A882
38A23
02FB2
3AA2B
0FF3E
00000
3EEBA
0AC8A
238CA
2BAEB
238E0
3022B
00000
3C320
00000
3CE4A
0AEB2
3AEB8
00000
30EBA
30FFC
28A2A
3AEBA
23AEB
38033
333E2
202B9
0F3BE
0FA1B
322A8
0208E
2F8EA
23ACB
0B82C
32820
2F3BE
2FBB2
20F8E
3F8B0
320B2
02C8A
3ECBB
32E80
3F8EB
3AE0F
00000
2300B
03AEB
02CB3
0ACBC
23BEF
38A28
22BEF
320B8
23BF0
2CFBC
2F8BC
2FC32
0CAEB
00EB8
33C8F
2A0F3
08FF2
2C82A
20ECA
33EAA
3C0C0
28A2A
33FF0
203C3
02C3F
3F0E0
2020A
0F0C2
3022A
2AB33
2A02A
2A20A
3B2BF
3CFC8
3FFEA
00000
3CC2A
3F008
3FBE8
0A220
3F220
00000
0A030
00000
0FFFA
3FC00
02FFB
3BF0A
08280
00AAA
0CFC3
3F32A
3CF30
3FC2A
2FFE0
00000
2A08A
03828
2A2AA
0AC0B
2AAAA
08880
288AA
228AA
338BF
00000
33FF0
0CA2A
00303
2AA99
0CFFF
08AAA
2AE22
280CC
320AA
00038
03288
280BF
3FFEA
0FFC2
00002
30CF3
3F3EA
0088E
2AB30
0ACB0
3CE2A
3BA2A
03A30
038CF
00000
33EAA
3322A
28A2A
23AAA
033EA
3F2AA
3FF0F
3C22A
002AA
0AA22
282BF
0AAAA
30C0A
02AAA
0AC3F
0A8BF
3FF2A
00000
2A033
22303
3822A
00322
2AAB2
0CB30
28CBF
082B3
0C82A
03B0A
2282A
02FF3
2AF03
3FCE8
0CFFB
2A80A
00000
320C2
302C3
00C02
28A0A
3FEAA
0AC33
302AA
2A30A
00000
08022
3FCA2
3CAAA
32AA2
0AAAA
3FBEA
3F0EA
2A03B
22F02
2820A
308A8
23FF2
03A2A
2CF20
0AFCB
0230E
00000
33F3C
208E8
30E8A
3BC2A
28AAA
2AAAA
00000
283EA
00000
3FFF0
3CFFE
3C32A
00000
2CF08
08CF2
3A2AA
02A88
0FBEA
3FCBF
0F0F3
2AAAA
20828
0BE02
00AA8
3FFEA
233CC
3FFFE
332AA
0C08A
0AA9A
00AAA
3CEAA
0F0CA
2B2BA
22BA2
2AC28
3F322
3FCFC
3C22A
00000
0C008
0A308
3CFF0
3CF0A
2A2A2
3A2A0
2AAAA
3A8C2
382A5
028A2
2082A
00AAA
2A3E8
0A3C3
20B3F
023A2
2AAAA
28AFC
020AA
2A808
0AEAA
3BE08
3CCAA
0B03F
0F208
0C22A
0083E
0B8CC
2A8BF
2A080
2B8CC
2A830
2AF3C
33FFC
338E8
00000
0B822
20080
0B80A
28022
238EA
00000
23A2A
00000
22F30
283FC
38EC8
33F0F
023BE
3CCAA
238C0
030AA
08CFA
30CB0
3220A
00000
00B82
2AABC
3EAAA
0AFB2
3CA2A
3AE88
0EA28
2C820
33C02
00000
0A382
208BC
3AEC8
3F308
2B0F3
3CEAA
23AA2
0BA03
20800
0F8CA
3BACA
000BE
330EA
28283
00000
3FCFA
3F02A
082C3
30028
0AE0B
32C82
3FFC2
0CF32
2AA80
00000
283B0
3CC22
0B302
0F8CB
3F2A8
3E0AA
0AAA0
3CF3F
0EC82
32F3C
2333E
302AA
3CFF2
03F00
000CA
20AAA
0B328
00000
2AAAA
2B2E8
03202
2803F
3C20A
23A2E
2B3BE
03A28
382CF
208EA
3BCEB
20AAA
30CAA
03A2A
2AC3C
38230
00000
32AE8
282EA
0FC02
2A0BE
28283
0AECA
3F03C
2A203
00000
0B02C
20BE8
02C00
2AF3C
0EFEB
2B8DA
23822
20AAA
3883A
2BA8A
2F302
3CA3A
2B2FE
0AEBC
20A30
3322C
00000
2828A
3BCE8
2EC8F
2A0C8
3F02B
0A0C2
00000
2AAA8
00000
08EC8
2A233
3800A
00000
3CAA8
222B8
2ACBF
0A23A
338F8
2A33F
2AA3E
332E8
33228
20B38
38AC0
22CEB
0C80C
28A00
330FF
20833
3FC28
3FCAB
3EE88
3F2AB
3CAEA
300C8
0380E
2B3E0
0F3E0
0B3CF
00000
03F02
23302
20038
282C3
2A3BF
2AFBE
00FBC
200CA
3F8A8
3AE0B
3B2C8
3FE28
0B28F
3CCC8
0A2BB
0FBEB
32F3A
30CC3
2AC30
22CBF
33CBE
2FAFF
3FFCF
0C02F
38B23
0BA2B
0203C
0AE8C
222BC
02028
02A23
0F8BC
2A203
00000
0CFC0
00000
38AE8
2F8A2
0A38C
0F0E3
000C3
00000
302A8
00000
2AA02
2A3BF
2CBEB
3A320
28AA3
38EAA
0203F
0A3F0
0A83C
0A03E
23808
00000
3FCB3
2C0FF
002AA
2AA23
0A880
0A0A8
2A2BA
28AA2
0AC20
00000
28AA8
23B0E
000EF
08AAA
00A83
33C3C
00C08
330EB
3CB0F
30000
0A88F
0ACAA
00FF8
00AAA
00000
033CF
28028
00A0B
0A0FC
30FF3
3003A
08AAA
2AC82
30FAA
00000
2A0BF
00FF0
0ACAA
2AABE
0CAAA
0A0B2
3CA2A
2AAA8
00FFE
008EA
02F3C
22C8F
03C82
28C3F
3C888
3E023
2AAA8
00000
03002
0A22F
0A208
00A83
0A2A8
32C23
3ACA0
3A2AB
0C0CF
20C3F
0082F
33CEA
0882A
0208A
2CF3E
2F8FF
00000
338F0
32820
2CF0F
22FFE
22FB2
00BC3
32AA8
3AC3F
00000
30FC8
02EB3
0AABC
2003F
0C0F8
2AEC2
2AA38
3A22B
3280F
322B3
022AA
0FFFC
0AE3F
208C8
3C833
0200B
00000
2A0FA
00023
22FF3
022BF
2BAA8
39FBF
00000
2FFFA
00000
33FC3
03C0F
028EF
00000
3CFF8
3FFF3
0CFF0
23BF0
20000
32003
02AA2
0A280
28AC8
20E8F
2A0BF
0F83C
0F003
3CA8C
2AEBF
2EF3E
0AAA6
3220A
30A3A
0CFC2
220BC
083EF
3C00F
0AA0B
2EFCF
2ACBF
00000
28C2E
033F8
33AFF
0B23F
2EFEF
2ECBC
03222
3AAAB
3AAAA
0CF03
2B883
086AA
3F3F3
0A883
00C3F
3CA08
0208A
2A808
2AABF
0F30C
2A2BF
002BB
0F2E8
2AAAA
28A28
2AC3F
08A02
20380
2A0FF
002A8
2AAAA
20A8B
30CBF
2CFFF
2AAAA
00000
03226
3000F
2AA8A
028AA
0882A
00000
0C8AA
00000
2AA8C
2203F
3FA88
2A2B2
0A0BF
2A2FF
208AA
2A0E8
0C800
0AF2F
28EFF
00000
2F3FF
080FC
2A23F
2A0BF
22AAA
0FAAA
2F2F3
000C3
3FC08
00000
220BF
30A3C
2C8F8
08208
0CC28
288CC
3FF22
0B033
038FC
28880
23B88
28FFF
20828
0ACFF
00000
000FB
088AA
2A8B8
20A28
02B2A
3A320
2A80C
000CC
0A2BC
00000
2AF03
2CF3C
2AA80
2383C
03FC8
3EF0C
3CFFC
2823F
02B2C
2A83F
0A0F3
20AA8
2A8BC
3CFCC
00AAA
2F080
0CE2A
00000
28F0C
2AAA8
22820
033C0
2B80A
2F00A
22F3F
3EB83
2AAAA
2F3CC
2AAAA
380CA
3CFC0
30C0A
2A03F
3FF03
00000
0098B
3ABAA
30A83
2A0BC
2A83F
0E083
3800F
2A88A
00000
323BC
08CBA
30FA8
2AE3F
08000
0BF0A
30FC0
3F888
38A82
03A32
223BC
28E3A
230F0
08FFF
00A0A
2AA88
00000
32EFF
2288A
0AF3F
0F32C
333C0
2E08A
00000
3F22A
00000
3CFFC
08FFC
20A2A
00000
2BACB
2AB0F
2AABF
0AAA3
20AEA
3EF3F
02882
2AAAA
28ACA
33CCA
0CA8A
3C200
3FCE0
3F0F2
0CC30
282FF
30800
22020
3AFA0
2AB22
2BA38
2AAA6
0B0AA
2022A
2AF02
20ABC
00000
3C080
03FCC
3C0A8
23FCC
2ACBF
030FC
00A3C
20AAA
0A33F
2AAAA
28838
0A2C3
08A2A
2AAAA
3ECBA
2B832
2BFF3
2FBE8
30CCF
2A8EF
3AEB2
3A2AA
2CC8A
238EC
0000B
2E202
3EEB2
30EBA
0CA23
23FBA
032EB
20C3A
32CBA
3C23A
33AE3
00000
2B8EF
0A003
30F3A
3FFAA
0AE30
00000
280CF
00000
30F00
300BA
3EEB2
30E82
3AEB2
03FCF
23AEB
23BEF
38EBA
0ACB2
288E3
00000
282CB
2ECAA
2300F
3AEBA
02A23
32EBA
23A2B
23820
30CB1
00000
32CB2
33C08
32C32
2230F
0B0EB
0288C
208C3
38EBA
2F0EB
2ABBE
33F3E
32EBA
03AE3
088E3
00000
30E30
3AA2B
00CEB
20AE3
30EF3
28002
3EEB0
20CBE
2ACBA
00000
3800C
0E0BE
23E3A
22A0F
08803
308EB
03C03
3ECBE
02FBE
30EBA
3EEBA
2AA2B
3EF0E
0033A
32CBA
3CFBA
2BAE3
00000
2BE38
0CC23
2C23C
238E3
3AE30
00CB2
32EBA
3AE3A
233EB
2CA23
23AEB
238CF
32CB0
2B23E
0F208
32E83
00000
2F3FF
00CB2
3C3C8
32CBA
322AC
3AEBA
32C88
23AEB
00000
28CB2
3F33E
23AA8
30F3A
2320A
032E3
2F8C3
32FBE
32EBA
0CCBA
28EB2
32E33
30CBA
2F8E3
0AEBA
23BE3
00000
3F0FB
2EAE8
38FBC
0CCC2
22A2B
2AC8A
00000
2F8EE
00000
3AE03
0CAE3
3F2E3
00000
238EF
28808
30CBA
3FCB0
03AEB
02EBA
2080C
0C8E3
23B23
0A023
2B32A
2F33C
2AA2B
2C828
2F3CC
3028F
2FBCF
208EF
00A28
00AE3
3200B
00AE3
3CC3C
03AEB
30E08
30C82
00000
30CB2
03C30
30CF0
08AE3
3ACB9
3AEBA
02EBA
02FBA
03A23
228EF
282EB
2003C
22C8A
0C8CF
22CAC
0F8C0
3F02A
080C3
08AAA
282BC
28ACC
28A00
302A9
00A80
3FFC3
300EB
0CC8A
3FFCA
022AA
0F22A
0C820
0AA88
2F0EA
0C82A
0AA2A
00000
2F0EA
0AC3F
03F0E
0FFFF
0F0E2
00000
33E28
00000
3FAAA
02A88
00AAA
3FFEA
28AAA
32A9A
03FFF
2AAAA
3032A
3CFEA
3FFE3
00000
2A28A
020AA
30AAA
22A8A
20AE3
202AA
3A003
08233
3FFFC
00000
0AA9A
0080B
08C0A
3FFCF
30F20
0AAAA
33E0A
33FFC
02033
3303C
02C8A
2AAAA
3FBEA
3F828
00000
2AC02
38C2A
3020B
2AA2A
2AC2A
22C32
202AA
23FC2
28CCF
00000
03C8A
3208A
0FCC0
33BFF
3E0AA
3382A
0EFC0
0202A
300AA
2E0A0
0AAAA
2AA2B
02AA5
00F30
0CE00
0C3A2
0FBE3
00000
3F8EB
0FA8A
2A200
3FFCF
2A3FC
0C30F
00ECA
33CEA
0FE08
2ACBC
283CF
000C0
22AAA
02000
3FC2A
2AAAA
00000
08A80
3FCF0
2AAAA
302AA
302AA
2AAAA
3202F
23AA8
00000
3C0E8
3BFFF
22A0E
30AAA
0FCF2
2202A
2A802
3F822
3CC0A
3FFC0
30FC0
3F0EA
00FF2
3F80A
03AAA
2C22A
00000
033EA
08820
3FFC8
2A23C
30FEF
3FC82
00000
2AAAA
00000
33BE8
333E3
3F02A
00000
3CA9A
20FF3
0E8A0
3FFF3
3FFCF
30F00
3FAAA
0FFCF
32CC8
0028A
0CAA0
2AAB8
0A2B2
2A0BC
2A0BB
032AA
3FCF3
3F3AF
3FC8A
0F02A
28228
00AAB
3FF00
00CC0
0EF0A
003FC
00000
3FCC2
08288
3F0AA
0FFC0
00AAA
02FB2
3CCBA
3B003
3CC2C
320E8
0EBBA
3322F
08A8A
30A96
0C3EA
283BE
3028A
08AC0
3CF03
088AA
3FA88
03A2A
3F0FF
22BBE
2CBBC
3C2E3
0CBE3
0E02A
0222A
3CFC0
0238C
2AB2C
2ACCA
30CF3
3E2BF
00000
2A3BF
20AA0
2889B
003A2
2ABE3
00000
203B0
00000
3CF03
08AEF
0E882
3C22A
00ECB
3CC00
0A88C
03EB3
02028
0FC8A
00ABF
00000
3F3C3
20BEF
0F228
3E82A
3FCFB
3CCE8
23AE8
0BAEB
0FFE8
00000
3FFFF
0ABEB
02B2F
3F008
2AA8F
03EFB
2ACAA
2AA8A
228A2
2232E
3FFCB
3FFFB
28A3F
3FA82
00000
0A8B2
0C8B2
308A2
030F3
00A0A
2AFBE
0CFFB
03FFC
2A08C
00000
302AA
0BC30
2A0C0
208EB
3F2E0
03C8A
28A00
0EC03
3FCFB
0AEB8
303FB
0C8C8
3CEF3
0AF2E
0AF0C
00FC8
3FABE
00000
3FCA8
33B8C
20380
0CAAA
20AEB
0CFFC
30CEA
3332A
2AA82
00BE2
00A00
2AAA2
3FF08
2CF0E
3F8A8
00A2A
00000
2A8A2
02FBE
3F0C3
30C08
000EA
02BE3
0CFCA
28A08
00000
08C32
2ABE2
02FAE
0A2C0
2AF82
22238
232B0
3C33C
0EBEF
2EBE2
28F00
0C8C3
08BEB
28EBC
3F30C
28AAA
00000
0AF8A
23ABF
30F8A
0A8AC
3E2E8
0F30B
00000
3FFFC
00000
0AA38
0AA33
2088F
00000
3F2BC
2ACBC
0BEAA
2AE72
0EA0F
0BFAA
22323
3FA33
089AA
03A22
3C3FF
2A3AE
0C38C
33AAA
2AB22
20A2A
3F208
3ECAA
3AE72
0C082
3F8CB
23A80
0EB20
2A0BF
2AAAA
2ABEF
00000
38BEB
0200A
22AA8
2A8C3
33328
2AA0A
2A8E8
02F3E
332FA
03A8F
0A90A
38EBA
3CF0C
2AAB3
0CC28
0AA8F
2AA80
2A0BC
002A8
0E22A
22BC2
3322A
300A2
2AA88
2AAAA
28FE0
0AEBE
0803E
3F3E6
282BF
22A88
2AABA
03AE2
20AB2
28E30
00000
032BF
0CFF0
2A0BE
2EA82
2AABE
00000
2AAB3
00000
3FAAA
0F0FA
03EBC
0BFC0
0B2A6
03AAA
20BFA
2BAF8
2B2B2
03822
282FB
00000
30CB2
0CFFF
0E02A
0F2E8
0AFFF
33CFF
2230A
0BFC0
2AF3F
00000
2AAAA
02A2A
2A2BC
2AC20
20A0A
2822A
2A030
3FFCC
2A0C2
2AAA0
330BF
38EAA
2BABC
00AF8
00000
2AABF
00CC0
2083A
33CC8
20AA8
0AB2C
28AAA
08FCF
3EB0E
00000
3F02A
3CC3C
2BFBF
0BFCA
00F23
2AAA3
000BF
2B228
3002B
3F3EA
30089
28E3C
0BA2A
3FAAA
00ABC
2ACBC
203F3
00000
00FE2
28ABC
28CBC
02FF3
280FF
2AABF
0E32A
2AA3F
2EC3C
0CCA9
2AF0B
3FF3F
2AAB2
26AAF
3C0AA
03C28
00000
2A823
2AABF
3CF0A
3E82A
3CC26
03AB0
28CA3
28ABF
00000
2A8BF
2A6AE
02F0C
3C8E5
3AAA0
2A2BE
2AAB2
2AA80
2A2B2
26A82
2AF0F
0ACF8
33209
2B0C3
2A28C
33EFF
00000
2A20C
2AC0F
3FBDA
0FFFC
2AFFF
3FF3F
00000
2AA03
00000
03A8A
20BFB
2A080
00000
2BA88
328AF
3FBEA
303EF
28FF0
330AA
3F00A
08FC3
28FCC
3FCCA
3EC3F
2A6A8
02CFF
0E3E8
2A0AA
3022A
2ACC8
003E8
08BDB
08CC8
082C3
0AAB0
2AABC
20ABE
32F0A
23A3A
00000
3FF30
22F30
28A8A
3F0F0
300C2
3C0AA
30FBE
29A6A
00FE8
082A2
08333
280EA
2AA8C
2838C
0ACBA
233CF
3FF0B
20A22
0C0FB
28282
0BAEB
0200C
2AA28
2B82C
288EF
30003
2ACB2
0CEAA
2F0AA
2AABE
23A82
23F3E
3ACBA
3FA00
3F002
00000
28A02
20AB3
2F02A
3FAA8
30C02
00000
2A00B
00000
3F02A
3CC8A
32EBE
30F23
32C86
33CF3
23A28
288C3
3EFB2
22033
3FEFF
00000
08E88
2AC8A
0020B
3ECBA
0AAE8
3ECBE
08288
3BE83
32FB0
00000
3FCAA
3FF00
3EEBA
38E03
0AEB2
3ECB0
00200
2AA8C
030C3
000B0
2AE2A
32FAA
3CC3F
0F8CC
00000
30AAA
2BAEA
2230E
3EE2C
3ECBE
00CF8
3EF3A
02FBF
28A8A
00000
2A388
0A83F
0F32F
30EAA
3A20B
20AE3
0208F
3EC8B
2A30F
3CC8A
32E76
322AF
0FEB2
2083E
00FB2
303A8
2B8E0
00000
2CB8C
2880E
0CA8F
208E0
32EBA
000BC
3E0AA
2EC08
2BA0F
2CAAA
30AEC
0F820
0E0AA
2B8FF
3CF28
3ECBC
00000
0FFFE
2CB3C
28AB0
3C32A
0EAAA
3DC8E
382E8
208AF
00000
2CC8F
2303E
3830A
3FFAA
0330E
2FA02
2BAC0
200B2
02FBA
03FB2
0328B
3EC32
30C8A
2FA3C
28F3C
2AAEF
00000
3F828
280CC
323C8
0EC3A
33228
20FA8
00000
00300
00000
3ECBC
3F23C
0F0E0
00000
032FF
28033
0FF2A
3FFF0
03A28
3CFBA
3E228
00A28
0B20F
2A2AA
2AA2A
2B3FE
2AAAA
2C80E
03CAA
3F228
332CF
0BAE3
30C32
00AEB
3ACA8
2AB3F
3F08A
0FA28
2F008
0CC02
00000
02F33
00033
3EF82
02C3C
3ECAA
2AE8A
08F8A
0F8B3
38A2B
0ACBE
02A0F
3CC0A
02F3F
3FCC3
22A3F
03020
2A0EB
0E2AA
00B0E
20AAA
3AC8A
30E0A
0288A
3E2BA
0BC3C
3382A
2AA0C
2AA03
00CCA
03208
000BC
2FA28
288FF
2AFC0
2AF32
00000
200F0
03282
2AAB3
0FABF
2020A
00000
02B08
00000
3FFF2
0A0FA
03AB3
23FC3
03FE2
3CFEA
3F2AA
2A03F
2AA0F
22FFF
30FFE
00000
0BF2A
2082B
00FEA
00200
02282
0C30B
38C2A
30FCA
2A83F
00000
3FFF0
0300E
2A8B3
30002
3CB32
33F2A
288F0
30A0A
2BFFF
2B02A
2A8BF
2A33E
2AFCC
32FFA
00000
2FBCC
2A033
302BA
08AAA
2AA08
3E00F
00033
02203
20CEA
00000
22F02
02A00
2AA80
08C0A
2AFFA
2233C
2A00A
33FC0
0EE28
02FE0
2ACF2
32AAA
3CFF8
23230
2F8E0
030C0
322B2
00000
0A228
08AB2
3C282
3CE8A
2A0EC
0800F
2ABFC
2AA2F
0C28A
28A2A
32AAA
20FFE
280E0
0F0BF
2AFCE
3F2AA
00000
3FAAA
008BC
3F0C8
2A3E2
28FCE
08A82
28ABF
0EAAA
00000
2AA8F
2BAA0
0F2BF
03FC0
2F220
2A033
03030
28A83
2B2FF
28008
0B203
2AFEC
1AB03
3E28A
2A80A
2A882
00000
2308C
02880
223CF
30282
3200A
2008E
00000
3C8A0
00000
2ACC0
3233A
2AF3F
00000
2AFF2
3CEAF
2C3E0
02E03
28A30
2AFFF
3FFFE
3A88A
3A0A8
22FEA
3FA8E
0FA0A
08003
3FF3A
20A00
2AFC2
0CF02
0CF32
32C83
20FEA
2A08A
0AEBF
2F3F0
0028A
2A00F
238EA
00000
003C0
28800
0AFF3
2AA03
28A0C
2A8C3
2B03C
233FC
00FEA
0A802
3AEAA
30CEA
20A22
2A3C3
00233
2A0BF
0A080
2FFC2
00300
2A2E3
3CAA8
0F8AA
3E320
3F2AA
00B3C
2AF38
3AAA0
30033
0AA2B
3303C
3F88E
2A880
0F033
3323F
3C202
00000
03A3E
2AAAA
0AAAC
3FC00
38ABC
00000
0303F
00000
20A88
00AEB
02A8A
3F03F
0CE0A
00F00
028A2
33C02
03A22
030BF
0CF28
00000
323E8
3A0A3
3CCE8
3CC28
0C0AA
03A30
08B28
3F3E8
0080E
00000
2AAA0
0AAA8
33AA2
30FCA
038AA
2A308
2ACBF
0CAAA
2ACBF
2A2BF
00A22
3F32B
0BA0C
3FF28
00000
0C02A
0F02A
3F8AA
3322A
22022
2AE30
30C2A
2A23E
2AAAA
00000
38EF3
33F3F
03F3F
3EBEB
3EFEA
3F83C
0328C
0A0BA
3FF00
0322A
3F328
3F82A
3FC00
2AAFF
2AABF
22ABF
3FFEA
00000
302AA
2388E
0FEFC
0CA80
3F3EA
228BF
3FBFB
28A3C
3FE2A
0AB23
3F0EA
0B0BE
3C30F
2A8BF
0088B
03808
00000
2AA6A
2AABE
3F8C3
023C8
022FB
23AAA
030C0
333EE
00000
0A3BF
3C00F
2AFBA
00A2B
2AFBF
3FEBF
0F23F
030BC
2802F
0A80F
00EBF
322AB
3FA23
3FC02
0AF8F
3FF0E
00000
38CBC
3C32A
33FFF
0F0C8
3CFEA
28B02
00000
2EFC0
00000
33AC0
32A0A
0038E
00000
0C328
2AA3C
2C800
2A2B2
320EA
3F28C
0AAAA
3C2E8
3CF2A
3F3E8
2A282
2A233
3FFE8
30C2A
0200F
2A00B
3EFAA
0A3E8
282BA
3C328
32E2A
03A2A
0208C
3F23C
3CAA8
20A23
00000
000CC
0A3FF
08AB3
3F23F
3A883
3CA20
20023
0A0BF
0CFEA
0FF28
303EA
0000A
0AFFF
0088A
3F23A
302AA
203EE
2A083
22832
20EB8
32F02
2F808
30228
2EB2F
2202C
33FFF
338AA
23ECE
0A288
200A0
2AA2F
32AAA
303CB
2EFCC
2AFFF
00000
2A30F
0BAA0
2288C
2A38F
22FEC
00000
20322
00000
2AB22
2A2AA
03AEF
20FFF
2AABA
3F08A
02F80
2AFFF
22A0F
0CFF3
00FFC
00000
33888
3F8AF
0020A
038E2
32C3F
03A0F
2B208
0A300
2CFCC
00000
08C82
00800
22B8F
2A03F
283EC
222FC
283E2
3C3FC
280AC
3C8AA
3F030
03ABA
2A3FF
2A3CC
00000
0AF0C
2A30F
2B8C3
0828C
2888C
32C32
3003C
3EF22
30FE0
00000
3AEFB
20FC8
2AF20
2A2AA
2A2C0
2AFFC
2FFCF
00A88
0F0F8
00F3A
2AA8A
3F2BF
2EAB8
02F32
0C0AA
00080
2ABAE
00000
033E2
22A2F
2A3E3
0A0B3
28A8F
3FF20
2FFF8
003BC
2A333
2AF0B
2008F
22FCC
08FEA
3AEAA
283E3
08A03
00000
30AA0
3C2A0
20AAA
2A002
2AAB3
00A8F
3CF33
2A200
00000
22FE2
0AA88
3CA82
2A2BA
3ACAA
2A3CF
2A320
0282E
0CAAA
0A8A2
00FC2
2838C
2AAAA
2AFC3
02BA8
28CF3
00000
22FEC
2008C
32C3F
02088
0233F
0FC0A
00000
0EA0A
00000
28FEC
2B0E0
22B3F
00000
2AF30
322BC
2A3B2
3A0BF
2A30F
32230
28320
2A2BC
030B3
0A288
3F08C
3AAAA
002B0
0A083
2280A
2AA82
0A803
2A0BF
0ACB2
2AF3F
3F2B0
2A80F
000AC
2AFEC
2EFFF
22A8A
00000
0000C
3FFCA
2A8CF
2A3EC
2AA8A
2A2BA
2AAAA
328AA
2A233
28A83
030FF
220FF
0CA2A
28FCC
3FFC2
2AA82
2002A
0AABC
3332A
00F3A
20833
3F3EC
2AFFF
3028A
0AF0A
3F0AC
0AF2A
0A02A
0F02A
3C32A
02F33
2A38A
0AB2A
02AAA
08FCF
00000
0CF03
2233F
0A3FC
2AA8A
30828
00000
2280C
00000
0FAAA
2AF8A
0FC2A
02F2A
022AA
23A22
20F33
00FFF
0E2AA
288AA
33AA2
00000
3EC2A
3FF2A
3C2AA
3FFE2
30F00
2F32A
3C0AA
3F22A
2CBEA
00000
380EA
32FAA
3EC0A
0B2A2
30FFF
30E22
2A8A0
3FCCC
3302A
2A88C
3FFC8
3FCEA
28FCC
0F8AA
00000
2A22B
2A220
3FFFE
082AA
38C2A
22FE8
00CEA
2A888
30A83
00000
330AA
20FEA
20C00
00FBA
30AAA
22FAA
00308
20FCA
0F0C8
0F0E8
220AA
3CFAA
2AA2A
2A202
00B80
00222
0A2BF
00000
3F0C3
3CFC2
2CF3F
0AEB3
38C8A
00BE0
3F02A
30FEA
2A20F
0C8AA
3CEAA
02822
2CA28
0A080
3C2AA
0F380
00000
2F3CA
223A8
2A0B0
3F8EA
3F0A5
3FC3A
00CE2
00FFF
00000
2E8E8
2A88A
2A3AA
00C0A
26A8A
2A3E0
00F3F
0202A
2AFEA
2AAAA
22ACB
2A2AA
223AA
020CC
330AA
2E3C0
00000
28AAA
0B82A
3F8EA
2AF3A
300AA
0FFF0
00000
2A80E
00000
0832A
3CC0A
02F00
00000
0C202
2EAA8
3F0EA
3C80B
2AA03
3F3CA
3FFC0
08AAA
08AAE
0FFB8
02CCA
2AAA2
0FAA8
23B28
0AA8A
3FC2A
3BAAA
0FA8A
00300
2AAAA
38EAA
3FF02
22AAA
3AFFF
20828
2AF8A
00000
3FFFC
23B28
30FCA
3CF8A
20FEA
08008
2AFF0
228AC
3F22A
0A02A
3F20E
3F2EA
028AA
02FC3
020C3
0C3AF
0FAAA
33E3C
2AAAA
3233F
23A2C
0F0F2
2AFBC
0BA0A
002AA
22AAA
00E38
0C230
22820
20A3A
03220
20A03
0F3E3
28AB0
22A00
00000
088C0
3F33F
3BEBA
30C3F
3F2F3
00000
3222A
00000
2AAAA
28A38
00A88
2AAAA
2C823
2AAA8
0A002
00880
3FE8A
3EAAB
3C0B8
00000
32F00
00FFF
3A0A0
3C82C
22E3F
33EC0
32082
020A0
3FC38
00000
2AA28
0A282
3FEBA
32288
3BE0A
20880
2CAAA
0F0EF
002A2
0C820
0AEB0
028E2
33822
0A28A
00000
30CF2
2AEB0
20AEB
32EBA
3FFFF
3EF3F
0C0EF
3F3F3
0F2EC
00000
020BF
228BC
0CC0C
3AC08
39EBC
3E08F
238E3
2ABEB
2E00C
2AA23
3F8E8
32EB8
2AA80
0F3CF
0F20A
3FF0A
3A2B2
00000
2B823
28E3A
033C0
000C3
3EE3A
2C8AA
0C8E0
30282
33088
2CB3F
30EBA
238E0
338AA
0CAA8
2AA28
2F23F
00000
2AAA8
30828
2003C
2A8EA
0A82C
20A3A
3AEFF
0CEB8
00000
00023
0FB3E
08F3F
28A20
2C32F
0FA2A
0F00E
23E0A
33A3A
0F0F0
0FAA0
3FCFC
3CCF3
0B03F
08ABA
2BAE8
00000
0C822
3A2BE
02BC3
0A283
0AECF
30C3F
00000
20CB3
00000
2F082
33E30
3EEB2
00000
0A2B2
3C3EF
2A823
3C223
3CE32
2E0EE
2AA82
3CEB2
02A82
0ACB0
08CB3
0232F
3EFFF
3A2BE
0C0FF
2E8C0
32CB2
3AEB8
3EF3C
3A0BA
3AEBA
3F8BA
3FC3A
0B080
20A3F
3F0C8
00000
0CF3F
00AAC
0F0E8
332B3
208EF
323EF
0CFC0
0C828
3ACBF
0F2BA
0FAAA
0AAA3
0AAB0
208AA
2A23F
022AA
3CFFF
23BC3
2AFFC
2A888
0AFFB
02A2A
28FF3
3F208
3F008
28822
28EBC
2ACBC
2ACF3
3F33C
3F020
208CE
0AA3F
08FFF
3FCE0
00000
03A0A
2A088
0F0AA
3F0FF
3C288
00000
3F020
00000
2AFFF
28C3F
2B230
3CFC0
28FFC
0AFFB
3F32A
33FE8
0803F
2ACCB
00FCA
00000
2A382
28C0C
2AFFE
283CC
03803
0B23F
2A2B2
0AA00
3F3FF
00000
02FE8
20030
0383C
080EC
3C238
2ABA0
3CF02
2AAAA
3FFEA
3F82A
030BC
2AFFF
3FFC8
0AFF3
00000
3FE8C
3F3E8
3080A
003E3
202B3
28223
0883F
2CAC0
02AAA
00000
2AC3F
3FFF3
3FFFF
282A2
20FF2
2A828
330F8
08FCC
28FFF
2A33F
28FFF
28E3F
2AFC3
2AA83
3C202
3F00A
3FC08
00000
00F3F
3FB0F
03F00
00AA8
2B2B2
3F0BC
2AFFF
0F03F
3B838
2AAA8
2F2B8
3CFEA
0EF3C
20AAA
2AFFC
000EA
00000
08AAA
30A80
00FFF
22FFF
2AFFF
33A82
00280
20A03
00000
0803F
08A82
332AA
28FFF
00280
0BA2A
223CA
3FCFF
280F0
0BABE
3EC03
28FF2
2A0BC
2023B
3F032
08F08
00000
2AC3F
3FCF0
2ABBF
3FF0F
28C08
23FFF
00000
2AABC
00000
20C3C
28ABA
3F30A
00000
0CCF3
0BAA0
22C3F
2AA8F
3F02A
2803F
30FC3
083EB
03CF8
2AFFF
0B030
08AAA
02EA0
02FF3
2AAAA
28FF0
0A0F8
08CC0
0A8E3
0CCE8
28CFF
3C33B
3FF82
3F20A
002AA
0CABE
00000
3F3FF
00FB2
0328A
3FEB0
2ABFF
2A8BF
288FF
3FF2A
2A303
08F3B
28ABA
088E3
2FC0E
3F3E0
3C0A5
232AA
3FFFC
0F30C
02FF3
0F02A
2A03F
3FFC2
0AFBC
3AEFF
3F283
00FFF
3FFE3
3FFEA
32FE8
3FA20
0FA30
3F028
332EA
0AFF3
2A2BF
00000
00ABF
0BBFF
3F02A
3FCC0
3FEBF
00000
3F280
00000
2AFE8
28FFF
3FAC3
30222
28CE8
2AFCF
0FCFC
28A33
3FF2A
03AEA
08FE0
00000
2A82F
0C2AA
2AF2B
3F208
2AAAE
3F822
000C3
23FFF
3F82A
00000
2AC3E
28023
0CCCF
2AFEB
2B2B3
28CE8
0FA28
080BF
0BAA2
332AA
3082A
08C28
08A80
0A00A
00000
2FAA2
280A2
03033
2AF88
23A0B
2CB2A
0BE00
33A8A
302FF
00000
0E8EA
3F2E8
3F200
2CFE0
1A3C8
0FA2A
02083
08FCC
0A080
080E2
00FEB
2A2B0
2AFE3
330E8
3FA00
3FAB8
22C3E
00000
32F33
33ABC
0FA20
3FFE2
2FFE0
3000A
3222A
3F22A
33000
3FAAA
2A03F
22EBF
230F0
3FFFA
32020
3C0CF
00000
2CFFE
3FAEA
3A0BF
020E8
3CFEA
03A02
08AAA
0F2C0
00000
3FAAA
3F32A
2380A
000E3
230AA
3FA80
03AA2
3F2A8
3F3E3
3F3E8
3FA08
2AF0A
3F3EA
2F300
33A80
02EBC
00000
0FF20
2AC3F
0A82A
3CFFC
0AF02
00829
00000
30C3C
00000
32C20
0A002
082BC
00000
2A03F
2382A
333EA
00FEA
33EB2
30FEA
2AC83
20FCC
0AFCF
2A0AA
2B232
3F0EA
208CF
02F0C
3FF2A
3E0E8
2AFCF
0A0E8
2232A
0AA20
2032A
20E0F
23308
3FEBC
3C3EA
2F828
00000
0A808
3CA2A
3CABC
280AA
3C8EB
282AA
0BAEB
3FA8A
2A3EA
28083
03BCC
30FC0
08002
30EBF
2AABF
3F30A
2068C
00FCA
0FA03
2AFFF
22A82
3A82A
0FCF3
0AFEA
2AFEA
3F0E2
2A8CC
3320A
2A03F
2AFEA
03FEA
22A03
2023F
2EA83
0FAAA
00000
0C32A
2AA8A
3FA2A
3FFF0
0F000
00000
2A32E
00000
20A3F
2AACF
0238A
3308E
00A0F
3C283
033CA
0F0AA
322BF
0CFA0
0282F
00000
22A0F
0C823
08ABF
03E3B
3FFC2
0AEBA
2023F
2EB0C
3F8BF
00000
3FEF0
2AA08
3CAC0
3FA28
03F2A
0CEA0
2A800
2A8AA
2AB2A
2A022
3FC0A
22ABF
0BA8A
2A080
00000
3F3EA
3F2AA
2AFE0
338CA
33008
3CC8A
3FC32
0C22B
20AAA
00000
22FBF
3CF03
28FCF
0FAC3
0028F
0FCAA
2EA8A
3FEF0
3C28F
022BE
238FF
3030A
3EF0A
2BFF3
2A8A0
28CE0
3FF08
00000
0CA88
02FEA
00FC2
33FA2
3FA20
20F0C
22ABF
33A80
30FE2
2C0F3
3332A
2AAAF
0FA0C
3FFEA
23AFF
020CA
00000
3FCEA
30FCA
0FB2A
2C83F
2EEBF
30C2A
23A02
3FFEA
00000
28080
30CE2
03C0A
00CFF
0C338
0F82A
3CFEA
283EA
00AE0
2AAA8
28FEF
0FA03
03AC0
3CCAA
2AA8C
2C820
00000
22ABF
0202A
2AEBF
33CFC
3CA08
22F3C
00000
0C0BF
00000
0080A
0F802
3082A
00000
00A8F
0FFFA
22E3F
08EBA
3F2AA
228BF
280FF
3FCEA
3202F
2A33F
33F0A
3FFC2
2233F
2A3FF
233C0
008FF
32A23
3C2BC
32C8A
3FAAA
33AAA
3332A
03B0B
3FFEA
3CAAE
2BACF
00000
3C033
2AA83
0CFF2
0382A
200FF
20B3F
20A30
03FEA
0228C
0082A
3002B
302AC
2AA80
08AAA
3F8EA
30AAF
2A88F
03E2A
2AB0B
3FCC2
2AA0C
2A20A
08CCF
0F20A
0FA8A
0A2AB
2FBC0
2FCFC
08EF8
20A88
0FAA6
0BA80
3FAA8
28A82
0B3FF
00000
0B9A6
33AAA
2FA0A
03AAA
00A8A
00000
3FA82
00000
08FFF
2B2A2
032FB
3AF3F
3B2E8
0ACCB
03A2A
02BAE
3F288
0A3CF
28EC8
00000
202FF
0FFCC
0A03F
2AA08
30F02
3BA28
282CB
2AE3B
33AA0
00000
2803C
2A2B3
0323A
2AC3B
28A3A
38E3B
0F8AC
2AAAA
3FA06
0FAAA
3F33A
3B0CB
0BA30
3B3CF
00000
2AABA
22FBC
2AA00
33EC2
0BA0A
320E8
08EF8
3FAAA
02AA8
00000
333E0
03AA2
03AAA
2BEF0
0A3FF
3230E
08AAA
2A238
0F8CC
2AA08
032CB
3FC28
3BCC3
3CE00
2FAB0
0FA8A
0A0BC
00000
2AAA0
0FA0A
3F0AA
0BA2A
2BCFA
23AA0
0EBFF
3F822
032AA
2B3CC
0A208
0CAAA
2C2CF
3FB2B
0A3CF
382FB
00000
0AE3B
006AA
08A00
020CF
3BCCC
3B238
3CF2E
3BE3A
00000
0C28F
23A38
3E0AA
2AEF0
3F8BF
23BAC
008A8
0BAB8
23E30
0F80F
3C8AE
0B200
2B232
30232
0FA2A
2AAA6
00000
2A203
3020A
3EF00
03CCA
3ACBF
3F0EA
00000
20ABF
00000
289BA
2BE38
3FA2A
00000
0A033
32A2B
000A8
38AEB
283FE
0000F
0B0CC
3B0BB
2AA88
02C3C
3FFBA
30C2B
0ECB0
0AE0C
0C38C
0BCC3
0AA3B
0ECB0
3ACFB
0A33F
33CF8
30A86
2FAB2
03AAA
0280F
2B2BA
00000
3B28A
3F02C
08A00
2B23A
2A283
33EEA
2A2AE
3FAAA
380C8
3BA86
2AA8A
2A23B
0FA28
20AAA
2C3A0
0BAEB
3F00A
0C8C0
033E0
32FAF
0A0C2
2E08E
2F303
2888A
3ACFF
0A202
32323
28AAC
083EC
2AA83
08208
3ACA3
2BAE8
002C3
2FA23
00000
2B8E3
080C0
2A880
038CF
33EC0
00000
30A0B
00000
2F8EB
02F3F
02088
23BE0
0C322
3F3E8
22BC8
23AD8
222AE
0F8EB
0308C
00000
32F0F
2A3AC
3EFEF
0C3E2
0A032
2A2AA
3ACB3
3EFA0
282A2
00000
33AEA
30BA8
32C8F
2A822
2BEC0
32CB2
08A28
02338
0ACA8
3AE08
20082
0F382
232BC
23AEB
00000
22F3E
0F822
0B288
30EB1
0E0A2
3FBEA
028E2
20FF3
0A000
00000
3F0E8
2F8EB
08A2B
2E82F
0E0E3
0F8D8
032B8
228EA
208C8
0EAEA
3232C
02FBD
2EBEB
2A0E3
0AA0B
3AE33
0F8E8
00000
08AC2
3828C
3F8EB
0A080
22FB2
03CC3
008E3
282A2
080B2
2ABEF
2A082
28288
32300
2FB20
0FA23
2008E
00000
0AEAA
0B8EA
0A3FF
03BE8
2281F
32CB2
238EC
0ACBE
00000
2BA2B
2282C
0FB22
3CF23
0BAEB
2B6D3
2FADB
08A2B
3E82F
0AA2B
28A28
3E832
0A32F
2FBE8
323EB
2AA08
00000
2BA08
2AC82
2F8EB
0C0E3
20BA2
28A08
00000
0BC2B
00000
0C2BC
330CC
3A202
00000
2BAEB
0F8E0
03A2B
20A28
2382F
238E0
0CBE3
02002
22CB2
0EF8F
2088E
2FADB
00A82
0CA2B
23B13
22BE3
0202E
00BE8
3FBEA
23AAF
32CBE
0ACB2
3EC2B
2F8EB
0028E
3AFBC
00000
082BE
08AE8
30E28
2FBEF
388EB
02F20
3C02F
38083
0E3EC
0FC3E
02FB2
2AAAA
3A223
2828A
0AF3F
0B3F3
280C3
30230
2AA88
282AC
02AAA
00CF3
2AAA3
0BA3F
38C33
3F22A
20380
2A003
082AA
3C203
03FF3
20F0C
2AAA8
3CA80
2AA8A
00000
38C3A
00AAA
2A080
030C3
33FC0
00000
3A3FF
00000
03A0C
20A22
03ABC
28BFF
0A2B2
32330
3F3CF
28A20
0FC30
28A2F
0BA8A
00000
2A033
0CFC3
2A2B3
3AA8B
320AA
30CFF
230CA
338EA
2AA8B
00000
32208
238EB
08A08
0F8C2
3FCE0
3FF3A
2AFFF
3C9AA
00FFF
20FCC
2AAA3
2AABF
08E30
2A88A
00000
23CE3
2A82A
33CF0
2820B
03288
3B0E0
3AFBC
2AAA8
3FA2A
00000
2802F
3C02F
2A8EF
2F8EA
28230
2BCE3
3FCC3
32FBF
2AAAB
32C80
2AA28
0AC00
32CA8
00F0F
0CC2F
0C3E0
03CCA
00000
0BA3F
2C3FF
08A8F
3C08A
20B02
2A300
26ABF
2A8FF
002B2
2A2A2
332AA
28CFF
2A2CF
2B8C8
2A2B3
3FCFF
00000
3F32A
28002
0AAAA
2A003
2AA2B
332CA
0FC3F
3FA3F
00000
2AFFF
28000
0FBE2
3CAAA
0AF3F
2A2A0
0BA20
32CF0
08B28
2AC3C
2AFCF
28ACA
2AAA8
3C0AA
00CFF
0023A
00000
2AAAA
00008
08AEF
23A08
3FF2A
2AA8F
00000
2203F
00000
3F20A
3F2AA
00CF0
00000
0AF3C
03A23
3CEA0
3F2BA
28B2A
028A0
0CAA0
3CE8A
3288A
2AA2C
2882A
238C2
2ABE0
3F2EA
223CB
2BA2A
338BA
3CCC3
3FFEB
2AF33
28AB2
3300B
08FF3
083FC
2AA83
0FFCE
00000
2A88F
2AFFF
33F0A
3FFCA
2AAA0
2AA0F
22A28
2AFC3
2CC00
0BAC8
0820A
3FFCA
20FFF
3AEE0
08AB0
00A20
302F0
002F3
3FC3C
0E2B3
2C3F0
228A2
2AA82
28FCB
02FC3
03082
3BCB3
0A20F
3FABF
22FF0
23FFF
2AC3E
28A80
2AA82
3F002
00000
0FAAA
0C3EA
0FC02
0FFFF
0002B
00000
20BC0
00000
3F83F
00A0C
2AF2A
0F0BF
0F08F
3FA8A
30CC0
3F0AA
2803F
22AFF
3F2AA
00000
3CA00
33F30
3FAA0
22FCF
2AA2A
22330
0FAB3
00AB8
20C2A
00000
3FFCC
033C8
00FCC
2BAAA
20B2A
0FA80
28300
033EA
3FFE0
2AC2A
02020
3F233
3300E
3CA8A
00000
2A3EA
22AAA
20CBF
0CA8B
2033F
3EA23
2000F
023E0
32FE8
00000
0EABF
0283F
0FFFF
33A8A
2866A
03ABF
0E888
3FF08
20203
30FFC
2223F
00308
3FAB3
2E0BC
222AA
0CCE8
0FAAA
00000
2800C
00FC0
38EFC
0AAAA
28AB2
08002
0A200
3CEF0
0FC08
3F220
028AA
3FAAA
2A88F
330C2
3FB3F
0A3B0
00000
0F32A
3C3C8
0022A
0323F
30ABF
0832A
2AA0F
02F0E
00000
280FF
0AA2E
3F008
0C23F
2AA2F
3BACA
3F0B0
02FCC
28CB3
0A28A
202C3
0323F
0CA3C
3FC00
2A00A
3F330
00000
2A23F
2A3EA
38A8F
00AA0
2AABA
00ABF
00000
0A8BC
00000
0F88F
0FAAA
0FFEA
00000
3FAAA
3CFFF
0E03F
3CA2F
0F0E2
000E0
3F2FF
0AAAA
220AC
22A88
3F32A
3CFF2
22A8A
30A20
0F2BF
3F03F
20AA8
0CAB0
3CAAF
3FAAA
3FB08
00328
33022
3FFC8
08283
232AA
00000
3FC02
2A800
0FFCF
03202
2A03C
200B3
320BC
30FEA
0CAA8
0008A
0E0AA
33AAA
02000
2A888
22CC8
3F823
00FF0
2AA0B
08E2B
03FE8
0E32F
20ABF
00AF0
280E0
2AC03
0A8AE
288B2
2AFFF
088E2
0AA83
2AA8B
00E32
220A3
3F8B0
28F3F
00000
2AA8A
0F30E
2AFBC
2AFFF
00FC0
00000
2AA3C
00000
030CA
3F302
3FAA0
0F0F0
2A22A
0AAAA
20038
00F33
0ACF8
3FFF8
02EAA
00000
08F32
0A3BC
2822A
38AA8
33AAA
0823C
28E0A
032CA
2A0FC
00000
2AA02
33FFC
2AC32
0A2A5
00F03
0AAAA
20CCF
3FB0F
03ABC
3F282
2A830
2AEB0
0AC3F
02000
00030
2AC03
33FC3
3008C
3FFFC
3CFFF
32030
2AAAA
03A03
3F3EF
00000
3A022
332FF
26200
0303A
2BAAA
300E0
0A3C0
0A208
289A0
3022A
2AABA
0A2AA
089A8
3F302
33A8A
0AFC3
38888
00000
0CB0F
2AABF
0A233
08A03
2A2BA
03A30
28238
0AFFF
0AAA8
23FBC
020AA
02A3A
2AA8A
0AAE8
03FFC
00033
00000
3F8EB
30AEA
00802
333F3
28E30
00300
0FECA
2A2B3
00000
0ACCF
28E0A
00323
000C2
3FC00
2A23B
0AC3F
0A2CF
282B2
28C3C
08CC3
3FF3C
2B2B0
0A23F
0080C
2AAA2
00000
08233
2A8AA
3F0C0
0F803
380AA
2A23F
00000
083C0
00000
2A0BC
00F32
0803F
00000
28A08
30FC3
00CE2
302E3
08C3C
2A83B
2A222
3CF0E
2AAA8
2382A
2CA00
000EC
2C3CC
33823
08CC0
2803A
0AA9A
0C02A
3A3E3
0CFCB
3CE33
2A280
03CBE
2A82F
20FFC
0F8B2
00000
0AC3F
33233
3FFFF
00C80
08CF0
0888A
2A2B2
2A22A
03AAA
2A2A8
0088C
38AAA
3803F
223FF
3E022
282A0
02EBA
0B8FA
00EBC
32FA8
28A08
3CC08
2880F
0FA3B
0F0C3
008E0
32C22
3E322
3AFA0
338C8
038CA
30F22
008AA
23C3C
030B0
00000
2FAB0
0F03C
00BEA
0F3E8
0F0CF
00000
2F833
00000
0ACF0
0A3EA
2FA03
00F30
2A8AA
088B0
000E3
3B2B2
2F080
202B2
0BAA3
00000
33F2F
2B82A
3AEAE
2AA08
238C8
3F83A
32FA3
3A8AF
3F0C0
00000
2820A
080EA
0F328
328CF
02A20
02800
23E0A
2AA8F
203E3
22A0A
2CBE2
0002F
2FABC
2B832
00000
3F028
038AA
0A0BA
0CB3C
3C333
2AAB2
228C3
0FA3A
20820
00000
32FA0
0F83C
3F8C0
3AF2A
2003F
02EB2
2FE30
0AAA3
20800
08A2A
0AFEC
0FA30
28800
022A8
2AE8F
2F823
3B833
00000
0A28A
0F83A
0F8F8
3F2CB
30BEB
2AA80
32CA2
2283A
0BA3B
32FAA
3F8E0
2323B
03C0C
3ECAE
0AFBE
0008A
00000
3F2AE
20AAA
0A300
38FBC
3AF8C
0CBCF
3E0EF
3F832
00000
03E8A
00322
0EBAA
3AFE8
02233
0FC3C
0F030
23080
003E2
0CC2E
0F82A
223AC
3EFA2
2BAF8
2AC8F
3820A
00000
28EB2
3FACF
3AC80
200AA
38020
3C3CA
00000
33CBC
00000
03880
030EB
2F2F8
00000
33EB2
28ABA
3AFAE
22AAA
3032A
328E0
000EA
20A28
38A3A
0A3AB
008EA
3EF8E
380EB
0A003
32F22
3AFAF
0A0BF
3AEBE
2AABC
3AEBC
20300
0FA30
20220
0FA33
3BCAA
0FCEA
00000
3F3CF
0222A
003B2
2FA08
38E28
3A89A
3002B
0302A
3A32C
0CAB2
00AC2
0A823
0BC2B
33A08
3FFE3
2C20A
033A8
332FB
3FFCC
2AAAA
2AA6A
0AEB0
2A2AA
33A3F
08E0B
2A28F
33FFF
22CFF
2AA2A
28A80
3BE33
283C0
02A33
22A8A
3B200
00000
3F200
2A8AA
00333
0A0F0
038B2
00000
0323A
00000
2AAAA
2AA88
22AA2
2A282
00C20
2A002
080F3
3F00A
33C3C
2AAA9
0C230
00000
3EFFF
38C3F
38FCF
3C22A
2A28C
22AA0
32FCC
3A08C
02ABC
00000
002A8
2A8AB
33002
2ACFF
3FA3F
2AAAA
3F22A
0AAB3
33E0B
0323A
28C3F
3FFC3
33EBB
0C82A
00000
3F008
2A233
3F2F0
0A03F
3F2A8
2CAAA
2F0A8
2A2BC
2A2B0
00000
2AAAA
2AA8A
2AAA2
00208
2AF0B
3F328
2FA8A
3FCFB
2AA80
3FCCF
382A3
0A283
2AABA
20A2A
0AABC
33008
2C208
00000
28A80
3AA08
232AA
33A0F
3C20E
030FF
3F0CF
2A2BF
03230
20AE3
032BF
0020A
00A2A
0F0C0
23AAA
2AAA2
00000
38233
082FB
2AA8A
23803
0032F
0EAAF
3F3C3
08AB3
00000
20A2A
030EF
2A8F0
220A3
2002A
3F208
3F8EA
00A0B
2FCEB
03FC3
3B2AA
3FC3E
28A20
0FA2A
02A2B
2AA8A
00000
0FA20
0BE30
2C8E2
25A8A
28C3F
2996A
00000
2A8A0
00000
0FA0A
3FA88
3BFBF
00000
30322
0F0CC
3FFFF
3223F
0BCF3
0C00F
2AAAA
0A23F
0AA03
2AAAA
3A0BF
3F3E0
0F2AA
208CA
3BFCC
0200F
2A00C
28FCA
3C22A
22F3F
3AF33
28A83
2B2A8
3F2F8
2C838
2BCEA
00000
2A280
3F82A
33A2A
3F0FB
003EF
0AC20
23FE3
0F2F8
0CFC3
0FAB0
0AAB0
2AA3C
28FEF
33A0A
2ACF3
2ABAA
02AAA
30C3C
2AA28
0E0FF
3BCFF
3F32A
3F8A2
3C080
30802
0302F
28AAA
03008
2AAA0
20AAA
3FC8F
2AA8A
2AAC8
3C2BC
0F23F
00000
0CA80
33C3C
33208
3FFFF
20A0C
00000
02AA8
00000
2AA82
2A2B0
2BAEA
2CA8C
2AA88
2AAA8
30280
3AAB3
23AA8
2AA82
33033
00000
2AAAA
28C33
28A8A
0320A
0F80A
28A28
28AA0
20A00
0F3E3
00000
0AAB0
2A8FC
0BA2A
03BF3
308CC
20AAA
3C0CA
3B2F3
3F3FF
0FFC8
3FCC3
2AA88
3FA03
2A0BC
00000
23ACA
3FEF3
3F0F0
3F22A
3F200
30CCC
0BA80
3302B
2A0FF
00000
2AA00
3C3A0
00CC0
2C803
03AB0
20220
0EBBC
082B0
28A82
2823C
2AAAA
2BA2A
2AA82
0CCE0
2AAAA
083EA
08C3F
00000
08AA2
0AAAA
020A2
3003C
2FA2A
3C0C0
2AAE8
03828
3FF3F
2AA83
3FA0B
3CA2A
03A2A
30CE3
22A88
0FAAA
00000
22B20
00028
22A8A
2AAAA
2AAAA
2BAAA
3FCFF
0C3A0
00000
0C308
222AA
3FFCF
2AA8A
2E32A
22AA0
2A88C
00A2A
20A0A
2AA2A
03FF3
0FA00
002C8
28CFC
2A02A
03C82
00000
0EBA2
3300A
2AA38
3FFC0
0F0FF
00EE8
00000
2ABAA
00000
3F00F
3300C
3F008
00000
28A80
323C3
2A2A8
28223
3333F
2AA3F
00230
3F088
3B08C
02A0F
33CC3
22288
0FF3F
2883F
0CCC3
2AAAA
03AC0
2883F
02B23
08AAB
3F2EA
33A0A
3B0C8
3C33F
30A30
283FC
00000
0C083
2AFC2
3C808
2033C
2AA0A
2A22A
2AA2A
30CC0
0300F
0F0E0
0B208
0B8CF
2AA2A
3F8C3
2AFFF
02200
03A2B
30003
2232C
2A2CC
0ACBE
3FFAE
0B882
020E3
08208
20330
3CF8C
280FF
20B3C
03002
0C0CF
2AF3C
2A03E
2AAB2
232E0
00000
082F3
20A30
3FB83
3F3FF
082AA
00000
30CC0
00000
20BBC
332A2
2A328
28A80
2ABBC
2ABBE
3F3F8
03202
3F32F
2AA8A
0FF0A
00000
0AC00
333EC
28B0C
083B2
20A22
0038C
0200C
0F0E2
2288F
00000
2ABBE
0CAA8
0E0A0
2830C
3C033
2838C
08AA8
032AA
0C8F3
2A22A
223C3
2AB3E
3FE88
2FA32
00000
00A0B
2BA0C
30233
20BAA
2A888
30280
2ABBC
0AA2B
00A08
00000
2AABF
2AAAA
0FAE0
3FFF0
28833
2AA8F
3F2AA
2233F
0AA8A
08ABC
0A2AE
2AB80
0A0BC
22283
28A28
3C200
3FCF2
00000
3F20A
02028
0A0AA
0000C
0CF3E
0F320
2A28F
2AA00
30F03
2AA0C
0F8EA
3FAC3
33A2A
0C20F
0A8AC
30C20
00000
003FE
00CEF
28FCF
0A2AA
2A38F
028A0
2AC3F
0EA80
00000
20EF3
020BF
3F3E0
0ECA0
2A20B
2AA2B
02A3A
300C0
02CA8
2AAAC
0C2E3
0338E
0A0BF
3E282
0BAA8
3FEBC
00000
3EEAA
0080A
2A2BF
33FE0
0FCC0
08B0C
00000
02083
00000
3F288
3F00A
20AA8
00000
2A0C8
3CE2F
0E03C
0300F
3F0C3
30F3C
0333F
33028
3F002
2800C
0A3C3
0C3CF
3B0C0
3F2F2
333FF
02F8F
032FF
2AB3C
0F8B0
2AA00
2AB0C
0ECBB
0A2A0
308B3
2AA0F
02AAA
00000
288FF
38AE0
3FE88
3CAAA
0ACAA
2A00C
2A0AA
02AC3
2B3FF
0E333
3C3AA
20B3F
28228
33A2A
38AA8
3AA20
20CAA
200C8
03FCA
33E2A
2C3CF
0F803
0AA8A
0CFFC
03320
3C32F
3FAAA
33BAA
3B2C8
0F8AA
03F0C
08AAA
33AAA
3F0CF
0CFE2
00000
2208C
0CFFC
2CB22
0CAA8
02A88
00000
00AAA
00000
03FC3
202C3
3F00B
0A32A
0BF03
30FFB
0F3FC
0CF02
0FFCA
30AAA
0F32C
00000
03C22
3F022
38FF8
22F88
00C3A
3C080
2B208
0AA2A
3FBAA
00000
30FFF
008E8
0F0C8
2A2EA
20800
00F00
00AAA
0CF3F
3F8C0
0AAAA
2F3EA
300EA
2C30E
3CFC0
00000
3F3C0
28302
280BF
00F0C
3F3CC
022AA
38033
28020
0AFFF
00000
30228
30AAA
2EAAA
23FCA
08FEA
3CF0B
3FC3F
080CB
3AA80
2AAB3
002AA
20FCB
3A20B
3FA2B
0822A
00803
2232A
00000
2A000
2CBC8
0AAA2
0AAAA
0C0CA
0AAAA
08AAA
00AAA
0000E
3332A
20000
0EF80
28AAA
302AA
03308
30C0B
00000
02AAA
2AAAA
0080F
0AA2A
0CEEA
3FFC0
0AAA8
2E30F
00000
0AAAA
0232A
2AAAA
2AA2B
30AA8
2CFA2
300AA
002AA
02AAA
30A9A
0CAAA
0332A
03A2A
2F3C3
30AAA
3FF3F
00000
2C300
2EC03
3082B
20AAA
220AA
03AAA
00000
3F2AA
00000
2C30C
00302
3FF22
00000
0CCEA
022CA
0A2CB
00C2A
23F22
33AAA
33FCF
2A0AA
20030
3B2CA
23FA2
3C2AA
330EA
3F20A
33226
03FFA
28CFA
30CFB
32EAA
0FFC2
03FCA
02020
30022
0F322
0302A
23A28
00000
3F82E
00AAA
3E3FC
2EAAA
2AAA8
0AAAA
28AAA
2AAAA
082A8
00030
0C800
0A2E3
30AAA
3FFCE
0FFC0
29A80
2A28A
3AE88
020BA
2FBE3
2AA0B
2822A
08AA3
0A0A8
0A08A
3F20F
0FC3A
238E0
0F228
0AC2E
08C0A
28EF2
3F00B
0F82B
38E30
00000
3AEBA
30FCF
2380E
28828
03F00
00000
3AE82
00000
22223
3F3C8
3FF3A
2AFCF
3C280
02AB0
0A0BF
3220B
3ECEA
223E0
3B2F0
00000
2F2CB
033CF
00338
3EE3A
3CF8F
33FF0
0003B
00CF3
28A82
00000
22883
03CCB
00FB2
3FF33
3AFF8
3FC33
08088
2ACE8
0AE8A
2AA8A
3F33F
0CB38
2A20A
00AE8
00000
3ACBF
2282F
23C22
3CC30
33000
3AAA8
3F33F
2AA23
0A08F
00000
0C0C3
2A8A8
2AA2A
33002
2A080
3ECFC
0B008
3F000
2AAE3
333CF
23EC8
3FFFE
08AAB
2F82F
2ACBC
0ACB3
3AE08
00000
2A203
2BE0A
0AE80
30C08
00382
288BC
2FBE0
28A00
3AEAA
2F8EC
38CB0
3AF0A
2A233
0F0EA
2B823
02CF8
00000
3CEF8
2AA80
203C3
2A82E
2C320
38F0A
3F30F
0A280
00000
288E0
3320A
3380C
032C3
2AA8F
0BCFC
32C3B
2AC82
0AFB2
2B032
2A820
080CA
230BE
0A2A8
2A0BA
38E08
00000
2AEF3
30002
02328
2AAA8
30F0F
2BA03
00000
2AA2B
00000
3820A
330B2
0820A
00000
0AEB2
0AAA8
300EB
3FCC3
28822
3FFF0
20A03
30F32
032BA
2CA0A
3F3FF
3CA28
20A0C
0082A
3FCE0
23FB2
3FF38
0CC80
3228B
280FC
0F30A
3AC3A
0AFB0
38E88
1BBE3
08C30
00000
28A8A
23BE0
38F2A
30CAA
2B2E0
03CF3
2FFFF
26AAA
3CF33
30C32
0AE08
3F3F3
2B282
30228
2232C
2BBE3
3FCFF
32C8A
0BAC0
2382E
33EBB
2BEAA
028AA
022AA
32003
28CFA
2AA28
00CB8
20AAE
30CE8
02EA8
2B823
288EA
00CBF
0028B
00000
0022F
3F0F2
322A8
02CA2
33FEF
00000
3200F
00000
22A80
28A03
32022
0003F
202B2
2C00C
0A202
202E3
3ECBA
288E3
002B2
00000
20B0C
22AA0
2B8E2
0FCBA
2E382
3AC8A
20B32
23B22
3FFB8
00000
280B2
2BA23
32F38
33832
30CFC
02CAA
0BAE3
03E0A
2AAEF
0AFE3
32CB0
220BC
3FE3F
302B0
00000
3A033
33002
0F033
3EFB0
3FFB0
30F00
00FBE
30BEB
0B0FB
00000
2B8EF
330E3
02228
28A82
2FA00
20ACF
3FCFF
0CF3E
080AB
030F8
2AAAA
32F82
22A88
2B823
0A8E3
30EF3
0B3BA
00000
3F20B
32C03
0CBA8
3CC3F
2AA8A
0AC03
28A20
3EFBA
2A28A
28A20
302BA
32AC3
28A23
3C300
20A03
0FF82
00000
00BBC
008C3
28023
2382B
28A2C
30E30
0FFFE
00CA8
00000
00CEB
203EF
2F02F
2FBA2
2BBE3
302C3
2C8EF
30CCB
22A20
08AE3
008E3
0FEA8
22AA2
0ACB0
0A2CB
0A202
00000
3ABCF
382B0
288EF
22BAB
23BA2
3A2A8
00000
3BBEF
00000
0F2B0
0AEBE
32CB8
00000
38A0F
3C0EF
230E2
3FE30
08A8A
2A3F0
0C80E
3C0B2
2C08A
288AA
0A2AA
23BC0
238E2
2BBB2
208EE
20A2F
2F33C
008CF
2F028
33AC3
3ECB2
3AC33
00223
02230
33A08
2A8EF
00000
33FB0
2BACB
3FFFF
32FBA
088EA
288E0
2A82F
0A0E3
2B8FC
0CEB2
38E8A
28332
08AEB
3FE3B
22ABE
228BE
0CCBF
0EF30
2C38E
382FB
3F20F
3F2C0
3F0CF
3ECBA
0EF2A
222BE
2288A
28AAB
338CF
0CFBE
3EFBE
2A882
2AABC
0FA23
300A2
00000
0E382
02E8A
280AB
2E0BE
0C332
00000
2F33E
00000
0B80F
38AC8
0A08A
2C80F
20BBC
3380C
0C028
30C2A
3C332
0888F
00A28
00000
03C22
2AC08
2F3EE
220BC
0082B
0AA8E
3C0AA
02082
2AAA8
00000
02A8E
2AA8A
200A2
228AE
3E082
0233F
0CFAC
3C082
3C3EA
0C88E
2BBF3
2033C
2230C
08A2C
00000
0F08A
28AE8
32F3C
0B0EB
020B3
2AAAC
22B3C
28AA2
30A8A
00000
3BA2F
0FAA3
2E3BC
3AAAA
330EF
008AE
0F03C
0E3BE
3F8CF
083FF
0FB0F
220EB
3F80F
28233
0EA8E
3F3AA
3EAA8
00000
033FF
0E3B2
0E2B2
02080
0008A
00A8E
2F3CE
2AA03
3CCB2
08A8A
0002B
0CFCC
0300F
2AA82
238CF
32EBE
00000
2288A
2AABE
03BEC
23B3C
0B3BE
0A2B2
2022A
3ECB8
00000
22B8C
233FF
2AAA8
2A83F
2A8B0
0238E
020A2
0EBBE
0A380
0088E
2E88E
2AA82
2BA2A
3288E
0E082
3FFFC
00000
2233C
2C328
3380C
2AA80
0A2A8
2A2B3
00000
2C08A
00000
0203F
0A228
0EF2A
00000
0FA08
22AB2
3080C
28ABE
2A22A
2288E
3E2BA
22AEB
3C088
3BCC3
0A28B
2A0B8
33ECB
302C3
2AAAA
03B0E
0C8AA
0F8AA
0BA2C
0B8C2
208EC
3EFBA
320AA
2E3B2
2B2C8
2AA08
00000
2AA8B
3C380
3EF80
02A23
2A880
0802F
0AABA
0CBBE
3F22E
0E088
3C0BC
0ABBE
000AA
30FEA
2203F
23BE3
008CF
0CF8A
08F3C
0038B
0822A
2FC0A
2EFBE
0BE0A
302EB
0B00A
3228A
02AB0
0EAA8
302C3
3C2EB
3022A
2F8CF
00C82
2A2B0
00000
082F3
0BAC2
0AAB8
32AA3
03AE8
00000
0C0E3
00000
03EB2
03E82
2E2B2
2AAAC
08FBE
2B3BE
0F30A
0A8A0
03CF0
2AB2C
08FB2
00000
02082
38AAA
2AFB2
2B0B0
00A2A
00202
32C80
3CF80
2003F
00000
03332
0C2B2
0ACBA
2AF02
330FB
0033E
0A8E3
20A38
08AEB
23AE3
28A3B
28CFE
0A2B8
0303C
00000
3F0C3
28A0A
3FCFA
0EFBA
32F3A
2038F
200FF
2F8EF
03AE3
00000
22BAB
2A3A2
0E823
02CBA
023BE
28BEF
3E0CF
20833
22FAE
003AC
3CCBA
0A2BA
22FBE
228E8
2FAE3
3F8E3
330C0
00000
03AC8
30E38
0208F
2AA08
0ACB2
08AEF
222BC
2AA0C
0E28A
3A2BA
0CEBA
08AEF
23000
20803
0B2B2
0CE32
00000
03A2B
0AAC3
2CF3E
00A32
30C80
08E3A
023CF
32C8A
00000
0A80B
303F0
22828
3C22A
2FBE2
02E33
02BCF
002FB
0A288
2BA08
22A2B
0ACBE
022BA
0F80C
0C2EB
3EC88
00000
23BE0
2FCFA
2282F
2A30C
3C388
3E28E
00000
3F322
00000
32CB2
30FBE
00EF8
00000
000BC
00BE3
0E82B
2CA03
0A2BA
2E3F3
0FCBE
08032
08008
08CBE
2AA2A
238C3
0F0C0
2BBCE
30803
30CB2
00F32
0F0A0
20BEF
083B2
0ACB2
30EFA
2F228
08208
0A2BA
03208
00000
0EF8F
0A8E3
33ECB
08C32
3FAAA
0CC88
3F088
0BAEB
003B2
3CCBA
08A0A
0EFAB
0022A
082CB
28A22
28AA8
0C0B0
0082A
2A03F
0BA22
2AA2A
3CE33
00828
30AAA
3008A
0AFF0
28AA0
23828
2AA2E
382A8
002AA
288E3
2AAE8
00C00
002FF
00000
3FABB
08002
0C800
00CAA
3FC0A
00000
3F2A2
00000
2A300
28AA2
02A82
03FFF
2AA82
2AAB8
282AA
03CB3
0B200
230C0
28FFF
00000
2A80F
22820
2AA80
0028C
3C32A
33208
08AA2
00320
3F0E8
00000
2A082
0830C
03228
0AF3F
03000
08CBA
0CAAA
3F28A
3088A
0C8A2
238E0
28882
33C3F
2A0B3
00000
000E0
2B3EB
30C0B
33CF3
33CF0
0FBEA
2008C
3C02A
2A28A
00000
20A02
3FFE8
3FC2A
2A00F
2AB20
2F802
3FE0C
2AFBE
38A2A
28A20
2888F
30C02
28A2A
28A08
0C3C3
0C0A0
3EFFB
00000
00AA2
03EAA
3FF0A
033E0
2802C
0C02C
2A800
0F0C8
0AA2A
2AA23
0AC0A
3FAB0
0803F
238EA
228BF
33EB0
00000
28A22
2082A
0AA88
2A80F
2A80C
333BA
23BE2
3FE8A
00000
33028
2882A
2FBE0
2B20C
288E3
08AB0
3300B
3C2AA
00BFF
2CA28
0C02A
03FFF
2A80F
00022
0CAA8
3C08A
00000
02A00
0FAAA
2BAC0
0A2AA
2A3C0
3FFE3
00000
288EB
00000
33FFF
20CF0
3F2AA
00000
2A0CF
0F82A
2B8CE
238EA
08A00
20822
020A0
3CFF2
08F0B
2880F
3C82A
20A1A
00820
00AAA
22822
2A80C
2A082
2A880
2FBEA
0A3FF
22F3C
330B0
3FFF3
3CE0A
20AF3
208A2
00000
3FC00
0AA28
3FC33
08CF3
20AC3
28A00
200FF
038AA
2A8A2
38C3F
00CFC
2AC80
00A28
03E00
3FA2A
0F38A
3FFF0
0032A
00020
2AAA0
2AABF
00FC2
08FFC
22320
00FF0
08EE0
232E8
3FB2A
30AEA
3800A
083C0
232AA
3F29A
22003
2AAB0
00000
28A8E
28A3F
3F33F
3CFFF
0C03F
00000
203FC
00000
0802A
23AE3
00808
223AA
28CEA
2AC02
2A23F
2AA80
3FFEA
32AAA
2A820
00000
22A20
2BAAA
2A22A
3C02A
3302A
088AA
288C3
2AE08
3388A
00000
0BF0F
00AAA
2A828
28FC0
0A00F
0AE2A
00CC3
300E3
2A2BC
03CFC
3F22A
0F02A
0ECCC
2A2A2
00000
16AA8
02FFC
0E3F0
080F0
0A222
30C8A
2AFC3
03AAA
3CC03
00000
322AA
0008A
0FFC0
208EA
26220
3E28A
0220A
2AC20
0AFBC
3AEB2
0F81A
0A033
32F02
008AB
0CF2A
2AFF3
000C0
00000
33FFF
33FC0
00AAA
3FFE0
20AE8
02230
0FAAA
3FEF8
333AA
2AAA2
3B3CA
2AC3F
2FF08
3FF08
03B2A
3CC0A
00000
033E8
0A8EA
22FCF
3382A
3F3DA
08A8A
08223
0F3CE
00000
3F3C0
3E02A
2AC30
3FBEA
2CAA2
22A82
2AAAA
3CF3A
228EA
3F82A
02803
2ABEA
0CA2A
32FAA
3CFEB
0EF0E
00000
0F8AA
08C8C
3CFAA
2A8A2
28CC0
00AAA
00000
3F22A
00000
0230A
080CC
030FF
00000
2AAAA
3E32A
3C3AA
3F2AA
22F3F
3CF2A
30AAA
33FFF
08CCA
2A8AA
30030
3C228
28C3F
28228
0FA2A
33AEA
28EC0
3A208
3CC0A
2A8AE
030F3
08FC0
3AC00
0008C
2238A
2AAEF
00000
200CC
00C80
0CFFC
3FFC3
3F8AA
0AAAA
2882A
28FC0
2AE22
230E0
3082A
0ACC8
032EA
3FFFF
0CB8A
3ACBE
32EBA
32ABB
00F3A
3CC8A
2BAA0
28820
2F08A
08BE3
3AA88
00AAA
02FAA
3E0AA
3C00A
2A20F
0AAAB
32C8A
0C33C
23BA2
0AECB
00000
36E0B
28C00
02AAA
30AA8
3AA80
00000
3AE8A
00000
0CF2A
0E281
280CF
2FFF2
200AA
2F3FA
23AA8
280FF
30AC0
2CFFF
03200
00000
00EB9
2FAAA
3F8BA
0F008
03032
08AE3
08A8A
3328A
00C32
00000
0FC2A
3CCB2
0A203
33E8A
0AEFF
332A0
3AEBA
2AAE0
3AEAA
3AEBA
022A0
32CA9
0AEFB
03F2C
00000
3A2CF
3EE00
2AA2A
3AC33
382CB
032FF
00CEA
233B3
28000
00000
3F0C2
2303F
3FCA8
3CAA9
0F2BA
0B3BF
38C3F
000EA
2C33F
238EA
0ECA9
0FC0F
2F8BE
3CCBE
3A2B2
3ACB8
2BEB0
00000
23080
06ACB
02EB3
0F3BF
02AAA
3EC8A
3EFBA
32F30
2AA08
3E269
38203
38E08
08ABA
32C3F
3CF8A
300C3
00000
082F3
3A2B3
2A0BE
3FF3A
30E82
08A3F
30CA2
0AA33
00000
3EF32
32EAA
3C382
0C2BA
32C3C
3A2BA
2A2BF
0A028
3EF30
32E8A
3FEBA
32EBA
32AA9
20200
2AC8A
2A200
00000
3B0CC
3BCEF
0CFF0
03888
3FE8A
3F028
00000
228BE
00000
0AE3B
0F2A3
3AE03
00000
3BCFC
3A0B3
0083A
3FACB
322A6
3EB3A
3CF0A
3C20C
0B3C3
0C0AA
32828
3A2B0
302AA
2FB02
0CFA2
3E28A
08EF9
0F0A2
0F3FF
3CF32
08EBA
2A22F
3AE08
0A9AB
320AA
3A282
00000
2233F
3ECBA
36EEB
00203
3EFB2
2EA8A
3ECB2
3927A
030AA
3AEF3
03A03
3F8EA
32EB2
3AEFB
22FC2
283C3
3FEBF
28FEC
2AA20
2A0E2
0220E
2A3E2
00A08
2B3E0
2A0FF
2203F
2A030
22F3C
292F3
08CF0
28FCC
2AFCF
2A0EA
2AC3C
3F0C0
00000
2A2C3
0F800
3AF32
2AFFF
2A0FF
00000
38EF3
00000
2A20F
2AA80
3CFE8
3F0BF
2A8CC
2AABF
2AFCC
3300F
2A008
0C0C3
22AB8
00000
2A200
3C32A
1AA8F
0E003
23B8C
30F2A
22ACF
22A8F
0AAB3
00000
2A0FF
2A83F
2AAC2
2A8B0
28320
2A88F
2A833
3FCFA
2AA8A
2A000
0AB88
2A8CC
0F20B
0A2B3
00000
2AA0C
3FCC0
0EF00
003EA
2A082
2B2EF
2AFC3
0320A
23FC0
00000
2AA8F
28300
00C30
2A3B3
2AAB3
2033F
28E33
2A3C3
0A2A2
2A3C3
1980C
2832A
2A83F
2A20A
28F3B
2A03F
20028
00000
3FE28
2AFC2
03E2F
20300
2AA0B
000C3
2AA3C
2A383
2AB20
2AEBC
283AE
3223F
3F0CF
2AACF
2AA33
2232A
00000
223E0
2ACEF
30F0C
2A00F
29CBF
2802A
28FBC
2ACE0
00000
28F33
2AC3E
28328
2AFFF
2A03F
2ACFF
2B33F
2ACF3
0AC02
2A03F
08FFF
022BC
2ACB2
22C03
32FC0
2322A
00000
2AEFF
083E2
2AA8A
28F0C
0203C
3C08C
00000
28FFF
00000
382AA
2AF88
2A028
00000
0AA82
2BFC3
2A0CF
000EA
3FC00
220C3
02CFF
0CFE0
2AC30
2AAB8
223E2
1ACF3
22AA8
220B3
2AFC0
2ACFF
2AA80
2AF3F
1A8A8
03283
0A808
0AFA8
2A08C
08FCC
3FABE
19A82
00000
3CF03
03003
03CF3
2AC8C
2AFFC
2ACFF
2AFF3
2A0CF
19ABF
20EAA
2AB20
2A03F
2AF08
33008
08F2A
3FF2A
2AFFC
3F3E0
2AFF3
292AC
23A28
02AAA
2A2BF
00A83
330A2
2808F
02FFF
2A23B
1AAAA
003EA
3C32A
3C0E8
02CAA
082B0
30FCF
00000
03028
00E80
2A003
3F028
080A8
00000
003AA
00000
2AAAA
2A2AA
20FC2
2AFF0
2A0AA
2ABFF
3F2E8
2AF0F
3CFF8
2A2FF
2A8BC
00000
2ACFF
2A03F
2A0CC
28CE8
2AABC
08FEA
2A232
2A880
3EFEC
00000
28000
2A03A
00FC0
2AFFF
3C00B
2A08E
02CAA
30228
3C8AA
3CC2A
2A0C8
2AC0A
330C0
00AAA
00000
3F8B2
25A3F
3FA28
2AA83
2A2B3
0283F
08FC0
2AA23
00EAA
00000
2A880
02CFF
2A8AA
2ABCF
2A0FF
2B3FC
3F0C8
00F3F
2AAAC
2ACA2
2A00A
2A83C
2AA80
0AAA0
3F3EA
0B32A
00033
00000
228EA
0088A
02030
030FF
203F3
03C22
2A30A
2A888
3F3E8
2A28A
20AB0
20FAA
2C3C0
3F20C
2A28A
20F2A
00000
0CFF0
3F328
2AC32
2AE88
2A2AA
00F22
28FCF
3C2A8
00000
0A0A8
3FF28
2A88F
2AAAA
0202A
0A3E8
33FCB
3CFE2
0C3E0
3FFC8
2A222
2ACCF
2AC03
032E8
223F0
3FA28
00000
0F0EA
33A80
28BC8
0228C
2A30F
2A028
00000
28F00
00000
2F228
032AA
2A03C
00000
2C3C3
20BE0
2A22A
30F32
2A83F
00AAA
2AAAA
2AABF
0080F
2A882
2A00F
3FF20
2AA8C
2AAA2
2A2F0
2AE2A
2A3FF
2AF00
228FF
2AFFF
2A8FF
20A88
0CFEA
3FCC8
2A2BF
22FEA
00000
00C00
0032C
30B00
3FC2A
2A082
02F22
28000
38C2A
2ACFF
0CA83
20AAA
2A03E
0CFC2
02AA2
0B238
228AA
3FFFF
3280E
3F320
2A2B3
38CFF
3F0C3
0A2BF
3CAA2
0FB22
008EC
038C8
2020C
0ACFF
0FF0E
0FF0E
2AAAA
2AA83
3FE0A
0EB22
00000
0C322
2020C
2A0E2
2E80F
2FB3C
00000
3FFCF
00000
08C00
080FB
282AA
3E33F
0BC3C
3FFCF
0FAAA
2C300
33FF0
228B2
228A2
00000
08AB3
2A883
303FF
3C3CC
2A2FB
3803F
0280C
2A8BC
2A2A8
00000
00CE2
203F3
08CEA
08BCE
3FB22
0202C
2E3C0
3BCA8
0C32A
2AAAC
2BEFB
3BCC3
3FF22
0208C
00000
328A2
2A8BE
3F0C0
2AC00
2AB8A
2AA8B
30C0C
2AA88
32883
00000
0A2B3
3F30C
2CFFF
088BE
28F0F
000A0
0C3AC
330CC
3AEF3
3AC3F
2AF3F
0B0F0
38CFF
2AAAA
0C8AE
0CB2C
228A2
00000
3CFFF
300A0
2230F
00AAA
2ACC0
0E82A
08F3C
0F02C
030E0
2AA8F
2AAAA
0CFCF
33F3F
2BAAA
02F82
3FCC0
00000
288AA
2AAAA
32CF8
0AC0F
082FF
2AAA8
2BEFB
03FC3
00000
3CBAF
28A2A
2AA88
2A3F0
2AAAA
2E322
228AE
33820
2AAA8
0E82A
03B2C
2888E
2A833
32320
03A2A
0FFFC
00000
0C300
2CAAA
30FF3
2AA88
2AAAE
0823F
00000
2AAAA
00000
03FE0
082AA
3CB2A
00000
2C32E
22AAA
08F30
082BE
0AAAE
0A288
3000F
2A222
008AA
0AE3F
28E0A
22AAA
2A2BC
0AA82
2AA8A
3BC00
000C0
0FFCC
30F8F
2000C
0BFE0
0F022
0EBE3
0E32E
0208C
2E8A8
00000
0CC30
0308C
3F3EC
3F3EA
2AAA0
2ACBF
2AAA8
20AAE
0B83F
0C822
038F2
0280C
08AA8
3FFCE
3F0F3
0AFC2
0808E
08E33
2EA8E
28AA8
2EBEE
03CBF
2AAA8
00FE2
30CCC
2E8BC
2F220
38A8C
2AAA2
3BFCB
00028
0B3EA
3A000
23AA8
3F8C0
00000
3022A
2CFF0
20ABC
0EAA8
03CE2
00000
33FC0
00000
28AAA
228B0
3FFCB
3083F
38A82
0CBAE
02002
3F8C0
28A0F
28AA2
2CBAE
00000
2C8A2
0002A
2C8A2
03F3F
00CFF
3B3FF
2E03C
3F302
0020A
00000
30A8A
2AF2A
00302
3EF82
28822
3FC0C
20200
3CFCF
2ACC0
00FC0
2ACF0
0BA82
3CA00
0EAA0
00000
00B20
0CA80
0A883
220B3
003E0
0AAA8
33233
08FCF
22FEE
00000
2A8AB
3F0C8
3F22A
2BAB0
2EAAA
0AA03
332CB
3C282
30A30
20802
2AAAE
3CFFF
08AAA
22888
02FCA
0BFC3
0022A
00000
0AF02
020A0
3F0E3
0CF0E
28222
02CEC
02A8E
2A8A0
20083
23ABF
2FB3C
38CCA
2A80C
2EA8F
00A8A
3BC33
00000
002EB
32CC0
0F03C
20AAA
28A83
00FE0
3FECB
2AAB0
00000
38020
2CA3F
328A8
08AAA
22BAA
3F233
3F8C3
0FCEA
08CA0
2AA8A
0022A
2AA88
2BA83
3B283
33FE0
33C3F
00000
28A8B
0E30C
0AA83
02AAA
2FFBA
38288
00000
0830C
00000
0B200
22B8F
228A0
00000
3CB8F
32C03
28AA0
2AFCF
28AA0
3F2FF
0B200
2CC3F
0CBBE
28AAA
2AF3C
22A8F
22882
008AC
2AA8B
28AB3
0C38A
000AB
29AA4
0CA80
22AA0
0B080
28008
0F228
00ABF
2880A
00000
03A02
028BF
0AA8A
2AAA8
00AAA
288B2
20CAA
00C02
2C8AA
33FC0
2E30C
00AA8
0ACE8
008BC
3232A
2A8BC
23FFF
00B00
2A8C2
3003C
2AAAA
03C0C
33A2A
2AAA8
2AA28
2A8EF
23AEF
3303F
0023F
33283
2AAA8
2002C
32C23
0FBFF
238E0
00000
2BAEC
02A8A
2AA0F
03023
2B8FF
00000
20C3F
00000
2F83F
3F8EF
2A8E3
2803F
088C2
3AA02
00A28
00032
03BCF
3A03C
03CCF
00000
3FEFC
2B2AA
32F8E
28AA0
30328
3FCE0
33CBE
3FFFF
3FCCF
00000
28ACF
3F3FB
2AAA2
08CA0
28AE8
2A8AC
20F00
00AAA
28228
2AB20
0AAAB
22EA2
2BAC3
088C3
00000
28AA6
3C882
2AA80
228AC
20022
3C80E
2A0A2
3F0CB
22AAA
00000
3AEBE
028CF
3803F
0B0FF
3FF32
3AEBE
2B8EB
2A02A
2AAAA
222AA
03AE3
0A8A2
08AAA
000FF
2AAAA
02A2A
3F0E8
00000
2A2AA
2AAA3
038F3
3F3C3
2A2A0
3E0EB
3CCBC
328BF
28AE3
0B2BE
28823
233CF
2F22A
0E8BC
23CFF
3CCA2
00000
228CF
00823
2AAAA
0AC3C
2A0BC
2AAAA
0ECA2
28A20
00000
0FF3C
2A80F
3EF0A
33023
020BC
2B233
08208
0AAAC
20ACF
0388C
30F33
0F0FF
032FF
0B0F0
238E3
2BAE3
00000
23A30
3CF2A
32CBE
3C82B
3F00B
3F00F
00000
0F8FA
00000
238EB
0F8EF
20A28
00000
302C0
3F82A
222BA
30BEB
23A00
3EF33
38CFC
02A2F
3CF3C
3F2C3
0AAAA
2283F
3FF2A
3F0E3
22EBC
2A23C
32E2C
02AB2
3023A
02AB8
2AAAF
28AEB
2B228
288E3
0BCFC
20AAB
00000
300CF
3FCCE
0B0F2
2BAE3
33CF0
33CA0
3B0A0
2AAA8
3ECB2
200EB
28A28
0BBCF
2F8C0
23808
3AEBA
02E8B
3EEAA
30000
2AAA8
0EB0E
23BE3
20CCF
080F0
2A2AA
022BA
238EF
32288
3FF32
2230A
33C3B
022B2
0A2A8
082AB
20AC8
00CAA
00000
288A8
0FBC3
3C0B2
0333C
3FCBC
00000
3E020
00000
2AA2A
28A33
0BEEB
0AE8A
2A8EF
00082
22282
3AC88
3FCC3
2A28A
0FBE3
00000
00FFC
2383C
2AC3C
20023
222A0
0FEC3
08FFF
2C8CF
3FE0B
00000
2282A
08A00
33EAB
2A882
2AAAA
2300C
30E0A
2B3C3
0033E
3C28A
3AEBA
0A2A2
0FAA8
0BA2A
30000
03038
3EFB2
22C30
238EC
3F8CF
23AEB
2202E
2BAF8
03833
00000
3208A
2AA2A
3FF3F
28BAE
3EFBC
32F3A
0FBE0
2AAA2
2A2EA
2AA2A
2C003
2A223
2A80A
0C0BA
2228B
3228A
2A082
00000
28A23
00EBB
30CFC
0CC28
0B8EE
302BB
3EEBA
3EEBC
2AE28
3EFB2
20A20
3F02A
28803
32F33
3EEBA
0FFFF
00000
2382B
2823B
2A8FF
3AEBA
02C8A
2B2CB
0AC82
03CC3
00000
32CB8
3C0CB
2FCFF
208A2
302B3
3EFB0
303C2
30EBB
3022B
3CEBB
3F082
0F8CC
3CC0A
2F82A
0A28B
080E8
00000
3F0E8
320BE
3AE2A
2B8F0
2C3CC
0B0CF
00000
3803B
00000
0FAEF
2B8F3
3A2A8
00000
0CCAA
0B8C8
28820
2BCE3
0F0BE
32E8A
0A88A
03BE2
3AF08
32B0E
2A0B2
0BF83
3CFFC
0C330
32CBE
3820A
0230C
02EBE
2F8E3
32CBA
082A0
22AAB
3FCB3
3EF82
3ECB2
20880
00000
2F0EC
3EC3C
3FC30
2F8FF
0A28A
2FB0F
0C88A
332B0
3EFBC
28AE8
282EF
288A3
0A2AB
3AF3C
3C22A
2C3E3
0C333
2AAAA
00083
08A00
020BE
3B2FF
02B0F
28A80
00A3F
3F03F
20230
0F0F3
0A0BC
38A8A
28AA8
28FF3
30AAA
32AA2
33F0F
00000
2BAE8
02FCF
230F3
0FAA2
0AAA0
00000
203E8
00000
3FCFC
0238C
23CF8
3FFCF
2308C
03003
2AAB0
2C0C3
23B22
3FC03
2C3AE
00000
20820
0023C
0030C
0030A
338E8
33A82
2AABC
08A3C
3FA2A
00000
3F803
20F3C
2B808
3FF2C
2A8A2
03A0C
22ECB
2838C
23AF3
208EA
3F8EA
3F800
0F820
3C382
00000
28AAA
220E3
280BF
033C0
20222
0FA20
3F88A
3E2AA
0EBCC
00000
3EAAA
3EA0F
3CA2A
0FF3C
2CB20
3F02B
288AA
3C330
32A8A
302B1
2088A
03808
3C2BE
322E8
2A8EA
08A82
02CA2
00000
0AFB0
0B8F0
0FAE3
2882A
2B282
0F82A
038A8
2F8C8
288A0
28200
28228
28823
2AAAA
288EC
3FFFF
2BA33
00000
200FF
2382A
02A80
00C00
3F20A
0BAB8
3F8EA
08A00
00000
0F3E8
2A80A
2BAEB
30CB2
038E2
2FAEB
2F0E3
28A0C
288F2
2A8F0
0C8E8
3F0FC
03A8B
2BA20
2A0F3
23BEA
00000
28022
2AA28
3ECAA
32A23
23FCF
3F8EA
00000
2A0CF
00000
202AA
00F82
20833
00000
330E0
3FA23
3BE82
3F22A
0CCBF
2022A
03FCC
03F08
20080
2A2B3
2BAE8
202CE
2AAAF
2AC32
33CFB
3C000
0F33F
3F028
30AAC
0F3CB
2F8CB
2B8A0
2A0FF
28AA0
0E3CF
0828A
00000
3F028
2AA0A
2080F
0AAAA
0AE00
28AAA
2AAA8
2AA0A
0FA0E
2382B
2B830
3F83C
2A0FB
23823
2F8C2
2C8E8
008E3
222A3
03AE0
3AEB0
3C300
03BFF
2082E
082A2
038FF
0C30E
2BBE0
000EA
200AC
2FAC0
0B208
2CBEB
237EA
28EA0
3CCBA
00000
32FB0
32F00
08F80
282B2
3A0B2
00000
33033
00000
23AA8
2C328
2F7C3
3C0E3
2FBEF
2882F
2022A
3CCBC
238E8
3FE02
32FAC
00000
0A080
3AF8A
3ECA0
23BE0
28828
23BC8
02F23
3CF32
20BE2
00000
2BA28
03A08
2BBE3
0C32F
30E2B
208E3
38CB2
33830
0AEBA
28BCF
208C8
2F4EA
30E80
30EBA
30300
208E8
3AE88
320CC
23A23
208E3
23B2A
238E3
2FBF2
2A008
00000
082AA
2A80C
222BA
3EF28
0AEA0
30000
323A8
20BEB
23AEE
2F8E0
2C820
208EF
2FAEC
0EEBA
2F8E0
238CB
3A28C
00000
3300B
23AC0
3CF32
28B20
2CBE3
238FF
0FFAA
20828
000A0
3AE8A
288E3
3C288
2F8E2
2BB0F
3328A
2A8CF
00000
2BBCF
23BC2
20020
2FEAA
0F88A
2F8EF
023C0
082C8
00000
0CBFA
238E8
22F8E
2F008
28B08
3EFBA
302B2
2B8CA
2FBC0
2BBE8
02832
0032B
0003A
203E2
2FAE8
33CB3
00000
2F0AA
38E23
2FBAA
2000E
0E32B
2FAFA
00000
2FBE3
00000
3E023
0A32B
228CF
00000
3AC80
2CACE
23BCF
