FFFFFF48
000000AD
0000003B
00000067
0000000B
000000D7
000000E6
000000B3
0000003D
FFFFFF95
000000AC
FFFFFFAC
000000CB
000001BD
000000FD
000000F3
00000077
00000069
000000B1
FFFFFFD4
0000010C
00000022
FFFFFF6C
0000001F
FFFFFFDD
FFFFFF9E
0000014C
00000046
0000005C
FFFFFFF7
FFFFFFC5
00000061
FFFFFF48
FFFFFFB9
FFFFFF90
FFFFFFAB
000000CD
00000087
00000013
00000024
0000008B
00000049
00000040
FFFFFF53
0000010D
FFFFFF70
0000001E
00000095
00000018
00000123
00000042
00000040
FFFFFFBD
00000059
FFFFFF84
00000045
FFFFFFDA
FFFFFF9E
00000050
0000000E
0000000F
00000030
000000B3
0000014B
FFFFFFD6
00000136
FFFFFFC7
FFFFFF78
00000099
FFFFFF8C
00000078
FFFFFF94
FFFFFFFD
000000A4
FFFFFF5C
0000001C
0000003C
000000AC
FFFFFFE8
FFFFFF89
00000030
00000119
00000152
00000059
FFFFFF3C
00000021
FFFFFFC7
000000BA
FFFFFF53
FFFFFFFA
00000043
0000001F
00000028
0000011D
FFFFFF92
00000070
000000BD
FFFFFFC2
0000000C
FFFFFFD7
FFFFFFA3
00000000
00000100
FFFFFF3E
000000C8
FFFFFF0F
FFFFFFB6
0000006F
0000011A
FFFFFF87
00000014
FFFFFF98
000000C3
FFFFFE30
00000015
FFFFFF8D
0000009B
FFFFFFC7
FFFFFFF2
FFFFFFFE
FFFFFF95
FFFFFFD9
00000145
00000056
00000107
FFFFFFB6
FFFFFEF6
000000CD
00000084
FFFFFF43
000000D4
FFFFFFBE
00000081
000000C2
00000019
000001A3
FFFFFFA0
FFFFFF66
FFFFFFB4
FFFFFE18
0000015E
FFFFFF86
00000045
FFFFFFA3
00000109
0000003F
000000D1
00000060
FFFFFF89
00000125
FFFFFF82
0000001F
FFFFFFB4
FFFFFF24
FFFFFFCD
000001DD
00000052
FFFFFF97
000000B5
00000002
FFFFFF94
FFFFFF99
FFFFFFA4
00000098
00000075
FFFFFF52
0000002A
FFFFFFF9
0000013E
FFFFFF5E
00000073
00000115
0000006B
FFFFFF6F
00000077
000000CA
0000011B
00000058
00000027
FFFFFFFC
0000000F
0000009D
FFFFFFDB
FFFFFF9E
FFFFFF8E
00000079
00000047
FFFFFDE1
FFFFFF4C
FFFFFFFB
FFFFFDDF
0000003B
