22F2B
32EAF
002BC
08E2A
2E0C0
202CF
3A208
0AB33
2FFB8
280FD
2CA80
2E2E0
0A822
03022
22B0A
222CB
0C8EA
0E800
020B4
20822
23C3A
00022
2ECBB
2AC33
3C838
3A2EA
36AA0
29F00
072B9
20330
0B202
2F3A8
28BB8
02FCE
2B2AA
08ACB
2222E
2B0AA
3FABF
2A30C
3CFE8
3AC3C
2A81B
0002E
2E0A8
22C2B
0C8BF
22EE2
010E2
2AA0E
08E8B
2AAE2
38EEE
208AB
0AB20
3CFA2
30ACC
27AAC
21B0A
380EA
3CBFC
03830
28028
02B88
3CB08
00023
00C2A
0C22C
030E3
328E4
2A032
2B200
0820A
220B0
0322A
28B38
2038E
082E3
083EA
20CAA
2A800
2F223
32AFD
08E8E
0822B
232AA
0302E
00002
2C88A
23020
00888
03A8B
3CE23
0AB00
0A04C
2222C
0CE2C
0030E
0C830
0A8CB
03800
33CAA
2223A
2228C
28988
02302
023F8
0FAE2
20B0E
00028
2FB02
0A3AB
2F0BC
2B8AB
328C2
22680
3E8AF
088EA
3C3BA
32260
28B8B
38E08
2C202
28AAC
32AE0
03BC8
0FB3B
2A002
20E83
0EFC6
3EB82
00003
02388
20AC7
282FE
2CA33
2EE00
2BB00
3C882
3ACDA
3CB82
328E3
1E2E8
20EA0
30AE2
32E9C
2E8EE
02ECA
0C82F
028A1
2FEEB
02AA8
000F8
00023
30A8E
03C08
000BA
22880
2FA83
3A800
13FB2
00A2E
2B0A0
1AE2B
033F6
33383
0B80A
12883
0BEE2
28322
028B3
260B2
08BAB
3CE23
02833
0000E
0808A
2E800
3BA30
0A802
2AFE1
23808
0A282
2AC28
2B838
03E02
3FFCE
02A00
22BEA
0ACA2
0EF22
2328A
00030
03EBE
380CA
220A0
0002A
00022
28EA8
0E0CA
38EE8
3F8AE
3AE82
28E08
3883C
320A8
022F8
22C28
3322F
28038
20BC8
3A2A2
382C8
2EF42
38208
28C8D
2C223
02A82
2B8A0
00022
28FCA
3ECBC
2802E
30202
08321
23A02
0E3AB
3A308
0A08A
382ED
2282C
080CE
28EAA
330AE
3202A
2C2F8
2EC20
302AE
3B230
023AA
2A0BA
0002A
2BCA2
0EEA2
28E22
2308B
30B02
0CF0B
0A382
30888
08C00
23C82
3C08F
3BAC0
23A8B
320F0
22AF8
22B0C
06CAA
03FAA
2288A
22720
3A2EB
00028
20A38
38002
3BEE0
3FB20
3C082
2EF08
0800E
3FA3F
200E2
0A23A
10080
3ACCC
28283
290AA
22A00
3F02E
0BEBA
090BE
3BA03
0023A
028BC
00022
28AFF
0EAB0
0BA80
32A0B
23A02
0E803
32BAC
2A2F3
0CA80
20EB9
232E0
2AC2B
23B22
2EFAC
328AA
08AAF
002E6
0AAB2
28EA2
0000D
020A0
00022
088CF
0AC8A
0BCA8
18321
2B830
2E48F
2FAA2
383FA
02A88
3BA80
2CB89
34C2B
08F82
2C3AC
2063C
3828A
2A380
2A8AF
28E08
2CB4A
0A3A2
0000A
30060
003F3
28000
182AC
30820
28ACC
33ABC
38AB8
38ECF
228B3
0A0A3
0F038
20CC2
20200
2CCC2
00B0A
0F0CC
2B00E
2F82F
38A08
00A2A
00028
3A080
0FA0B
2B8C2
38232
0FCC2
083CF
22B82
090BE
22AE6
0ECAA
33380
32C0B
32AE1
2A088
1CC0E
0F282
3A2AA
2F28A
3AC08
02A80
2C8BA
0003A
2C032
02E80
3FB0C
33237
2A0C2
0AE8A
3DC82
3F828
2AC3C
08082
0B88B
0A032
2B2A8
090EC
01A2A
0A00A
0038A
3AEF2
3F0B2
3CA32
29ACA
00000
32CBA
08328
0F00F
0CAC3
30322
3E30C
0A230
0EEAC
28CEA
220AE
0B883
2280A
08A2A
08C2A
22FB0
33282
3FEC2
282EC
28FE2
38A23
038A0
00022
3A236
2C38D
00CC0
3E8A4
0ECC0
0300E
2A0BB
2CA88
3A2FB
2B38A
230B0
228C8
20322
3B34A
0AC80
03D38
30A20
3AF3E
2B206
30A28
1BAAE
00002
230CE
2B8B2
23AAB
0CB8B
2AEE0
3CBC4
22388
1BA38
2CB3A
02A0A
08AFC
22BAE
0CAA3
3EAB0
20318
0B2F3
2F283
33B82
2F282
3BC28
08FAC
00020
2222A
202EA
320A8
2A823
2ACC0
20F88
3A83E
14B82
083EF
3C288
0E030
20AA2
208AE
3A2BA
2E32A
2EEAC
2B8C8
30C38
0F282
30A2A
009EC
0000A
3ABAA
0CECB
0B808
0282E
283E0
0B3C0
2F0B2
28300
208A0
3B8AC
2F380
3A3E2
32222
2B08C
1C002
0C08A
0EE88
0A88F
30ECB
008B8
20030
00022
2BF52
0FEF0
0BA2A
33920
0A300
03F00
0ECB2
2FC8A
23EBA
0EEA2
33EA3
32E0E
23D20
2A63A
03CC8
2BC82
3B8F2
30E09
30020
2CAF2
1E804
00020
2B028
0248C
0A0AF
3E8A6
0A2E2
03708
22723
2BE28
03B30
03EFA
2FFCC
1C9CE
0E0E3
32300
30B1A
1B20A
32E3F
0CCBA
20EE2
0EFA2
33C8F
00008
328A2
00A20
2282A
23A00
208E3
28C02
1A30F
22AA0
2AFE0
0A022
38A80
02230
02A8B
288CA
2AC38
3C2CF
22B0E
2A0EE
0E80C
00ACC
03808
00000
0B28A
23FA8
232A8
09E28
20E22
0CA00
0A8BE
2EA88
00A0A
20C2E
0B2B0
0AB88
03122
34E23
02B32
20AB2
0FEAB
3AAA2
0B002
028A8
0A0AB
00032
00F5A
20A30
2AA83
2BC0E
38E03
08802
38AB2
28282
38E0A
23EA3
32B82
0ECAB
3E8E8
23A8A
2CC32
0F2AE
342CC
2C02C
3F0CB
0C808
0FB30
00020
3B39A
30200
3AC08
2ABAA
02F80
3090A
23BC3
30B88
38203
22023
02A83
2080C
33C83
0A8FB
13ECE
2A838
2288F
2F283
2F3CF
22088
0B038
0000F
38080
202AA
083C8
30228
203E0
0CE08
2AE02
2CA88
2BAEA
2C8AB
2B222
2AA00
3B838
0C080
28EBB
03EB8
3928E
003A2
2A2AA
2F228
280A2
0003E
23BF0
32CC8
3A382
2303B
0E802
02302
2A38F
2A832
0CC30
38C3C
00124
380CA
20988
308A0
0080F
223CB
2082A
0ABFE
0300F
00A82
28302
00003
208A3
3AEEA
0804A
232BA
20200
2A20F
002EF
338CB
2000C
382BE
0223E
0AAF3
22082
2CCBA
108F2
2232A
1B08B
0AC8E
338B0
0C8A8
03AC2
0003C
13E02
0A30E
0EABC
3CAF0
3A232
0288B
33FB0
3CE80
0AA02
2E203
283A8
0BC02
0868F
08A20
3B088
0AFCE
230F3
0A8B0
2A2EB
2CEFC
2E2AF
00030
0B088
08E3A
2308A
0002E
2B0A3
3E208
2F23A
0BAF2
2AE88
080A2
223CA
08B83
0A028
00303
00CBC
3F2A2
0AAAC
08A80
32C02
2FF28
22BA2
00022
2A0FE
0AC08
03F2B
0B2CC
08300
0AF00
02C0B
0C03A
08EA0
28B8E
38888
0830C
2AE3A
03FEE
22AFF
3C002
3E241
0ACD0
30003
2BA0C
228A2
0000F
2E2FE
38FEB
0288A
320B7
2B882
0AC00
20EAA
038A8
28C2D
203AA
0ACC2
380CE
2B2BF
3A2C0
0182A
0AA34
2E0BA
280FF
30B82
0BF0B
3A8E0
0000E
2B8EC
32002
0BC6E
2A086
008C3
0CA88
2C28F
2B888
022C0
0A00A
2A0BE
2A282
3AA0B
280BC
08302
2820A
0B0F3
38302
282BE
2B3A4
3ECA2
00038
00F18
338E2
2AC82
2A088
228C2
0E4C2
08033
003B0
38CCF
20C08
008AC
3FA3A
2308E
282C8
228D8
2B208
20BC8
2FE32
3CF0F
02BCB
08E0A
0000E
02A3A
28832
082FA
0F8EF
32030
280C0
0B082
33030
0AE20
2A208
20F81
32EB8
2AFC8
2A832
32EB0
3CAA2
308AA
2AB02
00A0C
02E0B
38422
00022
02C1A
1080F
0EC82
2AE00
08E23
3AA8A
0C8A2
3BB30
38308
33FF2
2EBFE
00482
22E2C
223EF
2E00C
38A8A
2B3AE
30880
2FF38
28088
0020A
00022
08F28
202B0
2A208
0A8AF
03A20
0ABC3
0FBBA
38B3B
03AC3
2CE2B
0C30E
0AF0B
0A32A
2BA2B
3002A
03882
2891C
08060
3FC23
0200E
02BBC
0002A
0BEA8
28380
02C00
0A022
0AB00
2C800
3A23F
028B3
02C30
20E0E
02A80
0AA82
0B22A
3A2F8
223AB
2B0BA
08203
0C282
022A8
230E8
2BE08
0003A
02F82
28383
2E23A
22FAA
320F0
32A00
2080C
23AE2
3B80A
0B220
322FA
0C0A8
2322A
0FB9B
2A02C
2AEAA
038AF
33C20
203E8
20CAE
228AA
0002F
208C2
3F022
08F2E
0B22A
32AE2
3A208
00E23
28388
2A0C0
20FA0
0AA22
00EF2
23A32
08482
232C2
0E0FB
0A3F0
00C0E
240CE
20BA0
2BE02
00030
2C38A
20C0B
3E880
21E08
02A03
088C0
30C0A
2E8C0
2B3BE
0C93A
02A08
0CA2E
3C8AC
02A28
2CCA2
200C1
20AF0
2E8BA
20FD8
08EA0
00B8F
00022
0CAA0
1782A
0EA8A
28F80
20803
30BC0
0CC0B
20EAB
23ADB
2BB20
30B30
2A8AB
2A088
23EB3
23CF2
280AE
000E3
00822
283F8
3CA30
00CCE
00032
02BCB
3C308
2332A
02A3B
2EAB0
2AECC
0B000
32E88
28CCF
02E2B
28AE0
08B82
082B0
2A2EB
02CA8
30EA3
00BC8
2820C
2828C
03208
322CA
0000A
20B3A
3FD84
08322
3E808
130A0
33BCE
323AA
05086
0BBA0
2AFF0
1E280
38A2C
3AA00
020EC
22F30
33E8E
3C22A
32B23
3888C
282CB
0EE08
0002A
0AABE
0A0AA
20083
020CE
0BBB2
28B03
232C4
022EC
232EA
2836C
2B30A
0AEE0
2A80A
03C2E
000F2
2FE0A
0E0B2
28A02
28C22
20283
23B82
00038
323AA
0AF3A
20208
23E0C
2ECA3
22A82
22AA3
3AA20
0AE2B
020AE
0EA68
2208B
32E08
2A202
0220C
2E82E
28F9E
0A868
2C03F
3A928
203BA
0002B
2802B
02E7E
2BE08
383EA
08832
2E80F
287B0
208B2
0CA24
3CE33
2F38C
0BE00
0AFA8
08A03
3A88A
0B02F
3AACE
288AA
2CECC
00B0C
02FA3
0000A
0ABB0
0A8BB
008BE
33A2F
0CAA3
22082
0CB0F
320EA
02C8A
32DA8
3CAAA
23380
3AEA0
0AAE3
3CAA0
0A82E
0B88E
2A8E8
3C0CA
31C0C
3C028
00000
232EF
02A3F
08C2C
028BA
3A020
02E0A
0ABB8
0808B
2C33B
0CC2B
2033F
3E2AE
0322C
0B203
0A0C8
2B28B
0820C
030AA
1BECA
22BAE
20A0B
0000C
28ABC
2E0BC
32038
233A8
30C30
2280E
3AB8F
2ABBA
0E2B8
0CE3A
08A8F
2AE82
08EAE
02ABA
08AAB
0838C
002A3
318B3
2EA03
328AD
138AC
00008
3F2A0
200EA
2CEF2
0C80A
0A0C3
33200
0282B
0AE27
0FA23
03B10
20233
2B3B6
22288
0308C
0A23B
00FE2
0F0CB
2202A
20AF2
3A080
00E2E
00032
08A2C
00AF0
2AC8A
28ABF
23302
00B8E
23BF8
0A2BC
00FC0
2F3AE
3C0AE
33082
3388A
0B0E0
0E2A8
3303C
222EA
2C021
00123
02BE2
2203B
00008
3802A
22322
3A083
203AA
20E32
08A03
0A2A8
08A83
3E2C8
233E0
0A3BB
20AEB
08C4A
030BA
282CB
002F8
02AAE
0FE0F
04832
2BAB0
2B02D
0002B
2BFAA
38023
0128A
2AEB2
2C8A3
0CA83
222AB
3233E
2333B
0A03D
3E32C
3EA30
00AAA
0EBCB
12B0B
28BEA
20822
3F02A
308B0
022EF
23E20
00010
28203
20338
08A88
08028
3CE30
2E0C8
0888C
2A2BA
2A8BE
0EE8A
33EC8
0AE20
230EF
09AB8
3C222
28F22
0A3C8
28EBA
008DA
2CA22
08CBB
00028
0FB8A
00002
328E2
0E8A0
2C8E0
03B8C
20FA2
2202C
330A0
28B0B
2C3C2
2BBEA
0CB8A
0BB60
1E022
3CFCE
2C2A0
2222F
0BC0B
03A8B
20EFC
00000
0EBEA
0B2AA
23A2B
3B200
2B8E3
0EA00
2C038
02B3A
2B003
08080
2F8A0
0C000
38A08
22B08
0AE84
330CC
08A32
3C03E
0C2B3
03EF8
0CA8C
0000A
0280B
28802
2B270
0BAAF
2CEC0
01308
308AC
0B20A
222CC
2AC0A
23CCC
3E203
102EC
24C8A
2E230
2EDE2
18F28
06BB2
0BAFC
0E328
3A820
00022
382A2
12B02
0E0B3
0E020
327A2
030CC
0208B
0FAB0
20007
200A9
3B8A0
208BA
28CA3
0FB3A
32F23
28F8E
2E2AA
23EAE
3CA8A
3A233
33AA3
00000
3A022
03A00
0AE02
2CA33
2EB80
0BECC
2E28B
30288
3ACA0
002E6
0AA28
232BE
32EAE
0E0EC
2AE03
0A03A
0F20C
2888A
038E0
32E2F
08CF2
00023
0000B
23E70
3CC8E
02B30
32A83
0C282
02AAB
2B883
0EAFB
2B0C2
2E6BF
28A88
08F88
0F2B2
34F0A
0A2B3
2BAC3
0A028
08BBE
23A00
0CCEE
00038
380BB
082A7
20E8A
2203C
2CAB3
2CB8E
0E80B
222B3
208B2
2820E
0E98A
3A04F
38C08
2ECF2
2C3B3
0808A
38A0A
02328
3A2A0
2A2EB
0CFB6
0002E
03AEB
3BE82
0B928
228FC
2E203
020C2
2288B
30F80
0232B
23A22
211FA
3E08C
08088
0E0E0
2CCAB
00D83
2888F
0AB3B
002BC
2FE10
02E2E
00003
3F800
2A282
3C32C
3800B
3BB00
0220A
3C2EA
0B308
22E23
30802
2ABC3
00832
0EEB8
08CFB
3022E
2A032
2A0A2
02828
0BBE8
00888
0A0E2
00000
0B33A
22F38
28080
08C88
03E00
22B08
088AF
22800
2E08A
32F0E
00AEC
0A8C8
03222
33C24
2A0E2
0A3F2
082A3
32CA2
2BAB0
2E8A2
32328
0003F
23CA8
28CA8
0E0EB
2200A
228F0
22308
0A0F8
2EBAC
08A22
0C02F
03838
008A0
00282
302B4
08330
08C32
33A33
23000
383EC
30808
0B32F
00008
0BC8A
2B308
008ED
2E020
08BE2
0FA03
23838
0AA43
3A022
3EFEF
2B0BA
2B6AE
30A80
3B2B8
00FA8
382B9
0FEA0
3A020
28C08
03880
00E83
00000
00CB8
0C0CA
01E03
03228
3CC80
0AC08
38883
0AA2A
2CCFC
02E70
3FA23
2823A
232A0
3FAAA
2A0E0
22BEC
300AA
2BF2E
2CA0B
30A03
2FA0A
00020
03F08
20808
28C0B
00AE1
22A82
208C3
202CB
0A8A8
2B2CA
0CCA3
0A28C
0ABC8
38C88
232A8
0BE0C
0FE22
008BE
0BBA0
00C83
2E2A3
00B01
00033
2B0B0
03A08
0AEC8
3EBCB
284C3
33002
30A0A
2E2B3
233B2
2EEE8
28A0E
0880E
3C82A
3C820
20E28
232BE
32AC2
02C22
232A0
230EC
20080
00030
3C8A0
282A6
0C8E2
22ABA
08603
38880
208E0
28813
088AB
2B0D2
0E8B0
22804
20F82
23083
22E88
2A0A2
2082F
0E80B
2A08A
2F000
3EC2C
00038
0883C
0888A
00023
0C0C2
38C02
28308
22B2C
22A8A
2A8C2
22189
38EAB
2BCC0
0C833
0ABB2
0BAA0
3CBF1
002AB
082B2
0AE2A
0E22C
2CAA8
00033
083A8
3C2F0
2B2FA
0BBA2
022C0
282CC
2B2BE
20832
0A00A
0000C
003BB
02238
00302
0A98A
2AF83
0FEB0
3B423
32C02
2F08A
0202B
2ACA2
00032
0BBBF
22838
2EBB8
2EF78
03880
0AB08
0A323
03B00
2E23A
33B82
32822
33BAB
03E22
3FC8B
2E2CC
2A030
2AE18
20C20
208A8
22320
20BFA
0002B
23AA8
38EBA
08AA8
2AC21
23C83
0EB00
20A32
0A3C2
3032C
338AC
2E8F1
3A383
3AAA0
22388
2C032
32F22
2A00C
2AA83
3AE08
208CA
2202A
0002A
0E20B
0C0EA
03A2B
2FA2C
22C02
083C8
22082
38EAA
088EA
083AB
30233
28BEB
2ABC3
2B38F
2E028
2ECE0
22BAA
23020
0E28B
3EA3A
0080A
00020
32238
3C82A
28CEB
0C003
2B330
0828E
0A0A3
0C1AB
008FA
0EF0A
38A2B
2AAF8
22A3A
0CF00
2AECB
2C8CC
30A28
28FAE
28A8C
3BAF4
2328C
0002F
22EA2
2BBAB
0EAA2
02C0B
298C3
00200
0A208
1F8A8
038FE
38A0D
0A108
2C8BA
1FAEE
30288
2A3AB
20003
2F8E2
3CBFC
208AA
30C03
282C0
00020
20BEE
0ACEF
3CCA0
2828A
2AAC0
3A808
30CA2
23A80
0032F
3A8A0
22B2A
30E02
20EB1
2B080
3AA2A
282C8
268FA
00B0C
0800C
233B4
0A30E
0000E
00008
0E0CA
302EB
3E8BA
022B3
00B88
08AA8
028EB
0CC0A
2E288
2AB0C
088CB
23C2C
2FC28
082A0
28008
0E282
320C0
0BCC8
03EB0
288AC
0002F
2FF2A
3BA3F
0200E
22EBE
2ECE2
33883
22A0A
22380
0730B
2E8C3
2EF8B
0FAE8
3C8A2
3E823
2832A
330B0
0282E
0DB22
20C03
22C2C
0BEBA
00028
3228E
2AB0F
0A2B2
2AE08
208C2
0AE00
220A8
23EB8
17AB0
23EFA
33BBA
2E08C
00E26
2EB32
0880E
28BAA
3EEB8
23CC8
00FE3
32FEE
3C8CB
0002C
30308
0A008
3332A
0300E
22A83
22C0E
2A2CB
0EB08
3A200
200A2
32A87
0830A
32EBA
22B3A
28CBF
3E2A0
03AE2
2A8E3
3E32C
20830
2A022
00002
228E3
32FC8
2BA8E
222BA
0CA23
0AAC8
0E3AA
303D3
3A3E8
0B3AA
0A83B
2BA26
38A00
3CF2C
2DA1B
00ECE
2ABE2
0B8AE
00CB3
23B06
32832
00002
20AE2
3BCBE
21882
28A0E
38380
38280
2BC80
300B2
3A808
2A0E8
02B28
2FB8E
2B832
0ABC0
33EF8
300B0
08088
2CC3E
38028
23C3F
0CCA0
0003A
08A38
2E2B2
08B0B
00283
0E200
0EB88
2283C
28B3D
2E2A8
33EAE
3F00E
0A8A8
38262
328B8
00280
23CAE
08AA2
3AA8A
0C232
32222
282B3
00000
02AC3
08E82
03F02
2AA00
28AE0
08880
2B2A0
3B00A
28BC0
2A0F8
20DAE
08A30
013BA
2C8AB
0A3F0
0000A
3A008
242AE
282BC
3B32B
32C22
00032
2C830
083C0
2EE2A
00382
30EB0
282C8
300A4
3E8A2
33E23
028F8
0ABDB
2B308
038A2
02EA3
22AEA
0ABA2
0FA8B
28F30
280C3
20E0F
0E00E
00020
3B0E0
00B00
02E0A
22BB8
0FB30
20ACE
0BBE3
08AB2
32ACB
2A008
30B82
0BB22
0A03A
0B2A3
2B202
0C0F0
0202B
20EAC
3B200
02AAA
08032
00008
083A2
2BC0A
3B328
0A8E2
003E2
3E003
00838
22B2C
28208
0F8EC
28A82
0ACEE
3B2B3
380CE
22A8E
202BA
3E2A6
3F6CA
230AA
20BE8
2B882
0000E
0EEAA
22304
0E8E0
0EAEE
02CA2
3F0C8
0E8B8
2AEAE
2883A
0CCA2
3B203
20BA8
2AAEC
2B270
22C32
0CC2C
0C8C8
0F0A2
023EA
0A220
0082B
0002B
2A3CA
2CEC0
3B30F
30ACA
22C22
08208
33B38
32B29
2880E
0C800
0FCB0
0A8CE
3FA8A
3872A
00AEE
2C2C2
22AAE
3AC8C
0AE0C
00872
308AB
00028
382FB
2E300
200B2
28AAF
2C8A2
0CACC
2888E
2B2AC
2B00A
2AE0A
3B08E
0207A
2B2E0
21322
3CB22
02202
0C32A
2B322
03B2A
31F27
3AB0B
0000E
2ECC3
302A0
0E3AC
22A38
36800
08ACE
222EB
080A8
02CCB
0008A
08AB0
0CC8A
2EAC8
2A82E
3A382
322EB
223F2
320F3
0800C
00388
3EA28
00008
203A2
00EF8
30F88
20AA2
20E82
2BC80
3BAB8
32A8B
3F82E
3C803
22AEF
2BBCE
38AA0
372AB
20A2A
03AFC
088CE
00B2E
03E23
22ABA
20A0E
0002A
3E363
20AC2
00C82
00C2B
207A0
08E02
38302
330B7
033AF
0B030
0E83C
2BA2E
20E2B
2E0FC
0EAE0
26BEE
2FCC8
23FE2
0080A
0AA3B
220CB
00022
0B020
28A03
0EC0A
0AFBB
03830
32A00
20330
23A3A
32AC3
3880A
2AB2E
03382
30882
28283
2F2CE
038C2
288CC
2A8A0
2FF2B
2C0A0
2E033
0003A
00000
00000
00000
00000
00000
00000
00000
00000
00000
00000
00000
00000
00000
00000
00000
00000
00000
00000
00000
00000
00000
00000
0322E
202FC
28EC2
0003E
03AB0
2B2CA
3E282
3020B
3832F
202EA
0AEC2
238AE
022F0
003EC
3E0CA
0B0BA
28C82
0B36E
222CB
208A8
22882
00020
082B2
2CB02
383EB
3BB2A
02EB0
3AF02
03E2E
02C2A
04CAE
0A32B
080CA
3AEF3
188CE
0882A
28A0E
22EAA
0033B
08CB8
2870A
02082
2B880
0000E
0200A
08068
2FC0B
0026B
200C3
0EA08
0A03C
0F80A
0A00A
363AD
20A2B
08808
3A2B8
02A0B
2EC03
0028C
0BAB8
32AEE
2E0F0
330AA
20822
00000
202C2
2B23C
36322
2F8AB
087C0
03C08
22638
23B40
208B0
232C0
23AA0
200AE
03E82
30B30
38AB8
0B033
32A22
2E8CA
32228
0FFF2
0BFAF
0003A
2F830
36083
23E80
3320E
00203
0A003
30F8F
0CEF8
28A02
28FA2
28378
3AEF3
00288
220F0
0A23C
2C020
2CBB2
2AB20
023F2
30008
2E032
0000F
3A803
0A300
3B8BE
2AE82
20832
28ACF
2C898
38AEB
3328A
0BA08
0AF22
2AA8B
0ACA2
2F38E
0AB2C
20832
0E0AF
2A883
1AA00
30FAB
3800E
00023
3E398
3A23F
02BBE
1AE00
32802
0BA0C
02988
3A80B
382EC
2E3FC
1E8B0
0E210
31CE2
182E0
22FA2
2EEEA
088EE
22A23
200EF
018A8
3CF32
0002A
2C322
2BAB3
3C3BE
0D83B
00833
3B8CB
0FC22
3B0D9
23FA2
0ACCB
22ECA
2E883
22062
2C00C
0202E
084AA
2CBAC
22838
08322
20C23
32B2C
0002F
0ACE8
2B0FA
3AC2B
23C9E
02C82
3280A
0FB0B
23088
03033
2A02B
28C28
230BE
38CC0
3332C
382CE
238EE
0C2AC
0B3A8
300EC
02F0B
38BA8
00020
23220
00080
0200A
2E8A8
0C300
08800
2C80C
2A000
02322
02028
3A208
00008
00003
00880
28A00
02C02
0230C
0002A
08020
00A0A
03028
00000
1F29A
2BAA2
20EA2
03200
22003
00300
3880E
00B3B
03CEF
2FA28
303BE
3E22F
28AAC
2BE0A
2CE0A
0222C
0BC3F
0833E
208C3
2C202
2A82E
00022
23EAA
088B2
200B2
20CBC
0F8A3
32400
2C3AB
30F8E
0A32B
02800
020C2
0E2BC
220CB
3C00F
0CCBC
223FB
2202F
02B03
3FBEC
00CCA
220FB
0002F
36B2C
003C8
38EEB
32A3A
08CC0
3220B
00032
03BEA
2A8C2
2CCA0
08C80
02023
0BA8F
088CA
0B082
2A03A
3AA8A
38EB2
28809
2C3A3
002AB
00022
2CB2B
2B022
0B208
3BAEE
22283
2A3CA
38288
0EFCA
0280C
02B83
22338
2888C
2E20F
180A0
0EA38
3E8A0
0CB09
22BAC
0F80B
08A3B
20BD2
00029
2B0C3
28E8B
23AA6
0E038
0B802
0E68C
08AFE
2FB3C
02232
3382E
284BE
3888C
0FE02
2EC3B
0FBAB
0028B
20BF2
2AAE0
08E22
03F8A
220C8
00022
3000B
2CCFE
3CCC2
2C383
20802
22202
28B93
0024A
3A0C2
28F33
22C22
2BACB
08F3B
2CE88
3A22A
2C080
3822B
0AF8C
2B22C
2A8A0
3802E
00030
2B00D
2328E
2A0CC
03828
2B7E2
00ECA
02E0A
2E8B0
28E0B
20080
3B92A
2ACC2
3F0BA
3B8BA
04E3B
33CBF
3DA02
2E0E0
3A80A
2BAC3
2238A
00030
232BE
32E3A
392DB
3AFA7
2F282
0A380
02332
20E0C
0B8A0
23080
33232
3EE83
0FAEA
20BBA
042CE
0B320
20083
20C03
083CA
20CAE
2830B
00023
008A2
288A8
0C203
001A0
2AA20
32080
223C8
2322A
08002
0C006
2BC88
22280
33083
02BB8
3382A
23B08
20230
0CC02
0CAE8
02F02
38A8F
00000
03CAA
22308
0C88A
08FAA
04332
2E00F
0B33F
03A83
3A0EC
30A80
3A2BC
3E2B8
23ED0
23A38
2282B
223E2
2ABFC
0F088
2E023
00B2B
38B82
0000F
003CA
28803
20FC6
2C82B
2EA33
2A2C2
06003
10833
0BEB2
080FA
03A8A
08E3E
082FA
19E34
228FE
2B8A3
3F0EB
20CEA
2802E
003EB
3E3C8
00032
28FA8
28EEB
3FF83
3B9E8
0ABA2
2238A
3AAB0
2CAB3
0FB0E
2C82C
3F883
2A802
2B22A
380E4
228F8
08A2E
2B0F2
00023
3F028
3EACB
022E8
00012
38A30
0AE2F
280B8
0208B
3CA02
2200F
2688B
00BB0
23EBE
2A23C
2E8E2
3A2F1
23A22
02128
0E829
103C0
2CE8A
02F0A
03AB0
32228
00808
00020
22E00
32CBB
0CE3C
20E28
38AE2
3020C
22232
28A83
30882
388A0
28A08
2EC2A
0E0E0
28CAE
2E882
0C3EA
2C3F0
20800
000EB
0C2E2
0C2B3
0000B
2C2A2
28002
22F80
22080
2B283
38B88
2CE8A
030B3
03ABF
0B3C8
2CB0A
20BA3
2A0CA
0888F
2E032
08082
28280
048AB
30F27
2230A
2E8F0
0002A
0B03E
020CC
0A288
20F8A
0FFB2
2A80C
2AB9B
29AB2
328F2
0DAB8
028A8
32EE3
0B8CA
22EAA
2AE2A
003FB
08A8B
283A0
0AA80
23328
0B388
00020
32060
2FBF0
2F20A
00B2E
222B2
10ACC
08200
3A88C
3B220
2AC0B
2BF2E
20B80
080E2
20207
32C20
0F2A2
38BBF
0B232
20BAB
02C03
0AB20
0002A
0028F
00AC0
08E3A
0C080
20BE3
00C0E
28003
2B8B8
0800F
38838
3F2B8
0802E
20E8F
22BBA
08E28
20B02
20CBA
20EEB
30892
328F8
0AECB
00003
2ABA0
02E2C
27282
00BCC
220E2
188C3
03D8E
320FA
00C0C
2AAFB
1CFCE
3200E
10B82
2A2EA
0E832
0222A
2A30A
26BB3
08280
208A8
322CA
00022
28ECB
3CF0F
2A2EC
0AE88
38F80
22203
3A0AB
02803
308F8
22F80
02B0F
03CAA
22AEA
0B22C
02338
008CA
0AFC0
3B28A
32E20
00808
00088
00000
0C230
23BAA
20032
02A87
0CAE3
0EBC0
383BC
2E288
023E2
0A08A
23AB0
2BAFA
2808F
328A0
223EA
2BCCE
0F2A2
00882
20380
320CB
3B2AC
0000A
38083
32F3A
231B0
02882
20233
2E882
024AC
0B8F3
02800
00AAA
308C0
0E86B
2AFA3
0ECB8
203B0
20CA0
2B00F
0AB30
032AE
0F2A0
3A02A
00002
3083C
2282F
02FB8
2AF3B
338B0
0E80E
300EA
2B83A
22EC0
00838
0BB02
38C8C
022F2
2ACF8
2C00E
2830A
2AC88
2409B
2B3DA
227A8
2A307
00002
383C0
208EB
0B0AA
0EA83
3BE02
20808
3D8FA
0FDA8
2CA32
0EE22
1A2E3
0888B
222C3
2AE8B
320B2
22CA2
2FD23
3B8A0
03AE0
0CE23
02320
00022
082C0
0AA4A
2E822
0080E
28832
2080C
22B9A
0CC3B
3C008
0B8CA
2A3CA
30C03
22380
2F30C
0A803
0F8B3
2283F
02ABE
102EB
28E00
222AE
00028
220E2
20CE0
303C3
3A82A
080B2
08208
03C84
00BAE
0A088
00B23
280A8
088EE
038B2
3BB20
0083E
0800A
32AB2
38223
08E08
233B0
203AE
0000E
0283F
0ABBB
3ABB2
0AEB2
0F000
29803
0FB13
343CA
2E3B3
38A38
00828
28F83
0AE20
2C33E
20A03
28BC4
3C0A2
2ABA2
2A022
228A2
0000A
0000F
30C08
3C2CF
283EC
0C3CE
32BF2
0BC0C
2A803
3A0B0
02F30
032F8
3C2AB
088EE
2C0B8
0820C
00E2F
02BF8
0E2A2
2838F
08C2C
2362C
2EF38
0000A
2BBAE
2823B
02082
0E0CB
006A3
22A0A
08AF8
3C00C
2EE82
3A2A2
08928
00C3E
23E22
289F8
2880C
080A3
2FAEE
228EB
3C82E
202CF
02BEA
0002F
2F822
22E02
007A3
0C2A8
0A220
0F380
030B2
22CA0
03B2D
0CACB
22220
3882E
3F8A0
000AB
2022A
33C20
2A8B8
0820F
3AF0B
002BA
028B0
0002A
0EACB
20ACA
2CA0A
00A08
0C820
20808
033E0
328BB
283EC
0B0A2
3AA03
1BB0A
0083B
3032E
2DA94
032BE
0A38A
2008E
2ECB7
0F28A
2AA02
0000A
2B838
22A30
322AB
3B322
02A02
08803
280E0
2583C
0CAAA
3BA80
3CA6E
2AFCB
30F82
088AA
28AC0
22F80
32B3C
2B0AC
02E0F
0FC8C
2BB42
0003C
0ABA7
38E02
23AAE
2CC32
36A03
2FA82
284BB
3888B
3A4E8
030E3
0AB02
2B82A
38086
0E380
0D888
3EE8A
0B8FC
0988C
0EE8B
23408
2CEAE
0002A
0E00C
2AF0A
3E338
10AE8
2EB00
3EAC0
02E0B
2EAB2
22E0E
0EA82
0C91B
30CBC
2000C
20ABC
083E2
083E2
0C33A
2BCCC
00BAA
3280C
3230B
0002C
22823
203C4
2C28A
08AAB
2FC80
22A0A
00B30
03A8B
28080
3C0AA
320E0
0F000
2282C
08283
2EEC8
0A2E2
003E0
04A4A
3C008
3288A
2ABE8
0002E
23CCB
3B003
2020A
0E82B
0C0E0
0C88A
0CF8A
2C23A
2E3C3
020A2
208E8
2C04F
00838
0C23F
0F0A8
332FC
22AC0
0B3AE
03D1A
20822
0A2A3
0003A
03320
0BAFA
23F0A
2A800
008E3
0388A
28AF2
2B3BA
2ACC0
3C822
0823C
0F800
0C832
2A2B4
2022A
2F2BB
28BFC
22802
0AEE3
0F3EB
00CCC
00038
380C3
0CB08
0A00E
3888F
38C40
28AC8
3AA8C
3BA8B
2A2F2
22EBA
0AA8C
28E3A
238C3
2E1AA
3CAEA
20B82
000C8
22CB2
0CAAF
0EE08
20888
00020
22BCA
38AC3
38022
0E0BA
282C3
2A303
20A2A
2A3EA
2BFBE
280C3
0A93A
328CA
0C230
22E0A
0A8C8
01A53
3FA28
2ECC8
088BF
33C3B
303F2
00008
3AC22
18AAA
38B20
080CA
0ACB3
020C0
30BC3
0AF0E
2BCE3
23AA0
30E0D
2DE0C
302EF
02BF2
200BE
30EC0
32232
2EB32
2E0CC
02008
0B888
00002
23C0B
0EBCD
3AA4C
022A0
220F2
20A0B
0B2AA
0AC2B
3C8BC
03002
3C2CC
2382C
228EF
080B8
330E8
2A282
28F30
0023A
222F8
30220
0A022
0002A
0F8EE
10A67
3C3A0
282B7
0B633
3F806
0E0E2
3FBEB
2BCEB
33FC9
20832
0D8B0
322BA
20333
2C2BE
0A2A2
29AEE
22828
28300
20BAE
3E02E
0003A
00AF3
0028A
082BB
02808
2FB33
028C0
2C028
08008
2B2C0
2AC83
2082E
2B82B
0AB0E
2FB83
23A83
2C0A2
3E0B0
08AA0
0AC0B
0EE28
32B80
00030
3A39A
203E6
0302A
08E2A
2AE20
22A03
088BB
0AB22
380E2
2E32E
02F30
0823B
02AEE
0A00A
02022
20EC9
02B0C
30832
02832
02B7B
00F6D
00022
20EB0
2E803
002A3
3E3C0
08BB0
0F30B
08B80
20A83
0F8B2
232F0
2333C
2AAEE
2B89E
02EC8
2288B
2A032
3CC88
0A00C
0B220
0208F
2FA0F
0000B
00000
00000
000C0
00000
00030
00800
00000
00080
32000
00000
28000
00000
00000
00088
20030
00000
28200
02000
00000
00000
00000
00000
0F00A
3FEBA
02218
2000B
22802
32880
2220B
3EBB0
20A38
00C2C
2CA82
3A808
3003A
020FA
0322B
0B28E
32AA0
08322
32AB3
032C0
2800A
0002B
0B2AE
10B02
02C84
282AB
2FBE2
02A0E
02F22
2F886
08E23
0B280
00CA0
23280
28AB3
08730
2BA0A
03300
20CBA
33F02
0E28A
32832
28A2C
00032
30B0C
203F8
32ABC
282A8
0E2C0
3ABC0
3BEAE
0CB0A
002AC
0006C
38A33
0A808
2B88E
33A8A
23EFA
26E0F
20823
08A30
2AFAA
30FAF
230E0
00030
2B022
230EA
3BDE0
0CA8A
0A2C2
28E00
3A022
0E0AF
3B0EC
02AA0
2EE2F
2B8F2
3C28F
02A0A
382C2
3308E
3C288
30C82
082CC
20CAB
048AC
0000E
3ACB2
2A8F3
22830
0CB10
38802
22CC2
203D0
28882
0800E
2E28A
02CE2
2F028
338C8
02800
3F0AE
2CAC2
2A0A3
38A7B
3A080
2DA2C
30822
00000
08A40
27E0B
0F83A
2022F
2C8C3
3CB0A
2E3BA
22C88
023E0
0FAAD
28AFE
2ABA3
00A83
230BF
2CC3C
3802E
222A2
0881A
3822A
022EA
2AA08
00002
2B020
02E83
0E2C0
2820E
02300
2030C
0A9C3
0A80C
382C2
3BC8C
3EA7A
02EA0
3A0EA
20C08
2A000
0C288
3A802
220EC
02FEB
22AC0
2B03A
00022
0F8E0
2AA8A
20383
00AE6
034F0
03C02
22010
0E23A
2B082
2A1CB
08A0E
000CC
3E0B2
10B8A
0B808
0802C
3283F
03800
2BC08
2CF60
3208F
00030
20B2E
2302A
0E382
2BFA8
23BC1
00A08
00F0E
30BA8
32C8B
34BA2
32AA0
0023E
2C2B0
378EF
22AA2
20808
2AB0A
0C802
2E80F
2A842
28BCA
00000
2282F
283EA
02200
38C8A
20C23
3220C
3CF2C
0FA28
20200
03E0A
06C32
3F2BE
1321F
3EB22
2B00A
2A33B
2AC84
2CF3A
20B8A
0AF48
28C2F
0003E
003C0
3E0AE
08EA2
0AFAA
2B8F0
30A8F
3A818
207BB
002BA
24032
22880
082C8
2B0E2
3C0CA
2A827
2A20B
3AEDA
2F30E
2808C
0CF88
00F0A
0002C
2C830
3A20E
3B088
08A80
228C3
200C0
230A2
38FE2
0A3AF
38AA0
2C0F2
0080E
2ECAF
3D320
00B2A
0AE27
2030C
008C0
2C2C0
00888
08AC0
00020
2CB22
2818E
08CBA
2FAA3
1CA22
2080C
22833
22CB2
2FC80
0A203
0C028
0AE08
300A8
326A2
028BA
2022F
3E6E0
0EBE2
3CA23
32EC0
333F0
00022
20BFB
3BC2A
2088C
0283A
0AB03
234CB
2CEA8
3ABCB
08020
2ACC8
2032B
28320
33280
0CB62
020E8
3B0FA
22ABE
2A8B0
20E8A
23E23
0A09C
0002A
3E009
0EC00
0A2C8
2CB22
0C802
2B2C8
20CE8
0222E
08AFA
2A2AB
3BA0A
002C2
3383A
0A448
0BAE2
208CA
328BA
03003
3A303
0E800
03B30
00030
22CE8
2BB32
0E30A
2A2A8
0ABA2
22A08
3EC88
2B828
33AC0
3A328
2A322
23AB1
2EECC
3280E
098EA
00028
20008
3300E
3F82E
30F34
28CEE
0002E
233AA
3EC0A
22AA3
08224
1ACA2
08880
000A0
3ABEC
0CB2A
3B021
0E00C
0080A
038A0
33020
2EA20
28120
28380
380B2
2C0BA
0EAA8
008EC
00020
004C0
28B8B
23238
322A6
33EC0
32000
3EB02
282E0
28ADA
0A22A
28332
3802B
2B2EC
2A8A3
2232E
2AB2A
2C830
3AA8A
2A3E0
32FA8
01B8F
0000E
22BC8
2784A
0380B
3CAAB
22A23
0280A
3C38C
3F8B0
0B28C
0AE08
10A28
000C8
00E82
0E388
38A2B
07323
0AA00
2E2FD
2F2BE
38E0A
0201C
00002
2303C
3F20A
20E0A
3833B
2E4C2
0ACCC
08082
0CB8C
2A8BB
282F2
3AA2A
32BC2
23382
3CAE8
2C22B
2B2BF
02A2A
2C222
30BA3
232DC
08EEB
0003C
0A282
22A0C
23AB0
0C30E
02E80
30308
02330
22280
2F232
2F28E
3CAAB
22A2B
0A0A0
2B2B0
0CF32
2A2AF
3EA22
0CB10
3C024
20A2C
30830
00002
3A22A
0C3AE
00B30
3EAEE
30BC2
2BA00
2608B
28082
3A2B2
2000A
0B80B
2BA8A
00CAB
0C8BA
38FBE
30000
3EA8C
0BC8A
00AC2
3BCC3
32093
00032
22CBA
08ECC
0FA82
0F3AE
02FA3
02800
200F3
02832
0A232
2E208
20CE8
3C22E
33A2C
28AB0
3F322
0BA2A
288B2
08800
3ECAB
0F802
2EB0B
0000C
13B8A
300AA
2802F
10F2A
0EAF3
23880
28AB8
2A802
3F902
0F22F
2C3B0
0A2E0
32292
0B842
280A8
28ACB
08A3F
0A7CB
08E28
0E022
2BF2C
00008
03B33
0282F
3A33E
21EB3
0C903
02880
302A3
03A00
3EEB3
3A038
220C8
22A30
0AAAA
3EEA3
203A0
3633B
2B0AB
0A082
3B880
3A022
08ECA
00020
208A3
02EF0
0F002
00E3E
28003
0010A
28AC8
3F82B
2E033
3B232
0CAC2
20BA2
08088
3CCB2
0820A
01308
2BEA0
08C00
3820A
20802
222E8
0000A
2800F
0A0CF
3ACBE
2ECB8
08002
0BA8A
02AE0
0A8A8
3C2B2
30DA2
2A8AB
23C0C
2E2EC
2B2AC
2E8AF
203E3
2C838
0E8CC
082E0
2032E
23B0A
00023
330FA
00A08
023A3
2CBE2
028C2
2BBCC
20BEC
02882
2A03D
2E280
3AE03
208EB
3EBB8
388BA
0BBCE
08ACC
3A0C3
13CFA
0B0A2
0E823
320EA
00033
00EA0
30FA2
0E2AF
28CE8
0AB82
2CA00
222AF
20B0C
0A0E2
08BAE
38ABE
022B0
2B22F
33BC2
02B08
0C2F6
2EB30
2C0E3
0E3B8
33023
0320A
00022
0AA80
30E02
22C80
22CCE
28B32
023C8
2F2E8
008AA
02A28
0BFBC
3EC2B
0CB0C
3830C
00ACC
0323C
3C00C
0AB32
028F3
3CCAB
202CE
208FA
00000
3C32A
2828B
32BB2
2AAFE
2A8C3
38880
2F1BA
28BEA
2BC28
20803
303BA
0E0A3
022A0
22BCB
2AFBC
3206A
1048E
2288F
0EF28
03C3C
3C88B
00002
0B2B3
22A32
2B8BA
3FA8F
28BA3
008C0
22B0C
2B28A
2A32C
221AA
0BEB2
0008D
282C3
2203E
3CFA8
08830
28E8A
0A302
3EECA
0CA0A
0E83B
0002E
233C2
08880
2A308
03888
20A20
0AEC0
0EF80
20E32
2A3AB
0ACAA
08C00
2CC00
2E0FB
08B8E
33CF0
0EF03
22800
20C3F
28E8E
00CA2
0A083
0000F
2CAA8
10338
3E3A4
00A2A
3C203
32002
3F0FC
2CEBA
0ACAA
0E02A
0A2E8
2A30F
33A8F
0C883
2FE32
23F8E
38880
28A09
20328
20280
2BA32
0000A
