00000249
0000037C
00000000
FFFFFF8E
FFFFFF83
FFFFFF3C
000000C3
00000000
00000192
000000FE
000001FE
00000002
00000000
FFFFFFA8
00000006
FFFFFF57
00000000
00000000
000001C6
FFFFFFE3
00000000
00000159
FFFFFE4F
FFFFFE6A
000000D6
FFFFFF69
FFFFFFC4
FFFFFEA9
FFFFFF85
000000BC
000001A7
00000092
FFFFFE91
FFFFFFB2
FFFFFD2A
00000056
00000000
FFFFFF68
0000015A
00000166
FFFFFFAA
0000008C
FFFFFF37
FFFFFFD8
FFFFFF02
00000000
00000000
00000143
00000357
FFFFFFB8
00000130
0000012D
00000009
000001D3
FFFFFFF3
FFFFFD6B
00000014
000000C5
FFFFFDF8
0000011E
