3B6EB
3FFFB
26ABB
2A57F
3FFEB
3B9EB
00000
0800C
00320
3FBFF
2AABF
2EBAA
2ABFF
3AABF
3FAFA
3EFEA
2EFDA
2EF9A
3AABF
2AABE
2ABEE
0C008
3C002
00033
19FBF
3EFEA
2EB96
2BAFA
2FBFE
2BBFF
2ABFF
3FAFF
3FEE9
3AFEB
2AFAB
2AFBF
280E0
0F238
20022
2AABA
3FAEF
2BAFA
2AAAB
2ABEB
2ABFF
3FFBF
2ABBF
2ABAA
0CC0C
30C03
33083
388F3
3E002
00000
2A6EA
2FBFB
2ABFB
26EFF
3AEAF
3FEAE
20333
0203E
22000
15BFF
2FBEE
3FBEA
3FAAA
2AAAE
2EFFE
3FFBA
2AAA9
2AFFF
3FEEF
3AABB
3AAAB
2EFBF
2AABA
3EAFA
3BABF
2A6BF
3FBEE
3BBFB
3AFBF
3FFFA
2FFEA
2EFD5
3AFAA
2AAAA
2ABFF
1ABFF
3FABB
3AABF
3EBAE
3BABF
2AABF
3EBAA
3FAEA
2AABF
2FBFE
3FBFF
2ABBF
2ABBA
3FEA6
2AA7F
2BFFF
19FFF
3EABB
3FAEA
322A3
003F0
00200
2AFFF
2AAAE
3EFEA
2AA7E
3FEAD
3FFAE
3FAFF
3AABF
3ABBB
2EBFF
2EFEB
2EBEB
2EBAE
2ABFE
2BBFF
3EFAB
2EFEA
3EEAA
2AFBF
3FFEA
2AAAA
3FFEA
19FAA
29FFE
00CA3
0800A
0000C
00328
3C000
0CB30
3FAFF
3AABF
3EBAA
3AE6A
3FFFB
3ADBF
3FFEF
3EFFF
3FFAF
2FBAE
3FFEE
3FAAA
2E7EB
3FFFF
2A5F7
2AABF
3BABF
3BAAE
2ABFF
2FAEE
3FAA9
3AEAB
3EEAB
3AEBF
2AEFF
2AD6B
3EEAB
3AABF
2AABF
3FBEA
3EE6A
3FEBE
2AEBF
2FFFA
2597D
3FFFE
2ABFF
3FFFA
2A9A9
