02823
388E2
22008
2BC0B
2EAB3
38CEF
0F023
3BCBB
2FAB8
208BE
0EBA2
02430
2A0BE
08CCA
08C8A
20AEC
2C8C2
00A80
38CB8
2A408
0C80A
2BFBE
2E28B
27C2C
0E038
2CB00
0322A
2E102
2C8AC
28B88
3A888
0AA2B
28C0B
3A3AE
0C228
00A32
28C88
23CE2
2E828
2ABEF
302CF
20AAF
2F0F8
2E00C
0CC20
0E82B
20A3C
000F0
0A8A2
320AB
20EC6
23C23
0EA0B
00A80
2A8A0
0808E
2E8F3
2C38A
282F8
002EC
22000
32A8B
3204E
0BEAE
08B8C
3EC38
3A2AF
0AC0A
2BE24
0E82C
222CA
03AA2
34088
2A0B3
02808
0BC8C
0BEC2
0AE2F
200A8
32E28
3B28C
00CAE
0E220
08C28
308A0
00BB2
22EEA
222CC
2E2AE
00EE0
000F2
32B21
084A6
0C0C3
080C2
222BA
2C38F
0822E
10FA8
38AA8
02238
0B483
33CAB
02BB0
00F3F
3C020
3088F
02300
0E0E2
228A2
000A8
2888B
082ED
29380
323B2
2A2A0
23C82
288A7
3CE00
020B2
0B7C4
28AC0
3F8C2
2A0CA
2BC8C
02C80
0A80A
03F30
2A8B2
2ACA8
0B20E
202EB
20020
3A222
03CAE
23AA2
028A2
0EC0A
008A2
2A80A
32AEA
0E2AA
0AADF
003F0
330EE
0283D
3BC2C
08A23
08B4C
20A38
2A3A3
2ABEE
10BE8
280FC
2BEBD
32A0E
3F8C7
22EAA
3A8BF
2B02A
0F7BC
003E0
200BA
080A0
0E82A
01BF2
02218
20880
0E080
22A2E
2A020
2B828
3C208
00308
0800A
0C020
2E0E2
2E328
382A3
02890
2880B
00B82
30000
2B08B
0EB82
2A800
2B080
20022
020C8
02B2A
28008
3A803
0B088
00AC8
080CF
0802E
02308
00003
0E8C8
19CA2
2888A
08AA3
38A0A
2E88B
0F0A8
222EF
2CFB0
02AA8
000F2
0ACEA
3A2F2
0AA9B
30339
20322
0EAE3
02BB0
0880E
3A2D0
00CC8
223F0
0E92A
02C88
02003
2BA82
00EE3
208A8
3F028
22820
0AE2A
382EA
2C88A
20A02
382B0
03822
38C80
30B82
2083E
33CB0
008B3
3AF8F
3C3C2
02E8B
0F3BB
0033C
330EE
08038
0C220
23FC8
3F083
33F0E
00022
00A83
3880E
2183E
2808B
28A08
02322
306AA
380EA
00B20
2408B
0CB83
3AAF0
0988F
03002
0923E
2EA0B
0A28B
300BE
03BA0
02803
2EA82
0B888
208A8
2EA88
08882
3B0C2
283C0
0E803
3E0A8
2A8E2
388AF
2A038
202A2
2B8AC
32F88
0808B
038B3
0E0AE
2EC32
0BC83
0B880
20EAE
2238A
3833A
22C6B
0EC88
2C2BB
2B220
2AF20
00BCB
03ACC
02BC3
2AEFA
2BC3E
03E33
2B8B0
00AA2
02022
2B8EB
288BC
2820B
0B3AE
3898F
220C8
20A20
28AA2
3E4F8
0302A
00CBA
33082
0B00B
0FBF0
00A02
2A4B4
2F28A
29CAA
2FA0A
2BA88
39AE8
2832C
2AA2A
02CEC
38B9A
32AE2
0CC0F
2BCFB
0B30A
3AEAC
300B3
083AE
03808
0A0B0
3022A
2E08A
3AFF0
0CA30
3EEAF
2C3AB
0AEDF
0F033
2B83A
23A02
28828
30F2C
03BCF
2EE83
00E0E
00E8E
03A22
3B002
228A0
3A023
38232
2A2A3
03302
0E022
308A3
30208
0802C
0AE20
008A8
30AA0
00E89
2BC0A
2B2A2
2C0EA
03A23
088AE
08882
0B88E
0ACF8
0EA1B
0AB23
3E0A3
22A22
3A2A3
2BB2C
0CE2C
08BE8
02202
2E0EA
283E0
20C8D
033B8
00B20
288EC
2EA80
230E2
2FC08
2BB3C
20BB2
2A00C
32CBC
0CF80
298A8
3F2FE
0E20F
20A23
0022A
088CE
20C8A
282AC
02080
2A8AB
0B208
3E82B
30B32
2208B
030E0
0F0CE
20A0F
3EACA
3280E
0AB83
3F8CA
0A27C
02F89
28F82
2F300
224F6
0368E
0B00F
328C0
0B0A0
28E0B
020B8
0A38A
0A32B
03338
2CB3A
028B8
280B0
00AAE
2C30C
28A22
2AAAC
023C0
0CB3A
003C0
32088
203A0
2E03A
0C3AB
2A0B8
22CCC
0C0C0
32CA3
0F3A0
2282E
0C30C
2229F
3E92F
22B28
08CE1
2220F
2FC00
00230
0F080
03830
20C33
0BAEC
3A3A2
3CA82
0A002
3CB03
30BE0
22C3E
20E88
38A0E
3F323
0FEB0
28ABC
2B3EC
2F33A
022E3
28822
2C203
2C8FD
2C0AA
20228
0ACCF
0808A
00E8C
3228C
038AC
0A2A2
32CFA
22E82
302AB
23E8A
22F0E
2BA0A
006A0
0C8B2
038A2
2C820
30B08
2ACAB
28082
32072
02A8B
20328
22A9A
3AEEA
3B0AA
0A80B
222AB
2E20E
02F08
3A86A
022A2
0AC0C
3BB8E
2E0A8
0AEF2
33AE0
3C22C
2A02B
2A8AC
200CB
23BAA
023A8
2A80A
2B3A8
03BCC
2C0AB
03CFC
3CC82
00283
0BC2A
0CFA2
388A3
3800C
1E383
230EA
2A0CC
02B08
228E8
32CCA
2AC02
08802
2B828
2CCAA
0800C
3B00A
08BAA
03823
2B83B
22E0F
02CF8
22B28
3FEC6
2A08A
0F0CA
2B8FE
02E80
02E4E
08B0B
2000F
0AEB0
0AA02
180C8
00E8B
30E0B
00233
3A040
0880B
2E822
30FBC
0C93F
38FAF
333A8
0EA82
0FA2F
0BB0A
2F3AC
2730B
080AE
03FEE
2ECF8
08C2C
2F281
00022
22022
038A0
3C82A
0B088
2AEA3
0B0C2
0A00B
08880
080EA
08AAC
0AE28
3280A
02AA2
3030A
10F20
0B332
08BA8
03283
1E823
3F080
0B08F
03C88
20BAB
2A8EC
0800A
0EABB
3C80C
2B0CC
2BBAE
31CC1
08CCE
1AEDB
32822
12E89
28BB6
03800
2F38E
2CAB2
0AC13
006EA
2B302
28AF9
2B032
0B0F3
2230A
3ED2B
280F3
3033E
0CF38
3E04F
38ABF
3CB3B
22208
00202
080A8
082C8
0C0CA
00B32
222AB
02C22
3F00F
2F200
20BA2
02882
3AF03
0B8AC
2AFA3
22309
2BBE0
3E30C
2ABAA
02AB2
20CBA
3C0AB
030CE
3A83E
202A8
0BC83
0B38A
20A72
282EE
2B0AA
3CCAA
0202A
222E8
331EB
32A02
2ABF2
3BF28
02D20
2C0A8
0C8A3
0BCA3
30082
2EA40
3B8B8
0732A
228B0
028FF
00FC8
28BAA
2908C
0BEFE
33A22
2842F
122BA
08CA3
00232
22028
322C8
3B83E
02883
3CF2A
0AEA8
0303A
2802F
3CF00
2AA8C
00CA8
0AE2C
0922B
3A224
3A8FC
0AEF2
323EB
0280F
0F0A2
33B08
2EC23
3BCAF
382AE
230A0
20038
32ABC
0E838
080FB
3832B
0380C
0CB20
3CF30
20C30
083CE
2C002
00E23
0CC08
08800
2B82C
2AB4F
2CE2A
0A2B2
0B0F0
28330
22A88
2EE28
2CB22
20B00
08AAF
02882
2AA2A
22CA2
2A28B
03AB2
30003
0BCE0
3B0EB
0FA88
2AFBF
2CBBA
3A0FE
02CAB
2F3BE
2902E
02CFC
1A26C
0A9EF
22BA8
3A2FD
22E8B
20000
008B0
288A8
283B2
2880C
0C48A
2302A
20ACA
260B2
30223
3AF28
0ACAC
2E2A3
3CEF8
0C038
22CB4
38ACA
20F32
0A828
033A0
238FE
02021
28C2A
22AF0
33228
2A2B8
2038F
2AAAC
12CE8
03C2A
3EA8C
2B4A0
3CB8A
3C0AA
08CB0
3CE0B
32CEF
02CE3
0EC88
0A8B3
208E3
0EFBE
3EE98
042CE
23008
288F8
0A8A8
0FDDC
02B28
3338A
390B8
0EB8F
223A8
0EC3E
3A874
03AC2
00C2F
0EA82
088A6
1820B
380A8
082B2
2A08C
2A00A
08028
2E824
2E0F2
0B8AA
02A8B
30A82
2B00C
38F00
2232F
00C82
2B02A
22A2A
008A8
2F22A
2BE2E
28238
223A2
3B2A0
0AECC
0A3A8
0B881
2323B
2FAF8
0B046
380CB
3032C
3B8BE
00E82
38C08
212BA
228C8
108CC
322EA
0A2AC
2F002
3802C
20C2B
02283
22A03
234A8
0EA88
0C3B1
2BAF8
323EF
2EEC3
02C23
320CB
1EAB8
20822
2FE62
02873
000CA
0A28C
300BB
3C0B0
3008C
28B0E
20ACF
0CE03
23FB2
0B2CF
0300C
280AA
0003E
3B00A
232A1
22828
0FF8A
28AA3
0B2FE
220EF
0E0E2
32BAC
2ECEC
2B82A
3308A
382B0
0EFB3
2AFB0
0F3A0
328BA
004F2
0F023
0B820
0A083
3AAEE
0AE06
28A3A
0A0FC
08BBB
32F08
01EC0
2A0C8
033EA
020E3
3E0BC
2A802
0FFCA
2E008
02222
2080F
3B830
3200A
0A0C2
1A0A3
0CF08
003A3
0E0AC
038C8
28BBA
39E0E
2A822
28320
233E2
0828C
0828E
2C380
03282
2BCE2
2C3EA
0A880
33C8C
2B3AF
20ACB
2C3E3
386E8
38AA0
3032E
2C0A2
0E8C9
032C0
220B6
3ACA8
20A0E
33822
000E2
3AC80
01F22
20C9A
2433C
32EBA
01F8A
30388
2AC8A
13AA8
2080A
3CAEE
2844B
088A2
208ED
2E0F3
322AC
08EAC
00200
028A3
02808
2A0BC
3A020
3ABAA
02080
03080
083C0
223E8
08283
028A2
0A8E2
2EAB8
2B21A
300B8
02F3A
0E8E3
00C00
238AA
330AA
39CAA
0262A
1A078
220A0
383AE
3A00F
2E8CB
0A80A
3A232
2EA2C
00CFB
028AA
3A80E
28228
2AFA2
00430
3E02E
2223A
080AB
26823
3E22A
06A29
0833A
2B302
20CA8
2EA0B
0F328
02CA2
2E8FC
229CC
2C828
22C35
0BE3F
00CF2
0AC88
322C3
3F408
3FB80
2E02B
3B0EC
300C3
22B3A
08200
38EE8
02C22
0A682
0088F
0F0E2
2020A
280AE
0A8AA
03080
20C88
03292
32887
03880
0ACBA
0BAE2
2808A
2A003
02AA8
3220C
0A323
30CAA
0AB83
220AE
2AA28
2C00A
28088
00AA2
3C8C3
080EA
3B038
3B868
2A3BB
28388
3C0FC
0EFA3
0FFB0
2A3C2
33FFC
102AF
0052F
22B28
0BECD
0CEBF
200C0
030B0
3E0A0
20289
0A097
0AAA2
282AA
0AB21
32039
2280B
0CBA4
2280A
0ABE8
0AFA1
388F2
202CC
2E6A2
22C89
2B0BA
03230
3E82C
0D338
2883F
3808F
3A0AA
22802
2033A
1E2E3
3FBB2
2A003
0F0C2
38FA8
08AEA
002DF
0E288
3A382
3894B
023A0
2C8AC
0FA82
3BCAA
0080A
2BCA2
2BA0A
2A0B2
030A3
2E3EA
01A2A
2BE02
3330E
00AFB
02A80
0AABC
28CA2
06B40
03FB0
2080B
0FA80
2A02C
228E0
3E3E2
08A8A
2B00A
008B2
0D0C8
31233
08B83
08030
00F0C
30EA0
0BAAB
023C7
3C2C8
00883
2B8EB
21382
088CA
02B2B
0E30B
38ABA
2B0CC
38BEE
0A0CC
38028
22382
38B2F
08E38
0026A
2BB83
3030B
383A8
00B30
28C2E
2EAB2
0A020
23620
08BB3
208B2
20282
08BBB
2CBA8
2E220
0AEFF
30B80
3CFBB
0E0AF
36A03
003AB
00A88
00C20
20800
2FF30
02002
0E808
2300F
02380
02082
022B0
0CC2E
31AAF
00CC0
0ECF2
020FC
322AB
3302E
2833A
38836
00880
288F8
2B8A8
0B002
08ACA
23E0A
2E8CF
280AA
08AE0
08082
0322A
228AC
0C020
22F02
00A28
3E880
0CABA
3AA2B
00320
2E023
0EC40
000AA
08822
0EAAC
38B3E
083AA
22020
02A23
2CBA8
032D0
08FAF
22FFC
2FAEE
2FB0C
22C0A
2BC38
03E30
0880C
0E202
22C4A
2A80A
3E8BF
30B4A
380A3
00890
20A2C
027AA
0CAF2
28A9F
28ECE
02AC2
2E0C2
08EC2
03038
03B30
3BCF2
083A9
208A0
283FF
3AE82
0AE8A
2C323
2A002
23818
00B08
3E202
0B82B
333AB
2EBA0
20F3C
3FCC0
320AC
00BE0
208AC
02C8E
0008A
2E4C8
003C0
02A88
0B0A2
23282
28EA8
02A23
2B230
01802
2F2CB
02A82
388CE
2BABA
0A8EF
00383
22CAB
208A0
3B8AC
0A0A8
2CC08
3B8E2
0A3BF
2A88B
22E3C
2F210
00C8E
288A2
08A83
0AEA8
0880E
20C22
2AB0A
02200
0C002
288C0
3880F
28FB0
2C033
2AEF2
000F8
2300A
23838
2E2F2
3F08E
3AA38
2E8AA
028C2
28804
02282
0BEB0
002C2
2E0EB
2EC83
2FCEC
2FF0B
0E2EA
08883
03002
0A2B2
2028E
20CA8
0B8CC
22A8A
0BE3C
2F00A
3AAF0
2E2BA
002BA
03AB0
0E0CA
0A038
038FE
0BC82
021E4
072FA
0B0F8
30E0B
3A238
2CEAE
20320
0B3A8
020A0
30EB0
1BE0A
20E20
232CB
02103
2A8B0
2202E
208CE
2E803
0E0E8
28000
3F00E
38ABE
08FE8
02AA0
0A0BF
000BA
20B6B
023B2
2BE0A
03FCB
0CEEB
00833
22022
0E03F
038BC
0203A
0E298
0A83E
00080
2EA3B
38BBB
00C2C
0F2A8
3A000
0BA80
0FC23
2E82A
12C2A
0BAB6
02803
320F0
38FA0
0002B
3A808
22EBB
2EF0C
3E0AE
220AB
0F28E
003AA
3CECE
12EA8
02A03
22C28
2EEFE
322A8
2808C
00880
20822
3A022
02CAB
22AFA
02EA2
3AAA2
3A08A
28B30
02AE8
32AB8
00BBA
080AC
0AE82
20A2E
2F202
32808
0AEB8
008A0
2B02B
2BAA2
2A02C
288CA
288AA
2BD38
2008C
08AC2
2A2E0
0B222
028A8
03806
338A8
320B8
38FB3
3F038
0C30C
002C2
2A028
3B8A0
30822
08A38
22CAB
30332
3E3A0
223A2
20823
088A0
0AE20
2A880
020A0
2B819
28B0E
280E2
028A8
00A03
204EE
2FBA2
2A02B
20AA8
273A0
3242E
28080
2ABEC
0E820
3678F
08AC2
32EFE
280FB
228AA
30A8E
2002A
38862
02BC0
3A080
0A8A3
38482
3A0BF
3C29B
0820F
0C06A
2EA2E
0BA23
0BBEA
2FE82
08826
0022A
08AAF
02C0A
08EE2
3F88C
008E0
28808
2EAF0
0F080
2FC0A
2008E
020C0
0A0A8
0A283
0228C
3C30C
0B02E
00C32
2C28E
2020A
08802
0A23E
2BA38
00A32
0CC88
3F830
2EC82
00C3F
0AAAF
3ECAF
2C088
3EC82
0F823
23BFB
030A8
28C2A
383EF
33BC0
2CC30
2382E
3F3CE
00223
2080B
332A2
3A0AA
0E4E8
2BCEE
22ABF
080AE
228AE
02CE3
3A82B
2AE32
0C2F0
2C3EB
020A8
3A8E2
288F0
0822B
00F22
288AA
02C9B
000B2
0988A
002E8
0BA28
280E2
0FA0C
3A238
022BF
20A2A
220CB
0A0E0
30EA0
0A228
0B10A
339C2
00A33
28833
28F2A
2000B
2AECA
28CEA
0E8C0
2C0EF
208EC
0A8A0
00880
230AB
0BCCA
023FC
0A8FA
32BAA
02000
0BA88
02820
3CC80
2A8B2
378A0
3F8AB
222BB
2B232
220E2
20213
20FAA
2AED2
0FEAE
3BAAA
0EA83
203A3
2A33A
3FEA2
0B47B
03E02
0CC80
2A802
3B828
0A80E
2EC08
28272
080FA
2CCAC
20F88
22EE2
22000
28B28
0A7A4
32AA0
28A3A
0E3FA
3EABB
00D02
3808A
0A032
228B8
23E2F
38B02
238EF
2E003
3882F
00238
3BE3F
026BB
000F8
3C8AE
22F08
00287
20BEF
0EA1E
02302
0808A
0AE3A
2A832
2FE8A
28222
220C0
23000
020DA
0A020
3222C
028A0
20C08
028A8
228BA
28B0A
2ECAC
22228
00322
3C08C
02AFA
0A00B
0020F
38B00
2AA8A
20000
2088C
2CC80
2EAFB
083AA
220A2
20200
02202
08800
00A8A
200B2
03800
2082F
20E80
2C80B
2282A
0E20A
33489
3B022
02C3F
2E03C
02B22
08820
02E02
0AE3C
08A28
208AA
20EFA
0BA8B
03233
00008
320E0
0200C
233A8
02F32
00EBA
080CB
0B330
0C3F8
0AA33
0033C
0080C
2202C
0CC08
24803
08000
00888
0020C
2080F
0E8B0
2008E
02200
2AA2C
30802
3B062
22330
23008
2030A
208A0
08282
02F3E
0FEA2
28003
000A2
20038
00200
3BC2C
0037E
2E826
13FE3
32382
3EA1E
2C0EB
2ABE0
28AAB
30BBB
228FB
3B080
3ABBB
2EBAD
1CA03
08ECF
29646
007B2
0E002
1FEBA
2802A
006EA
20A80
223AA
0008A
02EB3
0000E
022A8
2A00C
30000
3A3B3
32AA3
20CB0
00B20
22AA8
02A32
0E02B
0A88B
0B8AE
22202
0C20A
200B0
0238A
222AE
202B2
08228
0F882
280AA
2E82B
0B8CB
3AA0A
02AF0
0B2BF
03E00
28820
20CA8
3B803
22AA8
020C8
2BBC0
0B022
222A3
320B0
38E22
0B0A3
0D03A
2A0A2
002A2
2832A
23EAA
0022B
008B3
323A0
2C8B2
0F8E8
3303F
3E8BF
0A8B2
282A3
0223C
0C0FF
30FE3
2F38C
080FF
2CDC0
3F3B2
0BE0C
0AFEE
03E8A
03FB0
3EC88
02B03
388A3
3B80C
20CB8
38BC2
3C3BA
2EF83
0FBB8
2E2CC
2BF0B
22088
228C8
28BC0
28808
2A2FE
28C82
022B0
20007
2C033
0B4EE
23B0A
2FE28
038BA
0B0C0
2A032
02ABE
0CE2A
2C302
328A8
0828C
23EA8
2A8AA
20A8A
3727B
02230
28808
3BF2E
2E8AA
222C7
2BA2F
3EB2F
00083
1A2A8
3C0AC
30780
34EE3
0ECF2
2ACE0
3202B
3C000
18F02
27AAA
02BA2
20008
2EE0C
3008A
0EC04
2B2EE
22203
203A3
209AA
080AC
30718
0AA02
02CFB
38AB0
00BBA
3A23A
02220
0A22E
00BA0
3B002
32802
00028
12B03
30CA0
3AAA2
033C0
00BE2
1A8AB
0CB24
2C3FB
0B78F
3388B
2EC6E
22FBC
3830B
000A0
00B82
03008
22032
028AA
08CAC
2ABA2
0FE00
2E0E8
380CC
22AE2
082A8
2208A
3B8AA
3AB88
2008C
20F80
33082
00B8A
00AC0
28000
3AC8E
088C8
208CA
033FC
0E88B
0A003
00A00
20EA8
00028
22832
218AA
0C2AA
228B2
38008
22208
2AA2F
00F80
084A8
3B302
2AC00
08AEA
28EBC
2EFAC
3B0A2
2A2A8
0C8E0
2A88A
3AEE0
220A0
0BF00
038C2
0E8AC
0B2C8
2CFA2
03A00
3E03E
22BFC
0ACCA
2B800
28322
20C8A
20000
238A0
3A80A
3E083
3003A
2843F
3FB8A
0E082
2483F
38000
00F8E
0230C
2082E
2E282
2BCA2
18AA3
28A00
298B8
283B2
28EAA
0BCC2
2288B
3FE8C
22800
2C8CA
08AC2
3B8C8
3AEE8
0BE3F
02E3B
300FB
03CE0
3BCFE
32AAA
220BB
0AB08
323EE
0EEAB
0FC3C
0A022
2A00C
1C29F
23220
28A2B
223C2
22E80
20220
000B0
33C2A
0A0B2
3B883
3BAAF
0A2A3
202B2
22028
22A1F
20BE8
0B0E0
0FEAE
0BA89
0C4A8
0CEA0
2A2B0
33C22
3C7BA
00AEE
2E002
2EA82
0A8A0
2C62A
2888A
282FA
083B2
3803B
2EF2A
2EA22
280F3
300B0
3C23B
32048
3BBAC
2FF08
00820
023B2
38088
3202B
2C0E8
00B30
0ACBA
3EF8E
3F0E0
20BE8
20A8C
02B38
30A2E
2A2AC
022AF
2A382
22A2A
222CC
38AAA
024A0
30C30
00022
38008
0B082
20C3E
0F8CA
3A00A
02F83
0F8B8
08230
022FC
2E08F
0AAAE
008C2
03802
283CA
3B280
00080
328B8
2A2F0
2C0EA
0E0A3
00EEE
2E08E
0F08A
0AE8C
2E0A2
20AAA
0A8CB
28B20
0EA8B
2A380
202CE
22803
22883
023B2
3CC80
00F80
3C80B
0830C
3CC2B
30BEE
33206
2E303
30A84
0C8FC
20390
0AC02
0A83C
2E2E0
1CB2A
1A0A1
0BA7A
03A3E
2AC88
328A0
0A824
02B3C
00CA0
2CC28
220E0
2CACA
38A28
03EC8
02A8B
28882
00AA2
28A00
08F2A
2208A
302A8
00222
2FCA8
380EF
0B800
2A8A0
0E037
2B800
330C0
2083C
02038
3A202
0230E
30A2C
282AE
32EA8
0B80A
233AA
0682B
03BB3
2080B
23EB3
20820
2FEA8
28A8B
20BEC
3F082
020B0
3C00E
00AA2
0A88C
32C32
310FC
02A2B
2C2AA
11339
08A8A
03682
3E000
0E23E
08832
028CB
0B3A0
22A32
2038A
3F828
083A0
0AAAC
220FE
02038
3CA88
2A880
3AB0B
0E2AA
08228
00F02
2808B
3EB20
3280A
28038
02380
3E022
330AB
2A3AA
0008B
3AB88
2A230
0A800
00B33
0082B
28A8F
2A20E
22BA8
00200
20CE8
3B883
33802
3A832
12E9B
03CBA
0A080
228BC
332EB
0022A
02088
2343A
03CAC
0C32A
08A0E
30FC0
22BAA
00220
0E82E
3E232
28C2A
02A0A
2EE80
38E70
283B0
2308A
02ACF
2CA6A
28B0E
28BAC
0AE3B
308AE
2AA2F
28380
00F38
00A8C
288EA
3BB82
2E00A
0E0F8
2002F
3E0EC
00082
0A330
0A2C8
30838
02A83
028C2
03FB0
23B29
28A82
28CFC
28AAA
00022
0082C
3A0AA
2A020
0A00B
28AAA
00B0F
023A0
208EE
030A0
08B8A
3FC28
28E88
0AAE2
0AEEF
3C82A
0A00A
3B2BC
003E2
2A008
33BAA
3E8AA
00808
122AB
02BE3
0E3AC
222A0
2A2EB
0B822
09CA2
0C4CA
2008C
20C29
0203F
0BE82
22B80
03A8C
3C038
22020
0A0EA
20A20
0ACB8
22E82
03032
082B2
2EF20
2EEAA
083F3
0BBA0
0AC88
0280A
2BAF1
303EB
2CCAB
00C33
2B888
2A2EA
320AB
208EA
203C0
2CAEA
220EF
00802
22A38
32630
303B0
38803
0B8A3
2EFBA
2830F
0F080
08B8E
0078D
038B8
0CA8B
0308C
0FAC2
2FA0A
0EAEE
233A8
228F0
3AAAC
03300
23C50
3A0CA
02F30
032E0
2CFA3
22FAE
2A74A
02A82
30020
0F020
2000A
0A20C
0AE38
2008E
30088
22CB2
2EA20
0AA0B
0A0EA
0830A
00B03
30A20
20002
020C8
00082
00A30
08828
008B0
00000
02800
280A0
00002
00020
00880
02000
02A00
00020
0002B
0C080
03088
00082
32388
30000
00000
28800
02E3C
2803E
32C20
3BAE8
2AE83
2B04A
32E82
03CAC
23AAF
0CB8C
02F0A
3E226
0BAE7
33CEA
20332
0FA20
02EC0
2A8FA
03CA1
208EA
2EE22
2B2E8
10AEF
2C033
029EC
0202E
030AE
20A0B
300FA
3ABAB
38C07
08C28
200E3
0EAAB
00A02
308AB
02E3B
0CCF2
2FF8A
3C23E
20CC2
030AA
0AEBC
0EC8E
3E0AF
0372F
30E03
0ECBE
08BF2
2332A
328EC
2AE02
002B2
2E82A
02808
20800
32C8F
318A8
2B070
2B0BE
00A8F
233C0
23220
0FBAA
3B0AA
022A3
0328B
28EB8
0B328
3F800
03DCC
23000
220A3
2802F
080C0
00820
0F8A2
000C0
3EA30
38008
380C8
2F803
02000
08A88
0C00B
00A32
02308
38A8B
03A22
0EC0A
3A83B
008EE
30BBE
0ED8B
27CB2
0803A
2EDB3
3FFB8
2FEE8
0FBA0
3BB28
2E072
032E3
20E38
023E2
0CA83
03D32
2E080
23892
0E022
39AC2
3AC28
28CA2
0E08A
220B3
200E8
0AA80
0B380
00082
0A823
03BA3
0EE22
223F8
08EA2
00AA2
0E0A6
0B023
3E02B
30422
28E00
08AE2
080E8
2EABE
0EA08
3AA0B
233AB
2ACEA
22F0C
00A8C
00AA8
02E2A
2A2AA
00A22
30028
2220F
2A8BB
2C800
32330
22AA8
220CA
3CC33
30CF0
0AA3F
088F3
0E002
22A80
3C000
3F83A
22B38
2A8CB
02380
2AC00
30020
3B8AE
2B2A0
0E3E2
300C2
08208
28008
2A0C8
32828
2A222
0A80A
00CAF
0C228
20A2C
222FC
287AA
02080
28C82
300A0
20C00
2C8F2
2EE8A
0CE82
003AE
0A838
2C8CC
2882A
0ABA2
0B880
0BFA3
0C022
2E88F
3E8C0
320A2
00AE0
18408
0B222
2E0E6
2EEC8
2AAFB
03D03
2032F
381C2
2ECEC
038AE
3A83E
0F4C3
0F28C
30FB6
37E8E
3F3CF
320EC
00280
22803
2E0C8
238F8
23FA8
2E209
28B28
0302C
38A00
22A80
2C32E
2B3A3
2AAAC
3A2F0
080FA
28222
0CE2F
2F2F8
03AF3
2A08A
328A0
3B8AA
0A8E2
2ECA8
000AA
3608A
20A80
080C0
08E20
02EA0
32828
028AA
0BAEA
2008A
0A0CA
3A8A0
03203
2E802
03C8B
3008E
30EAA
0308B
1B823
08082
02A80
32CCC
0BCAC
0308E
3DCF1
28AC2
33D1B
33CF2
23FF1
2B228
00A2C
23C2E
0C8E2
3B898
33E20
200BC
338E3
203F0
3A300
208CB
08C0C
2A2BE
3A8C2
0382B
0FC01
0288C
2B3CE
38BAA
03BAC
2F0AC
33802
320AC
3A6CC
3AF2A
0B288
00039
20B8C
2EBF6
22A03
0433A
38EAE
20B23
080AF
0A8AE
3CB04
0EEA0
0008C
0A0AE
3A03C
02CCF
0283A
26E02
32F82
0002A
0038B
2C88A
0AA30
3AE3E
3B88C
380AF
2A822
20A2E
388CC
222B2
00880
0008A
2B0AB
28038
0A823
32030
0BAA0
2F0C8
2320F
0EC38
3EA28
20A33
2C03B
28AC0
322A8
0B23A
0B228
202FB
02A83
0E8BE
23AF0
28823
28C28
2CA2A
0AAE8
2B03F
0B82A
22228
02A82
2BB08
22AF8
28B8A
2EFF2
008A6
23C2A
23F32
03EB2
0E8C0
3EE2A
22028
3BC03
2A830
2AF00
3F0CF
00003
2F3F2
28AF0
3B0FC
2002E
08BEB
083C8
0C333
0C3FC
38B02
00232
2E82B
3CEE3
33802
08C08
038BB
0F83B
2B0F2
28C80
0C3F0
0B202
3C082
320CA
208E0
0B1E8
08B22
2830A
383A0
03200
2843C
2FF82
2EC2A
2E2C6
2B9CF
3E81E
3E0AF
08C00
2EF2F
3A783
0A8F3
02FCF
0BFFC
2A32E
1FBE3
2DF0F
27E8E
00B8A
32BFA
08E0C
200C2
2CAAE
00CF2
130C2
3B002
0AE7F
0EC38
0298F
08BFF
3C0FF
0E28C
3AFA8
2B8C8
3ABC8
222C0
032B2
03020
2ECA2
0A82A
12A32
0E088
080BE
3B00E
2A0E2
222EF
2CEAA
0CB00
2BB23
02AB8
32A8E
2BB30
32FA8
38E8B
02230
0A0C0
2B2E2
0ACE8
090E3
03CBA
2AA82
330C0
2BC3A
083E8
0E888
023C0
380FF
282A2
32AA3
06B2A
30FEB
0ACAB
00202
300A0
3CC32
0B8A4
238CC
22280
3AF8D
33308
0A323
2B680
22BC6
38800
078A3
0AC23
2E6AE
12A8C
29CC0
38A8A
02A00
0802A
320CB
0C88C
2FCB3
202CE
2FECA
00022
30080
3B8B0
3B0FC
38C2E
228C8
22AA2
23C08
2203A
3A2CE
08A2E
03820
32400
19022
0A002
0AE8F
3B8EA
2E8AF
2C0A0
2E0EE
3CC2A
28A00
232FC
0ACEA
380EA
3AE2B
02C3A
22322
0C0A3
02B23
20808
3220B
2B0FE
3A8A8
22AB8
28CB3
00382
0B2B3
2EFFC
2822F
008AE
0208A
2C2FA
0BD38
3BA02
038BA
200E3
00E03
3BC02
2A0C2
0EC02
223B8
2ACBA
3232A
030C8
2BBE3
0A8BB
3E0AA
0EB08
23A2F
02AA2
3EA2A
328A8
3AC0F
3AA28
02830
3E8E0
29AB8
2888E
3AA0B
38042
2AAB0
023BA
222CF
20FA2
2009C
2FFFC
3AE28
3DAEA
0AE63
32A38
02CA2
2C2A3
03F02
2B00B
33A00
0B002
2FAA0
220BA
28CA0
28382
08AB8
2E2F0
2088A
0A22E
088AE
28083
33ACA
28A8C
083FA
0AB2A
00D0E
08C08
0F362
20028
10720
20CA0
3C0ED
32082
293E2
2EAA3
3280A
29200
0B8AE
0AF3B
2C8AD
2088C
222C3
027AA
037B0
2883F
33CAE
2AC0A
2EAE7
0BA8F
2D8B3
203A2
3A2BE
20C20
237A8
3B2F2
2EFFC
23FFC
0082A
3FA0E
28F08
0833C
02B88
0E8F8
2F080
080DA
0282A
00EBB
22F8A
32002
222B8
2F0A2
2F090
0A0FF
33F03
0A03B
3A863
2CECE
0AFE0
28260
032B1
3E8AF
32EFB
20C2B
23E23
2E243
08382
2B3C8
0B0B0
0C8FC
0CBBB
3BB20
0BCAE
20F2C
33ECE
2A88F
00C3A
383B0
03AFF
3ECA8
2A0EC
038BE
26FBE
1ED0A
390B0
38038
2A0A0
0CAB8
202EA
0FAAE
2E088
28B0A
0B8EA
088A8
222FE
27E3A
00E32
2000E
3E882
0082F
08800
0082A
2AA22
2708A
388B8
3A0C8
0CE0F
22C08
380F8
2C380
00E22
30A88
2C3CA
28008
0002E
30CF8
0800A
2E002
2FF30
20C32
0EEEC
2C008
33CBB
0FF38
0F88F
028FC
3C030
0ABA0
08323
033B8
323EF
2A022
00232
20882
38882
20CFC
0888E
322AA
0EEB2
2A00A
0ABBB
2A020
2EE3C
0E8A0
0830A
3EC2B
300A0
00ACE
000CC
2C328
02E20
2E88A
2F082
0A028
2C888
2803A
2B002
080B2
0A0B0
2C0A0
0EEA8
2A0E8
3B380
02ABB
028A3
2AAA3
0A3AA
0A8A8
00800
3BCFB
02883
088C0
3838C
3EE87
37022
000CA
320C0
0E022
20D83
2AB23
0308A
32A8B
3FE80
12EBA
3B0C2
2EBEB
00103
0E8F8
2BF22
28028
2A8EA
08E33
2CBA2
3202E
02E8E
2C0AA
0AA22
028FC
00008
0A2A2
228A0
022E2
0C0E8
00228
03800
28CA8
3ABCC
0B00F
20808
23C0A
3E3AE
300C8
08B0B
20882
3A208
32FAE
3488F
2AF23
20A28
226A2
3A8FC
3AB2A
02A30
20820
080B8
088E0
22AE0
08CB2
28A32
2B0F2
280B8
2A2C8
01EAC
0A800
30B30
00380
3E2A0
08A30
00308
2808B
000B2
020A2
080E2
2EC28
08F3C
08EA2
02EA9
2308A
2BCBE
2F8C8
0EA83
3EB2A
03003
0E88C
0B8EE
0EA08
3EC0C
0AE8F
03EA2
0C0B0
3308B
0CC20
0C0EF
320E2
0C2B3
2303A
3A03E
02AE2
3003B
20833
280C2
0CF2F
332A0
222B3
080FC
0C288
00223
2F0BC
380B8
22C8F
048EE
380E2
0A222
0800A
28B3A
0E0F0
3203F
28B0B
3B3F2
0A30C
00C0C
02808
33FFB
10082
038A2
20000
0283A
3A0EA
2AC80
302A0
2088A
030E3
030C2
0A808
3C2A8
22BC3
33BB3
002A2
20882
2A308
3C383
3A2A3
03E22
26800
2284B
03802
028E0
3F8EB
28402
0B0A2
287EE
3AE9B
3B38F
288F3
300F2
22FB6
0B2E7
0CB06
0EFC8
008AB
033BC
068F8
23FA3
2C82A
08808
206EB
002C3
2C32C
012C2
28C2C
08F22
3C8AE
2302B
38EAF
30B88
0ACC2
3BFA0
32AAE
03882
2EB23
2F0AF
380AF
3AAA8
238BB
008C0
0808A
2E0BC
32C00
38802
280A2
0ECF1
2A0CF
08210
32802
2A039
088AA
03A80
2A8B2
2200E
3802E
2AEE0
3F1E2
2EA0F
2B0A0
2BAFA
0A220
0FE08
28CA8
383CA
00F36
0EE0F
2C323
02B22
3A020
03BE0
0A0B2
0BA28
330BC
098FA
2C22A
0E2C0
0B0AA
208E2
08E0B
030BA
3C2A0
38C08
22F3A
202C0
0EBE8
3E2B8
3A000
0202F
2382B
200E0
3A82A
0C80A
28322
2A2CA
2000C
1B8E2
38088
32222
0008A
3C8F2
0B800
223B6
26B23
3EA8F
38B40
00B22
0C800
00000
00000
000C0
00000
00002
00000
02000
00000
00020
00000
20000
00080
00000
00000
00000
00000
00000
