FFFFFF1E
00000025
00000044
0000002B
0000002F
00000003
00000081
FFFFFFB1
00000018
00000221
FFFFFF8C
00000064
00000084
FFFFFE35
FFFFFF77
0000009F
00000056
FFFFFF58
0000002F
FFFFFF8D
FFFFFFB1
000000DE
FFFFFF7C
00000089
FFFFFF77
00000092
FFFFFE02
FFFFFFC0
00000107
FFFFFEB1
FFFFFF47
0000008D
FFFFFFE6
00000050
00000017
00000103
FFFFFFE3
FFFFFFD0
FFFFFFF9
0000000C
FFFFFD4A
0000000A
000000EB
0000004B
00000071
00000045
00000098
0000000B
FFFFFFAC
FFFFFF1A
0000003C
00000003
FFFFFF53
FFFFFF3A
000000DA
FFFFFFD1
0000002C
00000031
FFFFFFFD
00000056
000000AA
000000BB
0000001D
00000067
00000038
FFFFFFE8
FFFFFF83
FFFFFF1B
FFFFFFE5
0000007C
FFFFFFC6
FFFFFFD9
FFFFFF7E
00000055
FFFFFF65
FFFFFF8C
FFFFFFA3
FFFFFFD0
FFFFFFC9
00000084
FFFFFFC2
00000020
0000009B
0000003F
00000084
FFFFFEAC
FFFFFED0
FFFFFFE7
FFFFFFED
FFFFFF98
00000030
00000050
FFFFFFCA
00000101
FFFFFF13
0000006B
FFFFFDB6
FFFFFF88
0000000A
000000AF
00000022
00000078
FFFFFE5D
00000006
00000084
FFFFFF90
FFFFFF7C
00000085
FFFFFF88
FFFFFFA0
FFFFFF85
FFFFFDD6
000000B4
00000027
FFFFFF9D
00000135
FFFFFFEE
FFFFFF55
00000049
FFFFFFF5
0000003E
0000000D
FFFFFFF2
0000000E
FFFFFF9A
000000C9
0000002B
FFFFFFAC
FFFFFFDE
000000C9
00000069
FFFFFF6A
FFFFFFAA
FFFFFFA0
FFFFFFCD
FFFFFFF9
0000000F
FFFFFFAB
0000005A
FFFFFEC7
FFFFFFF3
00000087
00000020
FFFFFE1E
FFFFFFF7
00000052
0000001E
FFFFFF7C
0000007F
FFFFFFA0
FFFFFFE7
00000074
FFFFFF98
0000001B
0000003B
FFFFFDB2
FFFFFF09
FFFFFFC3
0000000D
000000DD
FFFFFFC7
0000005D
FFFFFDC9
FFFFFFF3
00000035
FFFFFFC4
0000009B
00000041
000000BD
FFFFFF73
0000012A
FFFFFEA6
FFFFFFBE
FFFFFF81
FFFFFDDD
FFFFFE9A
00000075
00000032
00000196
00000078
000000A2
FFFFFED9
FFFFFE17
FFFFFEC9
FFFFFF76
0000002C
0000002F
00000034
000000BB
00000043
FFFFFFCB
FFFFFFDD
